#version: 0.2
ä ¸
ï ¼
ã Ģ
ï¼ Į
ç ļ
çļ Ħ
ä º
æ ľ
ãĢ Ĥ
å ı
å ħ
ä »
å ¤
å ®
ãĢ ģ
å Ī
ç Ķ
ä ½
å ľ
å Ĳ
è ¿
å ¹
å Ĭ
æ ĺ
å Ľ
ç »
æ ĸ
æ Ī
ä ¹
å Ń
å į
ä ¼
æ Ĺ
è ®
å °
ä¸ Ģ
è ¯
å Į
å ¸
å ·
æ Ŀ
æĺ ¯
â Ģ
åľ ¨
æľ ī
å º
ä¸ Ń
é ĩ
å¹ ´
å Ĩ
äº º
å ¼
æ ī
ç §
å ±
é Ģ
æ ķ
ä¸ º
è ¡
å Ĵ
å ĩ
å ¾
å¤ §
è Ģ
ç Ľ
ç ī
åĴ Į
åĽ ½
åŃ ¦
æ ł
å ¯
é Ļ
æ Ĭ
è ´
ä¸ į
ç İ
æ °
è §
è µ
å İ
ä¸ ļ
ç º
äº Ĩ
ĥ ½
æ Ģ
æ Ķ
ä» ¥
çĶ Ł
å ¥
æ µ
ç Ĳ
æ ³
å ½
äº İ
ä¼ ļ
å ĳ
ç Ń
çĶ ¨
è ĩ
æ Ń
é Ŀ
é Ĺ
å ¿
ä ¿
å· ¥
åı ĳ
ä½ ľ
æ ŀ
ä¸ Ĭ
æ ²
æ İ
ä¸ ª
æĪ Ĳ
æĹ ¶
å ĵ
åħ ¬
¦ ģ
é ĺ
å Ł
è ¾
è ¦ģ
æ ĭ
è¡ Į
è ĥ½
âĢ ľ
âĢ Ŀ
è ½
åľ °
å ī
æ ±
å® ¶
åĩ º
æ ¯
ç «
é ¢
çĲ Ĩ
åı ¯
ç ľ
é ķ
æ ¸
åĪ Ĩ
é ĥ
æ Į
çŃ ī
äº §
å¸ Ĥ
é «
è¿ Ļ
åĪ °
ç ®
é« ĺ
æĸ ¹
å¤ ļ
æĿ ¥
ç ½
å¯ ¹
æ ´
ä¸ İ
åĲ İ
ä ¾
è Ĥ
åĮ ĸ
æľ Ī
åĬ ¨
æĸ °
å »
ä¸ »
æĪ ĳ
æľ º
è¿ Ľ
åħ ¨
æ ĥ
éĥ ¨
æĹ ¥
æ Ľ
èĩ ª
ç» ı
ä½ ĵ
çİ °
åĵ ģ
ç ¨
ç ¬
åĲ Ī
ï¼ ī
ï¼ Ī
ä¹ ĭ
æľ ¬
é ģ
æ ¬
é ¡
æ Ħ
ä¸ ĭ
çĶ µ
è® ¾
é Ľ
è¿ ĩ
åĬ Ľ
è ī
åĮ º
è ģ
æ³ ķ
å¼ Ģ
åı Ĭ
æĸ ĩ
å» º
éĿ ¢
éķ ¿
åħ ¶
ï¼ ļ
ä» ¬
åĲ Į
å ¦
ãĢ ĭ
ãĢ Ĭ
æ ı
è ·
æĢ §
ä» ĸ
å® ŀ
ç ł
åĬ ł
é £
ä¹ Ł
å® ļ
ç Ł
ç Ļ
åı ¸
æ Ļ
æķ Ļ
åŃ Ĳ
ç ©
å §
ç Ĥ
ç ¾
ç ³
åĬ ¡
åĲ į
çī ©
å± ķ
åĨ ħ
åĳ ĺ
æ° ´
åº ¦
ç§ ĳ
èĢ Į
æī Ģ
éĢ ļ
ç ¤
åĪ ¶
å Ŀ
ç¬ ¬
è ¶
å¿ ĥ
è Ĭ
å ģ
ä½ į
ç ±
æ į
èĢ ħ
è °
éĩ į
å° ı
åľ º
å¾ Ĺ
åħ¬ åı¸
å° ±
äº ĭ
åī į
ç® ¡
å ¢
æľ ¯
åħ ³
æĬ Ģ
ç³ »
ç§ į
éĩ ı
æı Ĳ
ç¨ ĭ
æľ Ģ
éĹ ´
åº Ķ
é ļ
è Ĳ
é ħ
å¹ ¶
å° Ĩ
èµ Ħ
ä¸ ī
åħ ¥
æ ¶
è® ¡
ç ķ
è ĭ
å¦ Ĥ
çĽ ®
ä¿ Ŀ
æķ °
å¥ ½
å¤ ĸ
å¹ ³
ä» »
é ¦
è ¥
é Ķ
å¤ ©
çī ¹
å® ī
é ĥ½
è¥ ¿
æľ Ł
éĻ ¢
éĩ ĳ
ç ĸ
æ Ł
ä¸ ĵ
ä» £
ä¸Ń åĽ½
åį Ĺ
è¡ ¨
å Ģ
æ ģ
å £
çĽ ¸
çł Ķ
åĽ ł
é ĵ
éģ ĵ
é ľ
æ° ĳ
è ¢
åĪ ©
ç¾ İ
æĶ ¿
ç ĥ
ä¸ ľ
çĤ ¹
ç Ŀ
ä½ ¿
ç Ħ
ç Ĺ
ç ²
ç ¼
å¼ ı
æ¯ Ķ
è į
éĩ Į
åŁ º
å± ±
å½ ĵ
çľ ģ
æĪ ĸ
æ ¡
æµ ·
ä¿ ¡
è İ
ç ¡
çĶ ±
å ŀ
ç ¥
ç½ ĳ
è´ ¨
ä» İ
æĽ ´
åĮ Ĺ
è ĥ
å·¥ ä½ľ
æĺ İ
è Ī
æĥ ħ
å¸ ¸
é Ĵ
æ¬ ¡
å ķ
è½ ¦
æ ·
äº Į
ç ´
è¢ «
é Ĥ
ä¼ ģ
ä¸Ģ ä¸ª
æŃ ¤
ï¼ Ľ
æľ į
æ º
æĹ ł
è· ¯
æĦ ı
ç» Ł
çĲ ĥ
æ´ »
è £
ç ģ
åı¯ ä»¥
åħ ĥ
æŀ ľ
ç« ĭ
è¿ ĺ
å¸ Ī
åį ģ
çº §
é ©
é£ İ
ç» Ħ
èµ ·
çĦ ¶
è¯ ´
é ª
ä¹ ¦
æł ¡
ä¼ģ ä¸ļ
é¡ ¹
åĲ Ħ
æł ĩ
æĸ ¯
ç Ī
å ²
ä» ¶
è¿ Ĳ
åķ Ĩ
åŀ ĭ
åİ Ł
æŃ £
åĪ Ľ
å¤ Ħ
ä½ Ĩ
åĮ »
æ Ĥ
æį ®
çº ¿
éĽ Ĩ
ç» ĵ
æµ ģ
åıĳ å±ķ
åŁ İ
ç ¦
èµ Ľ
è§ Ħ
å¹ ¿
äº ¤
æĬĢ æľ¯
æİ ¥
æĪĳ ä»¬
å¾ Ī
èī ²
è§ £
åħ ·
è Į
èĩ ³
éĹ ¨
éĺ Ł
èģ Ķ
ä¸ ĸ
éĢ ł
æī ĭ
å¯ ¼
åı °
æ² »
ä¼ ł
åį ķ
æ° Ķ
æł ¼
å Ļ
æĢ »
çĿ Ģ
ç¤ ¾
ç© ¶
æ »
èĤ ²
æĮ ģ
å· ŀ
å¤ ĩ
æ ¼
æ £
ä¸ ĩ
åħ ±
é »
ç®¡ çĲĨ
éľ Ģ
äº Ľ
å° Ķ
å¼ º
æĸ Ļ
åİ ¿
ä¸ ¤
åĻ ¨
å½ ±
åı £
ç± »
æĿ ĳ
çłĶ ç©¶
éĻ Ĳ
è º
è¾ ¾
åħ Ī
åĲ ĳ
æĬ ¥
æľį åĬ¡
è Ħ
å· ²
é¢ ĺ
å ĸ
åı Ĥ
å½ ¢
ä¾ Ľ
çĻ ½
éĢ ī
å§ Ķ
çĹ ħ
æĶ ¶
çİ ¯
ä½ ł
æ± Ĥ
åĽ ¢
æķ Ī
èº «
åĽ Ľ
æĪ ĺ
ä¼ ĺ
é Ł
æº Ĳ
åı Ĺ
ç§ °
çŁ ¥
å Ķ
æ ¹
å¾ ·
è£ ħ
äº§ åĵģ
æ ¢
è¿Ľ è¡Į
æ ®
åı ĺ
Â ·
åĨ Ľ
åı ·
åħ ī
æĪ ·
èĲ ¥
å¸ ĥ
æĦ Ł
çľ ĭ
æĮ ĩ
åĬ ŀ
åį İ
æŀ Ħ
çķ Į
è¯ ¥
é¢ Ĩ
èİ ·
æ± Ł
éĹ ®
æł ·
ç± ³
èĬ Ĥ
åĮ ħ
æ ¨
è° ĥ
æ¸ ¸
ç« Ļ
è§ Ĩ
æĶ ¹
å± Ģ
å¢ ŀ
å¤§ åŃ¦
è¯ ģ
ä¹ Ĳ
å° ĳ
åĩ Ĩ
åİ »
åģ ļ
åħ ĭ
çĽ ´
ç² ¾
è Ļ
å£ «
å® Į
åĪ «
èĢ ĥ
æģ ¯
æĿ ¡
å ¡
é ¥
ç© º
éĻ ħ
è® º
ä» ·
ä½¿ çĶ¨
èģ Į
ç¤ º
å¸ ¦
åĽ½ å®¶
æ² ¡
æĥ ³
é© ¬
è¾ ĥ
éª Į
å® ¹
æ¸ ħ
åı ĸ
æĬ ķ
è ĳ
äº ļ
éĺ ²
è® °
çĥ Ń
ä¹ Ī
è ±
æĶ ¾
å¥ ³
ç§ ¯
æĸ ½
è® ¤
å· ±
åĬ Ł
è® ©
æ³ ¨
å® ¢
æĶ ¯
å¤ ´
åĽ ŀ
åİ Ĩ
æİ ¨
è½ ¬
å± ŀ
åı ª
ç ħ
è´ ¹
è§ Ĥ
ç Ĭ
å® ĥ
å¢ ĥ
æķ ´
æī ĵ
é¦ ĸ
èĬ ±
æµ İ
éĿ ŀ
æ· ±
èĩª å·±
è®¾ è®¡
è¿ ĳ
èī º
æ¯ ı
çĶŁ äº§
æĿ Ĳ
æŀ Ĺ
è¯ ķ
äº Ķ
çº ¦
äº ¬
ä¸ĵ ä¸ļ
é ¾
æľī éĻĲ
ç» ´
ä¸» è¦ģ
ç³» ç»Ł
åĨ ľ
çİ ĭ
ç¥ ŀ
èĢ ģ
éĢ Ł
é£ Ł
ä» Ĭ
æ¼ Ķ
æĬ ¤
æĺ ĵ
è¯ Ń
åħ ļ
çĸ Ĺ
æ¨ ¡
éĤ £
æĭ ī
æµ ĭ
å¤ į
åĽ ¾
æ² ³
åĬ ©
ç ĭ
æķĻ èĤ²
åŃ Ĺ
åĨ ³
çŁ ³
çİ ĩ
å·¥ ç¨ĭ
éĢļ è¿ĩ
åį ı
åĪ Ĺ
ç¡ ®
æŃ ¥
æī į
ç» Ļ
èĭ ±
æĿ ĥ
åĽ Ń
ç ı
çī ĩ
é¡¹ çĽ®
åº ľ
è® ®
æİ §
å§ ĭ
ç» Ń
è ı
éŁ ³
ä½ İ
æł ¹
æıĲ ä¾Ľ
åĪ Ĵ
ï¼ Ł
æ¶ Ī
æ¸ ©
âĢ Ķ
æ Ĵ
éħ į
å¸Ĥ åľº
çĪ ±
æľīéĻĲ åħ¬åı¸
æ ĳ
æĹ¶ éĹ´
çľ Ł
éĩ ĩ
å® ¤
å¥ ĸ
è¶ ³
è¶ ħ
ç»ı æµİ
å¼ ķ
åį ĩ
èĮ ĥ
è ħ
å¿ «
è§ ģ
éĺ ³
åĳ ¨
åı ²
ä¸Ń å¿ĥ
åĪ Ļ
ç´ ł
æŁ ¥
åĨ į
æ¡ Ī
è¯ Ħ
è¿ ŀ
å»º è®¾
åŁ Ł
åħ »
ç½ ®
åŃ ĺ
ä¿¡ æģ¯
æĪ ¿
åı į
åı Ī
éķ ĩ
æ²¡ æľī
æĢ ģ
å ĭ
ä¹ ī
ä½ ķ
åİ ĭ
éĿ Ĵ
æľ ª
å ¨
ä¸ĸ çķĮ
éľĢ è¦ģ
æ£ Ģ
åī ¯
è¯ ·
å¤ ª
éĹ® é¢ĺ
æĺ¯ ä¸Ģ
èį ¯
èĩ ´
ä»¥ åıĬ
é¾ Ļ
æĻ ¯
åĳ Ĭ
å¼ ł
æŀ ģ
ç½ Ĺ
è¶ Ĭ
ç¼ ĸ
æ² ¹
è¯ Ĩ
è´ £
éĶ Ģ
ç ¢
ä¸ Ķ
æİ Ĵ
åı ¤
ç¦ »
e r
å Ħ
æĸĩ åĮĸ
ä¹ ł
åĳ ½
çī Ī
æĺ Ł
ç¤¾ ä¼ļ
åĵ į
åĽ½ éĻħ
åŃ¦ éĻ¢
ç ª
åĢ ¼
åį ³
ä»ĸ ä»¬
éĻ ¤
å¹ ²
è®¾ å¤ĩ
çļĦ ä¸Ģ
æī ¿
åĨ µ
åľ Ł
éĢ Ĥ
ä¿ ®
çĶ »
çī Į
çº ¢
æĸ Ń
æĺ ¾
åŃ¦ æł¡
çĬ ¶
ç Į
åĦ ¿
ä¾ ¿
ä¼ Ĺ
å ł
çĻ ¾
å± Ĥ
ç» ĩ
ç§ĳ æĬĢ
çĶŁ æ´»
æĶ¿ åºľ
é¦ Ļ
ç¬¬ ä¸Ģ
æĿ ¿
åº ·
é¢ Ħ
éļ ı
è ŀ
ï¼ ģ
å®ī åħ¨
ç» Ĩ
æ® µ
åĲĮ æĹ¶
æĢ Ŀ
ä¹ ¡
çİ¯ å¢ĥ
æ ħ
åģ ¥
æĪĲ ä¸º
é» Ħ
ä¾ ĭ
æĬ Ĭ
æĽ ¾
å°± æĺ¯
çħ §
å¿ ħ
i n
æĻ º
å ĥ
è¡Į ä¸ļ
çĽ ĳ
ç¦ ı
éħ Ĵ
ç® Ĺ
æ ļ
è® ¸
æ´» åĬ¨
åī §
äºº æ°ĳ
çŃ ĳ
åį ļ
èĤ ¡
Ġ Ġ
åħ °
æ» ¡
è¯ Ŀ
éĩį è¦ģ
æ¹ ĸ
è§ Ĵ
åĿ ĩ
åħ· æľī
è± ¡
éļ ¾
åĩ ł
ç® Ģ
çģ «
é ²
æ¸ ¯
åŁ ¹
æł ¸
åİ Ĥ
éĵ ģ
åĬ ¿
çļ ®
ç ĵ
æ ¥
å¥ ¹
å¦Ĥ æŀľ
åº Ĺ
åį ¡
ä¸į åĲĮ
ä¸Ń çļĦ
åı¯ èĥ½
èĲ ½
æĸ¹ éĿ¢
åı Į
æķ° æį®
a n
æĻ ®
åĽ ´
äºº åĳĺ
ä» ½
æĹ ı
å½± åĵį
å¿ Ĺ
åŃ¦ çĶŁ
éĺ ¿
è Ĵ
è´ Ł
åŃ £
o n
åĪ Ŀ
çº ª
å± ħ
æķ ħ
å· ´
åĶ ®
åĽł ä¸º
äº ī
ä» Ģ
æĭ ¬
æľ Ľ
ä½ľ ä¸º
å»º çŃĳ
ä» ħ
èĳ Ĺ
çĶ ·
è¿Ļ ä¸ª
è ¨
æ Ĳ
äº ĳ
è¨ Ģ
èĭ ı
å¯ Į
ä¾ Ŀ
åħ ´
åĮĹ äº¬
å¯ Ĩ
è´¨ éĩı
åį «
åħ¶ ä»ĸ
åħ¶ ä¸Ń
åĥ ı
åºĶ çĶ¨
åħ¨ åĽ½
ç ¿
æ ¤
è¾ ¹
å¾ Ģ
åı ĭ
ä¸ ¾
ç» Ī
æĥħ åĨµ
ç»Ħ ç»ĩ
åĮħ æĭ¬
éĻ į
æĪ ı
å½ ķ
åĢ Ļ
è¦ģ æ±Ĥ
ä½ ı
éĥ¨ åĪĨ
ç¾İ åĽ½
çĽ¸ åħ³
æĤ £
æ²» çĸĹ
æĹ ħ
å° ¼
æ± ī
ä½ Ļ
æĮ ī
åĪ ĩ
å¼Ģ å§ĭ
é ¸
å£ °
ç§ĳ åŃ¦
éĻ ©
äº§ ä¸ļ
åįķ ä½į
çĽ Ĭ
æİ Ī
è¯ ¾
å¼Ģ åıĳ
èŀ į
ç ¯
æĬķ èµĦ
æĹ ©
éĵ ¶
æŃ ¦
çŃ ĸ
ä½į äºİ
äº ¿
æł¹ æį®
æ¬ ¾
æ ĵ
çļĦ äºº
èĥ½ åĬĽ
å¤ ±
æĿ İ
èİ· å¾Ĺ
åħ Ń
å¾ ®
åŁİ å¸Ĥ
ç¾ ¤
æĤ ¨
æ³ ¢
å® ĺ
å¿ µ
åľ° åĮº
å¾ ĭ
çº ³
âĢĿ ãĢĤ
å¤§ çļĦ
âĢĿ ï¼Į
åħ ħ
ä»Ģ ä¹Ī
åĩ »
å¥½ çļĦ
ãĢĤ âĢĿ
åħ į
åĨ Ļ
æ ½
é¦ Ĩ
è¿ ľ
éĽĨ åĽ¢
çĭ ¬
è® Ń
æĿĲ æĸĻ
å¤Ħ çĲĨ
ãĢģ ãĢĬ
åį °
å¤ Ł
èī ¯
æłĩ åĩĨ
çı Ń
è Ĺ
è´ ¢
éĴ ¢
æľ ¨
ä¸ ´
ç» ľ
äº Ĵ
ä» ĭ
åĩ ı
åĸ Ħ
ç§ Ģ
ï¼ī ï¼Į
å® Ŀ
çĽ® åīį
æĭ ©
è¾ ĵ
æĽ ²
ä¸ ¥
èµ °
å·¥ ä¸ļ
è¿Ļ äºĽ
åĲ «
æĸ¹ å¼ı
è¯ »
æī ¹
æ¯ ķ
å§Ķ åĳĺ
åį Ĭ
æĭ ħ
æĺ ¥
äº ²
åŃ¦ ä¹ł
æīĢ ä»¥
åº §
è´ Ń
ã Ħ
æĴ Ń
åıĤ åĬł
åħ «
è¡ Ģ
å® ģ
åĲĪ ä½ľ
å·² ç»ı
ç Ĩ
èīº æľ¯
è¿ĩ ç¨ĭ
éĢī æĭ©
åį ł
ä¹Ł æĺ¯
äºº çļĦ
é» ĳ
éĿ¢ ç§¯
æ ¦
åĩº çİ°
åĪĽ æĸ°
å® ¡
è½ »
ã ĥ
æ´ ²
ä¸Ĭ æµ·
ç £
ã ģ
ç¬¬ äºĮ
æĸ¹ æ³ķ
åº ķ
éĿ ©
è§ ī
æ± ½
a r
åŁº ç¡
å¯¹ äºİ
èĪ ¬
éĿŀ å¸¸
æ¬ §
è® ²
åŁºç¡ Ģ
æī §
ç½ĳ ç»ľ
ä¸ °
å¸ Į
æıĲ é«ĺ
æŃ ¢
å¥ ¥
å¤ «
è½ ½
å®ŀ çİ°
åĽł æŃ¤
å¾Ī å¤ļ
ãĢĭ ãĢģãĢĬ
æŃ Į
ä¹ĭ ä¸Ģ
æľº æŀĦ
æ ¿
å² Ľ
e n
å Ĥ
å· Ŀ
åĨħ å®¹
åİĨ åı²
å® £
åħ ¸
èĪ ª
åĵģ çīĮ
åĮ» éĻ¢
ç« ¯
æķĻ åŃ¦
åĳ ³
æŀ Ĳ
çķ Ļ
æĭ ¥
å± Ĭ
åĬŁ èĥ½
çĶ ³
åı ¦
ä»¥ ä¸Ĭ
åĿ ļ
åį ĥ
çĶ± äºİ
ä¸Ģ äºĽ
é º
é¡ »
éĢ ģ
å¹³ åı°
é¢ ĳ
èµĦ æºĲ
ç« ł
åŃ ©
ä»£ è¡¨
åĸ ľ
ä¹ Ŀ
ç» ¼
å®¢ æĪ·
ç ĳ
ä¸ª äºº
è½ ¯
æīĢ æľī
ç» §
åĲ ¸
ç» ¿
æİ§ åĪ¶
è´ §
çĶ °
é¥ °
å ©
åģ¥ åº·
éĥ¨ éĹ¨
å¥ ĩ
åĨ ł
ç»ĵ æŀĦ
çķ ¥
è¡ Ĺ
æ¥ ¼
éĻ Ī
èĥ ľ
å ³
ä» ¤
çł ´
åī Ĥ
éħ ¸
æĪĲ ç«ĭ
æį ¢
å² ģ
äº «
æĤ£ èĢħ
çľ ¼
ç ĩ
åį ´
èĥ½ å¤Ł
åıĳ çĶŁ
æĬ Ĺ
ä¸ ĥ
o r
è¿Ļ æł·
å®Į æĪĲ
èĩªå·± çļĦ
å° ½
åº ı
ä½ľ åĵģ
é ¼
çĶµ åŃĲ
æ¬ ¢
ç§ »
æ¯ķ ä¸ļ
çª ģ
è¡ ¥
æŁ ĵ
åĽ½ åĨħ
æ¸¸ æĪı
çĻ »
å¼ Ĥ
é£ ŀ
å¾ ģ
æĹ¶ åĢĻ
é¢Ĩ åŁŁ
é Ń
æĭ Ľ
ä½ľ çĶ¨
åº ĵ
å¹´ çļĦ
æł ĳ
çļĦ æĺ¯
å® ³
å° Ħ
éĩĩ çĶ¨
åı ¶
çİ° åľ¨
ä¿Ŀ æĬ¤
æ¤ į
è¿ °
æ¿ Ģ
èģ ļ
å¤§ å®¶
ç¨ ³
æ² Ļ
ç´ ¢
åħ¬ éĩĮ
æĭ¥ æľī
åĪ° äºĨ
æī ĺ
ä¸Ģ å®ļ
æ¶ ²
ä½Ĩ æĺ¯
èĩª çĦ¶
æ¯ į
åıĳ çİ°
ä» ª
è Ĩ
å¸ ®
èį £
ä¸Ģ èĪ¬
ç³» åĪĹ
è Ľ
çĸ «
æĹ¥ æľ¬
ç« ŀ
è½ ®
çĶ¨ æĪ·
åĪĨ æŀĲ
å· ®
ä¸į æĺ¯
ä¸ļ åĬ¡
ä¼ ¤
æľ Ŀ
å ĺ
è®¡ åĪĴ
a l
ä¸į æĸŃ
çĶ¨ äºİ
åĪ¶ éĢł
é¢ Ŀ
è§Ħ å®ļ
è¡¨ ç¤º
ç»¼ åĲĪ
å¯ Ł
çĶ ²
ãĢ Ģ
a t
åĲĦ ç§į
æ¡ ¥
åĨ ·
çŁ Ń
åº Ĩ
ç»ı èĲ¥
åĽ º
æĪĸ èĢħ
å¨ ģ
ä¹ĭ åĲİ
ç» ĥ
ã Ĥ
ä½ ³
åĬ ³
ç¨ İ
åĲ ī
è¯ į
çĻ½ çĻ
çī Ľ
ľ é£İ
éĴ Ł
å¥ Ĺ
éļ ľ
èĮ ¶
é ½
çĻ½çĻ ľé£İ
è¿Ĳ åĬ¨
ä¸» ä»»
æĶ »
æ±½ è½¦
æĿ Ĥ
è¿Ļ ç§į
çĹ ĩ
è ĵ
éĥ½ æĺ¯
å® Ĺ
æĿ ¾
èį ī
æĶ¯ æĮģ
èı ľ
çģ µ
åĲ ĥ
è¯ Ĺ
éľĢ æ±Ĥ
ä¸º äºĨ
ä¸Ĭ çļĦ
å ª
èĹ ı
ç» ©
é ±
åŁº æľ¬
æľī åħ³
çł ģ
è§£ åĨ³
åįı ä¼ļ
æ¢ °
Ġ S
åĨ Į
æ¯Ķ è¾ĥ
è´Ł è´£
ç» Ŀ
ä¸ ½
æ± ¡
åĪ© çĶ¨
æŃ »
è®¤ ä¸º
æĵ į
äºĨ è§£
å½ ©
é± ¼
å¡ Ķ
çİ° ä»£
æ¯ Ĵ
æ¹ ¾
é ¹
æī ¾
æĻº èĥ½
ä½ Ľ
åĪ ĺ
æ° ¸
éĶĢ åĶ®
ç½ĳ ç«Ļ
åĪ »
éĻ Ħ
å¹³ æĸ¹
æį Ł
æķĻ å¸Ī
åİ ħ
åł Ĥ
æİ ¢
é¡ º
æ¯Ķ èµĽ
âĢĶ âĢĶ
å½¢ æĪĲ
äº¤ éĢļ
åº Ń
è´ µ
æ¶Ī è´¹
e s
å· ¦
ä¹ °
è· Ŀ
æıĲ åįĩ
åħ³ ç³»
ç» į
çŁ¥ è¯Ĩ
æĿ¥ çļĦ
çĶµ å½±
åŃ© åŃĲ
äº§ çĶŁ
ä¸į èĥ½
ä¼ĺ ç§Ģ
ä¹ĭ éĹ´
è¿ĺ æĺ¯
å¢ŀ éķ¿
åħ¨ çĲĥ
ç² ī
ä» į
èĻ ½
åĲ ¦
Ġ C
èģĮ ä¸ļ
ç¬¬ ä¸ī
ä¼ł ç»Ł
çĪ ¶
ãĢ į
å¼Ģ å±ķ
ãĢ Į
åľ £
åĵ Ī
é¦Ļ æ¸¯
çĶµ è§Ĩ
ï¼ļ âĢľ
å¾ ħ
çĽ ĸ
å¤ ı
åı ³
äº Ī
éĽ ·
å¸ Ń
çĿ £
éĩį çĤ¹
æķ £
å§Ķåĳĺ ä¼ļ
ä¿ ĥ
ç¥ ¨
çĶŁ çī©
éĹ »
è¡Į æĶ¿
å® Ī
åģ ľ
å° ģ
æĸ° çļĦ
ä¹ ħ
éĴ Ī
é¡ µ
åª Ĵ
åħ µ
åĿ Ĺ
ç´ §
åº Ĭ
å¢ŀ åĬł
æľº æ¢°
æ°´ å¹³
é Ĩ
èĤ ī
éŁ³ ä¹Ĳ
åĲ ¬
ä¸į ä¼ļ
æľī æķĪ
å¿ħ é¡»
) ,
çŁ ¿
çĸ ¾
æĸ Ĺ
¤ Ĳ
çĽ ĺ
æĹħ æ¸¸
i c
éĻ Ĩ
åĨ ²
ç¯ ĩ
å»º ç«ĭ
ï¼ī ãĢĤ
äºĨ ä¸Ģ
è¿Ľ åħ¥
é¥ ®
è§Ħ åĪĴ
æ´ ¾
æŁ Ĳ
è ĸ
åľ° æĸ¹
ç²¾ ç¥ŀ
çī¹ åĪ«
è¿Ļ ä¸Ģ
ä¼ Ĭ
éĢ ı
åº Ħ
è®¡ ç®Ĺ
ä¸ĩ åħĥ
æĦ ¿
çİ ©
ç§¯ æŀģ
æĶ¿ çŃĸ
æ³ °
èĩª åĬ¨
çĮ ®
æĪĲ åĬŁ
åģ ĩ
è¯ ¢
ä»· æł¼
æĸ¹ æ¡Ī
è¿ ½
å» ¶
ä¸Ģ æŃ¥
åħĪ è¿Ľ
åĲ ¯
åĩ Ģ
è¿ĺ æľī
è Ń
è® ¯
ä¼ļ è®®
æ ¾
æŀ ¶
åıĤ ä¸İ
èĥ Į
åŃĺ åľ¨
æ£ ®
å±ŀ äºİ
å¦Ĥ ä½ķ
æĽ´ å¤ļ
ä¼ ¼
å¤ ®
éĿ ł
å®ŀ éªĮ
æķĻ æİĪ
æĳ Ħ
çĶ³ è¯·
æĪĳ åĽ½
åħ³ äºİ
èĢĮ ä¸Ķ
éĢ Ģ
è´£ ä»»
ä»İ äºĭ
ä»» ä½ķ
çĽ Ł
ç»ĵ åĲĪ
éĢ Ĳ
æĮ ¥
æĿ¡ ä»¶
æ± ł
èŃ ¦
è¾¾ åĪ°
ç¼ º
æ´ ĭ
e l
éģ ĩ
ä»ĸ çļĦ
èĦ ĳ
æĮģ ç»Ń
Ġ (
åĨľ ä¸ļ
å¡ ĳ
çĽ® æłĩ
å¸® åĬ©
å ´
éĺ ¶
ä¸ Ŀ
èĭ ¥
éģ Ĺ
å¸Į æľĽ
éĴ ±
å° ļ
å®ŀ æĸ½
æī ©
çİ ī
èĥ ¶
å¸ Ŀ
æľĢ åĲİ
æĭ ¿
ä¸Ģ èµ·
è· Ł
åŁ¹ è®Ń
éª ¨
ä¸ĵ å®¶
äºº æīį
æĿ ¯
åĪ¶ ä½ľ
é¡ ¶
çĽ´ æİ¥
ä½ĵ çļĦ
è¿ İ
äº¿ åħĥ
è®¸ å¤ļ
æĻ ļ
ä»ĭ ç»į
æ´ Ľ
ä» ĺ
è ª
åıĳ å¸ĥ
æľŁ éĹ´
é¡ ¾
æ¨¡ å¼ı
å¯¼ èĩ´
è¯ º
é¢Ĩ å¯¼
ç« ¥
æ° §
æ³¨ æĦı
é£Ł åĵģ
ç»ı éªĮ
ä½ĵ ç³»
ä»¥ ä¸ĭ
åıĸ å¾Ĺ
è ľ
é ¤Ĳ
çŃ ¾
èĲ ¨
ä»· åĢ¼
ç¬ Ķ
æ¯ Ľ
å½ Ĵ
èĢ Ĳ
åĬł å·¥
å®ŀ éĻħ
i t
åĵ ª
éĶ Ļ
ç¤ ¼
èĮĥ åĽ´
æķĪ æŀľ
çļ ĩ
éĵ ¾
å±± ä¸ľ
çŁ¥ éģĵ
å¡ ŀ
ç©º éĹ´
è¶ħ è¿ĩ
æ´ Ĺ
äº ¦
éĤ£ ä¹Ī
çłĶ åıĳ
çĶ ļ
ç»Ħ æĪĲ
æ³ Ľ
ä¼ ¦
é² ģ
åĤ ¨
æĿ Ģ
æ± ĩ
åĩº çīĪ
çĵ ¦
æ´ ¥
è½ ´
i s
èĻ½ çĦ¶
ä¸¤ ä¸ª
åĬŀ åħ¬
è¿Ļ æĺ¯
åĩº çĶŁ
é² ľ
å·ŀ å¸Ĥ
éĽ ¶
ç¤¾ åĮº
çļĦ å¤§
è¯ ī
ä¸Ģ çĽ´
ä½ĵ èĤ²
éĶ ®
éļı çĿĢ
ç¬ ¦
èģĶ åĲĪ
æ³ķ å¾ĭ
åİ ļ
æ£Ģ æµĭ
ç»ĵ æŀľ
éģ ¿
éĢł æĪĲ
æĵį ä½ľ
. .
æĶ¶ åħ¥
æĹ¶ ä»£
æĢ ¥
ç»ı è¿ĩ
éĩ İ
è¯ Ĭ
ä¸° å¯Į
åħ ¼
æĿ ¨
äº¤ æĺĵ
èĪ ŀ
è´ ¸
åĮ» çĸĹ
çļĦ æĹ¶åĢĻ
æ· ·
äº ®
ä¸Ń åįİ
æĢ§ èĥ½
ç¡ ¬
è° ¢
é½ Ĳ
è® ¿
ä¾ §
èª ī
æıĲ åĩº
éĽ Ħ
æľª æĿ¥
åľ Ĩ
ä¸į ä»ħ
çĲĨ è®º
Ġ M
æĬ¥ åĳĬ
è½¯ ä»¶
çī Ļ
è Ķ
è¾ ĳ
Ġ A
å³ °
åį ±
èĴ Ļ
æĢ§ çļĦ
æĿ¥ è¯´
çĽ Ľ
çĨ Ł
çĳ ŀ
è§Ħ æ¨¡
åħ¨ éĿ¢
å® ľ
ä¼ ĳ
æĺ¾ ç¤º
åĶ Ĳ
æµ Ļ
å¾Ĺ åĪ°
åĪ ļ
æķ° åŃĹ
åĢ Ł
åĪ ¤
âĢĿ ãĢģ
éĿ Ļ
ä¸Ń å¤®
åĪĨ åĪ«
åº Ł
æĭ į
è§ Ī
äº¤ æµģ
åĽ¢ éĺŁ
ç® ±
çĸ¾ çĹħ
æģ ©
å® ½
ç»§ ç»Ń
éĩĳ èŀį
éħĴ åºĹ
èĤ ¤
æ¢ ħ
åĬ ª
èĥ½ æºĲ
è® ¢
èĦ ±
çº ¸
è¡Į ä¸º
l e
ç¨³ å®ļ
æĢ İ
r o
æ¢ ¦
å·¥ èīº
æ¦ Ĥ
éĽ ħ
æĺ¯ä¸Ģ ç§į
ä¸Ģ ç§į
éĵ¶ è¡Į
åĪĨ éĴŁ
è¿Ľ ä¸ĢæŃ¥
å® «
è° Ī
äºº ä»¬
åĳ ¢
æķħ äºĭ
èĪ ¹
æĽ´ åĬł
éŁ ©
åºĶ è¯¥
è®¾ æĸ½
ï¼Į âĢľ
åŁº éĩĳ
åį« çĶŁ
çĶŁ æĢģ
è¿ĩç¨ĭ ä¸Ń
ä¸ĸ çºª
æ¶ ¦
éĽ ¨
å± ĭ
è¿ ª
ä»¥ æĿ¥
æ° ı
å¹´ æĿ¥
åķĨ ä¸ļ
æľ ĭ
åŃ¦ ä¼ļ
èİ ±
æī§ è¡Į
ä¿Ŀ æĮģ
åį ·
åĪ Ĭ
% ï¼Į
åĽ °
åĿ Ģ
å° ¤
è® ¨
ä¼ĺ åĬ¿
æĸ½ å·¥
å· ¨
æķ ĳ
èı Į
èĥ ŀ
åħ± åĲĮ
åİŁ åĽł
æĮĩ å¯¼
æĶ¿ æ²»
è´ Ŀ
éĩ Ĭ
Ġ P
ä¹¦ è®°
ä¼ ¯
äºĭ ä¸ļ
åıĹ åĪ°
åĺ ī
åĮº åŁŁ
æĹł æ³ķ
åıĺ åĮĸ
ç§ ĺ
æ³¨ åĨĮ
å¹¶ ä¸Ķ
è¡¨ çİ°
åĬł åħ¥
æĽ ¼
ä¸Ń åŃ¦
èģĶ ç½ĳ
æĮī çħ§
åĮĸ åŃ¦
å¹¿ ä¸ľ
å¤ ľ
åıª æľī
æĪĳä»¬ çļĦ
æľ «
èĨ ľ
è ļ
åŁ¹ åħ»
æĪĲ æľ¬
åĶ ±
æŃ£ å¼ı
æĺ¯ åľ¨
è¯ ļ
å© ļ
å®¹ æĺĵ
äºº åı£
å®¶ åºŃ
ç§° ä¸º
åĨ³ å®ļ
% ãĢĤ
å¸ ģ
è° ·
éľ ²
å®ī è£ħ
ä¸º ä¸»
éĽ ª
çģ ¯
âĢ ¦
æħ ¢
çĩ ĥ
èĽ ĭ
çĥ Ī
ä¹ İ
ç§ Ł
æł¸ å¿ĥ
åĬł å¼º
åĿ Ĳ
è§ ¦
c h
çļĦ é«ĺ
ä¸Ģ æ¬¡
è¯¾ ç¨ĭ
æĺ¯ ä¸Ģä¸ª
åĵ ¥
åĳĺ å·¥
ç¥ ĸ
è®º æĸĩ
æ¶ ī
éļ Ķ
æĹ §
æµĻ æ±Ł
ç Ĵ
æ» ĳ
å¿« éĢŁ
± ä¹Ĳ
è´ ¥
ä¸į è¿ĩ
ç¼ ©
æ¸ Ĳ
æĥ ł
çĶļ èĩ³
ä¿ĥ è¿Ľ
ä¿Ŀ éļľ
å¹¿ æ³Ľ
çĤ İ
æ´ ģ
åĭ Ĵ
æľĢ ç»Ī
æľĭ åıĭ
æĭ Ł
ä¸Ģ æł·
è ¸
æİ ª
e t
åıĳ è¡¨
a s
ç© ¿
èµĦ æĸĻ
çļĦ åıĳå±ķ
ä¸ ģ
ä¿Ŀ è¯ģ
åĲ ´
æĶ¹ éĿ©
å² ©
è· µ
èĵ Ŀ
å½¢ å¼ı
åĩı å°ĳ
çĥ Ł
å¾ Ħ
ç³ ĸ
äº ©
åªĴ ä½ĵ
æ£Ģ æŁ¥
çĲĥ éĺŁ
åĴ ¨
æĢ Ģ
éĢ Ķ
æĿ °
æ¡ £
Ġ ãĦ
æĹ Ĺ
å§ Ĩ
ç§ ĭ
æĿ¥ èĩª
ä»Ĭ å¹´
æ³ ī
åĿļ æĮģ
åıĬ æĹ¶
æĸ¹ åĲĳ
æİ¨ åĬ¨
å¹ ķ
å¼ ¹
èĻ ĳ
åĬª åĬĽ
æĪĲ æŀľ
æ¢ ģ
è¿Ļ éĩĮ
çļĦ æĸ°
å¹ ħ
èĭ ¦
èĦ ļ
åį ĸ
åĪ º
ç§ĳ çłĶ
ä¸ ¹
å² Ĺ
çĹ Ľ
åĪ¶ åº¦
è¿Ĳ è¡Į
çŃ Ķ
éķ¿ æľŁ
ä¹ Į
åĬ ±
æĺ ł
åĴ¨ è¯¢
åįĹ çľģ
åįļ å£«
è¶ £
ç ĺ
çİ° åľº
ç»Ĩ èĥŀ
çī¹ èī²
ãĢ ĳ
ä¼ ´
æĪĺ çķ¥
éĤ ®
èģ ĺ
å¹ ¼
éĻ¤ äºĨ
ãĢ Ĳ
å¹³æĸ¹ ç±³
ç®Ģ åįķ
çº ¯
âĢĿãĢģ âĢľ
ç¯ ®
æľī çļĦ
èĤ ¥
é¡ ¿
é«ĺ çº§
åį Ī
è¾ ĸ
ç´ ¯
æ¾ ³
çĪ Ĩ
å®Į åħ¨
åĳ Ī
å»º è®®
æĺ¯ åĲ¦
æĪĲ ç»©
è¡ £
é£İ éĻ©
æĺ Į
å°ı åŃ¦
åľ ³
åı «
èº« ä½ĵ
èµĦ éĩĳ
a m
çĸ ĳ
éĺ¶ æ®µ
åĨ °
éĩĳ å±ŀ
æĸĩ ä»¶
èĢĥ è¯ķ
ç¢ ³
èĭ± åĽ½
åĽĽ å·Ŀ
åŃ Ļ
æ¸© åº¦
çī¹ çĤ¹
æī ¬
åŃ Ķ
) ãĢĤ
åĲ §
åħļ åĳĺ
æİ Į
ç§ ģ
æĿ Ł
è´ ¡
r e
å® ĭ
Ġ B
ï¼ī ãĢģ
æ·± åľ³
- -
çļ® èĤ¤
æ² ¿
æİ¥ åıĹ
çĥ §
èĳĹ åĲį
ç¼ ĺ
å½ĵ æĹ¶
å®£ ä¼ł
ç«ŀ äºī
è± Ĩ
éĺ µ
ãĢĭ ï¼Į
åŁº åľ°
èµ· æĿ¥
æ¹ ¿
å¯ »
ä» ģ
åİĭ åĬĽ
çħ ¤
éķ ľ
ä¸įåĲĮ çļĦ
ç¨ĭ åºı
å¯ ¿
çĽ Ĳ
éĥ ĳ
å¯ º
æĳ ©
å°ı æĹ¶
ä¸» ä¹ī
æ»¡ è¶³
å¹ ¸
ä¼ °
å® ĩ
çİ¯ ä¿Ŀ
åŃ¦ æľ¯
éº ¦
ä¿ Ħ
çĦ¶ åĲİ
æ±Ł èĭı
æ¶ Ĥ
æĭħ ä»»
éļ Ĩ
ç ¦ģ
å¹´ åº¦
æħ §
Ġ T
åĨ ¬
å¿ĥ çĲĨ
é«ĺ çļĦ
åĲ Ĺ
åı ¥
åĬ³ åĬ¨
åĩº äºĨ
è¯ ĳ
åħ¬ å¼Ģ
è´ ´
æ² Ł
å®ŀ è·µ
ç£ ¨
åı° æ¹¾
åħĪ åĲİ
o l
åħ³ éĶ®
è¾ Ĩ
i on
æĮ ¯
ä¸¥ éĩį
åĮĸ çļĦ
ç¡ ķ
éĩı çļĦ
æ½ ®
æīĵ éĢł
åħ³ æ³¨
ä¹Ł æľī
è· ¨
æĹ¶ æľŁ
æĪĳ çļĦ
ç±» åŀĭ
äºĮ åįģ
ä½ł çļĦ
è¶³ çĲĥ
èĥ ¡
ä»» åĬ¡
æ¼ «
éĵģ è·¯
åºĶ å½ĵ
i l
èĢ ³
æİ¨ è¿Ľ
é¼ ĵ
éĺ »
ç½ ²
è¿ Ŀ
çĬ¶ æĢģ
u s
ä¸į è¦ģ
æĸĩ åŃ¦
æīį èĥ½
æĹ ¢
è¯Ń è¨Ģ
è§Ħ èĮĥ
è¿Ĳ èĲ¥
ä¹ĭ åīį
åĩº çļĦ
æĸ° éĹ»
çĸ« æĥħ
ä½į ç½®
è°ĥ æķ´
æ® Ĭ
è¯ ¯
æ± ¤
ä¼ļ åĳĺ
çľĭ åĪ°
æĮ ĳ
éĻį ä½İ
åħ¬ åħ±
é¸ ¡
å¾ ½
ä»İ èĢĮ
çı ł
å¢ Ļ
åħħ åĪĨ
èĢģ å¸Ī
è¾ ħ
ç¿ »
åĨł åĨĽ
èµĦ äº§
èĻ ļ
éĺ ħ
èħ Ĳ
æ³ ½
åľ Ī
åįģ åĪĨ
è®° èĢħ
èģĶ ç³»
åĽł ç´ł
é ī
æ¤į çī©
èĳ £
è¿ ·
ä½ĵ éªĮ
æµĭ è¯ķ
å¼ Ł
èİ «
åĸľ æ¬¢
çĽ® çļĦ
åĮ» åŃ¦
åĪĽ éĢł
çŃī å¥ĸ
ä¹ ĺ
éī ´
éĢļ å¸¸
æľº ä¼ļ
æĸ ĳ
è¿Ĳ è¾ĵ
æ² ī
åĿ ı
éļ Ĳ
o m
æı ı
åıĳå±ķ çļĦ
ä¸į åı¯
éĿĴ å¹´
ç¡® å®ļ
å² ¸
æķ´ ä¸ª
ç»¿ èī²
æ³ ¥
a c
æŃ¤ å¤ĸ
å® ¾
éģ¿ åħį
å¤§ åŀĭ
ç¬¦ åĲĪ
æŃ£ åľ¨
åĳ ¼
æĻ® éĢļ
å¹´ ä»£
æĢĿ æĥ³
äºĴ èģĶç½ĳ
å± ı
åħ¶ å®ŀ
åĦ¿ ç«¥
è¡¨ éĿ¢
èĦ Ĥ
ä¹ Ļ
ç¡® ä¿Ŀ
æ½ ľ
é¢ ľ
åĪ ¸
å½ĵ åľ°
æ±¡ æŁĵ
åıĳ æĮ¥
çĶ ĺ
è¡ ¡
æĢİ ä¹Ī
å° ¾
åħ¬ è·¯
éĢŁ åº¦
è¯ ¦
åľŁ åľ°
æĪĲ åĳĺ
å·¦ åı³
æ°ĳ æĹı
æīĭ æľº
ä¿Ŀ éĻ©
ç± į
å¸¦ æĿ¥
æİª æĸ½
ç ¹
æĻ ĭ
å¦ ĩ
åŁ ĥ
æļ ĸ
äº ķ
çī© è´¨
èĤ¡ ä»½
åĢ Ĵ
èµ µ
Ġ L
ä¸į å¾Ĺ
çĲĨ å¿µ
æľ ±
è´ ¯
çļĦ ä¸Ģä¸ª
æ³ķ åĽ½
ç¾İ åħĥ
è§Ĩ é¢ĳ
çĽĳ çĿ£
ç¨ĭ åº¦
åĲ ¨
åĬ¨ çī©
Ġ G
Ġ D
éº »
ä¸Ń åħ±
çĶŁ åĳ½
ç¹ ģ
çĬ ¯
è°ĥ æŁ¥
ç¼ ĵ
ä¸¾ åĬŀ
æº ª
åĪĽ ä½ľ
éľ ĩ
æģ ¶
å®Į åĸĦ
åħ· ä½ĵ
åĭ ĩ
è·Ŀ ç¦»
ä¾Ľ åºĶ
åĩ Ŀ
æ ©
åĲİ çļĦ
éĴĪ å¯¹
åĪĨ ä¸º
å¢ ¨
è¯ ¸
æ¶Īè´¹ èĢħ
æĪ ª
ä»Ĭ å¤©
æµ ª
èµĦ æł¼
ç½ ª
æı ¡
åĶ ¯
Ġ *
ç©º æ°Ķ
éĥ½ æľī
æĭ ĵ
æĲ Ń
å¦ Ī
å¾· åĽ½
æķ ı
æµ ĵ
å¼ķ èµ·
æŃ£ å¸¸
æľ Ĺ
æľº åħ³
éĩįè¦ģ çļĦ
çĦ ¦
æ´ ŀ
å¾ Ĳ
ä¸¾ è¡Į
èį ·
èĻ «
ãĢĤ [
Ġ R
è£ ģ
éĺ ´
æĸ¹ ä¾¿
å¹¿ å·ŀ
åıį åºĶ
åģļ å¥½
åĬŀ æ³ķ
åı¦ å¤ĸ
ç² Ĵ
éĿ© åĳ½
æ³ ¡
èµĽ åŃ£
ãĢĤ âĢľ
å¼Ģ æĶ¾
æľī ä¸Ģ
å§ ĵ
èĢĥ èĻĳ
ä¼ Ł
åŃ¦ ç§ĳ
å° º
ç¬ ĳ
æľĢ ä½³
ä¼ į
in g
æĬ ĺ
åģ ı
ä¾ĭ å¦Ĥ
æ¯ķä¸ļ äºİ
æķ´ ä½ĵ
æĶ¹ åıĺ
éĵ ľ
å¤ļ ç§į
åĲĪ åĲĮ
ç»´ æĬ¤
è¿ŀ ç»Ń
åĿ ¡
è ¦
çī© æµģ
çĭ¬ ç«ĭ
èģĶ èµĽ
æĺİ æĺ¾
åħ¬ åĽŃ
ä¸´ åºĬ
æģ Ĵ
åĲį ç§°
å¤ļ ä¸ª
æķĪ çİĩ
å§Ķ ä¼ļ
æ¬§ æ´²
æĺ¯ æĮĩ
çļĦ éĩįè¦ģ
å¤§ åĪ©
çİ »
éĹ Ń
è· ĳ
éŃ Ķ
æį ·
çĲĨ äºĭ
éĤ »
æ¨ ª
å¾ ª
æ¯ «
é«ĺ éĢŁ
ç¬¬ åĽĽ
åķĨ åĬ¡
ç¾İ æľ¯
çļĦ æĥħåĨµ
ç£ ģ
éĵ Ŀ
çī¹ æ®Ĭ
Ġ -
éĢĤ åĲĪ
æľĢ å¤§
äºº çī©
å·¥ åħ·
äºº ç±»
çļĦ å·¥ä½ľ
å°± ä¼ļ
èĢ Ĺ
åĬĽ éĩı
è¿ ¹
è¡Į åĬ¨
å®ĥ ä»¬
èĭ± è¯Ń
åĵģ è´¨
è¿ ģ
åĲĪ çĲĨ
å¹³ åĿĩ
çļĦ äºĭ
åħ¨ éĥ¨
äººæ°ĳ æĶ¿åºľ
çĲĥ åĳĺ
ç« ¹
ç»ı å¸¸
èĦ ī
åĿ ¦
ç»ı çĲĨ
æĬ ĵ
æĻ ¶
ç´ «
éĩį åºĨ
çĴ ĥ
è¦ Ĩ
åĩº åı£
éĶ ¦
è¿ŀ æİ¥
çļĦ éĹ®é¢ĺ
èµ ¢
å¹¶ ä¸į
å «
çº ¹
åĨľ æĿĳ
_ _
å°¤ åħ¶
ä¸» é¢ĺ
è´¡ çĮ®
å¹¿ åĳĬ
æ ĩ
ä¼ĺ è´¨
è¶Ĭ æĿ¥
åĴĮ åĽ½
æļ ´
åĲį ä¸º
åĢ į
æĹ ĭ
ç» ķ
åĨħ çļĦ
âĢĿ ,
åŃ¦ ä½į
è¶ĬæĿ¥ è¶Ĭ
èĩª çĶ±
ãĢĭ ãĢĤ
åķĨ åĵģ
çģ ¾
äº ¡
ç¦ı å»º
éĻ ¶
åĢ º
åı ¬
éģ į
èī¯ å¥½çļĦ
æĺ¯ çĶ±
æĭ Ķ
è®¡ç®Ĺ æľº
è± ª
æĽ ¿
æľº åĻ¨
èµ ı
ä¸Ń åĮ»
ä¸ĭ çļĦ
åĬĽ çļĦ
çº ·
åĲĦ ç±»
è®¾ ç½®
ãĢĭ ï¼Ī
æ¥ ļ
å¤ º
æº ¶
æľĢ é«ĺ
æ¯ı ä¸ª
o u
æı ´
è¿ĩ åİ»
ç¬¬ åįģ
åł ¡
èī ¾
é© »
ç» ĺ
å° ĺ
èĲ¥ éĶĢ
åĿ Ľ
æ¬¢ è¿İ
éĢļ çŁ¥
åĪ ·
å®ī å¾½
ä¸ī ä¸ª
åĲ Ľ
çļĦ å°ı
ä¸» æĮģ
åĩ ¯
è®Ń ç»ĥ
èµ ŀ
èĪª ç©º
åĩĨ å¤ĩ
ç¡ķ å£«
çª Ĺ
æĿ ľ
åĬŀåħ¬ å®¤
å¼ ±
æ´ ª
Ġ H
è¥¿ çľģ
èĤ ¯
è¾ ½
ä¹ ±
åĮħ è£ħ
æĿ¥ æºĲ
ç»Ł è®¡
ç§» åĬ¨
åıª æĺ¯
æİ¨ å¹¿
åĪĨ å¸ĥ
è®¤ è¯ģ
ä¸ľ è¥¿
ä¿ Ĺ
ä¾ µ
åĮĸ å·¥
é¾ Ħ
é£İ æł¼
æľº åĪ¶
h e
çİ» çĴĥ
éĥ½ ä¼ļ
ä¸į å°ĳ
æĦı ä¹ī
æĪ ´
å¤ļ æ¬¡
æĦı è§ģ
å¤© æ´¥
é¸ Ł
æ¯Ķ å¦Ĥ
èĭ Ĺ
çĶµ æ±ł
è¯Ħ ä¸º
åĸ ·
Ġ F
åĪĽ ä¸ļ
èĬĤ çĽ®
çĤ ī
æ°§ åĮĸ
æ® ĸ
èĩª èº«
æĺİ ç¡®
çĶ¨ çļĦ
å£ ģ
æĭ ľ
åĪ¶ å®ļ
a d
åĬ¨ åĬĽ
é© ¾
ç½ ļ
åĨħ éĥ¨
å¤§ ä¼ļ
çļĦä¸Ģ ç§į
è¶ ĭ
è´¸ æĺĵ
æ¹ĸ åĮĹ
Ġ I
å· §
ä» Ļ
å®ĥ çļĦ
èĪ Ĵ
ä¸Ģ å¹´
éĢ Ĵ
æĳ ĺ
è° ±
æ²³ åĮĹ
éĶ ħ
å¡ «
èĴ Ĥ
åıĬ åħ¶
é¥ Ń
ä¼ Ļ
çĦ¶ èĢĮ
è¯ķ éªĮ
ä½ľ èĢħ
çĶµ è¯Ŀ
å° Ĭ
æĸĩ æĺİ
çģ °
åĩ ¡
è½ ¨
å½ »
é ŀ
åħĪ çĶŁ
éĩį å¤§
éģĵ è·¯
åĩ Ń
çĽ¸ å¯¹
æİ ī
è° ĵ
å¯ ¸
èı ²
åįĹ äº¬
æ¼Ķ åĳĺ
ç®Ģ ç§°
å¥ ĭ
èĲ½ å®ŀ
ä¸Ĭ å¸Ĥ
åĬĽ äºİ
åĪĽ å»º
ç»Ł ä¸Ģ
æģ ¢
ç ŀ
æ·± åħ¥
æĥ Ĭ
å±ħ æ°ĳ
é© ±
è½¦ ç«Ļ
æľī äºĽ
æ» ¤
æ» ¨
æĻº æħ§
èĩª æ²»
å¤ļ çļĦ
åħ· å¤ĩ
éĻ ķ
æŁ ±
åħ± åĴĮåĽ½
çłĶç©¶ çĶŁ
æ¡ ĥ
éĤ ¦
è ķ
æķ° éĩı
è´ «
é¦ĸ åħĪ
s t
åľ° äº§
çº ¤
çĮ ª
æĮ Ĥ
éĶ ĭ
è¿ Ķ
æĪĲ éķ¿
ä¹ ³
æĬĢ èĥ½
ä¸Ģ ä¸ĭ
è´¹ çĶ¨
ä¸Ń æĸĩ
çĶµ åĬĽ
åıĳ è¡Į
è½´ æī¿
å¼ Ĺ
åĪ Ģ
çŃ ¹
æĸĩ ç«ł
çļĦ è¯Ŀ
ä¸¥ æł¼
è¯Ħ ä»·
ä¸» å¸Ń
èģĮ å·¥
ç½Ĺ æĸ¯
æĦŁ è§ī
éģ Ń
çŁ¥ åĲį
çľŁ æŃ£
æĪĺ äºī
æľĢ å¤§çļĦ
éĤ Ģ
å¼ ĥ
åĭ ¤
è¿ ħ
çĲĨ è§£
ç¾¤ ä¼Ĺ
æĪĲç«ĭ äºİ
çĽ¸ å½ĵ
ç»ĵ æĿŁ
çģ Ń
åĩ ¤
è§Ĵ èī²
e d
çı į
çī© çĲĨ
çĹĩ çĬ¶
å±ķ ç¤º
çļĦ äº§åĵģ
çİ° ä»»
å£ ®
èĲ¥ åħ»
æ® ĭ
Ġ E
ä¸ĭ éĻį
æĦı è¯Ĩ
è¾ Ľ
éĽĨ ä¸Ń
) ãĢģ
å®ŀéªĮ å®¤
æģ¢ å¤į
æĤ ī
ä¹Ł ä¸į
ä» ĵ
éĩį æĸ°
éĿ¢ å¯¹
åħļ å§Ķ
æ¦ ľ
å® ¿
è£ħ ç½®
çİ° æľī
æĹ ¨
äº§åĵģ çļĦ
æĪĲ éĥ½
è£ Ĥ
æľ¬ æĸĩ
ä»ĸä»¬ çļĦ
å¤ª éĺ³
å½ ¹
é£Ł çī©
æĿ Ń
çİ° è±¡
äºĭ ä»¶
è¯´ æĺİ
åİŁ åĪĻ
æķ Į
èĻ İ
éĽ ķ
åĪĨ åŃĲ
é¢Ĩ åħĪ
èĬ ¯
æ¶ī åıĬ
éĻ µ
ä¹ĭéĹ´ çļĦ
èį¯ çī©
çłĶç©¶ æīĢ
æŃ¦ æ±ī
å¥ ¶
éĥ ¡
é¢ Ĺ
i d
âĢ Ļ
ä¹Ł ä¼ļ
é«ĺ çŃī
çº ½
æī¹ åĩĨ
æĹ¥ å¸¸
é ³
éĥ İ
å¸¸ è§ģ
æ² Ī
å¦Ĥ æŃ¤
æķ ¬
åľ¨ çº¿
å¤§ å¤ļ
æ §
æ· »
å¤§ éĩı
è§ī å¾Ĺ
å®ī æİĴ
å°± ä¸ļ
è¿Ľè¡Į äºĨ
ï ½
æī İ
éĶ ģ
æĿ¥ çľĭ
åħ¬åı¸ çļĦ
çĻ Į
å°ı ç»Ħ
åĲİ æĿ¥
èĪ į
ç¾ Ĭ
å¿ ł
ä¹¦ æ³ķ
è´Ń ä¹°
åĨį æ¬¡
å¯ Ĵ
æĿ Ĩ
ç§ ¦
æ³ µ
å°ĳ å¹´
èĢ ¶
æĬ µ
å±ķ å¼Ģ
å¢ŀ å¼º
å® ı
) ï¼Į
æĮĩ åĩº
é» ĺ
ç» ª
çİ Ľ
æľº åľº
çĹħ æ¯Ĵ
è´ ·
èĩ³ ä»Ĭ
ç² ®
è¯ģ æĺİ
èĳ£ äºĭ
éļ ¶
åı¦ ä¸Ģ
åĮ» çĶŁ
æĬķ åħ¥
åįı è®®
è¿Ļæł· çļĦ
å¥ ı
åįģ äºĮ
é» İ
o o
èµĦ æľ¬
æĲ ľ
åĩº æĿ¥
æĤ¨ çļĦ
m m
å¹¿ å¤§
èĴ ¸
æĶ¹ åĸĦ
å¸Ī èĮĥ
æľī æľº
å¹² éĥ¨
æļ Ĺ
åŁº äºİ
åįł åľ°
åħ¬ å¸ĥ
è®° å½ķ
åıª è¦ģ
çĲ ´
å¤į æĿĤ
åĽ¾ ä¹¦
æ¶ ¨
åİ ¦
ç»ı åİĨ
è¿Ľ æŃ¥
æĹł è®º
åĪ ĳ
è¾ ī
åĪĨ äº«
èĸ Ħ
è Ŀ
èį Ĳ
çĵ ľ
ä¸ª æľĪ
å¥ ī
åįĩ çº§
ï¼ į
åĲĮ æ¯Ķ
é© ¶
èĢ ķ
æĺ Ĩ
Ġ ãĢĬ
éĹ ²
ä¹Ł åı¯ä»¥
è´¢ æĶ¿
ä¸» ç®¡
æī¿ æĭħ
ä¸ī å¹´
åĲĦ åľ°
Ġ çļĦ
æµ ®
ä¼ ı
æ· ¡
æĮĳ æĪĺ
æµ ¦
éĿ¢ çļĦ
çĻ» è®°
è¾ ŀ
ç¥ Ŀ
èĪ °
å¥³ æĢ§
åħ± äº§
æĬ ½
åī¯ ä¸»ä»»
åī ĳ
åıĮ æĸ¹
å¹´ è½»
éĺ Ģ
æļ Ĥ
èŀį åĲĪ
: ãĢĬ
éŁ© åĽ½
èĳ ¡
èŀ º
è£ħ é¥°
åĲĮ åŃ¦
æĭ ¼
çļĦ å½±åĵį
ä¼ĺ åĮĸ
çļ Ĩ
æĥ ¯
ä¿ ±ä¹Ĳ
åŃ¦ åİĨ
å°ı è¯´
çļĦ ä¸»è¦ģ
çĤ ¼
ä¿±ä¹Ĳ éĥ¨
æĻ ĵ
å½¢ è±¡
ä¼ļ è®¡
æĦŁ æŁĵ
éĢĲ æ¸Ĳ
è¿Ĳ çĶ¨
en t
o f
ä¸ľ åĮĹ
ç« Ł
ä¼ł æĴŃ
èĤ ¿
ç¤º èĮĥ
èµ «
å·¥ä½ľ çļĦ
åĵ ²
è´ ¦
å¦ »
å¹´ åľ¨
é¦ĸ æ¬¡
èģĶ çĽŁ
æ³ķ éĻ¢
æľ¬ ç§ĳ
åº¦ çļĦ
Ġ W
çİ© å®¶
åķĨ æłĩ
ä»į çĦ¶
èµ ĸ
è· ³
æ² ĥ
è° ĭ
èĤ ł
åĵª äºĽ
è½¦ è¾Ĩ
æİ¥ è§¦
åĬŀ çĲĨ
å® ħ
åį ¢
è®¤ è¯Ĩ
Ġ N
æľī æīĢ
æİĴ åĲį
æĥ³ è¦ģ
èĢħ çļĦ
é«ĺ æł¡
åıĤ æķ°
éĩĩ åıĸ
çĻ £
ä½ ©
çĶµ èĦĳ
æµĭ éĩı
çĶµ æľº
ä¼ģä¸ļ çļĦ
è¯Ħ ä¼°
æĺ¯ä¸Ģ å®¶
æł· çļĦ
è¡Ĺ éģĵ
å¹¶ åľ¨
çĿ ¡
æĬ¥ åĲį
åĶ¯ ä¸Ģ
æİ¢ ç´¢
ä»¥ åĲİ
ä¸º ä¸Ģ
é½ ¿
æ¯ı å¹´
çĭ¬ çī¹
ä¸ĵ åĪ©
æĸ¹éĿ¢ çļĦ
æľ¬ æ¬¡
å½ĵ çĦ¶
å¾ ¡
èº« ä»½
åĽ° éļ¾
ç§į æ¤į
åįļ çī©
a p
è®¾ ç«ĭ
æı Ĵ
ä¹¦ çĶ»
è¯ģ ä¹¦
è§Ĥ ä¼Ĺ
åģ ¿
è° ģ
è¥¿ åįĹ
å± ĳ
ä¸°å¯Į çļĦ
å·¥ç¨ĭ å¸Ī
å¤© çĦ¶
çī¹ å¾ģ
éĨ Ĵ
u n
éģ µ
å¤ļ å¹´
çĵ ·
åĮħ åĲ«
æĿĤ å¿Ĺ
å· ¡
äºº å·¥
u r
åĨ³ èµĽ
èļ Ģ
æĹ ¦
æ¶ µ
å¤Ħ äºİ
çļĦ æĹ¶éĹ´
åĲ¸ å¼ķ
çĽ¸ åĲĮ
æŃ¤ æ¬¡
æī ¶
ç§° åı·
ç² ĺ
å² Ń
ĠĠ ĠĠ
å¾ Ĵ
è ¹
éĻ ·
æ²³ åįĹ
åıĤ èĢĥ
èĽĭ çĻ½
æĢ§ åĴĮ
æ¯ı å¤©
éª ĳ
an d
èĲ Ħ
çļĦ æĸ¹å¼ı
çīĽ çļ®
æ¸ ł
åĽº å®ļ
äºº å£«
åĵģ ç§į
åħį è´¹
èħ ¾
ä¸ľ åįĹ
âĢ ĺ
äºĨ ä¸Ģä¸ª
æŁ Ķ
ä¸ĭ æĿ¥
æķ° åŃ¦
çĬ¶ åĨµ
ä¼ ¸
å¹³æĸ¹ åħ¬éĩĮ
æŀĦ æĪĲ
å° ĸ
èĳ¡ èĲĦ
o t
éĺħ è¯»
æł¡ åĽŃ
éĩį è§Ĩ
çªģ çł´
åº Ļ
çľģ çº§
çŃī çŃī
i g
çī §
åı¯èĥ½ ä¼ļ
åħĥ ç´ł
æŃ£ ç¡®
å¹¿ è¥¿
è´¢ åĬ¡
æĢ ķ
æīĢ åľ¨
åģļ åĪ°
è¦Ĩ çĽĸ
æİ¨ åĩº
I S
å¿ħ è¦ģ
ä¿Ħ ç½Ĺæĸ¯
çĽ¸ ä¿¡
æľī çĿĢ
åĨľ æ°ĳ
æ¡ Ĥ
ä»£ çĲĨ
çĽĳ ç®¡
æ¶Ī æģ¯
ç¥ ¥
è¯ģ åĪ¸
èĩ´ åĬĽäºİ
çļĦ åŁºç¡Ģ
å®ŀ åĬĽ
äºļ æ´²
è§£åĨ³ æĸ¹æ¡Ī
åį ĵ
ï½ ŀ
t er
ç¢ ĳ
æ¼ ı
åĮº çļĦ
éĶ ¡
å» ī
å¡ĳ æĸĻ
æī¾ åĪ°
å¹¼ åĦ¿
ä»ª åĻ¨
ä¹ ĥ
é«ĺ æķĪ
ãĢĭ (
çĶ ľ
a y
é«ĺ åº¦
å¿ Ĩ
çĺ ¤
ç»ı åħ¸
æĬ ¢
ç»Ħ åĲĪ
ä¹ Ķ
éĺŁ ä¼į
éĶ Ī
èĤ Ŀ
åľ° çĲĨ
ãĢĤ ãĢĬ
çľŁ å®ŀ
å¾ª çİ¯
éĢĤ åºĶ
èĤ Į
o s
çĽ¸ åºĶ
éħį åĲĪ
éĥ Ń
çĽĳ æµĭ
å£ ¤
èħ ¹
ï¼ İ
å®ĺ æĸ¹
çīĽçļ® çĻ£
çĦ Ĭ
å®Į æķ´
èĥĮ æĻ¯
éĤ£ äºĽ
å¨ ±ä¹Ĳ
çĶµ åĬ¨
o w
æ¦Ĥ å¿µ
çķ ħ
æ¯Ķ ä¾ĭ
éĢļ ä¿¡
ä¸į åĪ°
â Ħ
èĢĮ æĺ¯
ä¿¡ åı·
æī© å¤§
è´Łè´£ äºº
a g
ç¥ŀ ç»ı
è ²
æİ¨ èįĲ
åİŁ æĸĻ
çĶŁ éķ¿
å²Ĺ ä½į
åĲĦ é¡¹
åįļçī© é¦Ĩ
éĵ º
äººæ°ĳ åħ±åĴĮåĽ½
å¹ »
é¢ ģ
è· ĥ
èĥ ĥ
èĤ º
æŀĦ å»º
çł Ĥ
è¡¨ è¾¾
æµģ ç¨ĭ
çļĦ çłĶç©¶
å¹´ è¢«
åĪĨ ç±»
å®¤ åĨħ
è¥¿ åĮĹ
æł ı
èĥ İ
åĳĬ è¯ī
äºº çĶŁ
è¶ĭ åĬ¿
èĤ ĥ
å®£ å¸ĥ
ç¬¬ äºĶ
å±ķ è§Ī
å¿ ĺ
çĽ¸ æ¯Ķ
åĬł å¿«
è®¾ æľī
æĭ Ĵ
ä¸Ģå®ļ çļĦ
ä¸į è¶³
ä¸ĵä¸ļ çļĦ
æģ Ĳ
æľº çļĦ
åħ Ħ
æĶ¯ ä»ĺ
ç»´ ä¿®
æĢ ª
çºª å¿µ
æŀ ª
çĸ Ĩ
å¯¹ è±¡
èĬĤ èĥ½
é¢Ħ è®¡
æ¡ ĳ
æİĮ æı¡
ç´ł è´¨
å¸ ķ
ä¹ĭ å¤ĸ
æ²» çĲĨ
åı¯ éĿł
äº« åıĹ
ç¼ ´
å±±ä¸ľ çľģ
èĦ ¸
å¼º åº¦
ä¸º ä»Ģä¹Ī
åİĤ å®¶
èĩ £
Ġ é¥°
æĸ° æĬĢæľ¯
åģ ¶
ç§ĳæĬĢ æľīéĻĲåħ¬åı¸
åľ¨ ä¸ŃåĽ½
å£ ³
æĲ º
èİ ²
æ¹ĸ åįĹ
æģ ĭ
åĩł ä¹İ
æĦ Ī
ç¨ ¿
æľĪ çĶŁ
ä¸Ńåįİ äººæ°ĳåħ±åĴĮåĽ½
èį£ èªī
çŁ³ æ²¹
é¢ľ èī²
å¢ ĵ
çĵ ¶
ä»ĸ åľ¨
çº µ
æ° ¨
éĻ¢ éķ¿
åĽ½ åĬ¡
ç¼ĸ è¾ĳ
æĺ¯ ä¸ŃåĽ½
i v
å¹¿ä¸ľ çľģ
é¢Ħ éĺ²
å´ ĩ
ä¾Ŀ æ³ķ
èĭ± æĸĩ
çģ Į
æĸ¯ çī¹
ãĢĭ ,
åĩĨ ç¡®
æĪ¿ å±ĭ
è£ħ å¤ĩ
çİ° å®ŀ
äºİ æĺ¯
æĬ¥ éģĵ
åĮĹäº¬ å¸Ĥ
åĲ¯ åĬ¨
éŃ ı
éĩĩ è´Ń
è¿ħ éĢŁ
åİ» å¹´
éĺ² æŃ¢
è¯¦ ç»Ĩ
: âĢľ
åıª èĥ½
æ³ķ è§Ħ
å° Ŀ
ç§ Ĵ
éĵ ¸
âĢ¦ âĢ¦
Â °
åĿ Ĭ
ä¸Ģå®ļ è¦ģ
çļĦ åľ°æĸ¹
èĦ ı
æĪ¿ åľ°äº§
éĻĲ åĪ¶
åĪ¶ åĵģ
å§ Ĳ
ä¸» åĬ¨
è¿ «
æľĢ æĸ°
çĪ¶ äº²
å¯¼ æ¼Ķ
å¦Ĥ ä»Ĭ
çĤ ¸
å¼º åĮĸ
å» ·
ä¾Ŀ æį®
æľī äºº
åŀ ĥ
æ¨¡ åŀĭ
åį° åº¦
ç¢ į
åĢ¼ å¾Ĺ
âĦ ĥ
ãĢĭ ãĢĬ
åľ ¾
éĩĮ çļĦ
æĮĩ æłĩ
åŀĥ åľ¾
èĤ¡ä»½ æľīéĻĲåħ¬åı¸
èĩª ä¸»
å½ĵ ä»£
åľ° åĿĢ
çłĶç©¶ éĻ¢
åĩ ī
æĳĦ å½±
èĴĻ åı¤
çĪ¶ æ¯į
æŁ ³
åĩ ½
è¿ĳ å¹´æĿ¥
å¤§ éĥ¨åĪĨ
ä» ¿
å¹¸ ç¦ı
çļĦ ä¼ģä¸ļ
è§Ĥ å¯Ł
å½ ¼
i r
æ¬ ²
æ²Ł éĢļ
éĺ³ å¸Ĥ
åĢ ¾
ä¹ł æĥ¯
æī £
åĸ Ŀ
i m
at ion
éħį å¥Ĺ
èĢĮ è¨Ģ
è®¤ çľŁ
ç¢ İ
åĽ½åĬ¡ éĻ¢
ç³»ç»Ł çļĦ
å¨ ľ
é¥® é£Ł
n g
çĤ Ń
æĳĺ è¦ģ
æī «
çĮ «
åŃ ķ
é«ĺ ä¸Ń
åĮ» å¸Ī
è¢ ĭ
ä¼Ĺ å¤ļ
å·¥ åİĤ
åľ¨ æŃ¤
å®ļ çļĦ
æĸ° åŀĭ
å°± åı¯ä»¥
åħ ¹
åħ± æľī
ä½¿ å¾Ĺ
å¾Ģ å¾Ģ
åħ ½
æľ¬ èº«
ç¾ ½
æŀ Ŀ
æĭį æĳĦ
æłĩ å¿Ĺ
åīį å¾Ģ
ä¸Ģ åĪĩ
æķ ¦
å° ¿
æ£® æŀĹ
ç®Ģ ä»ĭ
ä¸Ģ å®¶
æ® ¿
å±ķ çİ°
æıĲä¾Ľ äºĨ
ä¸Ģ ä½ĵ
åľ° ä½į
æľŁ çļĦ
æ¸ ¡
å§ĭ ç»Ī
Ġ å¹´
åįı åĬ©
çļĦ æĬĢæľ¯
äºĭ åĬ¡
ä½ĵ çİ°
æĽ¾ ç»ı
å®¶ éķ¿
åŃĲ çļĦ
è· Į
åħħ æ»¡
æĶ¹ éĢł
éľ į
Ġ åľ¨
çĩ ¥
è² Į
èħ Ķ
çĲĨ æĥ³
å¦Ĥ ä¸ĭ
åĽ½åĨħ å¤ĸ
éĢ ĥ
æĽ´ æĸ°
åİŁ çĲĨ
æ¬ £
åĬ ²
Ġ t
çº¿ ä¸Ĭ
ï¼Į ãĢĬ
æŁ ı
å°½ ç®¡
çº¤ ç»´
åĪ© äºļ
å¹¿ åľº
Ġ d
ä¹¡ æĿĳ
åĲį åŃĹ
çļĦ æľįåĬ¡
æľī äºĨ
åħ±äº§ åħļ
æĽ´ å¥½
ä»¤ äºº
é«ĺ è´¨éĩı
çªģ åĩº
ä¸¤ ç§į
åľ° ä¸ĭ
æĹ¥ èµ·
æĴ ĳ
ç¡ ħ
æ¢ ¯
é¡º åĪ©
å¡ ĺ
å¼º çļĦ
åĪ© æ¶¦
å»º æĪĲ
æĹ ģ
å¦ ¹
å®ŀ è¡Į
ä¸ĵ éĹ¨
å°¼ äºļ
æ±¡ æ°´
ä¸Ģ ä½į
èį£ èİ·
æĻ¯ åĮº
ä¹ ı
æľĢ è¿ĳ
è¿ Ī
e m
æĽ ¹
éĻĦ è¿ĳ
B A
æ·· åĲĪ
è¾½ å®ģ
i a
åĲĮ æł·
è¥¿ å®ī
e c
è¿ĲåĬ¨ åĳĺ
åħ ģ
è§Ĵ åº¦
åħ´ è¶£
æīĭ æľ¯
çĩ ķ
å¥¹ çļĦ
åĳĪ çİ°
åĩł ä¸ª
è¿½ æ±Ĥ
é ¬
å± ¥
æĹ¶ çļĦ
Ġ K
ç§ĺ ä¹¦
ç»Ļ äºĪ
èµ ĭ
æµģ è¡Į
çīĪ æľ¬
æ£Ģ éªĮ
ç¾İ ä¸½
åįı è°ĥ
ç±» ä¼¼
åıĳ åĬ¨
è®¨ è®º
æ¶Ī éĺ²
æĦı å¤§åĪ©
è¿Ľ åı£
ãĢĤ ï¼Ī
å¤§ èµĽ
éĴ »
æ±ī æĹı
æĭ Ĩ
åĬ¨ çĶ»
åľ° åĽ¾
å½ĵ åīį
æĺ¯ ä»Ģä¹Ī
éĢĤ çĶ¨äºİ
åĲĦ ä¸ª
éĿĴ å²Ľ
æ°Ķ ä½ĵ
èµĽ äºĭ
æ¶ ¯
åľº æīĢ
å Ĺ
è¡¨ æ¼Ķ
éĻ¢ æł¡
âĢĿ âĢľ
æĽ´å¤ļ çļĦ
æį ķ
åħį çĸ«
å¦ Ļ
åľ° çĲĥ
åľ¨ è¿Ļ
çļĦ ä¸»
çĥ ¯
ä½ľ ä¸ļ
å¯ Ħ
æĪĺ æĸĹ
çļĦ æĸ¹æ³ķ
è§£ éĩĬ
åĩºçīĪ ç¤¾
ä¾ ¯
ä¸ ĺ
åıĺ å¾Ĺ
åħ¶ å®ĥ
çļĦ åīį
å®¶ åįıä¼ļ
çº º
æĳ Ĩ
ä» Ķ
è®© äºº
åī ²
å¤ļ å°ĳ
æĸĩ åŃĹ
èĩªåĬ¨ åĮĸ
æŃĮ æĽ²
åİ ĺ
è§£ æĶ¾
æµ· æ´ĭ
å¹¿ æĴŃ
ç®¡ éģĵ
å¸ĥ å±Ģ
u l
èī² çļĦ
å·¥ åķĨ
æħ Ī
å°Ĩ åľ¨
çľŁ çļĦ
ç«ŀ èµĽ
ä¸Ń å°ı
ä¸Ĭ è¿°
æī °
Ġ [
æ¼Ķ åĩº
åĨ Ĵ
ä¸Ģ çĤ¹
èĬ ³
çł ĸ
æĤ ¬
éħį ç½®
èµ ¤
å¿« ä¹Ĳ
ä¸ľ æĸ¹
åĮ» èį¯
æľĪ åĩºçĶŁ
åĽ½ æ°ĳ
èĩª æĪĳ
æĻ ¨
æĿĳ æ°ĳ
äºº åľ¨
äºĭ æķħ
éĿ¢ ä¸´
è½¬ åŀĭ
èī¯ å¥½
äº§ æĿĥ
æİĪ äºĪ
åįģ å¹´
èĶ ¬
u m
æĮĩ æĮ¥
æķĻ ç»ĥ
çĤ Ĵ
è§Ħ åĪĻ
æµ ħ
åĲĪ æł¼
åıį æĺł
åĽŃ åĮº
çī¹åĪ« æĺ¯
åħ¬ åĳĬ
ç¦» å¼Ģ
çĻ½ æĸĳ
èĢĮ æĪĲ
éĥ¨ éķ¿
æ±Łèĭı çľģ
çİ¯ èĬĤ
å®ļ ä½į
ä¼Ļ ä¼´
ç¼ Ŀ
åį³ åı¯
ä¿ Ĭ
æ© ¡
åį³ ä½¿
åľº æĻ¯
æł¡ éķ¿
å¤§ éĻĨ
æ£ Ĵ
ç© Ĩ
å¤§å¤ļ æķ°
è®¸ åı¯
äºº ä½ĵ
åĬł ä¸Ĭ
o p
çļĦ çĶŁæ´»
æĶ¶ éĽĨ
åĪĽ æĦı
éļı åĲİ
æķ ¢
u t
èµĦ è®¯
çī µ
æľĪ ä»½
æķĻ æĿĲ
ç¿ °
æĪĲ çĨŁ
è¡¨ æĺİ
æĺ¾ èĳĹ
å°¤åħ¶ æĺ¯
å»º äºİ
çĶŁ çļĦ
æıı è¿°
a v
å°Ĩ ä¼ļ
åľ¨ äºİ
æ¼ Ĩ
çĪ± æĥħ
Ġ of
è´µ å·ŀ
éĵ¶ å±ĳ
ä¸Ĭ åįĩ
æĬ ĳ
çļĦ ä¸ĵä¸ļ
é¼ĵ åĬ±
éĢ Ĩ
åĲ¸ æĶ¶
è´ ¤
åı¯ä»¥ åľ¨
è° Ĳ
åŃ¦ èĢħ
ç½ĳ ä¸Ĭ
åĨ »
åĮ ¹
æ° Ľ
æīĭ æ®µ
çĽ¸ äºĴ
äºº æķ°
ç¾İ çļĦ
èĩªæ²» åĮº
åŁİ åĮº
èµ ł
è¥¿ éĥ¨
éĵ¶å±ĳ çĹħ
åľ° è´¨
åŃ¦ å®¶
æĽ´ æĺ¯
èĥ Ĩ
æĿŃ å·ŀ
Ġ V
æĪĲ äºĨ
æķĪ çĽĬ
æĭĽ èģĺ
Ġ s
æĢ» ç»ıçĲĨ
N A
èĬ Ŀ
å±Ģ éķ¿
ä¸Ńåħ± åħļåĳĺ
åı¬ å¼Ģ
åŁº åĽł
æĩ Ĥ
åľ° çļĦ
ä¼ļ éķ¿
å¼º è°ĥ
å¹´ é¾Ħ
æĪĲ åĪĨ
é©¾ é©¶
åĽ½å®¶ çº§
åį µ
è¯Ĭ æĸŃ
ä¸Ģ æĿ¡
åĻ¨ çļĦ
ä¸ĸçķĮ æĿ¯
èĤ¡ ç¥¨
èĩª è¡Į
æĹ¶ å°ļ
ä¸ĩ äºº
æµ Ĩ
éĨ ĩ
èµ ´
å¼ķ å¯¼
è¿Ļ ä¹Ī
ä¿¡ çĶ¨
ä¸Ģ çº§
Ġ O
ä¸ĭ éĿ¢
æĥħ ç»ª
æ¸ħ æ´ģ
åĲĪ éĩĳ
çļĦ æ²»çĸĹ
åħ± äº«
çķ ª
æ£ ĭ
åį± éĻ©
åºĶçĶ¨ äºİ
æľ¬æĸĩ æĳĺè¦ģ
çĸ ı
éĽ ¾
å±± åĮº
çļĦ å¥½
èİ· åıĸ
åĪ© çĽĬ
è¥¿ äºļ
å®ŀ çĶ¨
ä¾¿ åĪ©
å¤§ å°ı
æ¸ł éģĵ
è®º åĿĽ
å¯¿ åĳ½
æµģ éĩı
ä½ł ä»¬
çº¿ è·¯
çļĦ è®¾è®¡
éĺ Ķ
çļĦ åĲĮæĹ¶
å¹´ æ¯ķä¸ļäºİ
èĲ¥ ä¸ļ
å½ĵ ä¸Ń
ä½ Ĳ
ä¿Ŀ æ¸©
é¡µ ç¬¬
è¿Ļ æ¬¡
å¯¹ å¤ĸ
äº Ń
æĽ¾ ä»»
åĽ¢ ä½ĵ
åĪ° çļĦ
æ» ļ
æİ ĺ
è°ĥ èĬĤ
ç¬¬ä¸Ģ æ¬¡
æįŁ å¤±
æĮ ĸ
åĽ´ ç»ķ
æľ¬ ä¹¦
äºĭ å®ŀ
æ¯ ģ
èĢģ å¹´
æĢ» ç»ĵ
äºĭ æĥħ
çŃī æĸ¹éĿ¢
ä¸ļ ç»©
æĴ °
* *
æĬ ±
æµĻæ±Ł çľģ
æ°Ķ åĢĻ
çĽ Ī
èİ ī
åħ¬ ä¼Ĺ
éĢı è¿ĩ
å§ ľ
æ·» åĬł
åĽĽå·Ŀ çľģ
å¯¼ å¸Ī
éĤĢ è¯·
æĭĴ ç»Ŀ
å°º å¯¸
æĬ¤ çĲĨ
éī´ å®ļ
é«ĺ æ¸©
ç² Ĺ
ä½¿çĶ¨ çļĦ
èĬ ¬
: ãĢĲ
éĿ¢ åĲĳ
ç¿ ¼
ä¸Ĭæµ· å¸Ĥ
éĽĨ æĪĲ
æĶ¯ æĴĳ
çĭ Ĥ
å·¥ä½ľ èĢħ
åĽ Ĭ
ä¼ļ æľī
æµ· å¤ĸ
å¾Ī å¤§
æİĪ æĿĥ
æĺ¯ ä»¥
æĸĩ çī©
é¬ ¼
çĪ ¸
çĶµ æºĲ
çĤ ®
åĬ¨ ä½ľ
æł¹ æľ¬
çĻ¾ åº¦
éĽĨ ä½ĵ
åĲĮ å¹´
åĬł æĭ¿
ä¸ĭ åįĪ
èĢĥ çĶŁ
æĹ© æľŁ
å±ħ ä½ı
çĹħ æĥħ
å¹² çĩ¥
ç¡ «
Ġ ï¼Į
éĢļ è®¯
çºª å½ķ
æĶ¯ éĥ¨
å¤į åĲĪ
æ¯į äº²
ä¿Ŀ åģ¥
é¼ »
å¿ ½
çĶµ æ°Ķ
æ²³ åįĹçľģ
çļĦ æ°´
å¿Ĺ æĦ¿
è¾ ¨
P P
éŁ ¦
å¹³ è¡¡
æķ´ åĲĪ
åĪº æ¿Ģ
æĮĩ æķ°
è¢ Ń
ä¸Ģ åĲį
Ġ âĢľ
éĺ² æİ§
çļĦæĥħåĨµ ä¸ĭ
æĦŁ åıĹ
å¾ĭ å¸Ī
o c
åĲ« æľī
å© ´
åħĭ æĸ¯
çĽ´ æĴŃ
è¿ĳ æĹ¥
éĢĲ æŃ¥
å½± çīĩ
ç¡® è®¤
çĶŁ äºİ
æı Ń
çļĦ ä½ľçĶ¨
ä»¥ åīį
é¼ ł
è¾ £
è®¿ éĹ®
èĤ¯ å®ļ
è®¤ åı¯
åį° åĪ·
o d
æĦı åĳ³
ä¸ī åįģ
å¿ Ļ
æĦı æĢĿ
æ·± åº¦
æ¸ħ æ´Ĺ
æ¡ Ĩ
å¸¸ åĬ¡
æ¯« ç±³
ä¼ļ ä¸Ĭ
é£İ æľº
éļ¾ ä»¥
G B
è¶ħ çº§
çļĦ å¿ĥ
èĳĹ ä½ľ
çº¢ èī²
åŃ Ŀ
E D
çĶµè§Ĩ åī§
ä¸»è¦ģ æĺ¯
åĽŀ åºĶ
æŁ ľ
éĥ ģ
åĬŀ åŃ¦
çĶŁ æ¶¯
åĩ Į
äºĳ åįĹ
æĹł çº¿
æľī ä¸Ģä¸ª
ä¸» ä½ĵ
å®ļ ä¹ī
å³ ¡
ä¸ĩ åĲ¨
æİĴ æĶ¾
è´ º
ä¸ŃåĽ½ åħ±äº§åħļ
çĶŁæ´» ä¸Ń
å¯ ĵ
åł Ĩ
è¥¿ çıŃ
è¯ ŀ
çī© çļĦ
å®¶ æĹı
åĬł çĽŁ
éĺ³ åħī
é»ĳ èī²
åģļ åĩº
Ë ĭ
å¤ ¹
è¥¿çıŃ çīĻ
äºĶ å¹´
çŃĸ çķ¥
èħĲ èļĢ
æĪª èĩ³
æĪĲ å°±
ä¸ĵ è¾ĳ
å¥³ åŃĲ
æŁ ´
æ° ¢
ä¹ĭ ä¸Ń
Ã Ĺ
ç¿» è¯ĳ
äº¿ ç¾İåħĥ
è¯¾ é¢ĺ
åİ ¨
éĺ ģ
æį Ĳ
çĨ Ĭ
é»Ħ éĩĳ
äºĭ é¡¹
äºº å¤§
ä¸į åĨį
å¥ Ī
æµ ©
è´· æ¬¾
çĭ Ĺ
åı¤ ä»£
æ£ ī
çī¹ æĢ§
æĹ¥ åľ¨
åħ¬ å®ī
æĦŁ åĪ°
è¿ĺ è¦ģ
åĽ¾ çīĩ
èµ¢ å¾Ĺ
çļĦ çĥŃ
åĿ ª
è¸ ª
â ĳ
æĭĽ çĶŁ
æ¸ Ĺ
çĶ º
é©± åĬ¨
æĢ» éĥ¨
æĪ Ī
ä¹Ł å°±æĺ¯
æĶ¾ åľ¨
a b
çĪ µ
çİ°ä»£ åĮĸ
æĻ¯ è§Ĥ
å¿ §
è Ł
è´¯ å½»
æ¿Ģ åħī
ç¼ Ĩ
åŀ Ĥ
æĿĥ åĪ©
åħļ çļĦ
æŃ» äº¡
èĤ ¾
åĽ½ å¤ĸ
æ°ĳ éĹ´
æĢĿ èĢĥ
æĸ° èĥ½æºĲ
è¡ °
åĬ¨ æĢģ
å½ °
æĽ´ å¥½çļĦ
å¼ķ è¿Ľ
å°Ĩ åĨĽ
ä½ı æĪ¿
éĥ½ åľ¨
åĲĪ å¹¶
æµģ åĬ¨
æĥħåĨµ ä¸ĭ
èŀį èµĦ
åıĳ çļĦ
æĿ¡ ä¾ĭ
æ· ®
æĹħ è¡Į
å¯¹ æĸ¹
å¯ ¨
åıĳ çĶµ
åİĺ ç±³
æĸ° çĸĨ
æ» ´
æ¡Ī ä»¶
I P
èĮ ¨
å¸Ĥåľº çļĦ
ä¸Ģ èĩ´
å£° éŁ³
äºĴ åĬ¨
è¡Įä¸ļ çļĦ
åĲ« éĩı
çĽ´ åĪ°
éŀ ĭ
èĹ ¤
å»ºçŃĳ éĿ¢ç§¯
å¿ĥ çļĦ
èħ Ĭ
ä¼ĳ éĹ²
åĪĨ ç¦»
èħ º
ç¦» åŃĲ
åĬł çĥŃ
éħ ¯
åĲī æŀĹ
å¢ĥ åĨħ
ç½Ĺ é©¬
ä¸į éĶĪ
åĲ Ĭ
åĲį åįķ
æ»¡ æĦı
èµ ¶
èī² å½©
åŃ Ł
æĶ¶ èĹı
åĨĽ äºĭ
ç¬¬ ä¸Ģä¸ª
é¡¾ éĹ®
èĸ ª
æ¸¸ å®¢
æ´» æĢ§
çļĦ è¦ģæ±Ĥ
å¥ ĳ
ç¢ ±
å¤§ çº¦
åĦ¿ åŃĲ
åĨ ¶
æķĻèĤ² éĥ¨
åĲĮ æĦı
å¤§ åĬĽ
åĳ¨ è¾¹
èĢ Ģ
ç¨ Ģ
èĬ¯ çīĩ
æĵ ħ
ä½ı å®ħ
.. ..
çļĦ å¤ĸ
åıĪ ç§°
èľ ľ
èĥ½ éĩı
çĶµè§Ĩ åı°
çĻ½ èī²
ä¸» åĬŀ
Ġ J
åĪĽ åĬŀ
ç¦ıå»º çľģ
èİ·å¾Ĺ äºĨ
æľį è£ħ
çĶ³ æĬ¥
i e
å¤§ å¤§
å·® å¼Ĥ
æīĢ è°ĵ
ä» ²
æ¸ħ æ¥ļ
å¸¦ é¢Ĩ
åĴ ĸ
éķ¿ çļĦ
æ·±åľ³ å¸Ĥ
é¸ £
ä¸įéĶĪ éĴ¢
é£Ł çĶ¨
åĮ Ģ
æ³¨ éĩį
åħ¨ ä½ĵ
æĹ º
éĹ ª
è¾ĥ ä¸º
å² ³
ç¬¬ åħŃ
å¤ļ åħĥ
åĳ¨ æľŁ
åĬŁ çİĩ
æĤ ²
å¸ ħ
é¢ĨåŁŁ çļĦ
èĩ³ å°ĳ
éĥ¨ ä»¶
å±± è¥¿
çĽĳ æİ§
åĪ© äºİ
åŃĺ åĤ¨
å® Ļ
åĽŀ åĪ°
è§Ĩ è§ī
æĺ Ĥ
t h
é¤Ĳ é¥®
çĶ¨ æĿ¥
äºº åĬĽ
åĩºçĶŁ äºİ
åĽ¾ä¹¦ é¦Ĩ
èį¯ åĵģ
å¼ ĺ
æĻ® éģį
éŃ Ĥ
å¼ ¯
åĬłæĭ¿ å¤§
ä¸ Ļ
åıĳ çĹħ
i p
åıĳ æĺİ
åįĬ å¹´
å¯» æī¾
c e
æ¡ Į
æĢĿ ç»´
æ· ĺ
ä¸ĭ è½½
æĶ» åĩ»
éĺ¿ å°Ķ
ç©º è°ĥ
o g
èĶ¬ èıľ
éĺŁ çļĦ
çħ§ çīĩ
ç§ĳ åŃ¦éĻ¢
åħ¨ çľģ
è£ħ ä¿®
æ¹ ĺ
åĲ ķ
èĥ ¸
é¥ ¼
æĹ© å·²
åĿ Ŀ
ä»£ çłģ
P C
è¡Ģ ç®¡
æ· Ģ
ä¸Ń éĹ´
çī ¢
æĽ´ ä¸º
å¦Ĥæŀľ ä½ł
æ±Ł è¥¿
æĿ¥ åĪ°
åĲĪ æĪĲ
çº ²
åľº æ¯ĶèµĽ
æĢģ åº¦
æĲ ¬
å®¶ åħ·
çł´ åĿı
e b
Ġ m
åįłåľ° éĿ¢ç§¯
è½¬ åĮĸ
åĨ³ çŃĸ
å®ļ æľŁ
è¯Ĩ åĪ«
æł¼ åħ°
æĽ °
å±± å¸Ĥ
çĬ¯ ç½ª
åĪĨ éħį
èĮ Ĥ
å®¶ çļĦ
æĦŁ è°¢
æĵ ¦
ä¸ĵ ç§ĳ
ç»´ æĮģ
èģ Ĭ
å°ı çļĦ
åĽĽ ä¸ª
æ¡£ æ¡Ī
åī ª
ä¸į éĶĻ
æĴ ¤
ç® Ń
åĨ Ī
é¼ İ
å½± è§Ĩ
åĬŀ äºĭ
å¥¥ è¿Ĳ
ï¼ ħ
é¹ ¿
åĲį çļĦ
æĪĸ æĺ¯
èĤ¿ çĺ¤
å·¥ä½ľ äººåĳĺ
ãĦ §
ä¸Ĭ ä¸ĭ
å°± èĥ½
å¥ Ķ
çº ł
è¿ĺ åı¯ä»¥
æĭ ³
äººæ°ĳ å¸ģ
æľºåĻ¨ äºº
éĻķ è¥¿
èĳ£äºĭ éķ¿
çŃī çº§
èĢĥ æł¸
å»º éĢł
ç´¯ è®¡
ä¼ł æĦŁ
æĦıåĳ³ çĿĢ
æīĵ å¼Ģ
çĥ ¦
èĤ¡ ä¸ľ
åħ¥ éĢī
æĸ ¤
çľ ł
è®² è¿°
æĶ¶ çĽĬ
ç§ ī
åī ©
å¦Ī å¦Ī
æľĢ æĹ©
åŃ ¤
åķ Ĭ
åħģ è®¸
æ° ¯
æł ª
ä¹Ł åľ¨
æľī å¾Īå¤ļ
èĭ± éĽĦ
åıĤåĬł äºĨ
ä¸Ģ ä»£
æ§ ½
æĤ ¦
ä¸Ģ æµģ
å¯¹ æīĭ
æ¤ Ĵ
éĺ² æ²»
éĥ¨ ç½²
çĬ ¹
åºĶ æĢ¥
åĪĻ æĺ¯
âĢ ĵ
çĽ Ĵ
å¹´ èĩ³
æĳ ĩ
çĶµ åĻ¨
åĺ ´
åľ° çĤ¹
è¾ĵ åĩº
ä¼ļ åľ¨
è¿ĩ æ»¤
æ¡Ī ä¾ĭ
èĶ ¡
å°Ĩ åħ¶
åĳ¨ åĽ´
åħ¸ åŀĭ
çĶŁ ç´ł
æĹ¥ æĬ¥
ä¸ĵ çĶ¨
åŃ£ åº¦
æĴ ŀ
ä¸ ²
æ± Ĺ
ä¾Ŀ çĦ¶
é¾Ļ æ±Ł
å¾® ä¿¡
P S
å¹´ éĹ´
ä¼ Ĳ
æ¯ķä¸ļ çĶŁ
åİĨ ä»»
è¡¥ åħħ
çĽ ¾
åĽ½ æľī
éħ ·
æ³ ³
ä¸ī åĪĨ
è¸ ı
ç½ĳ åıĭ
åħ» æ®ĸ
æĬĢæľ¯ çļĦ
åħ¬ çĽĬ
å²ģ çļĦ
å¸ĪèĮĥ å¤§åŃ¦
C A
éģ ¥
å±Ĥ æ¬¡
åĻ ª
èħ ¿
éģĩ åĪ°
æıĲ äº¤
è¾ĵ åħ¥
åį± å®³
æī§ æ³ķ
å µ
æŁĲ äºĽ
ä¸Ģ æ®µ
è½» æĿ¾
ä¸ª æĢ§
ä¸» æ¼Ķ
åİ¿ åŁİ
èĥľ åĪ©
åŁ¹ èĤ²
é£İ æĻ¯
çĶĺ èĤĥ
åı ī
çĽ¸åħ³ çļĦ
æµ ¸
èĢķ åľ°
æĹ¶ åĪ»
è¯ ±
é«ĺ ç«¯
åı¸ æ³ķ
åĩĢ åĮĸ
èľ Ĥ
åħ¨ å¸Ĥ
é¢ Ī
æµ· æĭĶ
ä»ª å¼ı
éĥ¨ çļĦ
t r
æĤ ł
ä¿¡æģ¯ åĮĸ
è¾ Ĳ
è®¾å¤ĩ çļĦ
åľ¨ ä¸Ģèµ·
è¯ļ ä¿¡
æ» ©
éļľ ç¢į
éĢļ éģĵ
åĴĮ åħ¶ä»ĸ
åĩŃ åĢŁ
ä¸ Ľ
çļĦ ä¸į
åĤ ¬
ä½ľ åĩº
åľ°åĮº çļĦ
èĬ± åĽŃ
Ġ ï¼Ī
åĲ ¹
åŁº å±Ĥ
æıĲ åīį
åľ° éĵģ
çĪ± çļĦ
çĶ¨ éĢĶ
é¸ ¿
åĴĮ ç¤¾ä¼ļ
å®¡ æŁ¥
æľĢ å¥½
æĲľ ç´¢
åĪ« äºº
åĬł éĢŁ
å®ĩ å®Ļ
æ¸ Ķ
èĪĴ éĢĤ
éĢĤ å½ĵ
çĽ Ĩ
æĸĹ äºī
ä»¥ ä¸º
è´§ å¸ģ
åıĺ æĪĲ
éĤ ĵ
ç¨ »
è¯´ éģĵ
åĿ ĳ
åĿĲ èĲ½
åı¯ æĺ¯
è´ ¾
éĽ¶ åĶ®
ä¸ĵ é¡¹
éĥ¨ éĺŁ
ä¼¼ ä¹İ
åľŁ å£¤
å¤§ ä¼Ĺ
è¾ĥ å¤§
åĵ² åŃ¦
éĢ Ĭ
èħ °
å¤© ä¸ĭ
æ°´ åĪ©
å®¹ éĩı
èĤ ĸ
ä¼ļ çļĦ
æľŁ å¾ħ
åįģ åĽĽ
å¹ ½
ä¸ĵ æ³¨
åĽŀ æĶ¶
éģĵ å¾·
æĸ ľ
è§Ĥ çĤ¹
å¸Ĥ æ°ĳ
èµ ģ
çº¿ çļĦ
åĪĹ è½¦
ä½ľ å®¶
ç²¾ å½©
ç¼º ä¹ı
å¿ į
å¹¶ æ²¡æľī
æľī æĹ¶
ç§Ł èµģ
éħ ±
å¾Ī éļ¾
æĬķèµĦ èĢħ
çļĦ åİŁåĽł
çĶµ è·¯
åĨ² åĩ»
åŁİ éķĩ
æľ ´
å¤© æ°Ķ
æµ ´
äºĮ çº§
åıĤ èµĽ
è½¨ éģĵ
æĢ§ è´¨
æĺ¯ ä¸į
å¹´ åīį
èĪŀ åı°
èī °
é£ŀ æľº
æĢ» ä½ĵ
åī¯ ä¹¦è®°
ç¨ į
ä¸Ģ å¤©
è½¬ ç§»
ä¸¤ äºº
éĥ½ ä¸į
ä¸Ģ æĹ¦
æĭĽ æłĩ
ä½İ äºİ
åľ° å¤Ħ
Ġ c
æ¨¡ æĭŁ
æ± ģ
æķ°åŃĹ åĮĸ
å®īå¾½ çľģ
çħ ®
æĪ Ĵ
æľī åı¯èĥ½
è§Ħ æł¼
ä¿® æĶ¹
è¾ħ åĬ©
é¢Ħ æµĭ
æīĢæľī çļĦ
äº§ éĩı
å¤§ å¸Ī
èĢĮ åľ¨
éľ ¸
ä¸»ç®¡ éĥ¨éĹ¨
éĶĻ è¯¯
é¡¹çĽ® çļĦ
å¦ Ĩ
ä¿Ŀ åŃĺ
æ¯ı ä¸Ģä¸ª
ä» °
èĭı å·ŀ
åıĸå¾Ĺ äºĨ
æĺ Ń
è¿ Ł
ä¸Ĭ åįĪ
åħ¬ åħĥ
äº§çĶŁ çļĦ
æĬķ æłĩ
è¯Ħ è®º
er s
çļĦäºĭ æĥħ
åĽ½ çļĦ
éļ¶ å±ŀäºİ
C h
åı¯ æĮģç»Ń
èµĦ è´¨
è¢« ç§°ä¸º
ä¾ ł
ç®¡çĲĨ å±Ģ
çļĦ çĶŁäº§
çłĶç©¶ åĳĺ
å°± åĥı
çŃī åľ°
çļĦ æķħäºĭ
éĹ ½
å®ļ åĪ¶
æĻ °
å¾Ī å¤§çļĦ
C O
é¹ ı
ä½Ĩ åľ¨
æ¶Ĥ æĸĻ
C P
åĬł åĿ¡
æ¹ĸåĮĹ çľģ
å¯Ĩ å°ģ
å¨ ĺ
çłĶ åĪ¶
æľįåĬ¡ çļĦ
éĥ¨ ä½į
æľĪ åıĤåĬł
æĢ» æĺ¯
el l
æĭĵ å±ķ
åĳ¼ åĲ¸
æī¿ åĮħ
å¾Ĺ åĪ°äºĨ
ä¸ī è§Ĵ
ç¥ Ń
æ¹ĸ åįĹçľģ
çĽ Ĺ
å°Ĩ äºİ
o b
ä¸ľ äº¬
é¥° æ¼Ķ
çŃĸ åĪĴ
æ·· åĩĿ
è½¬ æį¢
æħ İ
è¡ Ķ
å¥ĸ åĬ±
è¿Ŀ æ³ķ
äºº ä¸º
ä¸ĸçķĮ ä¸Ĭ
åħĦ å¼Ł
åĪ° è¾¾
éĿĴ å°ĳå¹´
ä¼ĺ çĤ¹
èĳĹåĲį çļĦ
æŃ£ æĺ¯
é»ĳ é¾Ļæ±Ł
çŁ¥è¯Ĩ äº§æĿĥ
è¢« è¯Ħä¸º
æĭ ¨
åı ł
å» Ĭ
èģĮ è´£
æİ¥ åı£
éĩĮ éĿ¢
èĢĥ å¯Ł
å¼ ¥
ä»ĸ äºº
æķ´ çĲĨ
æĿĥ çĽĬ
åķ ¡
èİ İ
åģľ æŃ¢
éĢ Ŀ
é¢ ĸ
åī§ æĥħ
ä¸Ĭ äºĨ
å¤§ éģĵ
ç¼ĸ åĪ¶
éĢł åŀĭ
éĥ½ èĥ½
äºİ ä¸Ģ
æľīéĻĲ è´£ä»»
I T
æľĢ ä½İ
é¢Ħ ç®Ĺ
åľ° éľĩ
å®Ĺ æĹ¨
æĭ Į
èĵ Ħ
æĹ¥ èĩ³
å°Ŀ è¯ķ
æ¢¦ æĥ³
åĬł å¤§
åĴ ¸
èĻļ æĭŁ
åĨ ¯
éĺ² æĬ¤
è®© æĪĳä»¬
å¤ª å¹³
æĸ° åĬłåĿ¡
ä¿Ŀ çķĻ
é£ŀ è¡Į
è° ¨
å¤ļ é¡¹
èĢĮ ä¸į
ç§į ç±»
æĬ ļ
å®¡ æł¸
èĭ ¹
å¤§ éĩıçļĦ
å¥³ åĦ¿
æ©¡ èĥ¶
çļĦ ä¸Ń
åı¯ è§ģ
é«ĺ åİĭ
äºĮ çŃīå¥ĸ
å¹¶ ä¸įæĺ¯
åĪ¤ æĸŃ
ãĥ »
ç¢ §
æĹĹ ä¸ĭ
åĲĪ æ³ķ
èį Ĵ
çĻ½çĻľé£İ çļĦ
æµ· åĨĽ
æĸ¹ ä½į
å¤§åŃ¦ çĶŁ
æķħ éļľ
__ __
éĶ Ĳ
Ġ p
I n
å¤§ å¹ħ
åĵĪ å°Ķ
éĹ®é¢ĺ çļĦ
æ» ĭ
ç«ĭ åį³
å·´ é»İ
å¼ķ åıĳ
M A
éĻ ª
çļĦ åĨħå®¹
ä¼ł è¾ĵ
éĢĤ çĶ¨
èĮĥåĽ´ åĨħ
èī ³
å¼ķ é¢Ĩ
æĺİ æĺŁ
çĻ¾ åĪĨ
éħ ¶
çłĶç©¶ ä¸Ńå¿ĥ
æł ĭ
é¢ ĩ
å¹´ åºķ
èĻ ¹
é Ħ
å¤± åİ»
æĶ¹ è¿Ľ
è¾ĵ éĢģ
æ¾³ å¤§åĪ©
ä¼¤ å®³
åİ¿ äºº
ç¨İ åĬ¡
æ³ Ħ
Ġ f
æ¾³å¤§åĪ© äºļ
è®¤ å®ļ
å¯Ĩ åº¦
æ°ĳ ä¸»
ä¸Ń æľī
å§Ķ æīĺ
æĥ ľ
ç½ Ĳ
åĭ ĥ
è¿ĳ æľŁ
èĥ Ģ
éĢī æīĭ
åĴĮ è°Ĳ
æīĢ éľĢ
ä½ľ çī©
æľĢ å¥½çļĦ
åĴĸ åķ¡
æĸĩ èīº
å¸Ĥ å§Ķ
ç¢ °
æ·± åĪ»
é¢Ĺ ç²Ĵ
æµ ı
æĤ£èĢħ çļĦ
åĪĽ ç«ĭ
åĪ¶éĢł ä¸ļ
å¾Ī å¿«
äºĭä¸ļ åįķä½į
åħ» èĢģ
Ġ U
è£ ķ
çİ Ħ
æľŁ æľĽ
å½ Ń
é¡¾ å®¢
çļĦ éľĢæ±Ĥ
ç» µ
å¤ļ å®¶
éķ¿ æ²Ļ
éŁ µ
I I
æĥħ æĦŁ
çĶ· åŃĲ
éķ¿ æ±Ł
æĭ ĸ
ãĦ ¨
ä¸Ģ åľº
æ¼Ķ åĶ±
å¼Ģåıĳ åĮº
æŁ¥ è¯¢
ä¸ī å¤§
éĶ »
æľīéĻĲè´£ä»» åħ¬åı¸
åľ° éĿ¢
çĶŁ åŃĺ
æ²³åĮĹ çľģ
å¹¼åĦ¿ åĽŃ
æĸ° åĮº
æ· ĭ
æĦŁ æĥħ
è´Ń çī©
éĿĴ æĺ¥
æ¼ Ĥ
åĢ ¡
æİ¥ è¿ĳ
å¸Ĥ æĶ¿åºľ
éĿ ĸ
å¾Īå¤ļ äºº
éķ Ģ
ä¸ĩ å¹³æĸ¹ç±³
å¾Ī å¥½çļĦ
å¸¸è§ģ çļĦ
ä¹ī åĬ¡
åį ľ
çķ ľ
çºº ç»ĩ
E R
I D
çīĪ æĿĥ
åľ¨ è¿ĻéĩĮ
èĽ ĩ
èĲ §
çĥ ¤
çĨ Ļ
åı· çº¿
èĭ ¯
æľ¬ äºº
æ½ ĺ
I N
è®° å¿Ĩ
é«ĺéĢŁ åħ¬è·¯
çĭ ®
ä¾ĽåºĶ åķĨ
èĭ¹ æŀľ
æĬ «
å¤© çļĦ
åİĭ ç¼©
åĮº åĪ«
é¥ ±
åĨħ å¤ĸ
åĨ· åį´
æķĪ åºĶ
æµİ åįĹ
å¤ļ æł·
ä¸ ¸
ç»Ī äºİ
åĲĪ éĢĤ
ãĥ ¼
Ë Ĭ
è® ¼
ä¼ĺ æĥł
å¼Ĥ å¸¸
åĲ Ĳ
å®ĥ æĺ¯
ä¸Ģ çŃīå¥ĸ
æ°´ æ³¥
åįģ ä¸ī
% ï¼Ľ
æĶ¿ åįı
ç»Ŀ å¯¹
ä¼łç»Ł çļĦ
è§Ħå®ļ çļĦ
ä»¬ çļĦ
å¤ĸ åĽ½
åĩł å¹´
ä¿¡ å¿ĥ
çĨŁ æĤī
åĽŃ æŀĹ
æ··åĩĿ åľŁ
è´§ çī©
in e
ä½Ļ äºº
o v
è¯» èĢħ
å°ı åĮº
t e
O S
ç¡® å®ŀ
ä¹Ł èĥ½
ä¹Ł åı¯
ä¼ĺ èī¯
å£° æĺİ
ï¼ī ï¼ļ
çº½ çº¦
æī ®
èĪ Ł
éģĹ åĿĢ
æĬĢ å·§
åĮĹ éĥ¨
è¯Ħ å®¡
ä¼łæĦŁ åĻ¨
æİ§ èĤ¡
ç² ¤
æħ ķ
ä¼ĺ åħĪ
åĨħ èĴĻåı¤
æľīæķĪ çļĦ
å¼Ģ åĲ¯
ç§¯ ç´¯
ãģ ®
åĲĮ ä¸Ģ
è®° è½½
åĭ ĺ
æĹ¥ åīį
ä¸į èī¯
è¾Ĳ å°Ħ
åįģ ä¸Ģ
æ³ Į
u b
a k
å© Ĩ
çĶµ åķĨ
ar d
æĺŁ æľŁ
èĻ ¾
ä¸» è§Ĵ
é¤Ĳ åİħ
è½¬ åıĺ
çŁ ©
æĪĸ è®¸
èµ Ķ
ç»Ĩ èĬĤ
å®¡ è®¡
çĭ¬çī¹ çļĦ
æ Ĩ
çļĦ ä½¿çĶ¨
æľī åĵªäºĽ
æ°¸ è¿ľ
ä¿® å¤į
æľ¬ ç«Ļ
çĶŁäº§ çļĦ
å®¶ äºº
å¸¦ æĿ¥çļĦ
ä¸ §
è¹ Ī
ä¸¤ å¹´
é¢ĳ çİĩ
çĶ¨ åĵģ
åºĶ å¯¹
èĳ Ľ
å¾Ī å¥½
æĮ ¤
in d
éĻ¶ çĵ·
è¶Ĭ åįĹ
æĤ Ł
åĲĮæ¯Ķ å¢ŀéķ¿
æł ½
æľĢ åĪĿ
èİ· å¥ĸ
åŁ ĭ
éĤ£ ä¸ª
çļĦåŁºç¡Ģ ä¸Ĭ
äº¤ æį¢
âĢĿ ï¼Ī
æ¸ħ æĻ°
åŃ¦çĶŁ çļĦ
éĢ »
éĥ½ å¸Ĥ
çªģ çĦ¶
åĽ¾ åĥı
æ¼« çĶ»
å¼Ģ æĭĵ
çĮ Ľ
å®ŀéĻħ ä¸Ĭ
ä¸Ģ æĺ¯
çĶµ ç¼Ĩ
åħ Ĩ
è¾ ©
å±¥ è¡Į
éĶ Į
è¾ Ī
ä¸į ä¹ħ
éĥĳ å·ŀ
å®Ĺ æķĻ
çĮ İ
èĩ Ń
æŁ ¯
ç»´ çĶŁç´ł
å¤§ è¿ŀ
çī© ä¸ļ
åĲĦ çº§
æľŁ åĪĬ
åıĳåĬ¨ æľº
æĽ¾ åľ¨
å·² æľī
çļĦ ç¾İ
ç£ ·
åĬ© åĬĽ
ç½ ©
è°ĥ çłĶ
éħį å¤ĩ
æ¯ı ä¸Ģ
ç³ ķ
æĴ Ĵ
åİ¦ éĹ¨
éĩį éĩı
æĮ ¡
çŃ Ĵ
ç»Ħ å»º
æŃĮ æīĭ
å½¢ æĢģ
å§ ¿
åŁİ ä¹¡
éĥ½ åı¯ä»¥
å·¥ èµĦ
è¶³ å¤Ł
çĿ Ľ
æĶ¾ å¼ĥ
æīĵ åį°
C D
æī© å±ķ
åł ª
çĶµ åİĭ
æļ ¨
äººå·¥ æĻºèĥ½
åŁºç¡Ģ è®¾æĸ½
ä¸į çŁ¥éģĵ
ä¸į ç®¡
ä½Ľ æķĻ
ä¸º æĤ¨
åħĪè¿Ľ çļĦ
éĩĮ æĸ¯
èĭ ĳ
å®ģ æ³¢
ä¸Ģ è·¯
éĿ¢ è¯ķ
éģĹ ä¼ł
è¯ī è®¼
æĪĲ çļĦ
es s
æĸ° å¢ŀ
ä¸ĭ äºĨ
æĸ° åĨł
ä»¥ä¸Ĭ çļĦ
æĶ¶ è´¹
çĦĬ æİ¥
çĹħ äºº
æŀ ļ
ç²¾ åĵģ
è¾ħ å¯¼
å½¢æĪĲ äºĨ
æľ¬ åľ°
è¾ĥ é«ĺ
åı Ļ
å¤ļ å¹´çļĦ
çļĦ æķ°æį®
åįģ åħ«
åĭ Ł
è¾ °
åĩº åıĳ
åĩº å¸Ń
æĺ¯ ä¸ª
åĳ¨ å¹´
ç¬¬ ä¸ĥ
çĭ ±
å°ĳ æķ°
æ³ Ĭ
èİ ŀ
åįĹ åĮĹ
çĶµ æµģ
èį ¡
ç °
Ġ ãĢĤ
æĹł äºº
ç²® é£Ł
çłĶç©¶ ä¼ļ
ç²¾ åº¦
éľ ŀ
åŀ «
ä»Ĭ æĹ¥
an g
å® ª
ä»¥ä¸ĭ ç®Ģç§°
çĲĥ åľº
çļĦ åħ¨
æ½ Ń
åįĹ éĥ¨
ä¹Ł è¦ģ
é«ĺ è¾¾
æĦ¿ æĦı
å¤§ æķ°æį®
ä¸Ģ ç³»åĪĹ
å°½ éĩı
åįķ åħĥ
å¤ĸ çļĦ
èīºæľ¯ å®¶
åı¥ è¯Ŀ
ç¿ ł
æŀ ¢
åŁº çĿ£
å§ »
è§Ĥ çľĭ
ç¿ Ķ
çĪ ·
èĪª å¤©
çī© åĵģ
åĪ° åºķ
éĢĢ ä¼ĳ
A T
èĳ ¬
æ°Ľ åĽ´
è´¢ äº§
åĲĮ æŃ¥
åįģ äºĶ
æĶ¹ ä¸º
æĬ ¼
æµı è§Ī
åį° è±¡
èĢģ äºº
çŃ¾ è®¢
å¹¶ éĿŀ
å®ŀçİ° äºĨ
æĲ ŀ
èµ° åĲĳ
ä¼ł éĢĴ
åĲĪ çī©
çĲĨ å·¥
ä¸ľ éĥ¨
åıĤ è§Ĥ
æľ µ
æľĪ ä»»
æıĲ éĨĴ
A C
ç²¾ åĩĨ
il l
ç¤¾ äº¤
åĽł èĢĮ
åĿĩ åĮĢ
èĪŀ è¹Ī
i f
å¹´ èİ·
ä¸» ç¼ĸ
å¤ļ å¹´æĿ¥
åĤ ħ
å¼º çĥĪ
åį³ å°Ĩ
åĩº æĿ¥çļĦ
çĲ ³
ç¤¾ä¼ļ ä¸»ä¹ī
åĭ ĭ
è·¯ çº¿
ç¯® æĿ¿
äºº åĿĩ
åīį çļĦ
æĿ¥ äºĨ
æľĪ èĩ³
è§Ħ å¾ĭ
èĮ ħ
èµ· åĪ°
æĵ İ
A R
ï¼Ł âĢĿ
å¸¦ çĿĢ
Ġ b
æĢ» ç»Ł
æ°´ çļĦ
æŃ¤ æĹ¶
æĶ¶ åĪ°
çŃ Ľ
Ã ©
åħ¨ æĿĳ
æ¨¡ åĿĹ
åĲĮ å¿Ĺ
å®¶ å±ħ
æĭī æĸ¯
æĳ ¸
åħ¥ åı£
ä¸ŃåĽ½ äººæ°ĳ
çļĦ åŁºæľ¬
n d
èº« ä¸Ĭ
ãĢį ï¼Į
ï¼ģ âĢĿ
ç¡¬ ä»¶
åİŁ æľ¬
A I
éļı æĹ¶
æī¿ è¯º
äººæ°ĳ æ³ķéĻ¢
å¤§ ä¸ĵ
éķ¿ æĹ¶éĹ´
åĽĽ å¹´
é¦ ¨
éŃ ħ
åĴĮ å¹³
æģ °
éĹ´ çļĦ
æĺ¥ èĬĤ
éģ Ĥ
çŃ ĭ
ä¸Ĭ æ¶¨
æĪı åī§
äº§ä¸ļ éĵ¾
ä¾Ŀ æīĺ
ä¸º å®¢æĪ·
ä¾ į
å°ı ç¼ĸ
çĨ Ķ
èĤ ©
çİ° ä¸º
äºĳ åįĹçľģ
æ¶² ä½ĵ
æĸ¯ åĿ¦
äºº æĸĩ
çĸ ¼
åįı åĲĮ
çº¦ ç¿°
çħ§ æĺİ
ç© ·
åī Ĭ
åŃ¦ å£«
ä¸Ń å±±
åĬłåħ¥ ä¸ŃåĽ½åħ±äº§åħļ
åı¯èĥ½ æĺ¯
çĸ«æĥħ éĺ²æİ§
å·¥ äºº
é«ĺ æĸ°æĬĢæľ¯
äºĮ å¹´
æĽ´ æį¢
æ°´ æŀľ
éĢı æĺİ
L ED
éĴ¢ éĵģ
å¸¦ åĬ¨
é¸ Ń
ä¹ĭ è·¯
å®ŀ æĹ¶
Ġ ,
æľī ä»Ģä¹Ī
æĬ Ľ
çļĦä¸Ģ äºĽ
çĶµ ç«Ļ
ä¼ ª
ç¦ ħ
ä¼ł åªĴ
ä¹ ¾
åĽ½ çİĭ
æĶ¶ è´Ń
å±ı å¹ķ
ç§ĺä¹¦ éķ¿
èĩªçĦ¶ æĿĳ
å¤ĸ è§Ĥ
ç§ĳåŃ¦ æĬĢæľ¯
çļĦ ä¿¡æģ¯
éĴ Ļ
ä½ľ æĪĺ
åį« æĺŁ
åĬ© æĶ»
çļĦ åİĨåı²
äººåĬĽ èµĦæºĲ
å°± è¦ģ
ä¸Ń èį¯
æ¾³ éĹ¨
è¿ĺ ä¼ļ
çģµ æ´»
å¤§ æ°Ķ
E S
äºĮ æĺ¯
ä¼ł è¯´
åįģ åħŃ
é½Ĳ åħ¨
å¹´ å¼Ģå§ĭ
å½¢ çĬ¶
â Ĺ
æ£Ģ å¯Ł
çļĦ ç®¡çĲĨ
ç¾¤ ä½ĵ
å·¥ä½ľ ä¸Ń
ä¾ ¨
æĪĲä¸º äºĨ
åĲį äºº
æĿĲ è´¨
åħ¬ åĬ¡
ä¸ Ī
å®Į ç¾İ
æ°Ķ è±¡
ä¸ľ èİŀ
è¡Į çļĦ
éĵ Ń
æĥ³ åĪ°
è®¾è®¡ å¸Ī
A S
æĹ¥ æľŁ
å¼º å¤§çļĦ
æ¯Ķ äºļ
é¹ ¤
æĻļ ä¸Ĭ
é¥ ²
äºĪ ä»¥
åį± æľº
çĥ ĺ
åĲ¦ åĪĻ
é¦ Ī
è¿Ĳ ä½ľ
æĺ ¨
åĴĮ æľįåĬ¡
ç»§ æī¿
çī¹ å®ļ
å¹´ èµ·
åıĳ åĩº
å½ķ åıĸ
åĬĽ åº¦
éª Ĺ
éĩĬ æĶ¾
è´Ŀ å°Ķ
è®¾è®¡ çļĦ
å»ºç«ĭ äºĨ
è° Ĭ
çĶ» éĿ¢
åĩºçİ° äºĨ
ç»ıæµİ åıĳå±ķ
å¯¹ æŃ¤
å®ŀ ä½ĵ
å¤ļ äºº
è¥¿ æĸ¹
æĢ» éĿ¢ç§¯
çĽ¸ ä¼¼
æĿ ī
çļĦ èĥ½åĬĽ
ä¸ĵ é¢ĺ
å°ı åŀĭ
åĶ® åĲİ
åıĸ æ¶Ī
I C
å·´ è¥¿
éĩĳ é¢Ŀ
å·¨ å¤§
ç»¼åĲĪ æĢ§
åħ³ å¿ĥ
æµĵ åº¦
ä¸» åľº
éĢļ çĶ¨
ä¸ī çŃīå¥ĸ
è¢ ģ
åº· å¤į
æ ª
åıį å¯¹
æīĢ å¾Ĺ
ĠĠ Ġ
ä¼¦ æķ¦
åħ¨ åĬĽ
åģľ è½¦
åı° åĮĹ
è¿Ľ çĲĥ
æĢ Ĵ
ä¼ł æī¿
ä¸į çĶ¨
åľ¨ è¿Ļä¸ª
æľĪ åľ¨
ä¹ĭ ä¸ĭ
çĶ± æŃ¤
åĬŁ æķĪ
æĶ¯ åĩº
è¯ķ çĤ¹
ä¸ºä¸Ģ ä½ĵçļĦ
çļĦ é¦ĸ
æĲŃ éħį
æ°Ķ æ¸©
æıĲåĩº äºĨ
å¤Ħ ç½ļ
æľī åĬ©
é©¬ åħĭ
èĩ³ äºİ
å¯Ĩ åĪĩ
å¹¶ äºİ
ä¸» æķĻ
åī¯ æķĻæİĪ
åĽ¢ ç»ĵ
ç«ŀäºī åĬĽ
è®² è§£
è¿ĺ èĥ½
å®Ŀ å®Ŀ
é©¬ æĿ¥
è ©
åĮ» åŃ¦éĻ¢
èĳ ±
ä¸Ģ å¸¦
ä½¿ åĳ½
è¡Ģ æ¶²
çĶŁæ´» çļĦ
æĴ° åĨĻ
æłĩåĩĨ åĮĸ
éĽĨåĽ¢ æľīéĻĲåħ¬åı¸
å¤Ħ ç½®
èĬ ½
T V
è®© æĪĳ
èģĮ ç§°
æĥ³ æ³ķ
å¸Ŀ åĽ½
å¸ ½
èĲ¥ éĢł
å±± è¥¿çľģ
æŀĹ ä¸ļ
æ² ¦
è¿ĩ çļĦ
å¹³ æĹ¶
å¤§ åİ¦
è¯· æ±Ĥ
æįŁ å®³
IS O
åĲĪ èĤ¥
æ¶µ çĽĸ
æĹħ å®¢
çĤ¹ åĩ»
ï¼ī ï¼Ľ
Ġ l
æıĲ ç¤º
ç»¿ åĮĸ
å®ĺ ç½ĳ
æĮĩ å®ļ
å½¢ åĬ¿
èĦ Ĭ
åİ¿ å§Ķ
ä¸ļ æľīéĻĲåħ¬åı¸
åİļ çļĦ
çĸ« èĭĹ
èĲ Ŀ
æłĳ èĦĤ
æ·± åĮĸ
ç¼ĸ çłģ
çļĦ ç¬¬ä¸Ģ
çĶŁ å¹³
èĤ¡ æĿĥ
åı Ķ
çĳ Ł
è¯Ĺ äºº
åħļ æĶ¯éĥ¨
e x
å¦ĩ å¥³
ä¸Ĭ æľī
åĪ ł
å½ĵ å¹´
å©ļ å§»
T C
å°Ķ æĸ¯
èµ ļ
çľ¼ çĿĽ
æİ¢ è®¨
èģ ª
åº ŀ
æĺ¯ æľī
è¯¾ åłĤ
åĲĦ èĩª
æĻ Ĵ
çĶµåŃĲ åķĨåĬ¡
åį §
ãĢ ķ
ãĢį ãĢĤ
å¼Ģ è®¾
å®īåħ¨ çĶŁäº§
ä¸Ģ æī¹
æĢ» è£ģ
ar t
éĢī çĶ¨
p p
è© ¹
å¤ĸ ç§ĳ
çĽ¸åºĶ çļĦ
ç»ıæµİ åŃ¦
æĸĩ çĮ®
ãĢ Ķ
èĤ ª
åįģ å¤§
å¥³ äºº
éĩį å¤į
é¢ĳ éģĵ
è½¦ éĹ´
å§ ļ
èĥ º
æĬ¥ èĢĥ
å»¶ éķ¿
æŃ¤ åīį
r a
æ¶ Į
çĭ ¼
ä¸ŃåĽ½ çļĦ
å¹´ åĪĿ
æĶ¶ å½ķ
çħ¤ çĤŃ
ç Ģ
åİĤ åķĨ
é¹ °
èĦĤ èĤª
éĥ Ĭ
åŀĭ åı·
é¢Ħ æľŁ
æŃ£ è§Ħ
ä¸Ģä¸ª äºº
ä¸¤ æ¬¡
èį· åħ°
éĻķ è¥¿çľģ
ç§į åŃĲ
å¦ ®
è§Ĩ ä¸º
å¯¹ æ¯Ķ
æµ· åįĹ
çļĩ å¸Ŀ
é«ĺ äºİ
æī ĩ
è¡ į
æĢİ æł·
åħ³ èĬĤ
æ±Ł è¥¿çľģ
æĽ´ æľī
èº« è¾¹
oo k
æ¨¡ åħ·
å¼ķ æĵİ
å± Ī
ä¹ĭ ä¸º
ä¸Ĭ éĿ¢
çļĦ å¸Ĥåľº
æĹ¨ åľ¨
èģĶ éĤ¦
éĥ½ è¦ģ
å·¨ å¤§çļĦ
äº ¨
åıĪ åĲį
è¯» ä¹¦
éĩĩ è®¿
å¸¸ è§Ħ
å¤§ æĪĺ
it y
ç»ĵ å©ļ
å¾Ī å®¹æĺĵ
çľ ī
çłĶ è®¨
æ° ®
æĪĳä»¬ åľ¨
ãĢ ī
ãĢ Ī
æ³ķ äºº
éħ ¿
æ²Ī éĺ³
åİŁ å§ĭ
æĢ§ æł¼
åħ Ķ
èī ĩ
çĽ ²
çļĦ çİ¯å¢ĥ
çİī ç±³
åįĹ æĸ¹
èģĮ åĬ¡
èĭı èģĶ
éĻĦ å±ŀ
å·¥ ä¼ļ
æĹłè®º æĺ¯
æ¶Ī åĮĸ
çī ²
æ¡ ¶
æ¶ Ľ
æĮ º
æĮĩ åįĹ
è´¢ ç»ı
èĥ ģ
ĠC h
æ¢ ¨
çħ Į
åĨĻ ä½ľ
i an
ĠS t
å·² æĪĲä¸º
æķ°æį® åºĵ
æĴŃ æĶ¾
åĪĿ æľŁ
åĪĩ å®ŀ
çľŁ ç©º
éĹ ¹
çĻ¾ å§ĵ
èĨ ı
å¼ı çļĦ
ç»Ī ç«¯
æĿĳ å§Ķä¼ļ
éģĹ äº§
U S
ä¸į å¥½
å¸Ĥ åĮº
æī Ń
æīį æĺ¯
Ã ł
-- --
éĺ² æ°´
åĵį åºĶ
åĬ© çĲĨ
äº ı
ç²ī ä¸Ŀ
å»¶ ä¼¸
éĺ¿ æĭī
éĢ» è¾ĳ
å©´ åĦ¿
å® ł
å®ĮæĪĲ äºĨ
ä¹¡ éķĩ
çĶ· æĢ§
\ /
å¸Į èħĬ
å°± åľ¨
è¿Ļ ä¹Łæĺ¯
å¼ Ħ
åģļ äºĨ
å¤± è´¥
ç¦ģ æŃ¢
è¿Ľ ç¨ĭ
è¿Ļ å°±æĺ¯
è¿ĺ åľ¨
åħħ çĶµ
æ°ĳ åĽ½
åĨĽ éĺŁ
n e
éħį ä»¶
å± ¯
åĪĽ å§ĭ
å¨ ĥ
è¿Ľ æĶ»
ä¹Ł è®¸
éĻ Ģ
æīĢ å±ŀ
å¼Ģ åħ³
M P
åı¦ ä¸Ģä¸ª
éĤ® ä»¶
åı¯ä»¥ éĢļè¿ĩ
åŃ¦ åĳĺ
ĠI n
æĬĬ æı¡
å¸¸ å¸¸
æĬĳ åĪ¶
æ¯ı æ¬¡
éĤ£ éĩĮ
< \/
åĲĮ æľŁ
è¾ĥ ä½İ
çĽ¸ ç»ĵåĲĪ
ç¼ĸ åĨĻ
æľª æĿ¥çļĦ
al l
ä¾ ¦
ãĥ ³
åĬ £
ä¸į çŁ¥
çĪ ½
Ã ¡
æĺ¯ åĽłä¸º
å¸Ī çĶŁ
æĭħ å¿ĥ
è½¬ è½½
çĥ Ĥ
è®¾ å®ļ
å¼ķ åħ¥
ç¬¬ åħ«
ä¸Ģ ä»½
çĶŁ æĪĲ
æĵħ éķ¿
å® ´
ä»ĭç»į äºĨ
åĬŀäºĭ å¤Ħ
åĨ¬ åŃ£
æł ĸ
å¥³ åŃ©
éģ £
å¯¹ åħ¶
ç®¡çĲĨ çļĦ
å½ĵ äºĭ
â Ĩ
çĪ± å¥½
çĸ ²
äº§åĵģ è´¨éĩı
è¿Ľ å±ķ
çĥŃ æĥħ
æĴŃ åĩº
åħ¨ æĸ°
éĩįåºĨ å¸Ĥ
éĶĢ éĩı
æĽ¿ ä»£
æ¯ĶèµĽ ä¸Ń
æĥ ĳ
æĿ¥æºĲ äºİ
åģ¥ èº«
çľĭ çľĭ
æ¯ ħ
æĻºèĥ½ åĮĸ
ç²¾ å¯Ĩ
ä½ĵ åĪ¶
æ´»åĬ¨ çļĦ
è¾¾ æĪĲ
åģ ·
å¸Ĥ éķĩ
æ¤ ħ
åĥ §
æĶ¹ ç¼ĸ
ï¼ ı
æĹ¥ åŃĲ
é ĳ
åĨį çĶŁ
çİ°åľ¨ çļĦ
è¿Ŀ åıį
éĢ ¸
åıĺ å½¢
æ°´ åºĵ
ä¸Ģä½ĵ åĮĸ
çĶŁäº§ çº¿
æ° Ł
æ¸¸ åĩ»
åĪĿ ä¸Ń
åĩ» è´¥
æĦı å¤ĸ
åİŁ æĿ¥
äºº ç¾¤
åįĵ è¶Ĭ
èĽĭçĻ½ è´¨
æľº çĶµ
èį Ĩ
åħħåĪĨ åıĳæĮ¥
å¯¹ åºĶ
æĹ¥ çļĦ
çª ĳ
èģĮ èĥ½
å· ¢
å§ĭ å»ºäºİ
åĪĨ æķ°
æĪĳ æł¡
ä¸º åĩĨ
åħ¬ äº¤
æºĲ äºİ
å¦» åŃĲ
éĢī ä¸¾
éĿŀ æ´²
çĶ³è¯· äºº
èĬ ¦
æł¡ åĮº
æĿĥ å¨ģ
éĢ ¾
æ¯ı ä¸ªäºº
T he
åĲİ æľŁ
éĶ Ĥ
æıĲä¾Ľ çļĦ
éĹ ¸
åľĨ å½¢
é¦ĸ å¸Ń
åģļ æ³ķ
ä¸ ¢
å¾Ī æľī
éĳ «
æ°ĳ ä¼Ĺ
ç§ĳæĬĢ è¿ĽæŃ¥
æľĢ ä¸º
â Ķ
åıĳ å°Ħ
çĩĥ çĥ§
c om
åĲĮæĹ¶ ä¹Ł
èĩ Ĥ
æĬĢæľ¯ äººåĳĺ
æľº éģĩ
çľĭ è§ģ
è´¢ å¯Į
æķĻ çłĶ
æľŁ éĻĲ
åł µ
é© °
i k
ç»Ļ äºĨ
çļĦ å®īåħ¨
å¹¿ å·ŀå¸Ĥ
èĢĮ ä¸įæĺ¯
æ³ ª
çĲĥ è¿·
ç®Ģåįķ çļĦ
æĥħ å½¢
é¾Ļ å¤´
åį ¸
çĹ ķ
å¸Ĥ çº§
åħ¶ æ¬¡
è¦ģ æ³¨æĦı
åĮĹ æĸ¹
æľĪåıĤåĬł å·¥ä½ľ
è¿ŀ éĶģ
æ±¡æ°´ å¤ĦçĲĨ
è¯ģ æį®
æĺİ çĻ½
ç®¡çĲĨ ä½ĵç³»
æ¡Ĩ æŀ¶
ä¸´ æĹ¶
åľº çļĦ
Ä ģ
åĩºçİ° åľ¨
çº· çº·
å¤ļ æķ°
çī© èģĶç½ĳ
ä¸ĭ åĪĹ
æĮ¯ åħ´
è®© ä½ł
åĦ Ĵ
å´ Ķ
æĿĲæĸĻ çļĦ
æľº è½¦
ç§ĺ å¯Ĩ
u p
çļĦä¸Ģ éĥ¨åĪĨ
åĵĪå°Ķ æ»¨
è¿Ļ éĥ¨
éª ¤
ä»ĭ è´¨
åº¦ åģĩ
å¤ı åŃ£
ä¾¿ æį·
åįļ è§Ī
å¤ ķ
äº« æľī
å¼ ¦
äºº åĴĮ
é«ĺ èĢĥ
åĸľ çĪ±
æ¸ħ åįİ
è§Ĥ å¿µ
è¾ĸ åĮº
ç¾İ é£Ł
çŁ Ľ
Ġ åĴĮ
ç¯® çĲĥ
èµĦ åĬ©
å¥ĭ æĸĹ
å¥ ł
å¿ Į
å®¡ æī¹
éļ §
Ð °
åıĳ è¾¾
éĢļ é£İ
èĭ į
æķĻ ç¨ĭ
æĪĳä»¬ å°Ĩ
éģµ å®Ī
éħ µ
åī¯ ä¸»å¸Ń
å· ·
å¹³ éĿ¢
ä¿Ŀ åħ»
ä¸Ĭ æĺł
åŁ Ķ
éª¨ å¹²
åı¦ä¸Ģ æĸ¹éĿ¢
æĺ¯ å¯¹
ä¼ĳ æģ¯
åĽ½å®¶ çļĦ
å°± æľī
çĹħ ä¾ĭ
æ³° åĽ½
æĢĿ è·¯
æļ ĳ
æķ° æİ§
ä¿¡ ä»»
éĺŁ åĳĺ
å¤Ħ çļĦ
å¡ŀ å°Ķ
åħļå§Ķ ä¹¦è®°
æ¸© æļĸ
åıį å¤į
åºŁ æ°´
æľįåĬ¡ åĻ¨
æ¶¦ æ»ĳ
éĴ¢ ç®¡
æ± ª
ç½ĳ é¡µ
èĿ ¶
åĵª éĩĮ
è¯´ çļĦ
éĨ ī
èŀį åħ¥
åľ¨ ç¾İåĽ½
P E
å»º æĿĲ
èĦ Ĩ
åĲĪä½ľ ä¼Ļä¼´
åĪĨ æ³Į
æĽ Ŀ
çļĦ è§Ħå®ļ
è¿Ķ åĽŀ
éĢĶ å¾Ħ
å§Ĩ æĸ¯
å¤ªéĺ³ èĥ½
åľ¨ åħ¨åĽ½
ä¸ŃåĮ» èį¯
çī© æĸĻ
æĽ´å¥½ åľ°
es t
åį Ĵ
äºī è®®
å¹´ ä»»
çĥŃ æ°´
ç¿ ħ
ç» ³
è½¬ è®©
è¯Ń æĸĩ
èµ Ĳ
æ¯ķä¸ļ åĲİ
æŁ¥ çľĭ
æħ¢ æħ¢
åģļ çļĦ
æ¼ ł
åĽ½ åľŁ
æĻ¯ çĤ¹
çĬ ¬
æľ¬ ç½ĳç«Ļ
æ´» åĬĽ
åıĳ èĤ²
æīĭ åĨĮ
æĹĭ è½¬
æĺ¯ éĿŀå¸¸
éķ¿ åº¦
ç§ĳåŃ¦ å®¶
æ¡¥ æ¢ģ
è½¦ åŀĭ
èĬĤ çº¦
åľº åľ°
èı ĩ
ä½¿ åħ¶
ç¾İ å®¹
å« Į
èĵ ¬
åĮĸ å¦Ĩ
å¸Ĥ æĶ¿
åĲ ¾
åĲĦ å¤§
æĲ ħ
æ£ ļ
çĻ¾ å¹´
å®¢æĪ· çļĦ
ä¸į éľĢè¦ģ
çĪĨ åıĳ
çļĦ åŃ¦çĶŁ
éĺŁ éķ¿
æ¶Ī éĻ¤
ç½ ķ
åħĥ å¹´
äºº äºĭ
çĶµ ç£ģ
è¿ľ ç¨ĭ
è¶ħ è¶Ĭ
ç»Ĩ èıĮ
ç§» æ°ĳ
i o
åīį è¿Ľ
æ°´ éĩı
éĶħ çĤī
åĪĨ ä¼ļ
åĲĦ ä½į
åĨ¶ éĩĳ
åİŁ åĲį
çļĦ åºĶçĶ¨
åŃ©åŃĲ çļĦ
ä¼ł å¥ĩ
çļĦ è´¨éĩı
è¾¹ ç¼ĺ
è¦ģ ç´ł
æħ¢ æĢ§
çĸ¾çĹħ çļĦ
is t
ä¿ ±
) :
éĩĩ éĽĨ
èĤ ¢
å½ ¦
æĻ® åıĬ
æŃ¦ åĻ¨
ä»ª è¡¨
åİ Į
åŃĲ åħ¬åı¸
åı¯ä»¥ è¯´
åį ¿
æĶ Ģ
æ·± åıĹ
, ãĢĬ
åİĨåı² ä¸Ĭ
èĮ¶ åı¶
æ¶Ī æ¯Ĵ
æĸĩåĮĸ çļĦ
åĿ İ
æľĢ å¤ļ
çĻ½çĻľé£İ æĤ£èĢħ
A M
ä¸Ĭå¸Ĥ åħ¬åı¸
æ¶Ī èĢĹ
åĽŀ å½Ĵ
çĩĥ æĸĻ
at e
åıĳ èµ·
ç´§ å¼ł
åħ³ éĹŃ
å¤Ħ éķ¿
ç®Ĺ æ³ķ
ä¹Ļ çĥ¯
èģļ çĦ¦
å¥½ è¯Ħ
ä¹Ł æ²¡æľī
è¿Ľ å£«
æĸ° åħ´
è®¤ çŁ¥
å§ ĳ
æĺĨ æĺİ
ä»£ è°¢
ä¸į ä½Ĩ
èĲ½ åľ°
é«ĺè´¨éĩı åıĳå±ķ
åı¯ è¾¾
äºĴ çĽ¸
ç»ĺ çĶ»
åħ¬ ä¸»
å¥ĸ é¡¹
å¾® çĶŁçī©
éĩį çļĦ
æĸ¯ ç§ĳ
å¹² åĩĢ
s h
æĹł éĻĲ
ä¸ī æĺŁ
åĽĽ å¤§
å½» åºķ
åīį èº«
åİŁ åĪĽ
åĽ½å®¶ åĴĮ
æıĲé«ĺ äºĨ
å¾· éĩĮ
æĮĸ æİĺ
å¸¦ æľī
ä¾Ŀ èµĸ
æĶ¶ èİ·
æŀ £
çļĦ åħ³éĶ®
ä¹Ł å°Ĩ
åĳ³ éģĵ
ç© ´
ãĢģ âĢľ
åĪĨåĪ« ä¸º
éļ¾ åº¦
æľī åĪ©äºİ
ä»¥ ä¾¿
åħ¼ ä»»
å§Ķåĳĺä¼ļ å§Ķåĳĺ
é¥® æĸĻ
èĴ ĭ
æĪĺ å½¹
ç§° ä¹ĭä¸º
èı ©
åĪĨ åħ¬åı¸
åħ¬ å¯ĵ
éĢ ¢
ç±» çļĦ
å¯¹ è¯Ŀ
æº ¢
åİ» ä¸ĸ
åįı ä½ľ
åħī ä¼ı
æĪĺ å£«
ç¢ Ĺ
çº³ åħ¥
èı Ĭ
æ°ĳ èĲ¥
C E
æĽ´ é«ĺ
è´ ŀ
çŃ¾ çº¦
è¿Ļ ä½į
æľº åºĬ
æ¶² åİĭ
ä¸Ģ çº¿
åĽŀ çŃĶ
ç§ī æī¿
åħ¨ å¹´
ä¹Ł å°±
çļĦ è¿ĩç¨ĭ
å¾Ĺ ä»¥
å« ©
åİ¿ çº§
è± «
åı ¹
å®¶ åºĦ
ä¸ĭ åİ»
åĩ½ æķ°
ä»ĸ æĺ¯
çļĦ çī¹çĤ¹
å®ŀ åľ¨
æĸ° å»º
e v
èŁ ¹
u d
Ġ X
ç³ Ĭ
ä¸¥éĩį çļĦ
ä¾ĽåºĶ éĵ¾
ç¨³å®ļ æĢ§
è¾ĥ é«ĺçļĦ
ä¾¿ æĺ¯
A N
çļĦ åħ³ç³»
éļĶ ç¦»
çĲ ¼
q u
æİ¥ ä¸ĭæĿ¥
æľīåĬ© äºİ
ï¼ļ ãĢĬ
è¯¥ åħ¬åı¸
on e
å¤§ æ¡¥
åĢº åĬ¡
çī º
è¯´ æ³ķ
å¯¼ ä½ĵ
æĪ· å¤ĸ
æķĻ å®¤
ç¼ĸ åı·
éĵ ĥ
è¿Ļ æ¬¾
ä»İ ä¸ļ
éĤ® æĶ¿
æŁĲ ç§į
æĢ» å±Ģ
ä¸į äºĨ
çļĦ æķĪæŀľ
çļĦ ä»·æł¼
æİ¥ æĶ¶
åħ¬ æĸ¤
å®¹ åĻ¨
çİ° å·²
åı¯ åľ¨
U R
æ´» è·ĥ
ä¹ĭ å¤Ħ
C C
åľ¨ æł¡
ç¾İ å¥½
ä¹Ł å¾Ī
äºĮ æ¬¡
çĶŁæĢģ çİ¯å¢ĥ
çº³ ç¨İ
p h
æ¬ ł
çĲĨ çĶ±
å¹¶ å°Ĩ
è½ ©
å½¼ æŃ¤
åįĥ ä¸ĩ
å½± åĥı
å¨ģ èĥģ
ä¸į å¤Ł
è¯¸ å¤ļ
åħ¬ æ°ĳ
ä½Ļ ç¯ĩ
çļĦ ä½ľåĵģ
æĪ¿ éĹ´
H z
éĴ ł
æīĵ åĩ»
æľĿ é²ľ
åŁºéĩĳ ä¼ļ
çŀ ¬
åŃ£ èĬĤ
èķ ´
åŃ©åŃĲ ä»¬
ç¬¬äºĮ æ¬¡
è ¤Ĳ
å¤§ äºİ
è´« åĽ°
è¾½å®ģ çľģ
åħ¨ æĸ¹ä½į
åıĳ éĢģ
ãĢĤ (
Ġ ãĢģ
çķĮ çļĦ
ä¸ª ä½ĵ
ç»ĥ ä¹ł
åĲĮåŃ¦ ä»¬
å¹³ å®ī
æ¯ķ ç«Ł
è§£æĶ¾ åĨĽ
é¦ĸ æī¹
èĭ± æł¼åħ°
çīº çī²
çŁŃ æľŁ
è¡¥ è´´
çĶ¨ æ°´
èģĶåĲĪ ä¼ļ
æĪĲ äºº
æĸ¹ çļĦ
æł¼ å±Ģ
è£ Ķ
ç¾İ æ´²
c t
å¦Ĥæŀľ æĤ¨
äºĭå®ŀ ä¸Ĭ
æŀ¶ æŀĦ
çĻ¾åº¦ åľ°åĽ¾
çº¿ ä¸ĭ
éªĮ è¯ģ
åįļå£« åŃ¦ä½į
S t
ç¦ ½
é»Ħ èī²
æĸ° é²ľ
æĺ¯ æľĢ
æĪª æŃ¢
çĶŁ å¯¼å¸Ī
æ¡ Ĳ
æ± °
å¢ŀåĬł äºĨ
é³ ŀ
çİ ²
æĶ¿åºľ ä¿¡æģ¯
ç¡ķå£« åŃ¦ä½į
çĽĳ å¯Ł
éĺ² èħĲ
é©¬æĿ¥ è¥¿äºļ
æħ °
èĦ ¾
åĪ© çİĩ
æĹł éĶ¡
èĬ Ĵ
éļ Ļ
æī® æ¼Ķ
å°Ĭ éĩį
S K
åĩº ç§Ł
éĺ² çģ«
ç»ĦæĪĲ çļĦ
åŃ¦ çļĦ
éŁ §
æīĵ çł´
é¡ ·
åĪĩ åī²
çķĻ ä¸ĭ
æľª èĥ½
æī ĳ
æľįåĬ¡ ä¸Ńå¿ĥ
çģ« ç®Ń
æĹ¥ çĽĬ
æĢ» é¢Ŀ
æĲ ı
æ¿Ģ åĬ±
éŃħ åĬĽ
éªĮ æĶ¶
çŃī äºº
ä¸º æŃ¢
éĤ ª
æī© æķ£
æĭĽ åķĨ
æĬĹ æĹ¥
èĮ Ħ
å»ºè®¾ çļĦ
åīį æĻ¯
æľĪ çļĦ
éĺ¿ éĩĮ
éĢĤ å®ľ
A A
åįģ ä¹Ŀ
åĽ½å®¶ éĺŁ
ç»Ħç»ĩ çļĦ
éļ§ éģĵ
åĴĮ æĬĢæľ¯
å¤©æ´¥ å¸Ĥ
ä¾Ŀ éĿł
S E
å®ŀ ä¹ł
ä¸Ń éĥ¨
ç´§ å¯Ĩ
çļĦ å½¢å¼ı
æĸ° çĶŁ
âĢ ¢
è¯Ħ éĢī
ä»» æķĻ
æ² ª
æ±Ł åįĹ
æ¶Ī å¤±
å° ¸
æĬĢæľ¯ åĴĮ
äº² åŃĲ
éħ ¬
çī© èµĦ
çĳŀ å£«
åĸ »
çļĦ è¿ĩç¨ĭä¸Ń
éĶ» çĤ¼
çī© ç§į
æĺ¯ä¸Ģ åĲį
åĪ¶ èį¯
æĽ´ åĲįä¸º
åįİ ä¸º
è¢ ĸ
ç« Ń
æ¯ı æĹ¥
c m
çļĩ å®¶
é¦ĸ éĥ½
æįŁ åĿı
çľŁæŃ£ çļĦ
åħ¬ ç¤º
ç¥ŀ ç§ĺ
åıĸ ä»£
è¶ħ å£°
ä½İ æ¸©
çĽ® å½ķ
ä¸º æŃ¤
Ġ çĶ·
æµģ éĢļ
æľī çĤ¹
åŃĲ å¥³
çŃī å¾ħ
çļĦ ç²¾ç¥ŀ
ä¸º ä¸ŃåĽ½
çľĭ èµ·æĿ¥
éĶ¦ æłĩ
çļĦ çĽ¸åħ³
éĽ ĩ
äºİä¸Ģ ä½ĵçļĦ
äº§ä¸ļ åıĳå±ķ
ä¸ĩ ç¾İåħĥ
ç²¾ å¿ĥ
çª Ŀ
ç¼ĵ è§£
åĨį åº¦
å¸¸ å§Ķ
æįŁ ä¼¤
æĿ ı
çĤ¹ çļĦ
éĵ¾ æİ¥
an t
å¹´ åıĤåĬł
æĥ³ è±¡
âĢ ²
æĹł éľĢ
åĮĹäº¬ æĹ¶éĹ´
ç§ĳæĬĢ åĪĽæĸ°
èĬĤ çľģ
é£ ĺ
â ĸ
è®¢ åįķ
ç¨İ æĶ¶
çĥŃ å¸¦
ç« £
çļĦ æľºä¼ļ
åıĺ æĽ´
çļĦ ä¸ŃåĽ½
âĶ Ģ
è¿ĩ äºİ
èµ· äºĨ
ç¬ ¼
é¦ĸ å±Ĭ
ap p
åĩ ¸
Ġ æĺ¯
æ¨¡ èĮĥ
çĶ ¸
ç¬¬ ä¹Ŀ
åµ Į
åįģ ä¸ĥ
æ³ķ åħ°
ç¦ Ħ
åħ± è®¡
åĳ½ åĲį
å¸ Ĩ
æīĭ ç»Ń
åĮ ł
å¹´ çĶŁ
å®¶ éĩĮ
åĪĿ æŃ¥
éĿ¢ ä¸Ĭ
ä½ľ æĽ²
è±¡ å¾ģ
åı¸ ä»¤
æĿ¿ åĿĹ
æłĳ ç«ĭ
å±± æ°´
å¥ ´
å¤§ æ¥¼
è ¤
æī ģ
çĵ £
åįİ äºº
çĶ» å®¶
ç¼ ¸
åŀ Ĵ
çĶµ ä¿¡
æľ¬ åħ¬åı¸
ä¸Ģ åĲĮ
é¾ Ł
åħ¬ å¹³
èŃ¦ å¯Ł
å¥ī çĮ®
æĿ¡ä»¶ ä¸ĭ
åĲĪ çº¦
ç»Ł æ²»
æ¸¯ åı£
èĨ ¨
çŃī å¤ļ
çİ° éĩĳ
çº ±
éĢ ¼
ä¸į åıĹ
ä¸Ńå°ı ä¼ģä¸ļ
éĽ¶ ä»¶
æľ¬ åľŁ
æķĻ åłĤ
ç¬¬ä¸ī æĸ¹
æĹ ¬
æ¨ ±
å°ļ æľª
æ¿Ģ åıĳ
å¾Ī å°ĳ
èĤº çĤİ
åĤ¬ åĮĸ
ç¿ ģ
ä½ĵ ç§¯
æıĲ åıĸ
åįĬ åľº
å¿«éĢŁ å¢ŀéķ¿
Ð ¾
æŀĦ éĢł
è¶³çĲĥ ä¿±ä¹Ĳéĥ¨
å¹´ åĲİ
å°¼ æĸ¯
ä¸İ åħ¶ä»ĸ
Ã ¬
æĺ¾ å¾Ĺ
éĽĨåĽ¢ åħ¬åı¸
éķ¿ æĺ¥
çŃī é¢ĨåŁŁ
å¤©çĦ¶ æ°Ķ
åĿĩ ä¸º
æ²³ æµģ
çĽ´ å¾Ħ
åĬĽ åĴĮ
è¡¥ åģ¿
æ¿Ģ çĥĪ
æ¸Ĺ éĢı
ä¸į ä¸Ģæł·
B S
ä¸º äºº
åĪ¶ æĪĲ
æ¬£ èµı
åĪ¶ çļĦ
éľ ī
åģ¥ åħ¨
çķĻ åŃ¦
æ¬§ åħĥ
çĶ¨ ä½ľ
å¼º å¤§
A l
çŁĽ çĽ¾
èĢģ æĿ¿
æķ° çłģ
å¼Ģ å·¥
åºŁ æ°Ķ
èĪ ¶
ä¼ĺ å¼Ĥ
è¾ Ł
i b
éĻ¢ å£«
çĶ¨ åľ°
ä¸Ĭ ä¸Ģ
éĽ Ģ
å¸¦æĿ¥ äºĨ
çĶ· äºº
å°ĳ å¥³
ac k
å¦Ĥ æľī
æ¬§ åĨł
çŃī çļĦ
ç»ı è´¹
æĮģ æľī
è¿Ļ ç±»
å®īåħ¨ æĢ§
ç¾İ è§Ĥ
ç±³ çļĦ
ä¸Ģ æĸ¹éĿ¢
ä¸ĵæ³¨ äºİ
çº§ çļĦ
åĲİ ç»Ń
çľĭ æĿ¥
åı Ľ
æ¯ Ĺ
åĤ¨ åŃĺ
ãĦ§ ãĦ
ç»ĦæĪĲ åĳĺ
ç»Ħ éķ¿
çļĦ éĢļçŁ¥
çº¦ ä¸º
åĽ½ éĺ²
M S
èĪ Į
å¤ĩ æ¡Ī
çĿ¡ çľł
è¡Ģ åİĭ
ä¸İ æŃ¤
, âĢľ
æŃ¤ åĲİ
åį° åıĳ
æĸ¹ éĴĪ
æľ¬ èµĽåŃ£
çĶŁ èĤ²
ä¸Ģ é¡¹
è¿Ľ èĢĮ
æ¤ İ
ç«ĭ æĸ¹
åĪĳ äºĭ
ä» ĩ
é¹ ħ
: [
æĹ Ń
å¿« æį·
å±Ģ éĥ¨
æ¸¸ æ³³
çŃĶ æ¡Ī
æ¸© é¦¨
çİ° çĬ¶
åĩº åĶ®
æĬ¥ èŃ¦
éķľ å¤´
æ³ķ å®ļ
ç¦ı åĪ©
æľī å¤ļ
åħĭ åħ°
æľĢ åħ·
æĪĳ åħ¬åı¸
å¤ĸ éĥ¨
æĶ¾ åħ¥
çĶŁ çĲĨ
åĪĬ çī©
å¼¹ æĢ§
æľŁ è´§
å¿ĥ èĦı
çļĦ éĢīæĭ©
ä¸Ń çŃī
èĬĤ å¥ı
ä¸ī ç§į
æĸ° åįİ
éĺ Ĳ
å¼ķèµ· çļĦ
Ë ĩ
è¸ ¢
èº«ä½ĵ åģ¥åº·
çº ¬
åľ¨ å¤§
Ġ å¤§
èģĶåĲĪ åĽ½
çŃī å¤ļç§į
ç«ĭ è¶³
æķı æĦŁ
äººæīį åŁ¹åħ»
åī¯ éĻ¢éķ¿
åŁºç¡Ģ ä¸Ĭ
å¯¼ åĲĳ
é² į
å°± è¯»
åĪĨ è§£
çļ®èĤ¤ çĹħ
äºĭåĬ¡ æīĢ
ãĢĭ ãĢģ
N BA
çĸ ¯
çļĦ çĽ®æłĩ
ä¸¤ ä½į
åĨħ åŃĺ
æłĩ çŃ¾
æµ· å²¸
æĹ¥ ä¸ĬåįĪ
åī¯ ä¼ļéķ¿
ç§ĳ éķ¿
åĿĲèĲ½ äºİ
åĪł éĻ¤
èµ· éĩį
ä¾Ŀ çħ§
çļĦ çĽ®çļĦ
åĽº ä½ĵ
å¾Ī é«ĺ
éĴ ¦
åĪĹ åħ¥
æ·ĺ æ±°
åĽ½ äº§
åı¤ åħ¸
å¥¥ æĸ¯
å½ĵ å¤©
æĸ ĭ
æł¼ å¼ı
æīĢåľ¨ åľ°
ä»¥ å¤ĸ
åıĳ åĶ®
è¥ Ħ
æľĢ éĩįè¦ģ
è° Ń
å½ĵäºĭ äºº
ä»ħ æľī
éļ¾ é¢ĺ
æĹ ±
å§ĵ åĲį
h t
åĽŀ å®¶
ç±»åŀĭ çļĦ
å¿« éĢĴ
ä»¥ æŃ¤
æĿĳ äºº
æĲŃ å»º
æŃ¥ éª¤
ä» ķ
äºĶ ä¸ª
èģĮä¸ļ æķĻèĤ²
æĬ¥ å¯¼
æĹł çĸĳ
å¥¹ ä»¬
æıĲ åĪ°
ä¸Ń è¥¿
æĢ ¡
äº¤æĺĵ æīĢ
æľī åºı
O N
åľ¨ ä¸Ģ
åĨ² çªģ
éĤ£ æł·
æĪĲ åŀĭ
èµ £
å®¶åįıä¼ļ ä¼ļåĳĺ
ä½ĵ ä¼ļ
ç§ ©
æĹ¥ ä¸ĭåįĪ
èĮ İ
åĪ« çļĦ
çħ§ é¡¾
éĩį å»º
åĪĽå§ĭ äºº
è½¦ çļĦ
æĢ ¨
æĪĳ æĥ³
æ¸© æ³ī
åİ ī
å½ĵ éĢī
éĦ Ĥ
ä¸į å¦Ĥ
ç»Ł çŃ¹
èĪ¹ èĪ¶
åıį é¦Ī
æľīåħ³ éĥ¨éĹ¨
æĹ¶ä»£ çļĦ
åĩº è¡Į
æİĴ æ°´
å´ İ
å°½ å¿«
èµĶ åģ¿
çĩĥ æ°Ķ
ä¸į æĺĵ
ä¸»è¦ģ æľī
åįł æ¯Ķ
éĢłæĪĲ çļĦ
ä»» æĦı
çº¢ åĨĽ
åĬĽ åŃ¦
çļĦ ä¸ĸçķĮ
çļĦ åİŁåĪĻ
æĶ¿ åĬ¡
åħ¨ æĸ°çļĦ
å¤§ å¥ĸ
æī¿ åıĹ
èĹ »
å¹¿æ³Ľ åºĶçĶ¨äºİ
çļĦå¤§ åŀĭ
ä¸į å¤ļ
åĴ ±
çĸĹ æ³ķ
åĩı è½»
å¤ı å¤©
éļĲ æĤ£
æķ£ çĥŃ
å¸Ĥåľº ä¸Ĭ
æĲħ æĭĮ
æīĭ è¡¨
ä»¥ åħį
æ½ľ åĬĽ
è¥¿ èĹı
ç»´ å¥ĩ
çļĦ åĬŁèĥ½
Ġt he
å¼º åĪ¶
æ¸ £
èĥ½ åľ¨
ä¸į åľ¨
ä¸º å¤§å®¶
å¦ ĥ
æİ¥ å¾ħ
æľī å®³
âĢ ĭ
æī« æıı
ä½ĵ æ£Ģ
èħ »
çĪ ¬
åĨħ å¿ĥ
åĲĦ åĽ½
å®¢ è¿Ĳ
æĺ¯ä¸Ģ æ¬¾
è´Ł æĭħ
åĪļ åĪļ
æł· åĵģ
æľīæķĪ åľ°
åįķ ä¸Ģ
çĶ¨æĪ· çļĦ
çļĦ ä¸ľè¥¿
æĿ¡ æ¬¾
çļĦ åıĺåĮĸ
éĺ³ åİ¿
åħŃ å¹´
% ãĢģ
æľĢåĲİ ä¸Ģ
ä¿¡æģ¯ æĬĢæľ¯
æĺ¾ çĦ¶
æĪĳä»¬ åı¯ä»¥
è½ °
ä¸¤ å¤§
åİļ åº¦
åħī åŃ¦
çİ¯å¢ĥ ä¿ĿæĬ¤
åĳ½ ä»¤
ä¼ĺç§Ģ çļĦ
ç®¡çĲĨ å·¥ä½ľ
ec t
è¡£ æľį
æħĪ åĸĦ
æĲº æīĭ
ä¸º åŁºç¡Ģ
æ¹ Ľ
ç²¾ ç»Ĩ
åķ ¦
ä¹¦ ç±į
åľ° æĿ¿
ar k
åĪ¶éĢł åķĨ
éĻĨ ç»Ń
g e
æĪĲ å¹´
å¤ ·
äº§ åĢ¼
æº ¯
æķĻ ä¼ļ
åĪĨ æķ£
éħį éŁ³
en s
æķĳ æı´
æĢ» çĽĳ
ç¼ĸ åī§
æĥħ èĬĤ
è¾ĥ å¤§çļĦ
iv e
åıĳå¸ĥ çļĦ
åıĳ æĶ¾
æ¶ ħ
æŁ´ æ²¹
åı£ èħĶ
æľī è¶£
åįģ åŃĹ
çĻ» å½ķ
æĸ Į
çĭ Ń
çĺ ¦
æ² «
å±ķ ä¼ļ
åľ¨ èģĮ
âĨ Ĵ
çŃī èģĮ
çı Ĭ
A G
æłĩåĩĨ çļĦ
.. .
è´¦ æĪ·
èĴ ľ
å¤§ æ¦Ĥ
åĳĬ çŁ¥
ä¼ĺ è¶Ĭ
ä¸Ģ åº¦
ãĦ¨ ãĦ
æĶ¯ æı´
åĵ Ń
åįĬ å¯¼ä½ĵ
éĢı éľ²
èµ° è¿Ľ
çĪĨ çĤ¸
è¿Ľ åĩºåı£
åĨħ æ¶µ
å¸ Ĳ
æº¶ æ¶²
ä¾Ľ ç»Ļ
å¸Ĥ çļĦ
æķ° åįģ
éģ ®
åįķ çĭ¬
éĿŀ æ³ķ
ç®¡çĲĨ åĬŀæ³ķ
ä½ĵ åĨħ
æľ¬ è´¨
ä¸º ä¸Ńå¿ĥ
ic h
å¹´ ä»¥æĿ¥
èĸ ¯
æĪĲ äº¤
ç§ĳ æĻ®
åĳ½ è¿Ĳ
æľĪ åºķ
è´§ è¿Ĳ
ä¸Ģ åº§
åĽŀ å¿Ĩ
åĪ¶ åĨ·
èĭ¥ å¹²
ä¼ł æŁĵ
æ² §
ç¾İä¸½ çļĦ
åľ° ä¸Ĭ
å´ ĸ
çķ Ķ
é¡µ éĿ¢
å®¾ é¦Ĩ
âĢ ķ
åħ» çĶŁ
åĩº åİ»
æĹł æķ°
å¢ ħ
ç³» æķ°
å¯¹ æİ¥
éĺĢ éĹ¨
å· ©
å¸¸ çĶ¨
æ°´ ä¸Ń
à ¸
æľĢ éĩįè¦ģçļĦ
å¼ §
r an
åİĤ æĪ¿
æľĪ åĬłåħ¥ä¸ŃåĽ½åħ±äº§åħļ
äº¤ åıī
å·¥ä½ľ å®¤
æī¹ è¯Ħ
å®¢ è§Ĥ
å« ģ
åī¯ å±Ģéķ¿
on g
è®¸åı¯ è¯ģ
æīĢ éķ¿
çĳ °
è¿ĩ äºĨ
æ¸ħ çĲĨ
è¿ĩ åº¦
åĮĸ åĲĪçī©
æĽ´ å¤§çļĦ
çļĦ æł¸å¿ĥ
ä»¥ å¾Ģ
ä¸Ń çº§
å¹² æī°
çĥ ·
çĮ ľ
åĨĴ éĻ©
è®² åº§
ç» £
or t
åľº ä¸Ĭ
è¡ ¬
çī¹ ç§į
åĨľ äº§åĵģ
æ²¦ ä¸º
å¦ ¥
æĪĳ åľ¨
Ġ Y
èº« å¿ĥ
åŃ¦ åĲį
çĽĪ åĪ©
æĿ° åĩº
å¿ĹæĦ¿ èĢħ
åĩº åľº
äº§ èĥ½
å±± åİ¿
ç®¡ è¾ĸ
æ½ľ åľ¨
åĨħ åľ°
èĸ Ľ
å¿ĥ éĩĮ
èĩª åŃ¦
çģ« çģ¾
åŃ¦æł¡ çļĦ
T O
æŃ ĩ
å±Ĥ çļĦ
æĥ §
åĻ¨ ä»¶
è¿Ļ é¡¹
ç»ĵæĿŁ åĲİ
ä¸į åĬ¨
ä¸»è¦ģ ä»İäºĭ
ç»ı éĶĢ
ç¼º éĻ·
åŀĤ çĽ´
ä¸įå¾Ĺ ä¸į
ä»Ķ ç»Ĩ
æĪ¿ åŃĲ
çĸ ¹
é»Ħ æ²³
æ´ Ĵ
åıĳè¡¨ è®ºæĸĩ
åħļ å»º
çªĹ åı£
å¹¶ æľª
åĲĦ çķĮ
å¥¥è¿Ĳ ä¼ļ
åħ¬ é¡·
æĪĲ æķĪ
éģŃ éģĩ
ä¸ĸçķĮ çļĦ
ç¨ £
åħ¶ åĲİ
éĤ µ
ä»ĸ è¯´
å¼Ģ å¿ĥ
åĲĮ äºĭ
åľ¨ ä¸Ģä¸ª
æ³ķ åŃ¦
å± ¡
ç¦ģ åĮº
çª Ħ
åħ¬åĬ¡ åĳĺ
ä»£è¡¨ å¤§ä¼ļ
åĪĨ è¾¨
éº Ł
åĪĹ ä¸º
ow s
è£ģ åĪ¤
çºł çº·
Ð ¸
ç´§ æĢ¥
é³ į
å¥³ å£«
çĶŁ åĬ¨
å½±åĵį åĬĽ
çķĮ éĿ¢
æµĭ å®ļ
æĺ¯ ä¸įæĺ¯
èĢ¶ ç¨£
ä¸ī çº§
åĸ ī
åħ¨ ç¨ĭ
å¤ª å¤ļ
è®¡ éĩı
å¯¹ éĺµ
å¨ģ å°Ķ
èģļ éĽĨ
åķ ¤
èªī ä¸º
çļĦ å¤©
æĹ¶ åħī
åī ¿
çŃ¾ ç½²
ä½ł åı¯ä»¥
éģµ å¾ª
å¤ĸ çº¿
r y
çĹħ çļĦ
ä¸İ åħ¶
éĽķ å¡ĳ
æ´ ½
åľ¨ æĸ°
ç§ĳ å¤§åŃ¦
é»ĳé¾Ļæ±Ł çľģ
å£ ¶
æĤł ä¹ħ
éĢļ æĬ¥
å¤ª ç©º
ç¼´ çº³
åĪĿ çº§
éĺ² å¾¡
ä¿® è®¢
ç³ĸ å°¿
ä¸Ģ æĶ¯
éĤ ĳ
èĴ¸ æ±½
åĤ ²
éľ ľ
å·® è·Ŀ
ç«ĭ ä½ĵ
åī§ éĻ¢
å¤§ è§Ħæ¨¡
åĲ¸ éĻĦ
èµ· çĤ¹
å¼Ģ éĢļ
å¸Ĥ éķ¿
æľ¨ æĿĲ
éªĳ å£«
åĶ®åĲİ æľįåĬ¡
èģĮ ä½į
ä¸º ä¼ģä¸ļ
çļĦ ç»ıèĲ¥
åŁºæľ¬ ä¸Ĭ
åĴĮ åıĳå±ķ
éĺ² çĸ«
ç¥Ŀ ç¦ı
åİ» éĻ¤
å¾Ĺ åĪĨ
å¢ŀ åĢ¼
z h
å¦ ĸ
ä¹¾ éļĨ
D R
æ¸ Ĭ
æĪĺ èĥľ
çĮ ´
ä¹Ĳ åĽ¢
åľ¨ ä½¿çĶ¨
çľĭ çĿĢ
çĸ¼ çĹĽ
æľ¬ å±Ĭ
å¾® åįļ
çļĦ æĦŁè§ī
ä¹¦ éĿ¢
åĲ ŀ
è¿Ĳ è½¬
åĪĨå¸ĥ äºİ
èħ¾ è®¯
ç±³ åħ°
éĿ¢ åīį
åĬł éĩį
åħ¬åı¸ åľ¨
çĻ¾ ä¸ĩ
è¢« è®¤ä¸º
åıĹ çĲĨ
ä¸ļ åĨħ
å»ºçŃĳ çī©
åħ¨ åİ¿
ç«ŀ æĬĢ
å¤º å¾Ĺ
ä¹Ł ä¸įä¼ļ
ä¾Ľ çĶµ
æ¸ ´
ä½¿çĶ¨ å¯¿åĳ½
ç«£ å·¥
çĶ¨ äºº
éĶ¦æłĩ èµĽ
åħļ æł¡
ç¡® è¯Ĭ
æŃ£ç¡® çļĦ
ä¼ł åĬ¨
éĵ ħ
è§Ĩ éĩİ
ç©¶ ç«Ł
å®ŀ çļĦ
Ġ and
åĨĽ åĮº
æ°´ åĪĨ
E T
r i
ç«Ļ åľ¨
çĹĽ èĭ¦
èĤĮ èĤī
åĽ¾ æ¡Ī
åĲİ èĢħ
åıĹ æ¬¢è¿İ
ç»Ŀ ç¼ĺ
æĿ¡ä»¶ çļĦ
çİĩ åħĪ
åĢŁ åĬ©
æģ ¼
åİŁ åŃĲ
å°Ķ çī¹
ä¼° è®¡
è¯Ĺ æŃĮ
æ» ŀ
çļĦ è¡Įä¸º
å°Ķ å¾·
åĶ ¤
Ġ æľĪ
çļĦäºº çĶŁ
çģ¾ å®³
åħ¶ ä½Ļ
çĪ¸ çĪ¸
Ġ g
å¼º åĬ²
Ġ w
è¿ĺ åĮħæĭ¬
æĦŁ åıĹåĪ°
æĻ ´
äºĮ æ°§åĮĸ
è¡¥ åĬ©
æĺİæĺ¾ çļĦ
è¿Ļä¸ª éĹ®é¢ĺ
èģĮä¸ļ æĬĢæľ¯
å®ĺ åĳĺ
å¹³ ç¨³
ç¦ı å·ŀ
I M
å¯» æ±Ĥ
ç§¯ åĪĨ
å®Įæķ´ çļĦ
äºī åıĸ
ç§ĳæĬĢ å¤§åŃ¦
æł½ åŁ¹
è¿Ľ ä¿®
å· ¾
æĪĲåĬŁ çļĦ
è¯ķ ç®¡
æ³ķå¾ĭ æ³ķè§Ħ
è¯Ĭ çĸĹ
å¤ļ åĲį
æīį ä¼ļ
æĢ» æĬķèµĦ
e e
å¯Į æľī
åĴĮ ç®¡çĲĨ
ä»ħ ä»ħ
å¸¦ ç»Ļ
ä¹ Ĵ
éĵģ éģĵ
éĻĨ åĨĽ
æ°´ è´¨
çĥ ¹
éĻĦ ä»¶
åıĬ åħ¶ä»ĸ
åıĳ è¨Ģ
åĽ½ éģĵ
åŃĺåľ¨ çļĦ
æ¹¿ åº¦
å¸¦ å¤´
ä¹¦ ä¸Ń
è¿Ļ ä¹Ł
åºĶçĶ¨ ç¨ĭåºı
è° ¦
åĬ¨ æ¼«
ä¸į è¶ħè¿ĩ
æķ ²
åľ° åŁŁ
æĪĳ æĺ¯
ä¿¡ ä»°
Ġ æľ¬
a in
æİ¥ çĿĢ
æŀģ å¤§
Ġ ç¬¬
æł ħ
èĪ ±
çĶµ ç½ĳ
E N
èĬĤ æĹ¥
P h
åħħ è¶³
å»¶ ç»Ń
ä¸Ī å¤«
æİ¥ å£¤
åıĳ çĶµæľº
å®¶ ä¸Ń
æī¹ åıĳ
æĦ ī
ç§© åºı
çº³ ç±³
éĴ¢ çĲ´
å¿ħ çĦ¶
éĺµ å®¹
èĲĿ åįľ
å½¢æĪĲ çļĦ
Ġ h
å¤ªå¹³ æ´ĭ
æľĪ åĪĿ
å¼Ģ å¹ķ
æģ ¨
èĢĥ åı¤
åįĬ å²Ľ
æĹ¥ åĨħ
åħĥ ä»¶
ou r
æ¾ Ħ
âĢĿ (
æ² Ĥ
çĶ¨ èį¯
çĿĢ åĬĽ
çĻ¾åĪĨ çĤ¹
ä¸º æł¸å¿ĥ
åīį åĲİ
ä¾µ æĿĥ
åĢº åĪ¸
åĩ °
æĮ¯ åĬ¨
è¯Ń éŁ³
ä¹ĥ èĩ³
å± ¿
çļĦ ç¤¾ä¼ļ
åľ¨ åĮĹäº¬
çĶ· å¥³
åİ¨ æĪ¿
å¿ĥçĲĨ åŃ¦
æĲº å¸¦
è¡¨ å½°
å¤§ æī¹
éĩįè¦ģ åıĤæķ°
æĬ ¹
åıĹ ä¼¤
è·¯ ä¸Ĭ
ç»ĦæĪĲ éĥ¨åĪĨ
æī¿ è®¤
å»ºçŃĳ å·¥ç¨ĭ
èķ ¾
ä»» èģĮ
é¡ ½
æĽ¼ èģĶ
èī ĺ
æĺ¯ä¸Ģ ä½į
åı¤ èĢģ
åĩ ¶
ç§ģ äºº
åĬ Ŀ
èĭ± å¯¸
è¿Ļ ä¸¤
çļĦ ç»ĵæŀľ
ç¨ĭåº¦ ä¸Ĭ
å°ģ éĹŃ
æĬķ ç¥¨
éĿĴ æµ·
é» ı
çļĦ æľī
è¿ĺ æ²¡æľī
çĶµ åı°
ä¸Ģ çĶŁ
å¿ħè¦ģ çļĦ
åĭ ¾
C S
æĥ Ł
å¤« å¦»
åĿļ å®ļ
èĵĿ èī²
ä¼ĺ ç¾İ
ç¾¤ å²Ľ
è®² å¸Ī
è´µ çļĦ
è¾ŀ åħ¸
åĿ ¤
åľ¨ åĽ½åĨħ
è§£ è¯»
æĪĸ åħ¶ä»ĸ
èĩªèº« çļĦ
A P
æŀģ ä¸º
å¹´è½» äºº
ç¼ĸ ç¨ĭ
or d
æľª ç»ı
ä¸¤ ä¾§
è®° å¾Ĺ
åıĺ éĿ©
æ¼Ķ å¥ı
æŁ Ħ
æ¼Ķ è®²
çĲĨäºĭ éķ¿
ä¸» æµģ
Ġ Ð
æµª æ¼«
èĩªçĦ¶ ç§ĳåŃ¦
çİĭ æľĿ
åįł æį®
ç²¾ èĭ±
å¡« åĨĻ
as s
åľ¨ åħ¶
é©¬ å°Ķ
åĩĢ åĪ©æ¶¦
æĭħ ä¿Ŀ
åİŁ æĿĲæĸĻ
ä¸Ģ è¾¹
è·¯ å¾Ħ
çĻ½ éħĴ
ä¸ī æĺ¯
èľ Ģ
Ã Ń
åĨ Ģ
èģĶ ç»ľ
å¨ģ å»ī
çĪ± åĽ½
çİĩ ä¸º
éħį éĢģ
æĮĩ ç¤º
çļĦ åħī
æµ ĩ
èĳ¡èĲĦ éħĴ
æ±ī è¯Ń
å¿ĥ æĥħ
äºº ä¸İ
çĽĳçĿ£ ç®¡çĲĨ
ä¸ī åĽ½
åħ° å·ŀ
è·Ł è¸ª
æľº ç»Ħ
è¯ Ī
ä¸Ĭ åįĬå¹´
è§Ĥ æµĭ
ä»¶ äºĭ
å¥ İ
ä¸ºå®¢æĪ· æıĲä¾Ľ
åĪĽå»º äºİ
èĲ Į
è¿Ļä¸Ģ çĤ¹
ä»ĸä»¬ åľ¨
æ¿Ģ ç´ł
ä¸ļ ä¸»
ä¿® å»º
æ¬§ çĽŁ
éĻĦ åĬł
æİ¢ æµĭ
ind ows
éĻĲ äºİ
ä»Ĭ åĲİ
ä¸ª çĻ¾åĪĨçĤ¹
æµª è´¹
æĺİ çļĦ
èı© èĲ¨
èĢĥèĻĳ åĪ°
ä¸ĭ è¾ĸ
ç»© æķĪ
æĭį åįĸ
ç»Ļ å¤§å®¶
ä»¥ åħ¶
æĽ´ å¤§
äº¤ ä»ĺ
ä¾Ŀ æĹ§
åĲīæŀĹ çľģ
ä¸İæŃ¤ åĲĮæĹ¶
è½¬ åħ¥
ä¸Ĭ å¹´
ä¸ºä¸» é¢ĺ
åįĥ ç±³
çķĻ åľ¨
åı¦ æľī
æķĪ åĬĽ
è¡ĮæĶ¿ åĮº
çĲĨå·¥ å¤§åŃ¦
Ġ y
åıĳ éħµ
éĿĻ çĶµ
è¡ ·
é¥ ¶
åİĨ ç¨ĭ
éĴ¢ ç»ĵæŀĦ
æķ´ æ²»
çļĦ æīĢæľī
åĺī å®¾
æĺ¯ æĪĳ
åī ĸ
æĪĳä»¬ è¦ģ
M B
æĢ» æķ°
ä¸ª æĿĳæ°ĳ
è±ª åįİ
åįĹ æĺĮ
ä¸Ĭ çº¿
å¥½ åĥı
æ¶ ¡
æĬĵ ä½ı
æłĩ è¯Ĩ
äººåĳĺ çļĦ
è¯ķ åĽ¾
ä¸į åıĺ
æ°ĳ çĶŁ
åĪĹ è¡¨
ç¦» å¿ĥ
er t
æº ĥ
éĺ ľ
æľº åĬ¨
æį ī
çļĦ æĪĲç»©
å±Ĥ éĿ¢
å¼Ģåıĳ çļĦ
æĺ¯ ä¸ºäºĨ
èĢĲ ç£¨
ä»½ é¢Ŀ
ç±» åĪ«
éĢĢ å½¹
æİ ©
åĮĸ çŁ³
è¡Į æĺŁ
åĽ½ ç«ĭ
e g
éļ¶ å±ŀ
æīĵ ç®Ĺ
è§Ĥ èµı
ä¸º ä½ķ
C H
ç¤¾ä¼ļ ç§ĳåŃ¦
å¤© åľ°
çŁ¿ å±±
æĸ ©
åĲİ åį«
åįİ ä¸ľ
æĭħ å½ĵ
ä¹ĭ åľ°
åĪĨåĪ« æĺ¯
Ġ ä¸Ń
ç½ ¢
ä¹Ĳ éĺŁ
åĸ Ģ
éģŃ åĪ°
çłģ å¤´
åıį èĢĮ
åĻ¨ æ¢°
ä¸» äºº
åĩº åı°
å¤ª åİŁ
é«ĺçŃī åŃ¦æł¡
ä¸»è¦ģ çĶ¨äºİ
å¸Ĥåľº éľĢæ±Ĥ
åĪĨ æĶ¯
éĤ ±
åħ³ èģĶ
é¥Ń åºĹ
è¿İ æĿ¥
çŃī éĹ®é¢ĺ
ä¸ĭ ä¸Ģ
ä¸» åĬĽ
é«ĺçŃī æķĻèĤ²
è¾¹ çķĮ
çļĦ æķĻåŃ¦
åīį æ²¿
èĥ½åĬĽ åĴĮ
ç¬Ķ è®°
ç®¡çĲĨ åĴĮ
çļĦ éķ¿
ç¥ ł
çļĦ å¤ļ
é«ĺ å³°
æł¸ éħ¸
æĺ¯ä¸Ģ éĥ¨
çİĭ åĽ½
f f
çľģ ä»½
å¹¶ ä¸İ
åıĳçĶŁ çļĦ
åĲ¬ åĪ°
çĪ± å¿ĥ
éĩį ç»Ħ
æĸ° åŁİ
åĲĪçĲĨ çļĦ
äº² èĩª
S T
åĤ¨ å¤ĩ
ä½İ ç¢³
è®¤ åĲĮ
æĸ¯ åŁº
å¸¸åĬ¡ çĲĨäºĭ
æĸ¯ çļĦ
å° ¹
å±Ĭ åħ¨åĽ½
åĨľ ä½ľçī©
è¾ī çħĮ
UR L
ç² ¥
ãģ Ħ
çĳŀ åħ¸
A PP
åĪ© çļĦ
åł ¤
åħ´ å»º
æĹ¶éĹ´ åĨħ
çĭ Ĳ
å¤ĸ äº¤
éĩĩçĶ¨ äºĨ
ä¸į è®º
ç¼º çĤ¹
åĮ» ç§ĳå¤§åŃ¦
çİ «
çŃī çĽ¸åħ³
è±Ĩ èħĲ
æĸ¯ æĭī
ä¸įä»ħ ä»ħ
çĽ¸ è¿ŀ
åĵģçīĮ çļĦ
åıĳçĶŁ äºĨ
æ³¢ åĬ¨
e y
é« ĵ
å¹´ åĩºçĶŁ
æ´»åĬ¨ ä¸Ń
ä¸į åºĶ
åĩ¤ åĩ°
å¤§ éĺŁ
ä¸» å¯¼
æŃ¥ è¡Į
åıĳçĶŁ åľ¨
åĶ± çīĩ
åĩº èº«
åĨħ ç§ĳ
åİ Ħ
è¯Ĺ è¯į
æĺİ æľĿ
åĩº ä¸Ģ
ç¤¾ä¼ļ çļĦ
è¶ħ å¸Ĥ
å® °
ä¾¿ äºİ
çĽ´ å±ŀ
èĥĮ åĲİ
å¢¨ è¥¿
è§Ĥ åħī
æĭ¼ éŁ³
æ¸Ĳ æ¸Ĳ
åĮ¹ éħį
åķĨ å®¶
åĮĹäº¬ å¤§åŃ¦
çĶĺèĤĥ çľģ
æĥ ¨
å¼ł å®¶
åĽ¾ å½¢
çº¦ å®ļ
ä¸ ĳ
ä¸»æĮģ äºº
ç³ĸå°¿ çĹħ
è´ ª
åı² ä¸Ĭ
åķ¤ éħĴ
çĶ¨ çĶµ
é«ĺ åĵģè´¨
æ¸ħ æ°´
åįı åķĨ
å¢ŀ éĢŁ
æ¯Ķ åĪĨ
åĮº åĿĹ
è½¬ åĲĳ
çļĦ ä½įç½®
åįł æľī
æī§ å¯¼
æµ· ä¸Ĭ
å¸ ĸ
a x
åķĨ åľº
åı« åģļ
èĩª ä¿¡
ç©º ä¸Ń
ä¸Ĭ çº§
è¦ģ æľī
å®¶ ä¹¡
å¾Ĺ åĲį
é¦ĸ ä¸ª
ä¹Ĳ åĽŃ
æĺ¯ ä¸º
åĮĸå¦Ĩ åĵģ
è¶ĬæĿ¥è¶Ĭ å¤ļ
åı¯æĮģç»Ń åıĳå±ķ
çļĦ é¡¹çĽ®
æĬµ è¾¾
é¢ģ å¥ĸ
çĥŃ éĹ¨
å¿ĥ ä¸Ń
éĥ½ æ²¡æľī
åı¯èĥ½ æĢ§
æĬķ è¯ī
å®ŀ åľ°
åıĪ æľī
çļĦ ä¸ī
çĽ¸å½ĵ äºİ
é¡¶ çº§
å¯Ĩ çłģ
å¥ ¢
å¸Ĥ äººæ°ĳæĶ¿åºľ
å¹³ åİŁ
æĪĲ åĵģ
çĽ´ èĩ³
é«ĺ ç§ĳæĬĢ
o x
D P
å¤į åĪ¶
æĬ ĸ
æĸ° æĹ¶ä»£
ä¸Ń å¤ĸ
çĿ Ĳ
è¿ĺ å°Ĩ
éľĢè¦ģ çļĦ
çĻĮ çĹĩ
åħĪè¿Ľ å·¥ä½ľèĢħ
ä¼ģä¸ļ å®¶
åĩº æ¼Ķ
çŁ³ å®¶åºĦ
R O
åŁİå¸Ĥ çļĦ
æŀ «
å±ķçİ° åĩº
æ¬ º
æ± Ŀ
åľ° å¸¦
æ±¡ æ³¥
æŃ¦ è£ħ
å¥½ å¥½
æĳ© æĵ¦
éĺ² èĮĥ
ç©º åĨĽ
ä» ĳ
æİ¥ ç§į
ä¸¾åĬŀ çļĦ
éĽ¶ éĥ¨ä»¶
æĺ¯ ç¾İåĽ½
æ£ ķ
å®¶ çĶµ
é¢ĺ æĿĲ
æ°´ çĶµ
æ°´å¹³ çļĦ
ĠP ro
æĪĲç«ĭ çļĦ
ä¸į å¼Ģ
æĹ¶éĹ´ çļĦ
ä¸Ģ äºº
è®© ä»ĸ
åįķ æĽ²
ãĢĤ <\/
æ¾³ æ´²
å®ĮåĸĦ çļĦ
ä¸Ĭ å¸Ŀ
èĳ¡èĲĦ çīĻ
çĥŃ çĪ±
o h
ä¹Į åħĭåħ°
å¢¨è¥¿ åĵ¥
åŁİ åİ¿
æŀ¢ çº½
u re
ä¸º åħ¶
å¹´è¢« è¯Ħä¸º
Ä «
äº¤éĢļ è¿Ĳè¾ĵ
åºĵ åŃĺ
é¥² æĸĻ
ï ¿
ä¸ĢçĽ´ åľ¨
éĿ©åĳ½ æĸĹäºī
ic e
åĽŀ æĬ¥
åĪ° æĿ¥
çŃī å·¥ä½ľ
å§ ¬
åĩĿ èģļ
æĺ¯ ä»İ
ç² ¹
å° ī
çĽ® çļĦæĺ¯
ç»´ å°Ķ
åīį æľŁ
æ¡ ©
åħĭ æĭī
ãĢ ı
æ³¨ åħ¥
å¼Ģ ä¸ļ
ãĢ İ
æķĻ èģĮå·¥
éķ¿ å®ī
åı¯ çĶ¨
æĳĦ åĥı
ä¸» å¼ł
åħ¨ ä¸ĸçķĮ
è´µå·ŀ çľģ
æľ¬ æĿ¥
æģ Ń
ä¹ĭ éĻħ
å¹¶ å¯¹
æį® æĤī
åĩł åįģ
è¦ģæ±Ĥ çļĦ
å³ »
åĬł ä»¥
é¢ģ åıĳ
åĴ± ä»¬
u e
çļĦ é£Łçī©
u x
å¹¿ éĺĶ
é¡º åºı
æķ°æį® æĺ¾ç¤º
èĥ½ åĲ¦
é©¬ æĭī
éĹ ¯
% ,
è¯ģ å®ŀ
å¤įæĿĤ çļĦ
åıª éľĢ
ä»ĵ åºĵ
èĭ± è¶ħ
é«ĺçº§ å·¥ç¨ĭå¸Ī
ç§ĳåŃ¦ ä¸İ
çĶµ éĺ»
æ®ĭ çĸ¾
å¥½ äºĨ
ä¼ļ å±ķ
åĬł å¯Ĩ
åıĬ çĽ¸åħ³
è´¯å½» èĲ½å®ŀ
æ¬¡ æķ°
å°ı äºİ
éĿĴ çĿĲ
çħ¤ çŁ¿
å®¢ åľº
èµ¢å¾Ĺ äºĨ
P V
æĶ¾ æĿ¾
ç¡ķå£« çłĶç©¶çĶŁ
è° ľ
çģµ éŃĤ
æīĭ æ³ķ
å°ĳ çļĦ
çĹħ åĽł
ä¿¡ èªī
Ġ v
æł Ĺ
ä¼Ĭ æĸ¯
åķĨ è´¸
å¸ĥ ç½®
ä¹Ł è¢«
æĪĲç«ĭ äºĨ
æ¸ Ŀ
å¸ĥ é²ģ
æļĤ æĹ¶
æĬ¥ åĪĬ
å¸Ī èµĦ
æĬ« éľ²
ãĤ ¹
èį£èªī ç§°åı·
æĢ» äººåı£
çķ ı
ä¼ļ å¯¼èĩ´
é»ĳèī² ç´ł
ä»İ æŃ¤
æĺ¯ æĪĳåĽ½
å®¡ åĪ¤
ä¼ģä¸ļ ç®¡çĲĨ
éĥ½ å¾Ī
åķĨ ä¼ļ
è¡ĮæĶ¿ æĿĳ
éĨ ĭ
Ð µ
å¤§åŃ¦ çļĦ
çŃī è¡Įä¸ļ
éļĲ ç§ģ
é¢Ħ çº¦
åĵª ä¸ª
èĵ ī
å·¥ç¨ĭ åŃ¦éĻ¢
é¸¡ èĽĭ
o k
ç¦» å©ļ
åıĳ ä½ľ
æĥ ©
åĪ« å¢ħ
éĻ· åħ¥
ä¾ĭ åŃĲ
ä¸ľåįĹ äºļ
ä¸Ģ æľŁ
m an
è¿Ļ å°±
èĳĹ æľī
åį¡ å°Ķ
è´Ł èį·
çĽ¸ åıį
è®¾å¤ĩ æľīéĻĲåħ¬åı¸
èĥ ĸ
å§Ķ ä¹¦è®°
éĽĦ åİļ
æĺ¥ ç§ĭ
åŃ¦å£« åŃ¦ä½į
å¿ĥ çģµ
åıĬ ä»¥ä¸Ĭ
é½¿ è½®
æĩ Ī
æĺ¯ æĪĳä»¬
åħ¥ åŃ¦
äººæ°ĳ åĮ»éĻ¢
è¿Ļ æĹ¶
çŁ³ åĮĸ
èĥ½åĬĽ çļĦ
æĮĳ éĢī
ä¸º ä¸»è¦ģ
ä¿¡æģ¯ çļĦ
ä¸ŃåĽ½ ç§ĳåŃ¦éĻ¢
å±ŀ æĢ§
åĬ «
æĶ¹ åĪ¶
âĢĿ ï¼ī
å¤§ è¡Ĺ
å¾Ĺ çŁ¥
åį ĳ
å¤´ éĥ¨
åı· çłģ
ç¡ Ŀ
ä¿Ŀ ç½Ĺ
en d
C I
æĹ¥ åĪ¶
éĢĿ ä¸ĸ
ç¨³å®ļ çļĦ
åħī æĺİ
æĳ Ĭ
èĢģå¹´ äºº
ä¼ģä¸ļ åĴĮ
ç»ı çºª
åħ¨ èº«
åīį æĿ¥
äº® çĽ¸
as t
ç²¾ ç¡®
çļĦ æľĭåıĭ
æķĻèĤ² æķĻåŃ¦
ä»£ æĽ¿
æľīåħ³ è§Ħå®ļ
åĴ ½
åįĹ å®ģ
æĭ¿ åĪ°
ç¼© çŁŃ
æł ĵ
äºĶ éĩĳ
éĨ Ľ
è¾¾ åĪ°äºĨ
çĶŁ æĦı
å®ŀ è®Ń
åĨľ èį¯
èĬĤ çĤ¹
éĩĳ çīĮ
ä¸Ģ éĥ¨
äºĶ åįģ
åºĨ ç¥Ŀ
ä¼ļ åĩºçİ°
ä¸ĭ è·Į
ç»Ħ ä»¶
è¾ĥ å¤ļ
è¡Į é©¶
åĻ¨ æĿĲ
åĬ³åĬ¨ åĬĽ
éĢĢ åĩº
éĵĿ åĲĪéĩĳ
å±Ģ éĿ¢
çİ¯å¢ĥ çļĦ
æ°Ķ æ°Ľ
æĸ½ è¡Į
åĻª éŁ³
éķ¿ åŁİ
æľĢ é«ĺçļĦ
in a
ä¸ĵä¸ļ ä»İäºĭ
æİĴ è¡Į
å¿« çļĦ
çĶ «
ä¹Ŀ å¹´
åıĳ æĢ§
å¤ļ åªĴä½ĵ
æĹı èĩªæ²»
åħĪè¿Ľ åįķä½į
è¯ŀ çĶŁ
å¤« äºº
u c
æ¯ı åĳ¨
åŃĹ æ¯į
e w
å¤§ èĩ´
çİ© åħ·
äººä»¬ çļĦ
æŀ ¯
åº¦ åĴĮ
è¯´ è¯Ŀ
æķĪ åĬĽäºİ
æĭ ±
ä»ĵ åĤ¨
åĩº èī²
æ³¨ æĺİ
è¿Ļæĺ¯ ä¸Ģä¸ª
åĨľ æĪ·
åĽŀ æĿ¥
åľŁ èĢ³
é«ĺ æ¸ħ
äº§çĶŁ äºĨ
Ġ x
è½½ ä½ĵ
æĸĩçī© ä¿ĿæĬ¤
çľģ å¸Ĥ
ç®¡çĲĨ ç³»ç»Ł
ç¥¨ æĪ¿
åľ¨ æľ¬
åħ¨ éķ¿
åĪĩ å°Ķ
åı£ ç½©
åĨľ åľº
ä¼ ½
èĢĮ æĿ¥
æķĻèĤ² å±Ģ
èĲ į
çļĦ æµ·
é¢ Ĥ
ä¸į å¤ª
å°½ åı¯èĥ½
ç¤¾ åĽ¢
èīº äºº
æ³¢ åħ°
éĻ¤ æŃ¤
èº«ä»½ è¯ģ
åī ¥
å®ģ å¤ı
åı¸ é©¬
ç¼ ħ
è¿Ľè¡Į çļĦ
å¹´ ç¬¬
a h
éħ ®
äº§ä¸ļ åĮĸ
å½ķ éŁ³
çģ« å±±
æµ ĳ
çİĭ åŃĲ
é«ĺ å±Ĥ
åĩºçİ° çļĦ
åľŁèĢ³ åħ¶
æī¶ è´«
ä½ĵ éĩį
ä¸Ģ å¼ł
åħ¨ ä¹¦
æĥħ æĬ¥
èĸ ĩ
ç» Ĵ
ç»ıæµİ ç¤¾ä¼ļ
ç²¾ éĢī
åĭĩ å£«
èģĮä¸ļ çĶŁæ¶¯
ç§ĳ çĽ®
å·² å®ĮæĪĲ
åı¯ åĪĨä¸º
è¾ĥ å¥½çļĦ
a i
åŃ¦ éĩĳ
å¤§ ä½¿
å¯ Ĥ
ä¸¤ èĢħ
è¿Ļ åº§
æĬ Ħ
çĽ¸åĲĮ çļĦ
åĸľ åī§
åıĳå±ķ åĴĮ
ç¾½ æ¯Ľ
éħ °
éĺ¿æĭī ä¼¯
æī© å¼ł
æĽ² çº¿
æ¯Ķ åĪ©
äºº éĥ½
ç¥ŀ è¯Ŀ
åħļ ç»Ħ
æĬ¥ ä»·
äºĨ å¾Īå¤ļ
æ°ĳ æĶ¿
å´ ©
æĻĭ åįĩ
ä½ľ æĸĩ
èģļ æ°¨
Ġd e
ç»¼ èīº
çŀ¬ éĹ´
ï¼ ĳ
åĿļ åĨ³
æ²¿ æµ·
æ¢ ³
å¤ĸ çķĮ
åĲį åĪĹ
çļĦé«ĺ åº¦
ä¸ĭ æ¸¸
ä½ı å®¿
E M
ä¸Ģ çīĩ
ä¿¡ èµĸ
æĭī ä¸ģ
åİ ¢
éĻ Į
ä¾ £
ä¿Ŀ å®ī
èĴ ²
çļĦ åĽ½éĻħ
æľī åĬĽ
ä¸ļ çķĮ
å¤ª åŃĲ
on t
èµĦ æ·±
æĻĭ çº§
æĹ© åľ¨
æĺ¯ä¸Ģ æīĢ
æ± ķ
å¾ħ éģĩ
çķľ çī§
è©¹ å§Ĩæĸ¯
ä¹ĭ æīĢä»¥
g le
æ¯Ĺ éĤ»
åħ ĳ
æ±¡æŁĵ çī©
Ġ in
åıĸ åĨ³
ä¾¿ å®ľ
æĢ ĸ
æĶ¾ ç½®
çļĦ åĽ½å®¶
ç¬¦ åı·
or e
çĥĺ å¹²
è®® åĳĺ
æ²ī æ·Ģ
é©¬ ä¸Ĭ
èįī åİŁ
æĶ¾ å°Ħ
) ;
å°ļ ä¹¦
ä¼ļè®¡ å¸Ī
è¿ĩ æĿ¥
é«ĺ éĵģ
æº¶ åīĤ
ä¸¾ æİª
æľį é¥°
å¥ł å®ļ
æ´Ľ éĺ³
èĩªè¡Į è½¦
ç¥ ¸
åķĨ åºĹ
åİ» äºĨ
å¿ĥ æĢģ
L C
è§Ĵ éĢĲ
åī§ æľ¬
è¿Ļ é¦ĸ
åıĤ å±ķ
åħĭ æľį
åıĭ å¥½
è¶³çĲĥ è¿ĲåĬ¨åĳĺ
ç«ĭ æ³ķ
å¤ĸ è¯Ń
ä»İ å°ı
æ¸ħ ä»£
çļĦ åħ¬åı¸
çļĦ åŃ¦ä¹ł
è¿ĺ éľĢè¦ģ
çĽ¸ æľº
éĩĳ å±±
èŀº æĹĭ
éĴ ī
æĪ¿ äº§
ç»ıæµİ æķĪçĽĬ
åŁĥ åıĬ
çī¹èī² çļĦ
æ© Ļ
è§£ çŃĶ
åĿĩ æľī
ä¹ĭ æĹħ
æķ´ æĶ¹
çĿ ¿
ä¸» æľº
å»ºè®¾ é¡¹çĽ®
éĴ ©
ä¸ĥ å¹´
å¯¹ å¾ħ
çĶŁ æĹ¥
æµ· åħ³
è¯¥ é¡¹çĽ®
Ã ¹
éĵ¸ éĢł
éļ ĭ
éģĵ çļĦ
çİ« çĳ°
è¦ģ åľ¨
å½ĵ ä¸ĭ
éĽ ģ
å±ķ åĩº
è¿Ŀ è§Ħ
åĪĴ åĪĨ
åĩı éĢŁ
åįļè§Ī ä¼ļ
E C
æĺ¯ çĽ®åīį
å¤ ¸
å·ŀ çļĦ
åĲĪéĢĤ çļĦ
è§£ éĻ¤
éĺ¿ æł¹
äºĶ å¤§
åĩ ¹
å¢ŀ å¤§
é¢ ł
ä½Ĩ ä¸į
Ã ¨
åıĸåĨ³ äºİ
åĩ ĳ
ç¼ ł
çģ« è½¦ç«Ļ
çī© ä½ĵ
é£İ åħī
è§£åĨ³ äºĨ
æŃ §
å·´ èĲ¨
æĮ ª
Ç İ
ç»ıæµİ çļĦ
æĶ¾ å¿ĥ
è ł
æĺ¯ å¾Ī
ç» İ
çŁ ¶
èĨ¨ èĥĢ
çļĦ ä¸įåĲĮ
åıĳå¸ĥ äºĨ
æĦŁ åĬ¨
çļĦ åĲİ
çļĦ éĥ¨åĪĨ
å®ī å¸Ĥ
èľ ¡
æĹł ç¼Ŀ
è£ħ éħį
ç½ļ æ¬¾
i z
ç§ĳæĬĢ æĪĲæŀľ
åħ« å¹´
æĪĸèĢħ æĺ¯
åĳ½ åĲįä¸º
çłĶè®¨ ä¼ļ
åĵ Ģ
ä¹ĭ æĪĺ
ä»» åĳ½
çĲĨè®º ä¸İ
æī¿ åĬŀ
ç®¡ æİ§
æĽ´ é«ĺçļĦ
å¤ļ ç¯ĩ
ç»´ äºļ
è®® ä¼ļ
å¿ħ éľĢ
çĲĨ åŃ¦
å®Ī æĬ¤
éĺ¿æł¹ å»·
é©¬åħĭ æĢĿ
ä¹ĭ æĹ¥èµ·
åįĥ çĵ¦
åľ°çĲĨ ä½įç½®
å½¼ å¾Ĺ
è¿ĩ æķı
å°ı å¿ĥ
éĺ² çĪĨ
æİ§åĪ¶ ç³»ç»Ł
æ¸ħ åįķ
åľ¨ åĨħçļĦ
å¯¹ æĬĹ
çĥŃ çĤ¹
èĶ ½
æ±Ł å¸Ĥ
æ¼Ĥ äº®
æµģ ä¼ł
éĹ¨ æĪ·
ç»Ļ ä½ł
ä»Ģä¹Ī æĺ¯
Ð ½
å¼ĺ æī¬
å¹¶ ä»¥
éĹ¨ çªĹ
Ċ Ġ
èħ ķ
G P
åº ¸
äºº æ°Ķ
æł· æľ¬
æĿĥ çļĦ
ä¸į æĥ³
éĴ ®
èģļæ°¨ éħ¯
.... ..
å¹´ çĶ±
åį´ æĺ¯
åĽĽ åŃ£
åģļ åĩºäºĨ
æīĭ å·¥
åį ī
è®² è¯Ŀ
åĮº åĪĨ
çĪ± å°Ķ
å®¢ æĪ¿
çº§ åĪ«
å¹´ å¹³åĿĩ
ãĢį ï¼Ī
æ´¾ åĩº
çĹ Ĵ
ä»·åĢ¼ è§Ĥ
éĩĳ åĪļ
è¿Ľ åº¦
çĻ½çĻľé£İ åĮ»éĻ¢
ä¸»è¦ģ çļĦ
é«ĺæĸ°æĬĢæľ¯ ä¼ģä¸ļ
è·¨ è¶Ĭ
çļĦ çİ°è±¡
oo gle
B C
çĶŁçī© åŃ¦
å¥¥ æŀĹ
è¿Ľ åıĸ
äº§ çī©
çĲ ª
åĩº æĪĺ
çħ İ
è¿ĺ åİŁ
çĻ» éĻĨ
åı¯éĿł æĢ§
ç»ĵ è®º
åĪ ®
åıĭ è°Ĭ
æİĴ éĻ¤
èĤ ļ
åĭ ¿
æįĲ èµł
è§Ĩ è§Ĵ
æ¸ħåįİ å¤§åŃ¦
éĹ» åĲį
äº¤ äºĴ
è¾ĥ å¼ºçļĦ
ä¸ĭ å±ŀ
å½ĵ ä»Ĭ
çļĦ æĶ¯æĮģ
å¾ģ æĶ¶
ä¸Ģ è¡Į
ä¸Ģ éĥ¨åĪĨ
ä¸Ģ ä¸ĸ
åĩł å¤©
æ¬§ ç¾İ
çĻ» åľº
ä¼¯ çī¹
åıĪ æĺ¯
ä¸½ çļĦ
æľįåĬ¡ ä¸ļ
æīİ å®ŀ
æĪĲéĥ½ å¸Ĥ
åħ¸ ç¤¼
çĳ ¶
è¥¿ åħ°
æĢ» çĲĨ
çĶµ æ¢¯
æ¸¯ æ¾³
è·¯ æĺĵ
æ² ¸
æĸ°èĥ½æºĲ æ±½è½¦
çī¹æ®Ĭ çļĦ
ç¹ģ èį£
æ¸© å·ŀ
å¯¼ èĪª
Ġ æĿİ
ä¸» èĲ¥
oc k
Ġ j
åĲ »
ĠĠĠĠ ĠĠĠĠ
åĩı èĤ¥
ä¸ĩ äº©
æ°ĳ äºĭ
æĸĩ æľ¬
i es
o y
åı¶ çīĩ
åľº åĲĪ
æ¯ı æľĪ
ä¸º æľ¬
å·² è¢«
ä¸ĸçķĮ åĲĦåľ°
åŁŁ åĲį
æģĲ æĢĸ
è§ģ è¯ģ
äºº å¿ĥ
åĬŀåħ¬ åİħ
å¸¸ çĶ¨çļĦ
æ³¡ æ²«
æĪĳ éĻ¢
åħ¬ å¼Ģåıĳ
ç¡¬ åº¦
çĶŁäº§ åĴĮ
æĽ´ å®¹æĺĵ
ç¥ĸ åĽ½
çľĭ åĩº
ä¼ĺ éĽħ
æ¬¡ äºİ
åı£ ç¢ĳ
çļĦ ä¸¤
ä¸į èµ·
å®£ åĳĬ
çļĦ ç»Ħç»ĩ
äºĮåįģ å¤§
ä¸¥ è°¨
æ°¸ ä¹ħ
éĽ Į
çĳ ľ
å®ī å¾·
é£Łåĵģ å®īåħ¨
èļ ģ
æł¡ åıĭ
è¿Ļ åľº
å²© çŁ³
D S
åħĪ éĶĭ
å°Ķ å¤«
æļĤ åģľ
å¡ĳ éĢł
çļĩ åĲİ
å¹´ ä¸ŃåĽ½
å±± èĦī
ç«ĭæĸ¹ ç±³
åĩº ä»»
çļĦ åŁİå¸Ĥ
æĤ¨ åı¯ä»¥
å¤į åħ´
å®ı è§Ĥ
è¯ µ
ï¿ ½
å¹¿æ³Ľ çļĦ
å¤ĦçĲĨ åĻ¨
çĥŃ éĩı
ç§ĳ éĻ¢
Ġ ä¸ŃåĽ½
èī² åĪĹ
ä¸Ń ä¸ĵ
äºĮ äºº
å¤ļ åĬŁèĥ½
a ch
éĤ£ ç§į
è¯Ŀ é¢ĺ
æ¸ħ æľĿ
å·® åĪ«
åĻª å£°
åĽł åħ¶
åįİ åįĹ
çļĦ è¡¨çİ°
çī ¡
å·²ç»ı æĪĲä¸º
å½ĵ ä½ł
åĲĮ è¡Į
çīĽ èĤī
çļĩ é©¬
è´ ¼
æĢ» ä¼ļ
çĽ¸ ç»§
åıĹ åĪ°äºĨ
çļĦä¸Ģ åĪĩ
ä¸ĵä¸ļ æĬĢæľ¯
è¢« åĳĬ
æ¹ĸ äºº
çľŁ è¯ļ
åı£ æĦŁ
å¥½ å¤Ħ
ãĥ «
åĲ ı
æĤ Ķ
æıĲ åĲį
æĦ ¤
ä¸įæĸŃ çļĦ
å¸ ĺ
s on
èĥ ļ
åĨħ æľī
ç¥ Ī
çĶ· ç¯®
å®Į ç»ĵ
ç» ĳ
åĨį è¡Į
çŃī äºİ
è§ģ çļĦ
è·¨ å¢ĥ
å· «
ä¹ĭ åŃĲ
èĹ ©
ç§¯æŀģ å¼Ģå±ķ
åľ¨ è¯¥
çĥŁ åı°
åħī ç»ª
æĬµ æĬĹ
åı¤ åŁİ
ä¸Ĭ æ¸¸
èĩª è§ī
ä¿® æŃ£
) ãĢģãĢĬ
å¤© ä¸»æķĻ
æİ¨ è¡Į
å¤´ çļĦ
æĢ§ å¼º
åıį å°Ħ
i x
æ³¨åĨĮ èµĦæľ¬
å®¿ èĪį
è£ ¹
æİ¨ åĩºçļĦ
D NA
åĩº èµĦ
ä¾Ľ æ°´
åį« è§Ĩ
ä¹ĭä¸Ģ çļĦ
æĺ Ķ
çĦ¦ çĤ¹
ä¼ģä¸ļ åľ¨
å®ŀ è´¨
åģ¥åº· çļĦ
ä¸Ń æľĢ
çıł æµ·
åĳ¨ æľ«
åĲĮ åĲį
æĪĳ å¸Ĥ
æĽĿ åħī
èĲ¥ è¿Ĳ
ä¸į åĲ«
ä¸º ä¾ĭ
æ²» æĦĪ
æĶ¿åºľä¿¡æģ¯ åħ¬å¼Ģ
æ¶ ¤
ä¹ĭ ä¸Ĭ
å¤§ èĩ£
èĢģ åĮĸ
åľ¨ ä¸Ń
çļĦ æłĩåĩĨ
åħ¶ ä¸ŃçļĦ
Ñ Ģ
åľĨ æ»¡
åħ³ æĢĢ
å¤§ èĦĳ
D A
æį® äºĨè§£
äº¤éĢļ ä¾¿åĪ©
æĸ° äº§åĵģ
æĦ ģ
å¿½ è§Ĩ
åħ± å»º
åİĭ åĻ¨
æĵįä½ľ ç³»ç»Ł
å¸ĥ æĭī
åĢ¡ å¯¼
åĽĽ åįģ
å¤© ä½¿
æ· ĳ
ig ht
æŁĲ ä¸ª
S h
åħ· ä½ĵçļĦ
è¶ħå£° æ³¢
æ°¨ åŁº
æķĮ äºº
æĹ¥ æĻļ
ä½ł ä¼ļ
æ¹¿ åľ°
in k
éķ¿ è¾¾
ç²¾ èĩ´
åı¯ çĶ¨äºİ
è´ ®
å°± ä¸į
è°ĥ è¯ķ
ç¾İ å¥½çļĦ
æķĻèĤ² çļĦ
æ°´ ç¨»
æĺ¯ åĽ½åĨħ
å» ĸ
æ® ·
åľ¨ åħ¨çĲĥ
çºª å¾ĭ
ä¼ ŀ
å¦Ĥ åĲĮ
æ´ģ åĩĢ
å½ĵæĹ¶ çļĦ
ä¸ĢèĪ¬ æĿ¥è¯´
æ² ¥
Ġ n
åıĤ è°ĭ
æİĴ åĪĹ
çĢ ĳ
å¤© åłĤ
æıĲåĩº çļĦ
Ġ :
å¦ ¨
ä¹ĺ å®¢
å¼Ģ åĪĽ
çĶ· åŃ©
çĽ´ æµģ
éĹ¨ åºĹ
è½ §
æĿĳ åºĦ
ãĤ ¤
çŃī æĸ¹éĿ¢çļĦ
åĬł å·ŀ
çĲĨ è´¢
æĺ ı
æī§ ä¸ļ
æľī è®¸å¤ļ
èĲ¥ æĶ¶
æ· Ħ
æĳ© æīĺ
å© ·
èĲ½ åĲİ
ä¸Ńå¿ĥ çļĦ
ä¸Ĭ åıĳè¡¨
ä½Ĩ ä»ĸ
ç§į ç§į
åłª ç§°
ç»ıéĶĢ åķĨ
ä¸ªäºº ä¿¡æģ¯
å½© èī²
èµĭ äºĪ
éĴ¢ æĿ¿
L O
åİ¿ æĶ¿åºľ
ä¹Łå°±æĺ¯ è¯´
äºĨè§£ åĪ°
æĦŁ åħ´è¶£
æĢ§ åĪ«
åīį éĶĭ
ç©¿ è¶Ĭ
æĺ¯ æĹ¥æľ¬
éŃĶ æ³ķ
åħļå§Ķ åī¯ä¹¦è®°
å¤ļ è¾¾
åİĨ ç»ı
å¤© æĸĩ
éļı æĦı
ä½į çļĦ
åĢĻ éĢī
ç®¡çĲĨ äººåĳĺ
Ñ ģ
çİĩ é¢Ĩ
ä¸Ĭ ä¼ł
A r
èĪª çıŃ
åĮ Ļ
å¤į åį°
å®¶ çĶ¨
ä»ĺ åĩº
å± ł
ag e
æĢ¥ æĢ§
åĪ ¹
ç§» æ¤į
åĮ Ī
çļĦ æĸĩåĮĸ
æĺİ å¤©
å½¢ å®¹
æ¢ Ń
Ġ åħ¬åı¸
ä¸ĭ æĿ¥çļĦ
åŀĭ ä¼ģä¸ļ
æµģ æ°´
è¾¹ çļĦ
ic k
åĩº èĩª
è¿Ļ æ®µ
æ£ ĺ
æķ£ æĸĩ
ä¹Ķ æ²»
ä¸Ĭ åİ»
æĬĢæľ¯ åĪĽæĸ°
éŀ į
åī§ åľº
æ³¨ å°Ħ
çļĦ åıĳçĶŁ
å¢ĥ å¤ĸ
ä¹¡æĿĳ æĮ¯åħ´
å¤ļåħĥ åĮĸ
T h
éķ ģ
åŁ ł
ç¹ģ æ®ĸ
éĩĳ å¥ĸ
åĲĪ ä¼Ļ
çĪ±å¥½ èĢħ
ï¼ Ĳ
çŃī æĸ¹å¼ı
è¢« èªīä¸º
éĻ¤ å°ĺ
åıĳçİ° äºĨ
éº¦ åħĭ
a z
ä¸»è¦ģ ä»¥
è®¾è®¡ åĴĮ
è¯¥ æĿĳ
å»ºè®¾ å·¥ç¨ĭ
éĢļè¿ĩ äºĨ
åº· çĨĻ
é¢Ĩ è¢ĸ
Ġ /
æľī æľºä¼ļ
å®¶ åĽŃ
æĢ§ å¥½
ä»¥ èī²åĪĹ
èĬ± çĶŁ
ä¹¦ éĻ¢
u g
å®ŀéĻħ æĥħåĨµ
èĤ¡ ä»·
æĭ ¾
è°Ī åĪ¤
s p
Ġ ä¸º
ä¹¦ åĨĻ
ä¸Ģ çĻ¾
ç¥ŀ å¥ĩ
çīĽ å¥¶
å¡Ķ å°Ķ
å¸ĥ æľĹ
ä¿Ĺ ç§°
åıĺ åĬ¨
çĦ¦ èĻĳ
åĮĹ ç¾İ
è£ħ æľº
k m
ä¸Ń åİŁ
æľºæŀĦ çļĦ
æĸ ¥
ä¼ł è¾¾
ä»·åĢ¼ çļĦ
ä½¿çĶ¨ èĢħ
é© ³
æĦŁ åºĶ
åī¯ æł¡éķ¿
åŀĭ çļĦ
åĮĹ æµ·
çļĦ åħ¶ä»ĸ
èĲ ĥ
åıĺ é¢ĳ
èĬ ľ
è¿Ļ åı¥è¯Ŀ
æĭľ ä»ģ
Ġ )
æĹ¶ æľº
æ°Ķ çļĦ
æľī ä¸ĢäºĽ
å¢ŀ è¿Ľ
æĪĳä»¬ ä¼ļ
å ļ
çĽĳ çĲĨ
åĴ ³
H D
ä½ľ é£İ
æ¯Ķ çī¹
äºĮ ä¸ĸ
æĿĥ åĬĽ
çĽ ¼
èĬ± åįī
ä¸Ń æīĢ
åĽŀ å¤į
çŃī çī¹çĤ¹
æıı åĨĻ
åĸĦ äºİ
çĶŁäº§ ä¼ģä¸ļ
å°ı éº¦
çĻ¾ ç§ĳ
æĺ¥ å¤©
ç§ĳåŃ¦ çłĶç©¶
å¤§ éħĴåºĹ
ç¥ŀ çļĦ
èī° éļ¾
æķĻ å¯¼
èĪ Ĩ
N G
åĲ¯ çĶ¨
æ±ĩ æĬ¥
åı¯ è°ĵ
æł· åŃĲ
éĻ¤æŃ¤ ä¹ĭå¤ĸ
ä¸Ģ å¥Ĺ
åĲĪ èµĦ
æĺĨ èĻ«
ä¸į åĩº
å¹³ ç±³
ç»Ļ äºº
åĬł æ²¹
åģĩ æĹ¥
æĴ¤ éĶĢ
åħ¨ æ°ĳ
åįļå£« çĶŁå¯¼å¸Ī
] ãĢĤ
ç»Ĩ èĩ´
æ½ į
è¤Ĳ èī²
å¤§ å¤«
ä¸Ľ ä¹¦
ä¸Ń åĴĮ
åħī çĶµ
çŃī å¤ļä¸ª
æº¶ è§£
çļĦ çĬ¶æĢģ
éļı æľº
çıŃ åŃĲ
æ¡Ĥ æŀĹ
ä¸ļ çļĦ
èı ±
åº§ è°Ī
é¢ĨåħĪ çļĦ
ä¸ªæĿĳæ°ĳ å°ıç»Ħ
åı¯ æł¹æį®
å¤ĸ æ±ĩ
ä¸ĭ ä¸ĢæŃ¥
è¾ĥ å°ı
é»ĳ æļĹ
èĢĮ åĩº
æ¢ Ĺ
e p
åĽºå®ļ èµĦäº§
ter n
åħ´ å¥ĭ
å°Ĩ ç»§ç»Ń
åĮºåĿĹ éĵ¾
æľī èī²
çģ ¿
æĶ¾ å¤§
æłĩ é¢ĺ
ç¬ ĭ
æĦı ä¸º
çļĦ æľĢ
ä¿ĿæĬ¤ åĮº
æľį çĶ¨
çģ« è½¦
åĩł ç§į
ä¹Ĳ è§Ĥ
è¾ĥ å¥½
è¿Ļ å¯¹
or m
æī¿ è½½
å²ģ æĹ¶
å¯Ĩ éĽĨ
èª ĵ
å°Ĩ æĿ¥
å±Ģ å±Ģéķ¿
ç²ī æľ«
ar e
äºĭ çī©
æľī æĹ¶åĢĻ
æĸ° æĿĲæĸĻ
â ĺ
æľ¬ çĿĢ
æ¸ħ éĻ¤
M V
C l
ãģ Ĺ
ä½ ĳ
ä¼ļ å¯¹
ä¸Ģ ä¹Ŀ
çļĦ æĢ»
æĬ ¬
ç¥ Ģ
S S
æŃ¦ æľ¯
åħ¬ æŃ£
æĺ¯ åĽ½å®¶
åŃ¦ æľŁ
åħĪåĲİ åľ¨
éĽ į
å¤ĸ å½¢
å¡ĳ èĥ¶
ï ¹
ç»Ļ æĪĳ
ä¸ĭ è®¾
ä¸Ģ ä¹¦
è¯´ æĺ¯
æ³ »
é«ĺ èģĮ
æĹ© ä¸Ĭ
çļĦ é£İ
åħ¥ ä¾µ
æ± Ģ
åº Ĳ
å¤§ çĲĨ
ï¼ī ï¼Ī
çĤ ĸ
å®ī åİ¿
å½ ¬
ç³»åĪĹ äº§åĵģ
è¿ĳ ä»£
è·¯ åı£
Ġ Z
ä¹° åįĸ
åĢ¾ åĲĳ
èĸĦ èĨľ
å¸¸ å§Ķä¼ļ
èĢķåľ° éĿ¢ç§¯
ac e
äº¬ ä¸ľ
æĹ¶æľŁ çļĦ
æ£Ģå¯Ł éĻ¢
ä¸ªæĢ§ åĮĸ
æ³ ¼
éĶ ¥
i re
çļĦ ä¼ĺåĬ¿
ç¦ ¾
i al
æĪĳ è§īå¾Ĺ
CP U
å®ŀ ä¸ļ
èĨ Ģ
æĢĢ åŃķ
åĲį å®¶
çĶŁäº§ ç»ıèĲ¥
åĴ ı
åħ¨ æĹ¥åĪ¶
éĺ² å®Ī
æīĭ åĬ¨
è± ¹
åħļ ç»Ħç»ĩ
å·¥ä¸ļ å¤§åŃ¦
çĥĪ å£«
ç£ ħ
èĴ¸ åıĳ
æĦı å¿Ĺ
äºī å¤º
ç®Ĺ æĺ¯
æľ¬ ç½ĳ
å¦Ĥæŀľ æĺ¯
æ½® æµģ
er v
ç¬¬äºĮ å±Ĭ
éº» çĥ¦
çīµ å¤´
æ¸¸æĪı çļĦ
åŃ¦ä¼ļ ä¼ļåĳĺ
åı¸ æľº
ä»ħ æ¬¡äºİ
åľ¨ ä¸Ĭ
ä¹ĺ åĿĲ
æļ´ éľ²
åĽ½æ°ĳ åħļ
åĲį ä¹ī
å¤§å®¶ éĥ½
æĪĳ å°±
æµģ åŁŁ
ä¸İ ç®¡çĲĨ
åĿĩ è¡¡
ä¸ĭ æ»ĳ
åĥ µ
åĴ ¬
éħį æĸ¹
éĩĮ ç¨ĭ
é«ĺ åİŁ
ä¸ŃåĽ½ å½ĵä»£
å°Ķ çļĦ
çļĦ é£İéĻ©
è¿ľ ç¦»
åıĹ çĽĬ
è¯ ı
åĽ½éĻħ æľºåľº
å°ı åŃ©
as h
åħ¨ èĩªåĬ¨
éħ¸ çĽĲ
æĺ¯ åı¯ä»¥
ä¸Ģ æĹ¥
çĶ¨äºº åįķä½į
ä¸ª ç¯®æĿ¿
äºı æįŁ
åĶ ĩ
åĻ¨ å®ĺ
ç¯ Ĩ
æĺİ ä»£
äº¤ çķĮ
æľĿ éĺ³
ä¸ĵ èĳĹ
åĪ¶ä½ľ çļĦ
éĺ» æŃ¢
æİ§åĪ¶ åĻ¨
« çĹ
ä¸Ģæ®µ æĹ¶éĹ´
åľ¨ åīį
çļĦ æĦıæĢĿ
éģĵ çĲĨ
ä¸Ģ å¼Ģå§ĭ
ä¾µ çĬ¯
åįĥ å¹´
æī¶ æĮģ
è¯ķ åīĤ
åĶ¯ä¸Ģ çļĦ
çīĻ é½¿
P ro
è·Ł éļı
ä¸į åıĬ
æĸ¯ åħĭ
æī ³
çģ¯ åħī
æ´¥ è´´
æīĢ è¿°
æŃ¦æ±ī å¸Ĥ
æ» ķ
äºļ åĨĽ
çļĦ èĢģ
ä¸ŃåĽ½ å¤§éĻĨ
éĽķ åĪ»
ä½Ĩ çĶ±äºİ
ä¸Ģ åıª
é¢ĳ ç¹ģ
å·© åĽº
åħ¬åħĥ åīį
æĶ¶ åıĸ
çĽ´ è¾ĸ
æĶ» åĿļ
åħ·æľī èī¯å¥½çļĦ
ä¸į ä½ı
on d
èģĶ åĬ¨
åºĶ èģĺ
æ· ³
æľī æ²¡æľī
æĸĩçī©ä¿ĿæĬ¤ åįķä½į
é¢Ħ èŃ¦
çĻ½ äºĳ
å¯¼ å¼¹
è§Ĥ éŁ³
èŃ¦ åĳĬ
ä¸¾è¡Į çļĦ
çĦ °
å·¥ç¨ĭ æĬĢæľ¯
æĿ¥ è®²
æŁı æŀĹ
ï¼ļ ãĢĮ
æĺŁ çº§
çĶŁäº§ åŁºåľ°
ä¸Ļ çĥ¯
éª Ħ
æĬķ æĶ¾
åģĩ æľŁ
èģĶ æĥ³
åĲĳ ä¸Ĭ
åĸ Ĭ
æĿ¿ çļĦ
ä¼Ł å¤§
éĤ ¹
åľ£ è¯ŀ
è¶³å¤Ł çļĦ
åľ Ń
å¤ļ å½©
æ¦ Ħ
åıĳ æİĺ
æľī æľĽ
çŁ¥ çļĦ
å±ħ å§Ķä¼ļ
å¥¥æŀĹ åĮ¹
å¥³ çĶŁ
l l
è§£åĨ³ éĹ®é¢ĺ
çģ« éĶħ
åģ¶ åĥı
åĩºçīĪç¤¾ åĩºçīĪ
æĿĳ ä½įäºİ
è½¬ ä¼ļ
ä¸¾ æĬ¥
éĿł è¿ĳ
äº§ åľ°
ä¸įæĸŃ æıĲé«ĺ
éķ¿ å¤§
å¥½ åıĭ
ä¸Ń å°ıåŃ¦
è®¾å¤ĩ åĴĮ
å¤§ åľ°
æĻ ĸ
åįķ çº¯
ç»Ī æŃ¢
æĿ¥çľĭ çľĭ
éº ĵ
E L
åĨ³ å¿ĥ
n t
ç»į åħ´
åĪĨè¾¨ çİĩ
çļĦ èīºæľ¯
åĵ ¦
å®¤ å¤ĸ
çĸĹ æķĪ
çĸ¯ çĭĤ
åħ¼ èģĮ
çļĦ æķĻèĤ²
ä¸ī æ¬¡
åĲį èªī
æ¢ħ è¥¿
åŃ µ
å£« åħµ
è¿ĩ å¤ļ
åľ¨ ä»ĸ
çļĦäºº æīį
èĥ½ èĢĹ
åĲİ æŀľ
æĮĩ ä»¤
åĬŁ å¤«
èĢĮ å·²
æ¨ Ĭ
åĬ³ åĬ¡
éĴ ¥
æľī ä¸ª
å±± çļĦ
æĢ» éĩı
çĶ¨ è½¦
âĢĿ ï¼Ľ
ç¡¬ çĽĺ
åĳ³ çļĦ
éŁ³ é¢ĳ
æ¼ĶåĶ± ä¼ļ
O R
åŀ ¢
æŀģ å¤§çļĦ
ä¸Ń è¶ħ
åĶĲ ä»£
çĽ¸ éĤ»
è¾ĥ å°ĳ
çľģ å§Ķ
åĨħ åľ¨
æ© ĺ
ç¼º å°ĳ
è¿ Ń
çĸĳ éĹ®
æīĢéľĢ çļĦ
å¾® è½¯
å¤´ åıĳ
å£® å¤§
èĥĮæĻ¯ ä¸ĭ
è½¨éģĵ äº¤éĢļ
ac t
çĶµ è§£
åįļå£« åĲİ
å¢ ©
S P
çĶ± ä¸ŃåĽ½
æīĵ è¿Ľ
åĪĨ æł¡
åĩº è¡Ģ
è¡Įä¸ļ åįıä¼ļ
ç»ĵ ç®Ĺ
æīĢä»¥ åľ¨
èı² å¾ĭ
åħ¨ åĮº
æĹ¶ ä»»
çĸ² åĬ³
éĩ ī
çİ¯å¢ĥ ä¸Ń
b er
æ¼ ³
çļĦ åı¯
å¥¹ åľ¨
éķĢ éĶĮ
æ¦ Ĩ
æ´¾ éģ£
ä¸į åı¯èĥ½
åĴĮ ä¸ŃåĽ½
èĢĮ è¢«
ä½Ļ å¹´
èı²å¾ĭ å®¾
æ³ķ çļĦ
ç¦ ¹
s s
éļĲ èĹı
é£İ æĻ¯åĮº
åĿĲèĲ½ åľ¨
äºĨä¸Ģ ç§į
åĵģ çļĦ
å¹¶ åħ¥
è¥¿ æ´ĭ
F T
ä¸Ĭ çıŃ
çķ ´
å¿ĺ è®°
ä»İ æľª
åºŁ å¼ĥ
ç£ Ĭ
æ°ĳ ä¿Ĺ
éĩı åŃĲ
èļ ķ
æıı ç»ĺ
çŁ¿ ä¸ļ
æĪĲç«ĭ ä»¥æĿ¥
æĬķ äº§
å·¥ç¨ĭ å»ºè®¾
éĥ¨ éĥ¨éķ¿
äºĴ èģĶ
è¿ĲåĬ¨ ä¼ļ
å®īåħ¨ çļĦ
p r
æ²Ļ æ¼ł
åĨ· åĨ»
äºº éĹ´
" ãĢĤ
éĩİ çĶŁ
åĴĮ é«ĺ
ä¸Ģä¸ª æľĪ
çļĦåīį æıĲ
èĽĭ ç³ķ
çĶŁ æ®ĸ
ä¸į å½ĵ
ä»· æ¯Ķ
çĦ ķ
æĺ¥ åŃ£
ä¸ŃåĽ½äººæ°ĳ è§£æĶ¾åĨĽ
å»º åĽ½
è®¾ åľ¨
æĤ£èĢħ åľ¨
ä¸ºä¸» çļĦ
åı° ä¸Ń
æĸĩåĮĸ éģĹäº§
èĬ± è´¹
å¸ĪèĮĥ åŃ¦éĻ¢
åĲĦ éĥ¨éĹ¨
å¤§ èĩªçĦ¶
æĺ¯ä¸Ģå®¶ éĽĨ
SK F
æĪĳ ä¼ļ
æĻ¶ ä½ĵ
çĨŁ ç»ĥ
éĩĳèŀį æľºæŀĦ
å°ı éķĩ
å®ŀ åĬ¡
è®¾è®¡ ä¸İ
éĤ® ç®±
ç¬¬äºĮ ä¸ª
åĨį åĬłä¸Ĭ
E E
åħĪè¿Ľ ä¸ªäºº
çī¹åĪ« æĺ¯åľ¨
I A
éĴ Ľ
ä¸Ń æľŁ
ä¼ļ å½±åĵį
èĬ Ļ
C N
æĢ» åħ¬åı¸
W indows
å¹¿æĴŃ çĶµè§Ĩ
åĩĮ æĻ¨
æĺĵ äºİ
æ°Ķ æģ¯
åħ¸åŀĭ çļĦ
ä¸Ń åľº
ç³»ç»Ł ä¸Ń
ç´ł åħ»
åºĶè¯¥ æĺ¯
èĳ µ
çĨ ¬
ç«ĭ åĪ»
æĤ£ æľī
åĲĪæ³ķ æĿĥçĽĬ
æģĭ çĪ±
ç«Ł çĦ¶
æŃ£ éĿ¢
åĢ¼å¾Ĺ ä¸Ģ
åŃ¦ æĬ¥
æĸ°åĨł èĤºçĤİ
è®© ä»ĸä»¬
è·Ł çĿĢ
æĪ¿åľ°äº§ å¼Ģåıĳ
åĽł åŃĲ
å¤± ä¸ļ
åĩĢ æ°´
çļĦ æ¸¸æĪı
å¼Ł åŃĲ
åĽ½éĻħ åĮĸ
çł Į
ç²¾ åĬĽ
äºĨ è®¸å¤ļ
åħ¶ä¸Ń åĮħæĭ¬
åį³ æĹ¶
e ar
ä¸¹ éº¦
è¿İ æİ¥
ä¸ĵä¸ļ åĮĸ
D V
åĳ½ ä¸Ń
æĺ¯ éĢļè¿ĩ
çĪ±å°Ķ åħ°
å¹´ åĪ°
æķ°æį® çļĦ
ç£¨ æįŁ
çĶ¨æĪ· æıĲä¾Ľ
æķĻçłĶ å®¤
ä»İ æĿ¥
è¾£ æ¤Ĵ
è¿ ¦
éľĢè¦ģ æ³¨æĦı
å®ł çī©
åħļ ç»ĦæĪĲåĳĺ
éĹ¨ è¯Ĭ
ç© Ĺ
åħ¬ä¼Ĺ åı·
çıŃ çº§
éĢļ è½¦
èµ° åĩº
æĢĢ çĸĳ
ä¸ļ ä½Ļ
èĶ ĵ
èİ ĵ
å¥ĸ éĩĳ
è¿ĩ æ¸¡
åİ¿ äººæ°ĳæĶ¿åºľ
ä¼łç»Ł æĸĩåĮĸ
è§Ħ ç«ł
è¯¥ æł¡
éĢĤå½ĵ çļĦ
æĿ¥èĩª äºİ
S c
ç»Ī èº«
çľģ æĶ¿åºľ
æĹ¢ æľī
çłĶç©¶ çļĦ
æĩĤ å¾Ĺ
çļĦ åĵģçīĮ
åĿ¦ åħĭ
æİ¨ åĩºäºĨ
éĴ ¾
æĪĳä»¬ å°±
çļĦ å»ºè®¾
äºĭ å®ľ
æīĵ è´¥
åŁĥ å°Ķ
çļĦ åıĮ
è®²è¿° äºĨ
å¸¸ æĢģ
èµ· ä¹ī
l y
ç¾İæľ¯ é¦Ĩ
åħ¨åĽ½ åĲĦåľ°
è½¬åĮĸ ä¸º
æ¬¢ ä¹Ĳ
å¤ĸ åĩº
æĹł æķĪ
å¼ ĵ
è¯ķç®¡ å©´åĦ¿
ä¹Ĳ åĻ¨
æŁĵ èī²
æĸ° ä¸Ģä»£
æ¢ µ
C R
ä¿¡ å¿µ
éĢī æĭĶ
åıĺ éĢŁ
æį ŀ
ç³ Ł
çļĦ æ¯ĶèµĽ
æĺ¯ çĶ¨
æĿĢ æŃ»
éĤ£ å°±æĺ¯
åģĩ å¦Ĥ
æĭ ĺ
æľī æĿĥ
æ¹¾ åĮº
ä¸į åŃĺåľ¨
åĢº æĿĥ
çĥ¦ æģ¼
æĲŃ è½½
çĭ Ħ
æ°´ å¤ĦçĲĨ
æµıè§Ī åĻ¨
ä¹ĭ ç§°
äºļ åİĨ
è§ģ åĪ°
åĽ° æī°
çļĦ æĮĩå¯¼
å±ķè§Ī ä¼ļ
ä¸Ģ æĸ¹
åıĤ çħ§
å¾® éĩı
éĽĨ åĲĪ
åĨħå®¹ çļĦ
è´ ©
éħ ¥
èĢĥ éªĮ
è¿½ æº¯
åħ» æĬ¤
åĪ¶ å¤ĩ
åĲĪä½ľ åħ³ç³»
åºŁ çī©
éĥ¨ èĲ½
ç¤¼ çī©
ç¼ Ķ
æŃ¤ ç±»
æĸ¯ å¡Ķ
åģľè½¦ åľº
å°Ĩ æĪĲä¸º
éª ı
åħ¥ éĹ¨
åĿ ł
ç«¯ çļĦ
ä¸į äºĪ
èį §
çļĦä¸Ģ é¡¹
åķĨ åŁİ
åŃĲ å®«
æ°¨ éħ¸
å°Ĩ ä»¥
ä¸Ģ å¯¹
ä¸į åĪ©
ä¸ľ é£İ
é¡¹çĽ® å»ºè®¾
åĮ»çĸĹ åĻ¨æ¢°
å¹¶ ä¸º
æĤ Ħ
= =
åī¯ æĢ»ç»ıçĲĨ
ä¼ļ è¢«
çļĦ æĢģåº¦
è¿Ļ ä¸¤ä¸ª
éļı ä¹ĭ
æĮĩ çļĦæĺ¯
C ç½Ĺ
Ġ âĢĵ
æĹ¶éĹ´ ä¸º
ç¼ĵ æħ¢
åħĭ éĩĮæĸ¯
åĪĨ çļĦ
æĶ¿ æ³ķ
ä¸ ŀ
æĬ¤ æłı
æ´Ľ æĿī
åįł é¢Ĩ
éĢģ åĪ°
è¿ĩåİ» çļĦ
çĪ ª
å®ŀè·µ ä¸Ń
ä¸ī ç»´
æķ ·
åĿĩ åı¯
æ°´ äº§
åįİ å¤ı
åĬ¨ èĦī
ä»ĸ è¿ĺ
æķĻèĤ² åİħ
æ¼Ķ ç»İ
æĿ¿ æĿĲ
çıł å®Ŀ
ä¸į åģľ
åĽŀ åĽ½
è´¦ åı·
åĪ° ä½į
æī© å»º
S A
Ġ æĸ°
å¼Ģå±ķ äºĨ
èĢĥ åħ¥
è¿Ļ æĺ¯ä¸Ģ
éĽĨ ç¾¤
ç² ª
ä¼ĺç§Ģ æķĻå¸Ī
åĩĨ åĪĻ
è¿ Ħ
åħ¬åı¸ æĭ¥æľī
å¤ļ äºĨ
ä»Ĭ å¹´çļĦ
ç®¡çĲĨ éĥ¨éĹ¨
æŃ¥ ä¼Ĳ
åħļçļĦ äºĮåįģå¤§
éĿ¢ åĮħ
åľ£ ç»ı
è¡Į ç¨ĭ
å¹¶ éĢļè¿ĩ
ç´¢ å°¼
æĬĢæľ¯ ä¸İ
ä¸Ģ æ¬¾
è¦ģ æĥ³
åĪº åı²
åĲİ åĭ¤
éĢĤ éĩı
èĳ£äºĭ ä¼ļ
æ¸¸æĪı ä¸Ń
è´¯ ç©¿
çļĦ åĲĦç§į
ä½ĵçİ° äºĨ
çļĦ ç©ºéĹ´
çĽ¸åħ³ éĥ¨éĹ¨
éĺŁ åıĭ
äººå¤§ å¸¸å§Ķä¼ļ
ç»ıåİĨ äºĨ
è¯¢ éĹ®
A pp
æĹł æľº
åĩł ä½ķ
èĦ± ç¦»
å»º æľī
åĽŀ é¡¾
p e
å¸Ĥ ä¸Ńå¿ĥ
åīį åĪĹ
ä½ľ äºĨ
æľŁ åĨħ
ä¸ĵä¸ļ å§Ķåĳĺä¼ļ
at h
èģĮä¸ļæĬĢæľ¯ åŃ¦éĻ¢
Ġ çİĭ
åį³ ä¾¿
k g
éĺ ª
é¢Ĩ åıĸ
åĪĨ åĮº
è°ĥ æİ§
ä¼ĺè´¨ çļĦ
U V
ä¸Ń åįĹ
è§£ æŀĲ
åĴĮ åĽ½å®¶
æİ¥ åĪ°
æĬ¥ çº¸
ä¿¡ æīĺ
åºĶ åĬĽ
ä¸¤ åĽ½
æ·»åĬł åīĤ
åŃ ¢
ç» ¸
åı¯ä»¥ å¸®åĬ©
ä¸įéĶĻ çļĦ
æľĢ æľī
æ´ĽæĿī çŁ¶
çªģ åıĳ
Ġ åĲį
ä¸į å¤§
åľ° åĪ©
Ġ r
æ²ī ç§¯
åĮĸ åĴĮ
åŁºæľ¬ ä¿¡æģ¯
å¤ĸ è´¸
çļĦ æ´»åĬ¨
æ³ķ æ²»
çłĶç©¶ æĸ¹åĲĳ
æīĢè°ĵ çļĦ
äºĮ æīĭ
éĴ ĵ
å°Ĩ æĺ¯
èĽ Ľ
ä¸»è¦ģ åĮħæĭ¬
ç¾İæľ¯ åŃ¦éĻ¢
çľĭ æ³ķ
åľ¨ æĪĳ
æ·± çļĦ
é«ĺ æ¡£
èī² ç´ł
éĢł ä»·
å¾¡ åı²
æķ ŀ
æ² ¼
è½® èĥİ
C T
çļĦ ç»ıæµİ
ä¹Ŀ é¾Ļ
å®¢ äºº
çī¡ ä¸¹
ä¸į è§ģ
çİ¯ çĲĥ
åĮ» åŃ¦ä¼ļ
ç¬Ķ è¯ķ
å¹¶ åıĳ
å°ı ç±³
åįĹ éĢļ
æĮ ½
èĤ ĩ
æ¶Īè´¹èĢħ çļĦ
å¤© ç©º
éķ¿ çº¦
èĨ Ŀ
I F
èĥ¶ åĽĬ
a il
æĭĨ éĻ¤
åĨħ ç½®
çĬ¹ å¤ª
å¤ĩ åıĹ
çľ¼ éķľ
çŀ »
æľĢ æĸ°çļĦ
å®ĥä»¬ çļĦ
èĢĲ èħĲèļĢ
èĨ ³
ä¸Ĭ ç½ĳ
æĢģ åĬ¿
æĸ° äºº
æµģ ä½ĵ
è°¢ è°¢
ä¸Ģæ¬¡ æĢ§
ç¥ĸ çĪ¶
éģŃ åıĹ
çļĦ æ¦Ĥå¿µ
éĶĢåĶ® é¢Ŀ
a w
çº¦ æĿŁ
æľĢç»Ī ç»ĵæŀľ
éģį å¸ĥ
åİ ķ
åı¯ ä¾Ľ
èİ« æĸ¯ç§ĳ
ç« ĸ
æ¯ı ä¸Ģä½į
S O
æĢ§ ä»·æ¯Ķ
äº® çĤ¹
æĪĳ ä¹Ł
çĿ¡ è§ī
ä¼Ĭ æľĹ
æĪĺ æľ¯
çīĩ çļĦ
ä¸İ ä¸ŃåĽ½
æŀģ åħ¶
éĶ ¤
åĨľä¸ļ å¤§åŃ¦
ä¸Ńè¥¿ åĮ»
éĽ· æĸ¯
çĶ¨ å¿ĥ
åĩº äºİ
æĺ¯ è¦ģ
çĶ¨ äºĨ
æºĲ èĩª
åĩº èī²çļĦ
çŃ¾ è¯ģ
ä¸Ģ å±Ĥ
éĺŁ ä»¥
å¼¯ æĽ²
å¯¹ ç§°
çĸ ®
èĬ Ń
ä» Ĩ
åįİ åĮĹ
o st
å®Į æ¯ķ
ä¸º æľŁ
æ²¡æľī ä»»ä½ķ
çŁ¿ çī©
ä¹Ļ æĸ¹
å±± å¤§
ä» Ĺ
æĽ¾ å¤ļæ¬¡
ä¸º P
ç«Ļ å¼ı
Â ł
åıĳå±ķ æľīéĻĲåħ¬åı¸
æ³¨ çĽ®
å®¢ æľį
åĪ¤ åĨ³
éĹ¨ åı£
åľ° å½¢
æłĩ æľ¬
èĤ² äºº
ãĥ Ī
ç¯ĩ æĸĩç«ł
ĠC om
å® Ľ
èĻ ŀ
çĪµ å£«
l ay
å¹ħ åº¦
å®Ŀ çŁ³
éħ ļ
æłĩ è®°
åľ¨ æĪĳåĽ½
m ent
åŃĺ æ¬¾
çĶ Ħ
ä½ľä¸º ä¸Ģä¸ª
èķ ī
åĪĽéĢł äºĨ
äººæ°ĳ ä»£è¡¨å¤§ä¼ļ
ä½ĵèĤ² åľº
åĮº åĨħ
æīĭ ä¸Ń
æİ¥ åħ¥
èĥ½å¤Ł åľ¨
åı¯ çĪ±
â ī
çļĦéĩįè¦ģ æĢ§
] ,
æ°Ķ è´¨
åħ¬å®ī å±Ģ
éĺĲ è¿°
é£Ł æĿĲ
åł °
æľī ä¸Ģå®ļçļĦ
å²ģ æľĪ
çļĦ éŁ³ä¹Ĳ
æ¶Ĥ å±Ĥ
Ġ å¼ł
å®ļ ä¸º
æĶ¶ ç¼©
è°ĥ åº¦
åıª ä¸įè¿ĩ
æ»¨ æµ·
æĹ¶ ç©º
å¼Ģ äºĨ
æĻ® æŁ¥
G A
ä»¿ ä½Ľ
åįİ çĽĽ
æİĴ æŁ¥
æĶ¹ å»º
å·¥ç¨ĭ æľīéĻĲåħ¬åı¸
æĨ ¾
ä¸ª äººçļĦ
èģª æĺİ
èį «
éĹ´ æİ¥
éĩį è¿Ķ
èĢħ åĴĮ
ä½Ļ åĲį
åĨ¬ å¤©
è¯ ł
ä¹Ĳ è¶£
è¶³ åįı
æį¢ çĥŃ
çļĦ èĬ±
åı¯ä»¥ çĶ¨
åŃ¦æľ¯ è®ºæĸĩ
å¸¦å¤´ äºº
ä¸Ń è¢«
æł¸ åĩĨ
æķ° çĻ¾
Ġ "
äº§ä¸ļ çļĦ
çľĭ åĪ°äºĨ
æ¾ ľ
åĭĭ ç«ł
æīĢå¾Ĺ ç¨İ
å¯¹ æĪĳ
çĥŃ çĥĪ
p s
éĥ½ éľĢè¦ģ
ä¸įæĸŃ åľ°
B M
æį §
å¤ļ ä¸º
çĶ² æĸ¹
æĺ¨ å¤©
æĺ¯ å°Ĩ
æĪĳ è¦ģ
" ãĢģ
èĶ ļ
çĶ² åŁº
çģµ æĦŁ
è§ĦèĮĥ åĮĸ
æĮĤ çīĮ
æĭ¿ ä¸ĭ
åľ¨ æĹ¥æľ¬
åĪĿ å¿ĥ
å¯Į åĲ«
çŁ «
ç§° ä½ľ
çº¿ æĢ§
äºº æĢ§
æĢ» æĶ¶åħ¥
è¯´ è¿ĩ
åĬ¨ åĳĺ
åĭ ī
çī© æµ¦
æĳ Ķ
or k
Ġ æĹ¥
äººå¤§ ä»£è¡¨
è° £
ç° §
ç¡¬ åĮĸ
åĲ« ä¹ī
ä¸Ģ åĳ¨
å·¥ åºı
in t
å°ı ç¨ĭåºı
æłı çĽ®
ä»İ ä¸Ń
éĻª ä¼´
åĴĮ å¤§
ç©¿ çĿĢ
éĻĦè¿ĳ çļĦ
ä»² è£ģ
è´µ æĹı
äºĨ å¯¹
æ¯Ķ éĩį
D C
è¯± åıĳ
æİĴè¡Į æ¦ľ
å¹³ çŃī
å±ĭ é¡¶
æĺ¾ç¤º å±ı
çļĦ å¼Ģ
å®ī ä¸ľ
çģ ¶
åĥı æĺ¯
æľįåĬ¡ å¹³åı°
å¥ĸ åŃ¦éĩĳ
p er
æľĪ ç»ı
å¥¥æŀĹåĮ¹ åħĭ
éĴ¢ çŃĭ
å¤į åıĳ
åī§ åĽ¢
ä¹Ł ä¸º
ç»ĵæŀĦ çļĦ
è¾¾ æłĩ
Ð¾ Ð
æĹ¢ çĦ¶
åĲĳ åīį
åĨĽ äºº
ä¸ľèİŀ å¸Ĥ
ä¹ĭ åĨħ
çİ¯ æ°§
æħ ¨
åī§ ä¸Ń
åħħåĪĨ åĪ©çĶ¨
è¶ĬæĿ¥è¶Ĭ å¤ļçļĦ
æ³ķ å®ĺ
èĽ ®
N T
åıĳ æĶ¹
çļĦ åĬĽéĩı
ç¢° æĴŀ
åĪĨ å±Ģ
è½ ¿
è¿ĳ å¹´
èģļ åĲĪ
åįķä½į çļĦ
çŁ ®
æī¬ å·ŀ
æ·Ģ ç²ī
F C
æº ī
ï¼ Ĵ
äº¤ æ±ĩ
æĺŁ åº§
X X
åĬŁèĥ½ çļĦ
åıĺ ä¸º
åıĳ çĥŃ
æĪĺ åĽ½
çłĶç©¶ åĴĮ
ation al
åĪ© çī©æµ¦
æĦŁ æģ©
æ¸© å®¤
å®ī ç½®
è¿ľ è¿ľ
åĲī ç¥¥
ä¸į ä¸Ĭ
id e
åĲĮ ç±»
èº« ä½ĵçļĦ
çŁ³ å¤´
Ġs h
äºĮ æľŁ
âĦĥ ï¼Į
çŁ ¢
åĲ¯ åıĳ
P U
èģĺ çĶ¨
åĲİ éĿ¢
å·² åľ¨
æĺİ å¹´
åĬ¿ åĬĽ
æľįåĬ¡ äºİ
ç±³ å°Ķ
èĢĲ å¿ĥ
è°¨ æħİ
å®³ æĢķ
çģ« æĺŁ
éĢī é¡¹
è¡į çĶŁ
æĢİä¹Ī åĬŀ
éĹ ·
åįİ ä¸Ń
çģ ¸
åİŁ æľī
åĨľ åİĨ
åįĩ é«ĺ
çļĦ å»ºçŃĳ
å®ļ çĤ¹
æ³° å±±
ç¬¬ä¸Ģ æĹ¶éĹ´
çł į
åįĹ æµ·
æĢ» è®¡
åĲĪä½ľ ç¤¾
åħī è°±
åı£ åĳ³
æŃ£ å¦Ĥ
æŀ ķ
æĻ ķ
åĿļ å®ŀ
èµļ éĴ±
å°Ĩ è¿ĳ
åİ¿ éķ¿
éĻį æ°´éĩı
å¼Ł å¼Ł
éŃ ģ
çļĦ éĤ£
è ĺ
åĲĮæĹ¶ ä¹Łæĺ¯
åºı åĪĹ
è¿Ĳ æ²³
æĸ° ä¸Ģ
èĩ³ åħ³
äºİ æŃ¤
Ľ èµ·
åĪĨ æĪĲ
ãģ ĭ
åĪ¶ çīĩ
æłĸ æģ¯
ç¥ ·
æĿ ł
å¾Ī é«ĺçļĦ
èµĦæºĲ çļĦ
å·¥ åĨľ
æ² Ľ
ç¤¼ åĵģ
æİĮ æİ§
æī§ çħ§
çĦ ļ
äºĨ ä¸ĢäºĽ
èĩª æĦ¿
è®© èĩªå·±
åĴĮ ä¸ªäºº
çŁ¿ äº§
è¯Ĭ æ²»
è¶ ģ
ä½İ åİĭ
çĭ® åŃĲ
åĮ» æ²»
éħį çĶµ
æĽ´ æĶ¹
åĽ´ åī¿
å¹´ äº§
é£İ éĽ¨
T A
è§¦ æĳ¸
ç¥ Ĥ
ç»´ æĸ¯
äº¤ å¾Ģ
å¹³ æĿ¿
åĥı ç´ł
æŀģ åħ·
in ux
æķ°æį® æĿ¥æºĲäºİ
æĿŃ å·ŀå¸Ĥ
ç¡« éħ¸
åľ° è¯´
ç§¯ éĩĳ
av a
å·¥ ä»¶
æĢ» æĶ¯
ç»ı è´¸
è·¯ éĿ¢
åĸľæ¬¢ çļĦ
èµ·éĩį æľº
ç²ī å°ĺ
éĩįè¦ģ çļĦæĺ¯
çĶŁäº§ èĥ½åĬĽ
æłĳ æľ¨
çĲĨ æĢ§
å°¼ å¥¥
è°ĥ è§£
çī ł
æ°ĳ çĶ¨
ä¸Ģå®ļ ä¼ļ
ä¸º ä½ł
åħĪ è¡Į
åħ» æĪĲ
åĴ Ĵ
çŁ¥è¯Ĩ åĴĮ
çİĽ ä¸½
åī© ä½Ļ
r am
æĺİ æ²»
ãĥ ©
å¹´å¹³åĿĩ æ°Ķæ¸©
ä¹ĭ æĹ¶
è´¢æĶ¿ éĥ¨
åľ¨ å¤ĸ
è¿ĩç¨ĭ ä¸ŃçļĦ
æĸĩ æ¡£
æĺ¯ å¤§
æĺ¯åĲ¦ æľī
äº¤éĢļ å¤§åŃ¦
åī¯ éĥ¨éķ¿
çıŃ ä¸»ä»»
it e
ä¸į æķ¢
çĲĨäºĭ ä¼ļ
å»ºè®¾ åĴĮ
å±Ĭ ä¸ŃåĽ½
å¹¶ è¢«
çķħ éĶĢ
é¢ģ åıĳçļĦ
çģĮ æºī
è¿Ħ ä»Ĭ
ä¸º å¹¿å¤§
æı´ åĬ©
åĿļæĮģ ä»¥
éĩĳ éĴ±
å¼Ģå§ĭ äºĨ
äºĭ è¿¹
èĩ³ ä¸Ĭ
éħĴ ç²¾
èŃ¦ æĸ¹
åŁİ åł¡
äºĮæ°§åĮĸ ç¢³
çłĶç©¶ äººåĳĺ
é¦ĸ ä½į
ç¢ Ł
ä¸İ åıĳå±ķ
éĿ¢ æĿ¿
æĸĩåĮĸ åĴĮ
æķ°æį® ä¸ºåĩĨ
çĶµ çº¿
å»º æŀĦ
éĵ¸ éĵģ
åŁºçĿ£ æķĻ
äºĨ ä¸ŃåĽ½
åĳ Ĩ
åĲĪ åĶ±
æĹ¥ æŃ£å¼ı
æķĻåŃ¦ çıŃ
ç¨ ½
çĶŁ æķĪ
çļĦä¸Ģ å¹´
äºļ å¤ª
åŃĶ åŃĲ
æĽ¾ èİ·
ãģ Ł
ä½Ľ å±±
è·µ è¡Į
äººæ°ĳ ç¾¤ä¼Ĺ
ç§ĳ å®¤
æ¥ ł
è¿ĺ åı¯
æµ· åı£
ä¸ĩ åİĨ
è¿ĩæ»¤ åĻ¨
H P
å¯Į å£«
ç´¯ ç§¯
Ġ &
æ¶² æĻ¶
æĶ¹éĿ© å¼ĢæĶ¾
æľĪ èµ·
åħī æ»ĳ
éĵ¶ æ²³
å¹² äºĭ
ä¸ļåĬ¡ çļĦ
éļĶ çĥŃ
çİ¯ ç»ķ
èº« é«ĺ
ä½ĵ è´¨
åĤ¨ èĥ½
t el
éĢļè¿ĩ å¯¹
ç§ĳåŃ¦ åİĨ
çľŁ æĺ¯
ãģ ¨
ä¸Ģ åı·
çĹħ åıĺ
åĨĽ åĽ¢
è¯į çĽ®
çº¿ æĿ¡
çĶµåŃĲ éĤ®ä»¶
çļĦ åĲįåŃĹ
è¿ĲèĲ¥ åķĨ
åĳ Ģ
éĤ ¢
éĢĶ ä¸Ń
åį¡ æĭī
éŁ ¶
å¤ª æŀģ
å¹´ åĴĮ
åĹ £
éĺŁ åľ¨
å¡ Į
å¼ Ĭ
åĩº åľŁ
å¤§ éĹ¨
æĹ¥å¸¸ çĶŁæ´»ä¸Ń
æµ· å³¡
ä¸ĵä¸ļ çĶŁäº§
æĹ¥ è¯Ń
åĮº å§Ķ
èº ²
åįİ ä¾¨
åĽ½å®¶åĴĮ åľ°åĮº
æ» ¥
ç¤¼ ä»ª
éĩįçĤ¹ å®ŀéªĮå®¤
åı¯ä»¥ æł¹æį®
æŀģ éĻĲ
åı¦ ä¸Ģç§į
çļĦ å°±æĺ¯
æĪĺ ç»©
æ¯ĶåĪ© æĹ¶
è¿½ ç©¶
åĬĽ äºī
å¤§åŃ¦ åŃ¦åİĨ
å½ĵ æĹ¥
æı ½
æĮĩ å¼ķ
é¢Ĩå¯¼ å°ıç»Ħ
è£ ¤
æĹ¥å¸¸ çĶŁæ´»
æĢİä¹Ī æł·
V R
ä¸į ç¬¦åĲĪ
å®¡ ç¾İ
Ġé¥° æ¼Ķ
åĲĦ æĸ¹
äº§ä¸ļ åĽŃ
å©ļ ç¤¼
è¿Ļ ä»½
éĥ¨ çº§
å®¹ çº³
ãģ ª
ĠS h
çļĦ ä¸Ĭ
éĴ¢ æĿĲ
å¸ĥ èİ±
A çº§
ä¸Ģ åĿĹ
é» Ķ
ä¸įä»ħ æĺ¯
æĽ´ è¿Ľä¸ĢæŃ¥
éķ ĳ
èİ ¹
åĮº æĶ¿åºľ
åº µ
æ°¯ åĮĸ
ä¸ĸçķĮ å¤§æĪĺ
æł¼ æŀĹ
æĿ° åħĭ
S M
ä»ĸ å¯¹
è½¬ éĢŁ
å¿½ çķ¥
â Ī
çº¢ å¤ĸ
éĽ· è¾¾
åıª éľĢè¦ģ
ä¼Ł å¤§çļĦ
åĿļ å®Ī
è¿Ľè¡Į æ²»çĸĹ
è¯¥ åī§
æĪı æĽ²
ç®Ģ åİĨ
çĵ¦ å°Ķ
åĵ¥ ä¼¦
çŁ³ å¢¨
åĬ³åĬ¨ èĢħ
æĬĬ å®ĥ
åıĳå¸ĥ ä¼ļ
èī° èĭ¦
B O
æĪĳ çľģ
å¿«éĢŁ åıĳå±ķ
æĸ Ĳ
çļĦ å¥³
çŃĽ éĢī
åĴ ª
éĢļ è¡Į
æľĢç»Īç»ĵæŀľ ä»¥
éĶ¦ èµĽ
åĪ¶ è®¢
ç§ĭ åŃ£
æŃ¥ åħ¥
æ°´ æĢ§
æķĻ åĮº
çļĦä¸Ģ æ¬¡
éĴ» çŁ³
å¹´ åĨħ
æµģ æĦŁ
èģĬ å¤©
æķ°æį®æĿ¥æºĲäºİ çĻ¾åº¦åľ°åĽ¾
æľĢç»Īç»ĵæŀľä»¥ çĻ¾åº¦åľ°åĽ¾
é¥± åĴĮ
æĸ¹ å½¢
æľĢç»Īç»ĵæŀľä»¥çĻ¾åº¦åľ°åĽ¾ æķ°æį®ä¸ºåĩĨ
æĶ¶ è§Ĩ
ä¹Ł ä¸įæĺ¯
çĥ «
è½¬åŀĭ åįĩçº§
çı Ģ
ĠA r
ç²¾ çģµ
è¿Ļ æĿ¡
çļĦ éĢŁåº¦
åĬłå¼º å¯¹
åıĺ åİĭåĻ¨
çĤİ çĹĩ
åħ± èµ¢
an n
å¹¸ è¿Ĳ
åİĨ ä»£
åħ¬ ç¤¾
å®½ åº¦
åĲį è¯į
éĶ ¯
åĴĮ æĸ°
å®ĥ åı¯ä»¥
é£İ æĥħ
æ¯« æĹł
åľ¨ ä¸Ĭæµ·
çļĦ çĲĨå¿µ
çº¢ æĹĹ
èĭı æł¼åħ°
è£ħ ç®±
èµ Į
æł¸ ç®Ĺ
é¡¶ å°ĸ
Ġ ä¸İ
Ġ ä¸Ģ
åĮ»çĸĹ æľºæŀĦ
èĮĥ çķ´
ç¼ĸ åħ¥
çł´ ç¢İ
æ¥ ·
å°ĳæķ° æ°ĳæĹı
ä½© æĪ´
åĲ¸å¼ķ äºĨ
æĢĿæĥ³ æĶ¿æ²»
èģĮ åľº
è¯į è¯Ń
æ¿Ģ æĥħ
çīµ å¼ķ
æĶ¿åįı å§Ķåĳĺ
é¾Ļ å²©
æĮ «
å¨ ĩ
å®Į å¤ĩ
å®ª æ³ķ
e ch
æľĭåıĭ ä»¬
ä¸ī æľĪ
ä¿¡æģ¯ ç³»ç»Ł
ä¼ĺç§Ģ è®ºæĸĩ
ä»¥ä¸ĭ çļĦ
Ġ é«ĺ
å®ŀ ä¾ĭ
æĸ¹ åı¯
æĪ ļ
çł´ äº§
å¤į èĭı
è¢« è¿«
åİĨåı² çļĦ
ä½¿çĶ¨ äºĨ
åĸ· æ¶Ĥ
èĮ «
äº¦ æľī
åħįçĸ« åĬĽ
çĭ ł
åĨ° ç®±
æĦıè¯Ĩ åĪ°
åı° åįĹ
å¼ºçĥĪ çļĦ
è¿½ è¸ª
åĵ¥ åĵ¥
æłĩ çļĦ
çľĭ äºĨ
åº ļ
æĭī åħĭ
ç¬Ķ èĢħ
å½° æĺ¾
ä¿Ŀ åį«
æ³ķ å¸Ī
è´¨ çĸĳ
éĩĮ äºļ
åĽº åĮĸ
æŃ£ ä¹ī
P M
Ã ³
ä¿Ŀ å¯Ĩ
i er
çª ĥ
; ãĢĬ
èĢĮ éĿŀ
å¯¹ çħ§
åĿ Ĥ
Ã º
éĥĳ å·ŀå¸Ĥ
ä¿ĥ ä½¿
ä¸ī äºº
èĳĹä½ľ æĿĥ
æģĲ é¾Ļ
ä¹ ĵ
ä¹ĭ å®¶
éĻįä½İ äºĨ
æĿĢ å®³
åºĶ åľ¨
èį Ķ
åĮº éĹ´
çļĦ åİŁ
çļĦ æĤ£èĢħ
åĪĨ å·¥
åħ¼ å®¹
æĭĽ æĶ¶
æľīåħ³ çļĦ
ä»į åľ¨
çĸĳ éļ¾
çĲ ī
åĿ ŀ
åľ¨ åĽ½éĻħ
åĿĲ åľ¨
åĨ³ è®®
åįİçĽĽ é¡¿
ãĤ ĵ
ç´« å¤ĸçº¿
èº ģ
åģĩ è®¾
oo d
äºĳ è®¡ç®Ĺ
æķĻèĤ² åŃ¦éĻ¢
äººä¸º æľ¬
é£İ åĳ³
æł Ī
æľ¬ æķ°æį®æĿ¥æºĲäºİçĻ¾åº¦åľ°åĽ¾
çķĻ è¨Ģ
å·¥ç¨ĭ ä¸ĵä¸ļ
æľīæīĢ ä¸įåĲĮ
ä¸Ńåįİ æ°ĳæĹı
æ© Ħ
ä¸ºæĤ¨ æıĲä¾Ľ
ä¸Ń æ¯Ĵ
ä¹ĭ æĦı
èĪ¬ çļĦ
çļĦå¤§ å°ı
çļĦ åħ·ä½ĵ
è´Ł è½½
ç¾İåĽ½ çļĦ
éĢīæĭ© äºĨ
åĪ¶ åĬ¨
å¹ ¢
è¿Ļ å®¶
å¼ķ çĶ¨
æ»ĳ éĽª
ä»ĸ ä¹Ł
åħ¥ å¢ĥ
å¹¶ æľī
ä»ħ ä¾Ľ
åĽ½åľŁ éĿ¢ç§¯
æĸ° å¹´
æ£ µ
æľºæ¢° è®¾å¤ĩ
åĸ Ĥ
èĤł éģĵ
æĬ¤ å£«
Q Q
ç¦» ä¸įå¼Ģ
å¤§ åĲĮ
ç¡® ç«ĭ
èĽ Ļ
ä¼Ĭæĸ¯ åħ°
è°ĥ åĳ³
ä¸»ä»» åĮ»å¸Ī
åŃµ åĮĸ
çİ»çĴĥ éĴ¢
R S
i le
è¢«è®¤ä¸º æĺ¯
éķ ¶
ä½į å±ħ
æ¨¡ çī¹
é£İ äºĳ
é¥ ª
åį ¤
å®ģ åİ¿
en ce
å®¢æĪ· æıĲä¾Ľ
æĿĢ èıĮ
èµĽ ä¸Ń
åĢŁ éī´
å·¥ç¨ĭ æĸ½å·¥
ä¸į æĩĪ
çļĦ ç»ĵæŀĦ
éŁ³ä¹Ĳ åŃ¦éĻ¢
åĢ¼å¾Ĺä¸Ģ æıĲ
ãĥ ª
åĲĥ é¥Ń
æ±ĩ èģļ
è£ ¸
æ¦Ĥ çİĩ
ç¼´ è´¹
æ³¨æĦı äºĭé¡¹
éĩĮ åħĭ
è¿Ĳ ä¼ļ
åľ¨ å®¶
èµŀ åĬ©
ä¸Ģ åįĬ
æĪĳ è®¤ä¸º
åħŃ ä¸ª
æľĪ åı°
åĨħ åĪĨæ³Į
æĮī éĴ®
æİĴ åĩº
çĥ¹ é¥ª
åľ¨ è¿Ļç§į
ç»ĵ æĻ¶
èĲ½ åľ¨
å¢ŀ å¤ļ
å°ĳ éĩı
æ³¨åĨĮ èµĦéĩĳ
çĤ ³
åĩıå°ĳ äºĨ
èĩª ä»İ
éĥ½ è¢«
åĢĴ æķ°
æ°´ æĻ¶
è¯į æ±ĩ
å°± ç®Ĺ
ç»Ļ ä»ĸ
ä¸ī ä½į
åľŁ æľ¨
åŀ ¦
å°Ħ éĹ¨
H K
A L
ä¸į å®ľ
ä¸º çĽ®æłĩ
çİ° ä»Ĭ
ä¸¤ å²¸
éĿĴ å±±
å°¼ å°Ķ
ä¹Ĵ ä¹ĵ
é©¬åħĭæĢĿ ä¸»ä¹ī
äºº äºº
å®ĥ åľ¨
ä¸Ģ æīĢ
åĳĺå·¥ çļĦ
ä¹ĭ éģĵ
çļĦ ä¼łç»Ł
é«ĺçº§ æķĻå¸Ī
åı¯ è¡Į
æ¼Ķ èīº
æ¸ħ æĸ°
è¯ł éĩĬ
åĨ ķ
æī¿ æİ¥
ar y
çļ ±
äºº æ¬¡
æĹł åħ³
çļĦ äººåĳĺ
ä½ı åľ¨
åºĹ éĵº
åĮ ª
æ°´ åĩĨ
çķĻ æĦı
æĹ¶ æ®µ
ç©º çĻ½
æ²» å®ī
çļ ĸ
çŃī åĽłç´ł
é«ĺ è¡Ģåİĭ
åŁİä¹¡ å»ºè®¾
çłĶç©¶ å®¤
x x
ä¸į å¿ħ
æŁĲ ä¸Ģ
: (
å° §
ä¸į å®¹æĺĵ
åħ¬ ç§¯éĩĳ
æĥĬ åĸľ
ç»Ħ è£ħ
è¡Įä¸ļ ä¸Ń
åĨł çĬ¶
æĹ¥ è®¯
é¢Ħ å¤ĩ
ç¨³ æŃ¥
åĲİ åĨį
å¤ļ åĲĥ
ä¸ľ æµ·
æŀĹ åľ°
è¶³ ä»¥
æĺ¯ éĽĨ
åĽ½å®¶ æłĩåĩĨ
ãĤ ¢
æĽ¼ åŁİ
æĹ© å¹´
æĮī æĳ©
âĳ ł
æ©Ħ æ¦Ħ
çļĦ ä¸»é¢ĺ
æľī ä¸¤
æ½į åĿĬ
æľ¯ è¯Ń
åĩº åħ·
çľ¼ åīį
éķ¿æľŁ ä»İäºĭ
èĩªçĦ¶ç§ĳåŃ¦ åŁºéĩĳ
çĭ¬ç«ĭ çļĦ
æ³ķ åĪ¶
æµ· åįĹçľģ
ç½ĳ çĲĥ
åĪĩ æį¢
iv ers
ä¹Ł æ²¡
çĽ¸ å¤Ħ
å¢ĥ çķĮ
äºº å¯¹
çĲĥ ä¼ļ
æĬķ å½±
å¹» æĥ³
æĬ Ĵ
æ±Ĥ èģĮ
å®ĺæĸ¹ ç½ĳç«Ļ
ç²Ĵ åŃĲ
ä¾Ŀ æ¬¡
è¥¿ æ¹ĸ
ç¾İ åŃ¦
çĽ®åīį å·²
å¥¥ åľ°åĪ©
æĬĹ ä½ĵ
çļĦ çĶµå½±
å¤§ èĥĨ
å¦ĩ ç§ĳ
çĲ ¦
æĦŁ åĨĴ
è´Ł éĿ¢
çĶ² çº§
çļĦ åľ°
æĢ» åĨ³èµĽ
æľī çĽĬ
us t
èĦī åĨ²
æł¸ æ¡ĥ
å¤§ åħ¨
è¥¿åĮĹ éĥ¨
éķ į
ç»Ħ çļĦ
æ§ Ľ
åĲĪ è®¡
æĹ¥ åĨĽ
ç«Ļ çĤ¹
æ²ĥ å°Ķ
å¾· åįİ
ä¹ĭ æĺŁ
ç»Ĩ èħ»
èĵ¬ åĭĥ
åħ¥ åħļ
çļĦ è§Ĵåº¦
è¯¯ å·®
æĬĵ å¥½
åįģ åĩł
åį° å°¼
åįĩ éĻį
çļĦäºº åı£
å¿ħé¡» è¦ģ
ä¸ª åĪ«
çĬ¯ è§Ħ
æĸ¹ è¨Ģ
å·¡ åĽŀ
éĺ ®
é¾Ļå¤´ ä¼ģä¸ļ
ä¿ ©
æ®ĸ æ°ĳ
çĽ®åīį çļĦ
çŃī åĲĦç§į
çĽ¸ ä¼ł
çĶŁ åĮĸ
ãĤ ¯
åıĳ åħī
Ġ Ċ
çĹ ´
æĺ¯ ç»ı
çļĦ çĹĩçĬ¶
å²Ľ å±¿
è¦ģ çĤ¹
æ£ ±
èµĭ èĥ½
å¾· å°Ķ
ol d
å® µ
æĬµ æĬ¼
æıĲ èµ·
æµ· æĬ¥
çĭ¬ å®¶
ä¸¥ èĤĥ
çİ© æ³ķ
æ°ĳèĲ¥ ä¼ģä¸ļ
åĪĩå°Ķ è¥¿
æĦŁ çŁ¥
æĬĢæľ¯ æľįåĬ¡
æģĴ æĺŁ
èµĽ åĲİ
åĩº è®©
æıĲ åıĬ
åľŁ å·¥
åĽĽ åĳ¨
æ´Ĺ æ¶¤
å¤± æľĽ
åħ¨éĿ¢ çļĦ
åĪĨå¸ĥ åľ¨
çĻ «çĹ
çŁ £
åıĮ åĲĳ
æĢ» å»ºçŃĳéĿ¢ç§¯
æĹ© æĹ¥
æģĲ æĥ§
åĤ¬åĮĸ åīĤ
åħĭ èİ±
æĶ¿åºľ çļĦ
æ¡ĥ èĬ±
é«ĺ åħ´
æŃ£ å½ĵ
çĻ«çĹ «
å¼Ģ åĬŀ
å¤ľ éĹ´
æŀľ å®ŀ
åħī çº¤
åŃ¦ä¼ļ çĲĨäºĭ
è¡Į èµ°
ĠãĦ §
åĩ» ä¸Ń
è¿Ļ æĦıåĳ³çĿĢ
é«ĺ æĢ§èĥ½
éħį æľī
G oogle
äºĮ ç»´
çļĦ æīĭ
åĮ» ä¿Ŀ
S p
åĽ° å¢ĥ
åĲĮ æł·çļĦ
åĽŀ åĲĪ
æķĳ åĬ©
C M
è£ Ļ
"ãĢģ "
èĲ¥ä¸ļ æĶ¶åħ¥
çļĦ æĬķèµĦ
å·¥ å§Ķ
èĤĮ èĤ¤
å®Į ç¾İçļĦ
æ²»çĸĹ çļĦ
ä¸ºä¸Ģ ä½ĵ
çĢĳ å¸ĥ
æĤ£ ä¸Ĭ
çļĦ ç¬¬
æĸĩåĮĸ èīºæľ¯
çĨ ı
èĬ ¹
æ¨¡ æĿ¿
æİĪ è¯¾
éĿŀå¸¸ çļĦ
åĪ ĥ
ä¸į ç¡®å®ļ
çļĦ éģĵè·¯
æľĢ å¤ļçļĦ
Ãł n
èº« ä¸º
çĶµ åİĤ
èĮ µ
å®¶ å±ŀ
èĬ¬ åħ°
åħ³ çĪ±
è·¯ æ®µ
T S
æ¸¸ ä¹Ĳ
er n
ç»Ī çĤ¹
åºķ éĥ¨
ï »
çĶŁäº§ åİĤå®¶
ä¸ĢèĪ¬ çļĦ
å§Ĳ å§Ĳ
å¥³ è¶³
éĺ» çĩĥ
ro m
åįģ è¶³
ç»Ļ æĪĳä»¬
ä¸ĩ ä½Ļ
æīĵ åħ¥
èį£ èĢĢ
çľŁ äºº
ĠU n
æĹ¥ çĶµ
l d
A D
æĹĹ èĪ°
è¿ľ çļĦ
åħ³ç³» çļĦ
ä¸ĵç§ĳ åŃ¦æł¡
a u
è¡¨çİ° ä¸º
it h
æ°´ èµĦæºĲ
Ã¡ n
åħ¥ åĽ´
æ°Ķ ç®¡
å´ Ľèµ·
çļĦä¸Ģ éĥ¨
çª ¦
åĳĪçİ° åĩº
å·ŀ åĮº
Ð º
çļĦ ç¡®
åħ±äº§ åħļåĳĺ
æľĪ ä¸Ń
çĽ¸ å¯¹äºİ
çļĦ è§Ĵèī²
çī¹ å®ļçļĦ
ï» ¿
èĭ±æĸĩ åĲį
ä¸ĵ èģĮ
åħ´ èµ·
ç¼ĸ å§Ķ
å¹³ è¡Į
å±ķç¤º äºĨ
is h
ç§ĳåŃ¦ çļĦ
ä¸Ģ åı°
ä¸» å¸ħ
æŃ» åĲİ
ä¸» æķĻç»ĥ
åħ¶ä»ĸ çļĦ
å±ħ å®¶
æľī ä¸Ģå®ļ
æ°´ æºĲ
é£İ æļ´
åĪ« äººçļĦ
å¾ģ æ±Ĥ
çİ¯ æ¯Ķ
çŁ¥ åİ¿
ä¸ŃåĽ½ äºº
æ°ĳ åĬŀ
ĠC l
åıĳå±ķ æĪĲä¸º
é«ĺåº¦ éĩįè§Ĩ
å¤§ åİħ
è¶Ĭ å¤§
æĮ £
æĻ¯ èī²
åĸ ĺ
å¾® æ³¢
ä»¥ä¸Ĭ å°±æĺ¯
çļĦ æ¯Ķä¾ĭ
åī¯ ç§ĺä¹¦éķ¿
æŁĶ è½¯
åĴĮ å·¥ä½ľ
å¹³ åĩ¡
åİŁ æĿ¥çļĦ
åĬ¡ å®ŀ
åŃ ľ
çıį çıł
æ³Ħ æ¼ı
æ¬¡ å¹´
çļĦäºº çī©
ç¯ĩ å°ıè¯´
Ñ Ĥ
ç µ
æķĪ èĥ½
âĹ ı
çī¹ å°Ķ
ç²¾ åįİ
åıĳå±ķ æĪĺçķ¥
å¼Ģ éĩĩ
ç¨ĭåº¦ çļĦ
åĭĩ æķ¢
ä¸İ ä¼ļ
åİŁåĽł æĺ¯
è¿ĩ åĲİ
åĴĮ å°ı
æĬĢ èīº
æĿ¥ è¿Ľè¡Į
å½±åĵį çļĦ
æĸ° é¢ĸ
æĺ¯ä¸Ģ åº§
æł¸éħ¸ æ£Ģæµĭ
éĻ ĩ
ç§Ł è½¦
æ¸ Ń
åłµ å¡ŀ
åı¯ä»¥ è®©
æ°´ ä¸Ĭ
èµ· æºĲ
åĩº éģĵ
ç¤ ģ
åħ¬éĩĮ å¤Ħ
P D
é¦ĸ å®¶
åİĨåı² æĸĩåĮĸ
æ²¹ èĦĤ
æĶ¿çŃĸ çļĦ
æĭ ¦
çİ¯å¢ĥ ä¸ĭ
åĬŀåħ¬å®¤ ä¸»ä»»
ä¼ļè®® å®¤
äºĶ æľĪ
å¾Ĺ äºĨ
Ġ ch
æĺ¯ æ¯Ķè¾ĥ
è¾¾ å°Ķ
æ²¡ æĥ³åĪ°
åĲĪ è§Ħ
çĽĳ ä¼ļ
ç» ¥
å®Į å·¥
éĢī ä¸º
èĢĮæĪĲ çļĦ
âĳ ¡
å¤© å¤©
å¤« å¦ĩ
æĭ¼ æĲı
éĻĮ çĶŁ
çĶŁæ´» åľ¨
____ ____
ç½ĳç»ľ å®īåħ¨
éľĢæ±Ĥ çļĦ
å¿ł è¯ļ
æĸ¯ é¡¿
åĶĲ æľĿ
çĶŁåĳ½ çļĦ
å·ŀ åĪºåı²
E x
åıĤä¸İ äºĨ
ãĢĤ ãĢį
å· ħ
åĺī éĿĸ
æĹ¥ åĲİ
çģŃ çģ«
æķ° åĢ¼
åĶ® ä»·
è¿ģ ç§»
è¡Ķ æİ¥
å¹³åı° çļĦ
å¼Ĥ è®®
ä¸Ģ ä»¶
åĲį èĥľ
åīį éĿ¢
æĿĤ è´¨
æľ Ķ
é¢Ħ åĳĬ
å®Ŀ è´Ŀ
G DP
ç®Ģ æ´ģ
å¤§ äºĭ
å°Ķ å¤ļ
çŃ¹ å¤ĩ
ãģ Ĩ
è¢Ń åĩ»
èĬĿ éº»
è½¦ éģĵ
æ±ī åŃĹ
åĢ¼å¾Ĺä¸ĢæıĲ çļĦæĺ¯
y st
A n
G O
èµ· æŃ¥
åħ³éĶ® è¯į
ä¸ľ è·¯
å½¢å¼ı çļĦ
åĪĨ è£Ĥ
é²ľ æĺİ
c o
æłĩå¿Ĺ çĿĢ
ä½Ĩæĺ¯ åľ¨
åĩº åĽ½
ä½ı éĻ¢
åıĳå±ķ è§ĦåĪĴ
æģ¶ æĢ§
æŀĦ ä»¶
çļĦæĸ° åŀĭ
ä¸Ģ éģĵ
çļĦ çĪ±
è¥¿ éĹ¨
å®ŀ æĪĺ
éĿĴå²Ľ å¸Ĥ
éħ ª
çŁ¥åĲį åº¦
ç§¯ç´¯ äºĨ
æ²»çĸĹ çĻ½çĻľé£İ
æľī æ¯Ĵ
ä¸į å¿ĺ
æīĭ çļĦ
åħĭ å°Ķ
èĪ° éĺŁ
åŃ£ åĲİ
ä¸´ æ²Ĥ
ä¸į å¹¸
å®¢æĪ· ç«¯
A B
åĽ¢ éķ¿
æĶ» åħ³
åĲĦé¡¹ å·¥ä½ľ
åħ± è¯Ĩ
å±Ģ åī¯å±Ģéķ¿
éŀ Ń
æĦ¿ æĻ¯
æĢ§ åľ°
åħ¬ å°º
Ġ å°ı
ä¸Ń åŀĭ
å·¥ä¸ļ åĴĮ
æĬĸ éŁ³
èĢĲ çĶ¨
æĿ¡ çº¦
åĲĪ ä¸Ģ
æĪĳ ä¸į
ç®Ģ åĮĸ
å¿ĥ è¡Ģç®¡
çĻ¾ è´§
è¿ĺ æ²¡
æ±Ł æ¹ĸ
å¦Ĥæŀľ æ²¡æľī
æ²¹ çĶ»
ç¦ı å¾·
å¹¶ è´Ń
ç¹ģ åįİ
è¾Ľ èĭ¦
æľĢåĲİ çļĦ
æ±Ł åİ¿
é«ĺ åĪĨåŃĲ
åµĮ åħ¥
ä¼ļ äº§çĶŁ
åĩı æİĴ
ä»ĺ æ¬¾
å½ĵåľ° çļĦ
ä¸Ń æµ·
ç®¡çĲĨ åĪ¶åº¦
æ®ĭçĸ¾ äºº
æ¤ Ń
å¹´ çº§
é¢Ĩ åĨĽ
æ²³ éģĵ
å¥ĳ æľº
æķĻ ç§ĳ
ä¸ĩäºº æ¬¡
æ¸Ķ ä¸ļ
ä¸įåĲĮ äºİ
åŃķ å¦ĩ
åİĭç¼© æľº
é¢Ĩå¯¼ çļĦ
éģĹ æĨ¾
ä½¿çĶ¨ æĿĥ
åĲĪä½ľ çļĦ
ç¾İ åĳ³
åĮĹ å¤§
ä¸Ńè¥¿åĮ» ç»ĵåĲĪ
æł¼ æłħ
é±¼ ç±»
äºļ é©¬
éĽĨ è£ħç®±
çĽ´ è§Ĥ
éĻ¤ å¤ĸ
ç»ĵ å±Ģ
æ¢ ĵ
å¯ ¡
è¾ĵ æİī
æĬĳ éĥģ
eb ook
å¥ĩ è¿¹
ä¸ĭ æĸ¹
ä¼Ĺ çĶŁ
åĭĩ æ°Ķ
æł¼ éĩĮ
å°Ĩ ä¸º
ç§Ł éĩĳ
åįģ æľĪ
ä¸į éĢĤ
æµ· é²ľ
çĶµåĬ¨ æľº
å§ĳ å¨ĺ
ç²¾ çĽĬ
æ³ī å·ŀ
ic al
ç¬ Ľ
ç¼© åĨĻ
æ´»æĢ§ çĤŃ
åİĨåı² æĤłä¹ħ
çĲĥ çļĦ
ä¸į æĺİ
çĶµ èĥ½
åĮ»éĻ¢ çļĦ
å¼ķ äºº
ä¸ľåĮĹ éĥ¨
èĲ İ
è´£ ä»¤
å¦¹ å¦¹
å°¤ ä¸º
èĩª å¾ĭ
åŀ Ħ
ä¸Ģ é¢Ĺ
æ¬¡ åĬ©æĶ»
é© ¿
æĶ¯ çĲĥéĺŁ
ä¸º åĽ½å®¶
ä¹Ł ä¸įèĥ½
åįģ å¹´ä»£
è¯¦ç»Ĩ çļĦ
åħµ åĽ¢
åĬ³åĬ¨ åĲĪåĲĮ
åĮĸ çĸĹ
ä½ £
åıĺ æĪĲäºĨ
èĥ °
ä½į åĪĹ
å½ĵ ä½ľ
æĺ Ĭ
åī¯ æĢ»è£ģ
åĪĬ çĻ»
Ġ éĻĪ
åľ¨ é¦Ļæ¸¯
å¸® æī¶
ç¦ı éŁ³
ä¸ľåįĹ éĥ¨
é«ĺ éĽĦ
ä¸§ å¤±
çİ° æĹ¶
ä¼ļ ä½¿
éĢī è´Ń
æĢ»éĥ¨ ä½įäºİ
å¸Ĥ äºº
æ´ ±
å½±åĵį åĪ°
ä¹ĭ äºº
åĭĩ äºİ
â ħ
æ°´ æ³µ
èĳ «
ç§ĳçłĶ æĪĲæŀľ
åħ¶ éĹ´
æ¸´ æľĽ
å¢ŀ æ·»
åģļ äºĭ
çª Ł
åľ° åĲį
å¤ĸ èµĦ
ãģ ¾
æī¾ åĪ°äºĨ
å»ºçŃĳ å¸Ī
æ·ĺ å®Ŀ
åħ¶ åľ¨
éĹ¨ å°Ĩ
èµ° äºĨ
å© ī
s e
çļĦ å£°éŁ³
æĸĩ æĹħ
çŁŃ ä¿¡
æĭ ¯
åįĹ éĿŀ
ä¸Ń ä»ĭ
ä»£è¡¨ ä½ľ
å½ Ŀ
æĺ¾ åį¡
åıĳçİ° çļĦ
çİ° åŃĺ
æŃ¦ å¸Ŀ
æĮª å¨ģ
å¤ĸ å£³
æ·Ħ åįļ
æ² ¾
å¸Ī åĤħ
å·´ å·´
æŁ ł
æĪĳä»¬ éĥ½
ä¸į åĲĪæł¼
ç¼ Ģ
ä½Ĩ åį´
æµģ çķħ
å¤ĸåĽ½ è¯Ń
éĢł çº¸
èĦ± è´«
åŃ¦ä¹ł çļĦ
è¡Ĺéģĵ åĬŀäºĭå¤Ħ
å§Ĳ å¦¹
ä¸İ ä¹ĭ
ä¹ĭ ç¾İ
åİ¿ çļĦ
èĢĮ å¾ĹåĲį
åıĳè¡¨ äºİ
èĪĴ æľį
çĮª èĤī
æ³ķ åºŃ
æĢ» æī¿åĮħ
æĽ´ å¿«
åı¯ä»¥ éĢīæĭ©
åĮĸåŃ¦ åĵģ
ä¼´ éļıçĿĢ
çłĶç©¶ æĪĲæŀľ
ä¸ĢçĽ´ æĺ¯
ç± ½
çī Ł
U n
ç»´ åº¦
ç®¡çĲĨ åŃ¦éĻ¢
æ¨¡ ç³Ĭ
ĠãĦ Ĳ
ãĥ ĥ
çī¹ çļĦ
æ±½ æ²¹
æľĿ å»·
æļ´ åĬĽ
å§ Ĭ
å°± å·²ç»ı
ä¸ĩ çī©
è¡Į æĥħ
çŁŃ æļĤ
è¹ Ħ
æĳĨ èĦ±
å°± åĮ»
æĶ¹ æŃ£
èĬ ĭ
æĮ ļ
ä¸Ń æłĩ
é£İ çĶµ
åīį æıĲ
æ®ĭ çķĻ
åĪĨ åī²
æģĴ å¤§
éĢŁ çİĩ
ä¸į æ»¡
ä¹ĭ ä¹¡
æ¢³ çĲĨ
å¾Ī å¼ºçļĦ
ä¸ĸ ä»£
åĬłåħ¥ äºĨ
èİ² èĬ±
ä»Ĭå¤© çļĦ
F AG
a f
çĽ®çļĦ åľ°
E X
è¿ŀ èĥľ
PV C
ä¹ĭåĲİ çļĦ
å¸¸ å·ŀ
A nd
åħ¨ åľº
è§ģ éĿ¢
ç»Ĩ åĪĨ
éķ¿ ä¹ħ
æ¦ ´
å¤įåį° ä»¶
ãĤ Ĭ
åĮħ è£¹
åīį ä¸ī
Äģ n
æ¡ ĵ
æĺİ äº®
æĶ¹ èī¯
è¶Ĭ é«ĺ
å¹´ éĻĲ
äº¨ åĪ©
åįģ ä½Ļ
æħ Į
æĶ¿ æĿĥ
åĲ ģ
èĭ± éķĳ
åĲ Ł
å°ı åĦ¿
åķĨ åŃ¦éĻ¢
éĿ©åĳ½ æł¹æį®
çī¢ åĽº
Î ±
åı¯ è§Ĩ
åľ¨ åľ°
åĴĮ ä¼ģä¸ļ
èĪªç©º åħ¬åı¸
è¡¨ æł¼
å¯ĵ æĦı
ä¸ĩ è¾Ĩ
çī©ä¸ļ ç®¡çĲĨ
æµ· åĨħå¤ĸ
èµĽ çļĦ
ç¤¾ä¼ļ è´£ä»»
è¿Ļç§į æĥħåĨµ
æıĲåįĩ äºĨ
ä»Ģä¹Ī æł·çļĦ
æĻºèĥ½ æīĭæľº
æıĲä¾Ľ åķĨ
é©» åľ°
ç½ĳç«Ļ çļĦ
ic s
åħļæĶ¯éĥ¨ ä¹¦è®°
åĽŀ å¤´
çĥŃ çº¿
è¡¨çİ° åĩº
æľī ä¸Ģç§į
æľ¬ åĬŀæ³ķ
Ġ ä¸Ĭ
ä½İ çļĦ
I G
å¯Ĵ åĨ·
è¶£ åĳ³
ä¸įç®¡ æĺ¯
ä¸Ģ ä¸Ģ
çŃī åĬŁèĥ½
å°± è¢«
ä¸¥æł¼ çļĦ
ä½ł è¦ģ
Ġ Q
æĹĹ ä¸ĭçļĦ
ç³ Ļ
åĪĨ å¼Ģ
ä¸įæĸŃ æī©å¤§
å¾® ç¬ĳ
ç¬¬ä¸Ģ å±Ĭ
ä¿Ŀ å®ļ
ç¬¬ä¸Ģ ä½į
åĪĽä½ľ çļĦ
ä¸į åĲĥ
çĶµ å·¥
å¾®éĩı åħĥç´ł
un d
èīºæľ¯ åŃ¦éĻ¢
é¢Ĩå¯¼ ä¸ĭ
åı¯ éĢļè¿ĩ
å®ļ ä»·
T M
åĲĦ æł·çļĦ
åĵ¥ä¼¦ æ¯Ķäºļ
æĹ¶éĹ´ åĴĮ
èĩªçĦ¶ èµĦæºĲ
å¼Ģ èĬ±
è¡Įä¸º çļĦ
ä»ĸ ä¸İ
åĩº æ°´
ä¸ĵ å±ŀ
é¥ ¿
å£° èªī
è¾ ±
è¯Ħ åĪĨ
æİ¥ åľ°
éĤ£ æĹ¶
ç¬¬åįģ äºĮ
ä»¿ çľŁ
å±± åľ°
ä»į æľī
çļĦ æĹł
åĴ¨è¯¢ æľįåĬ¡
å£® æĹı
åĮº åĴĮ
æµĵ éĥģ
çķª èĮĦ
ç¥ ģ
åĲİ åľ¨
äºĨä¸Ģ ç³»åĪĹ
åħļç»Ħ ä¹¦è®°
åĪ« åĲį
æĿĥ éĻĲ
æµ· åŁŁ
M ar
å·¥ç¨ĭ é¡¹çĽ®
æŃ£å¸¸ çļĦ
S D
å®¡ çĲĨ
å¯¼èĩ´ çļĦ
åŃĲ éĩĮ
åħ¬ ç«ĭ
çľģ éģĵ
ä¼ģ äºĭä¸ļåįķä½į
çľĭ ä¼¼
æ¶ī å«Į
' s
ä½ł æĺ¯
é¦ĸ åıĳ
è®° ä½ı
åĻ¨ åĴĮ
åħĭ ç½Ĺ
ç£· éħ¸
ç²¾ æ¹Ľ
å¹´ éĻįæ°´éĩı
å¥³ æİĴ
æ¯ı ä½į
é©¬ æĸ¯
O C
éª Ĥ
ä¸įæĸŃ æıĲåįĩ
åľ¨ åĨħ
äºĨ èĩªå·±çļĦ
èĳ« èĬ¦
ä¸Ĭ è¯¾
çıį æĥľ
æĢİ æł·çļĦ
åĴĮ ä½¿çĶ¨
oh n
æĶ¿æ²» äººçī©
å·¥ä¸ļ åĽŃåĮº
æ£ ł
åĪĨ ç®¡
ä¸º æĸ°
éĥ¨éĹ¨ çļĦ
çĽ´ çº¿
æĶ¯ æŀ¶
éĺ» ç¢į
éĿ¢ éĥ¨
ä¸º ä»£è¡¨
ãĢĤ "
å¤Ħ å¤Ħéķ¿
çĲĨæĥ³ çļĦ
æĲľç´¢ å¼ķæĵİ
âĶĢ âĶĢ
äº¤ ç»Ļ
è°· æŃĮ
æ¿Ģ æ´»
å¹´ èİ·å¾Ĺ
æ°´ ç®±
åĽłæŃ¤ åľ¨
ç«ĭ åľº
å¤º åĨł
é«ĺ æĸ°åĮº
æľº ä½ĵ
æºĲ å¤´
çħ ²
çĻ» ä¸Ĭ
æ¡ĥ åĽŃ
çĽĳ çĭ±
é©¬ éĩĮ
å®ģ å¸Ĥ
çļĦ åĩºçİ°
åŁº åĩĨ
èµ· æĿ¥çļĦ
çĶ² éĨĽ
åĤ į
æľ¬ ç§ĳåŃ¦åİĨ
ä¹Ł è®©
åī§ éĽĨ
åħĭ åĬĽ
ä¸Ģæł· çļĦ
æį® è¯´
çĽ² çĽ®
o ol
åĪĨ è¡Į
åĪĽæĸ° åĪĽä¸ļ
ä¸ª å·¥ä½ľ
åį ¦
ï¼Į âĢĿ
é¦Ļ åĳ³
çº¯ æĶ¶åħ¥
åįļ ä¼ļ
æľº çŃī
å±± æĿĳ
èĻļ åģĩ
çļĦ æľĢä½³
ä¸Ģå¸¦ ä¸Ģè·¯
Ä ĵ
èĲ¨ æĸ¯
æł¼ å°Ķ
å ¬
ä¸ĭ ä¸Ģä¸ª
åıį åĩ»
åĨĻ çļĦ
äººæ°ĳ æ£Ģå¯ŁéĻ¢
éĢł å°±
æ¿Ģ åĬ¨
å¸ĥ å°Ķ
å°¤ æĸĩ
é¾Ļ çļĦ
ç³ ¯
æł¼ æĭī
or y
æ£Ģ ä¿®
is s
ä¸Ģ ä¸Ń
B r
åĩº æľī
æĪĳ åı¸
åįĹäº¬ å¸Ĥ
çĩĥ æ²¹
å¨ Ł
çļĦ æĹ¶
è®® é¢ĺ
çļĦä¸Ģ åº§
æµ· å°Ķ
æĸĩ ä¹¦
æĮģ ä¹ħ
ãĢĳ :
å§ĭ äºİ
çļĦ å¼Ģåıĳ
åĪ¶ åīĤ
éĹ¨ ç¥¨
é¦Ļ æ°Ķ
åĮĹ å®ĭ
æİ¨ å±ķ
åı¯ æĥľ
ä¸»åĬŀ çļĦ
çĽ´è¾ĸ å¸Ĥ
åĲį çīĮ
m in
æ¸¸åĩ» æĪĺäºī
çĤ «
æ´½ è°Ī
èĤ Ĩ
è®º è¯ģ
ç³»ç»Ł åĴĮ
èģĮä¸ļ åŃ¦æł¡
å¿ĥçĲĨ åģ¥åº·
ä¸įåĬ¨ äº§
æĿ¥ ä¸´
åĲĦ æľī
è®¸å¤ļ äºº
å½© èĻ¹
æīĢ ç¤º
è½¬ åĬ¨
å®£ä¼ł éĥ¨
äºº ä¹ĭ
ä¸Ĭ éĹ¨
å·² äºİ
ac ebook
I V
æĦ¿ æľĽ
å®ī éĿĻ
å¤Ħ åľ¨
ĠT he
å±ķ æľĽ
å¦Ĥæŀľ ä¸į
é¢Ŀ å¤ĸ
ç»Ĩ åĪĻ
å¹´ ä»¥ä¸Ĭ
æĪĺ åĲİ
æĿ ŀ
å·¥ åŃ¦
çĶ² çĬ¶
ä½Ĩ è¿Ļ
çİ° æľīçļĦ
ä¸ĭ åįĬå¹´
çºª å§Ķ
åŃ¦ è´¹
æµ· æ°´
åĲ ĵ
è´¨éĩı åĴĮ
åĵ º
åīįèº« ä¸º
æĢ» ä¹ĭ
åīį èĢħ
å¤´ çĹĽ
ä¸Ŀ ç»¸
å¾Ĺ åĩº
æĹħè¡Į ç¤¾
å®¢ è½¦
éĿĻ èĦī
çļĦ ä»·åĢ¼
ol og
é¸Ł ç±»
A d
éĻį è§£
æ¨ª åĲĳ
æĻº åĬĽ
å¹´ æľ«
æ¯ ¯
æ¯Ķçī¹ å¸ģ
ç»Ĩèĥŀ çļĦ
çĶ¨ ä»¥
Ġ æľī
å½±åĵį åĬĽçļĦ
å°Ħ åĩ»
å½ĵ åĪĿ
åı¯ä»¥ ä½¿çĶ¨
çĥŃ çļĦ
ä¸»è¦ģ çĶ±
ç²ī ç¢İ
æµģ å¤±
åľ¨ æĪĳä»¬
æŁ ¿
æĹĭ å¾ĭ
å¤Ħ åĪĨ
äº¦ æĺ¯
å¤§ åį«
å®ļ åĲĳ
å¥łå®ļ äºĨ
æĬ¥ è¡¨
äº¤ æīĢ
ãĤ ĭ
åĸ ĩ
æ¯Ķ èµ·
æ´Ĺ è¡£
æĶ¯ éĺŁ
l og
çĿ£ å¯¼
å°± ä¸įä¼ļ
åŁİ çļĦ
å¾Ĺ å¤ļ
ç»ıèĲ¥ ç®¡çĲĨ
æ¼ı æ´ŀ
as e
èļ Ĭ
ã İ
åĺī åħ´
æ²¥ éĿĴ
ä¸İ åºĶçĶ¨
ç¤¾ ä¿Ŀ
æĦı æĦ¿
å¤§å®¶ çļĦ
æĳĦ åħ¥
éĤ» è¿ĳ
éĻį æ¸©
åıĳ æī¬
æµģ æµª
æľįåĬ¡ åĴĮ
æ´Ľ åħĭ
Ġ k
åįĹ è·¯
åıĹ æįŁ
çŃī åĪ°
æĤ¬ æµ®
ç´§ åĩĳ
è¿ŀ ç»ĵ
ä½ľ åĩºäºĨ
æ²¿ çº¿
æ¸¸ è§Ī
ä¼ł éĢģ
ç©¿ è¿ĩ
äº§åĵģ åĴĮ
æĻļ æľŁ
ä¿ ĺ
åĲį å½ķ
éĩĩ æł·
å§¿ æĢģ
ä¸Ģ ç«Ļå¼ı
ç¢ Į
äº ¥
äººç±» çļĦ
æ¶¦æ»ĳ æ²¹
ä»ĸ åĴĮ
æīĵ åĩº
å¹´ çºª
Ġ æĪĳä»¬
åĳ µ
æĩ Ĵ
çŃī åĨľä½ľçī©
ic ro
åı£ å¾Ħ
ä¸ª å°ıæĹ¶
ç¾½æ¯Ľ çĲĥ
ä¸Ń è·¯
ç¾İ èģĶ
èĩª åĬ©
å±Ģ çļĦ
æĥħ æĻ¯
F i
å¹´ åħ¨åĽ½
P A
åıĸå¾Ĺ çļĦ
éĢłæĪĲ äºĨ
åıĻ è¿°
å·¥ä½ľ ç»ıéªĮ
åľ° åĿĹ
éľĢè¦ģ åľ¨
èµĽ è½¦
èĭ Ľ
æľīä¸Ģ å¤©
åıĳæĶ¹ å§Ķ
ä¸į çĦ¶
è¿ĻéĩĮ çļĦ
US B
ä»ĭ åħ¥
åºĦ æĿĳ
æµ Ĭ
æ±ĩ æĢ»
ä¸¤ åĲį
è®© åŃ¦çĶŁ
åħĥ å®ĩå®Ļ
æĸ¹ ç¨ĭ
ä½Ĩ æĪĳ
ç§¯æŀģ åıĤä¸İ
åıª ä¼ļ
å·¨ å¤´
åį¡ æĸ¯
äºĴ éĢļ
ç´§ ç´§
ç§¯æŀģ çļĦ
å¤® è§Ĩ
æ¦ľ åįķ
ç¬¬ä¸Ģ æĿ¡
W eb
ç®¡ çļĦ
é¥® çĶ¨
åħ¨ çº¿
æ£Ģ ç´¢
åĴĮ ä¸Ń
åħ¶ ä¸»è¦ģ
ä½ĵèĤ² é¦Ĩ
å¾Ĳ å·ŀ
æľ¬ç§ĳ çĶŁ
Ġ ä¸ī
æĶ¹ åĲįä¸º
y s
è¡¡ éĩı
èį§ åħī
åıĳæĺİ ä¸ĵåĪ©
ä»¥ ç¡®ä¿Ŀ
è´Ł åĢº
åī¯ä¸»ä»» åĮ»å¸Ī
å¼Ģ è¾Ł
å¤±åİ» äºĨ
çľŁ çĽ¸
ä¸į æķĮ
ä»¥ åĨħ
å¹¶ä¸Ķ åľ¨
è£ħ çĶ²
çīĪ çļĦ
åĽ½éĻħ è´¸æĺĵ
y n
éĹ¨ æ§Ľ
ä»İä¸ļ äººåĳĺ
å®ī éĺ²
ar l
è¿Ľ åİ»
æĢ§ çĸ¾çĹħ
æľīéĻĲåħ¬åı¸ æĪĲç«ĭäºİ
ç»ıå¸¸ åĩºçİ°
æļĤ è¡Į
åŃĺ æĶ¾
ä»¥ åĮĹ
çĻ½ å¤©
æ² ģ
ç§ĳ å¹»
åįł åĪ°
å¸¸ è¯Ĩ
è®© æĤ¨
å¥¥æĸ¯ åį¡
çĽ® åħī
æĪĺ åľº
é«ĺ æ°´å¹³
å¤ļ ä½į
ç¬¬ä¸Ģ æī¹
æ± ¾
Ç Ĳ
çĶµåĬ¨ è½¦
åĴĮ çĶŁæ´»
ç¬Ķè®° æľ¬
ä¹Ł ç§°
çļĦ è½¦
æīĭ æĮĩ
çŁ³ çģ°
æĿĨ èıĮ
âĢĿ ;
é£Ł åłĤ
æĪĳ åĴĮ
ç¬¬åįģ ä¸ī
åħ¬ å¼ı
èī² æ³½
éĺ¶ çº§
åĪĨ åĴĮ
ä¸ļ æĢģ
åľ¨ ä¸İ
å³¡ è°·
ä¸Ģ æľ¬
æ³ķ è¯Ń
çºª æ£Ģ
ä¸Ģ åı¥
i um
è¢« äºº
æ¤ °
èµĽ éģĵ
éĵģ çŁ¿
æĸ° è¥¿åħ°
åħī èį£
ä¾Ľ çĥŃ
è¿Ľ åĮĸ
èĲ¨ åħĭ
æĪĲå¹´ äºº
è¥¿ è·¯
å¹½ é»ĺ
åįģäºĮ å¹´
å¡« æĸĻ
æľĪ æ¯ķä¸ļäºİ
éĩı åĮĸ
éĵ ¬
è¯´ åĪ°
æĴ ķ
åŃ¦ ç³»
Ġ ä¸ª
åŃ¤ çĭ¬
å®¶ ä¼ģä¸ļ
åĬł åĪ©
æµĭ ç»ĺ
çļĦ éĩį
æĦŁæŁĵ èĢħ
æ¸© åĴĮ
çŁŃ çŁŃ
å¹¶ çĶ±
å°Ĩ è¢«
æĺ¯ å¦Ĥä½ķ
èİ·å¾Ĺ çļĦ
é¸ ¦
è¥¿åįĹ éĥ¨
çŁ³ æĿĲ
å®¡ å®ļ
æĪĲ åĥı
èĩª æĿĢ
éĤ£ å°±
å¯¹ èĩªå·±
éĽĨä¸Ń åľ¨
å½± éĻ¢
æĺ¯ ä½įäºİ
å®¡ è®®
æīĢ èĩ´
âĹ ĭ
æĳĩ æ»ļ
ä¿ ŀ
èº º
æ²»çĸĹ æĸ¹æ³ķ
åĪĽæĸ° çļĦ
æ·¡ æ°´
æĪĲ å¥Ĺ
åį¡ å¡Ķå°Ķ
åĪĨ çº§
æ°¸ æģĴ
èĢĮ åıĪ
æĦ ļ
åĢ¾ æĸľ
åįģåĽĽ äºĶ
æĦŁ çļĦ
ï¼ī ãĢĭ
è¡Į ä½¿
ä¿Ŀ å®Ī
é£İæł¼ çļĦ
éĻĲ åº¦
æľ¬ æ³ķ
è¡¨ æĥħ
æ¸ ¤
æľĢ å°ı
ä¸ĩ äº¿åħĥ
æª ¬
Ġ åĪĺ
æĦŁ åĴĮ
è¾¹ å¢ĥ
çľŁå®ŀ çļĦ
æ¿ Ĵ
èĤ¡ å¸Ĥ
çļĦä¸Ģ èĩ´
éĿ ¶
çĽ¸ è¾ĥ
ãĥ¼ ãĥ
çĶµ ç«ŀ
å¤ĦçĲĨ çļĦ
å¸ĮæľĽ èĥ½
ä¹ĭåīį çļĦ
Ġ æĪĸ
é«ĺ å±±
åĬł æĭī
æľīäºĽ äºº
è¯¦ æĥħ
éĶ® çĽĺ
åı· åı¬
åĨĻ åŃĹ
éĩįè¦ģ ä½ľçĶ¨
Ġ çŃī
Ġf or
è¥¿ ä¾§
æĢ» çĿ£
åĨĽ çļĦ
è°ĥ çĲĨ
èĮħ åı°
åħ¬å¼Ģåıĳ è¡¨
ä½ľ è¯į
æĥħ æĢĢ
æī§ æķĻ
æľī ä¸¤ä¸ª
è´ ¬
çĲĨè®º åĴĮ
å¹³ å¸¸
èĦ ĵ
çļĦ æĸ¹åĲĳ
èģĺ è¯·
å½Ĵ å±ŀäºİ
å£ ¹
ä¿¡ è´·
ç±»ä¼¼ äºİ
èĩª æĿ¥
å®ļ å±ħ
çłĶç©¶ å·¥ä½ľ
å·¥ç¨ĭ ç³»
å·¥ åľ°
æ¸¸åĩ» éĺŁ
èĢĥ çłĶ
äºº å®¶
å¾Īå¤ļ çļĦ
åĢĻéĢī äºº
æ°ĳ èĪª
åįĥ éĩĮ
æ·· ä¹±
äºļé©¬ éĢĬ
Ġ æĪĳ
ä¸Ĭ æ¼Ķ
T E
ä¸Ńæĸĩ åĲį
å®ĭ ä»£
æ½® æ¹¿
æģ¶ åĮĸ
çħ§ å°Ħ
åįĹ å®ĭ
çļĦ çī¹
å¸¸ å¹´
ä½ł åľ¨
æ£ī èĬ±
æľī åĬĽçļĦ
åı³ ä¾§
å°± å¼Ģå§ĭ
è¯ķ çĶ¨
ç¤¾ ç§ĳ
çļĦäºº ä»¬
Ġ éĩĳ
éĿ¢ è²Į
åĭĺ å¯Ł
çļĦ æĿĲæĸĻ
éĹ´ éļĶ
åĳ¨ å²ģ
éħĴ åĲ§
èĩªä¸» çłĶåıĳ
çļĦ çłĶåıĳ
åº¦ è¿ĩ
æµ· åºķ
æģ¶ åĬ£
çĤ¹ çĲĥ
çļĦ ç»¼åĲĪ
äººä»¬ å¯¹
Ġ ä»¥
æ³ ¸
æķ¬ ä¸ļ
æ°¨åŁº éħ¸
çŃī æľįåĬ¡
çļĦåīįæıĲ ä¸ĭ
åŀĭ æĿĲ
åĨľ çĶ°
åĲĮ çĽŁ
åĲī åĪ©
ä¿ ¯
èĩª å¹¼
åħ¬å¸ĥ çļĦ
èħ¹ éĥ¨
æľĢæĹ© çļĦ
åĮº ä¸º
åħļ æĶ¿
æŃĮ è¯į
çĻ¾ å¼º
M O
ä¼ º
o us
æĺ¯ åħ¨åĽ½
æĭħ å¿§
çģµ æķı
é² ¸
ç¼© å°ı
æľ¬ åľ°åĮº
åįļ å®¢
æ¢ §
åį³ æĺ¯
å»ºçŃĳ è®¾è®¡
ç§ĳçłĶ é¡¹çĽ®
æĸŃ è£Ĥ
åĲī ä»ĸ
çŃī äº§åĵģ
åĺ ±
åĬĽ æ±Ĥ
åĨ· åĩĿ
å´ Ń
ï¼ħ ï¼Į
åĨ ¥
æıĲ çĲ´
èĩ´ åĬĽ
çļĦ æľīæķĪ
æĥħ äºº
æİĴåĲį ç¬¬
K O
èĭ Ķ
è¿ĳ åĩłå¹´
æĺ¾ å¾®
ãĢį ãĢģ
æ±ķ å¤´
âĢĿï¼Į âĢľ
åĴĮç¤¾ä¼ļ ä¿Ŀéļľ
å¼Ģ å°ģ
æĦı çļĦ
éĥ¨ ä¸»ä»»
è¸ ©
èī² è°±
ç»ıæµİ æĬĢæľ¯
CE O
å¥³ çİĭ
at a
æĶ¹åıĺ äºĨ
æ¸© æŁĶ
ç«Ļ åı°
ä»į æĺ¯
å°¼ åħĭ
å² Ĳ
p t
å¯ ĩ
ä¸Ģ å¤§
ä»¥ åįĹ
ä¸¾ äºº
æľī åĪ©
åħī æºĲ
ä¸¤ æĿ¡
ic a
å¾· èĤ²
æķ´ å½¢
åı¤èĢģ çļĦ
é«ĺ é¢ĳ
å¾· æĭī
æĲľ éĽĨ
E V
çĶ²çĬ¶ èħº
çļĦ æĹ¶ä»£
æ¼Ķ åĮĸ
ä¸İ äºº
æĢ» åĢ¼
ä¾į éĥİ
æľī çº¿
å¾Ĺ å¾Ī
æ¼Ķ æĬĢ
æ² Ĳ
è¡Įä¸ļ åıĳå±ķ
éŁ³ åĵį
åŃĹ ä½ĵ
åĲ µ
éĴ §
æķ´ è½¦
æĹħ ç¨ĭ
å¿ĹæĦ¿ æľįåĬ¡
ä¸Ńæĸĩ ç³»
äºº ç§°
å¯¹ ä¸ŃåĽ½
äºĮ æľĪ
åĽĽ æľĪ
åĸĦ èī¯
å¸ ľ
ä¸İ ç¤¾ä¼ļ
åľ° äºļ
è¡ĮæĶ¿ æľºåħ³
å·¥ç¨ĭ è®¾è®¡
çº¿ ç´¢
ä¸į å®ī
æķĻ å§Ķ
ä¸ľ äºļ
æ³¢ ç½Ĺ
åľ¨ ä»Ĭ
æ¶ ©
æķ° çļĦ
è´¨éĩı ç®¡çĲĨä½ĵç³»
åħ¬åħ± åį«çĶŁ
å¼Ģ åŃ¦
éľ ĸ
è®² ç©¶
å±ķå¼Ģ äºĨ
æ¶¨ å¹ħ
åįĬ åĨ³èµĽ
æ·ĭ å·´
å¹´ ä¸Ń
èĥļ èĥİ
ä¼ĺèī¯ çļĦ
æ®µ æĹ¶éĹ´
é» Ľ
åİ» åģļ
åĢ ª
æ²¿ çĿĢ
åĲ¬ åıĸ
æķ°æį® ä¸Ńå¿ĥ
æľºæ¢° åĪ¶éĢł
ä¸Ģ æĹ¶
è·ĳ éģĵ
çļĦ ç¥ŀ
åľ¨ ä¸į
ç«ł ç¨ĭ
æ¦Ĥ è¿°
åĭ¤ å¥ĭ
æŃĮ åĶ±
äº² çİĭ
ä»¥åıĬ åħ¶ä»ĸ
åŃĹ ç¬¦
åħĥ çļĦ
ä¸ĵ çº¿
é©¬ ä¸ģ
å¤§ åĮº
çģ° èī²
æĭ¯ æķĳ
ç½ĳ çĤ¹
ãģ «
T r
åĽ½ ä¼ļ
åĩł çĤ¹
åĲĥ çļĦ
æĹ¥ çħ§
ig n
çļ Ĥ
æĻ ĥ
æĸĩ åºĵ
é»Ħ å±±
å¹´ åı·
å®ĮæĪĲ çļĦ
ç§į æĹı
æĿ¡ è§Ħå®ļ
P G
ä»¥ æĿ¥çļĦ
ç¡« åĮĸ
å¡« åħħ
æĬ½ è±¡
éĺ³ æĢ§
çļĦ å±±
åħī æ³½
çļĦ éľĢè¦ģ
ä¿ĥ éĶĢ
æ± ¶
åı¯ä»¥ çľĭåĪ°
åħ¥ ä½ı
å¹¶ åĲĳ
ä¸į å®¹
æľºæ¢° æľīéĻĲåħ¬åı¸
åĩº åĵģ
èµ° è®¿
U TC
åĴĮ å¯¹
ä½Ľ ç½Ĺ
èĪª çº¿
å¹³åı° ä¸Ĭ
of t
æ¬¡ çļĦ
ä¸ª è¡ĮæĶ¿æĿĳ
æ²¡æľī äºº
èĥİ åĦ¿
æĻ®éĢļ çļĦ
æ°Ķ åĳ³
é¥ ¥
äº§ äºİ
å¤§ è±Ĩ
A m
åľ¨ äºĨ
æĲ¬ è¿ģ
âĺ ħ
èĢĲ çģ«
åĨłçĬ¶ çĹħæ¯Ĵ
æĴ ¼
å°±è¯» äºİ
a e
æĬĽ åħī
åĪĩ åīĬ
çľŁå®ŀ æĢ§
åŃ¦ åŃĲ
èĥ½åĬĽ å¼º
åħ« æľĪ
éĹ¨ çļĦ
çĶ° å¾Ħ
æ´» æ³¼
è¡ĮæĶ¿ å¤Ħç½ļ
ä¸» æ²»
C r
ä¸ī å³¡
ç¬¬ä¸Ģ åĲį
éĩ ľ
çĶµåĬ¨ æ±½è½¦
æĺ¯ æĢİä¹Ī
ä¸ī ä¸ĸ
å±± éķĩ
æŀģ ç«¯
åĲį é¢Ŀ
è·¨ åĽ½
å¤į æĹ¦
çī©è´¨ çļĦ
åĪĨæŀĲ åĴĮ
å¹¶ æıĲä¾Ľ
çŃī ä¼ĺçĤ¹
çķħ éĢļ
æľī è¿ĩ
çī¹ æĭī
æ¨¡ ä»¿
å¾ĭå¸Ī äºĭåĬ¡æīĢ
å¨ ħ
å°± éľĢè¦ģ
ä»¥ äººä¸ºæľ¬
åĪ© æģ¯
æĮī è§Ħå®ļ
æ³½ ä¸ľ
å¥ĸ ç«ł
çļĦ éĩįçĤ¹
æľĪ è¢«
å¯¹å¤ĸ å¼ĢæĶ¾
ä¸Ń æĸŃ
éĿĴ éĵľ
å¹² é¢Ħ
é«ĺæķĪ çļĦ
å·´ å°Ķ
ä¸¥æł¼ æĮīçħ§
åķĨ çĶ¨
åĨ² æ´Ĺ
éĶĻ è¿ĩ
åķĨä¸ļ éĵ¶è¡Į
ç¬¬ä¸ī å±Ĭ
æĹ¶ è£ħ
çĭ¬ èĩª
èĢĥ è¯ģ
å¦Ĥæŀľ æľī
p l
éĶĤ çĶµæ±ł
éĻ¤ éĿŀ
åĴĮ çĶŁäº§
èģĮä¸ļ æĬĢèĥ½
è¡Ģ ç³ĸ
åħ¨ æł¡
ä¸į çŃī
Î ¼
æľĪ äº®
ç»ıæµİ å¼ĢåıĳåĮº
ä¹¦ åºĹ
å¯¼ çĥŃ
ä¸¥ å³»
æİ¥ å¤´
å¹³ åİ¿
è¢« åĬ¨
åĬ³åĬ¨ æ¨¡èĮĥ
æ²ī æµ¸
å¾Ī éĩįè¦ģ
äºĨè§£ æĽ´å¤ļ
ç¢³ éħ¸
å¥ĩ æĢª
æĻºèĥ½ åĪ¶éĢł
æ°Ķ åĬ¨
çľ¼ ç§ĳ
U N
æľ¬ åĳ¨
å¹¶ èİ·å¾Ĺ
åŁ¹è®Ń çıŃ
æŁł æª¬
ä¸º å¤§
çĲ ħ
è´µ éĺ³
æĹıèĩªæ²» åİ¿
ç¨ ł
åıĤ ä¼ļ
æĺ¯ æł¹æį®
éģĵ åħ·
æĪĲçĨŁ çļĦ
å®ģ éĿĻ
ä¸º å¯¼åĲĳ
æ¢ħ èĬ±
åīį è¡Į
å² ļ
é«ĺ å°Ķå¤«
éĴ¢ ä¸Ŀ
y l
å¥ ķ
ä¿® çĲĨ
æī¾ åĩº
èĥ¡ èĲĿåįľ
å½ķ åĪ¶
éģĩ è§ģ
é£Ł è°±
I R
åħħæ»¡ äºĨ
ä¸Ģ ç¾¤
å·® ä¸įå¤ļ
å¤ĸ è¡¨
åİŁ æ²¹
çģ¾ éļ¾
æ°´ åĴĮ
ä¿Ŀè¯ģ éĩĳ
æ¹ĸ æ³Ĭ
åĮħ åĽ´
çŁ³ èĭ±
åı¯ä»¥ å°Ĩ
éĨ ļ
éª ļ
ä¸º æĪĳä»¬
è°ĥ åĬ¨
è¿Ľåħ¥ äºĨ
æº¶ äºİ
èĢ ¿
æŃ ī
å¯¹ è¯¥
S H
çļĦ åŃ©åŃĲ
ä¸Ń åįĪ
äº²åŃĲ éī´å®ļ
æĹ¥ è®°
çĥ ĥ
äºº éĢł
å¯ ®
è¡Į æĿİ
ç¨İåĬ¡ å±Ģ
è£ ´
ä¹ĭ åĪĿ
æŁ ¬
åĩ½ æİĪ
æĭĴç»Ŀ æİ¥åıĹ
å¼ķèµ· äºĨ
è®¾ç«ĭ çļĦ
åı¯éĿł çļĦ
èĩª èĢĥ
äº¤ åĵį
éĽĨåĽ¢ çļĦ
ĠãĦ ķ
ä¸ªäºº èµĦæĸĻ
éĥ¨ ä»½
ä»ĸ è¢«
æ¦Ĥ åĨµ
ä¸ľ ä¾§
çĶ¨ éĩı
åħ¬ åĪĨ
ç®¡ åĪ¶
æĹł æīĢ
çªģåĩº è´¡çĮ®
ç«ĭ é¡¹
å·²ç»ı åľ¨
åĬł åī§
åĨ¬ å¥¥
èĲ¨ å°Ķ
ç¼ħ çĶ¸
Â ®
ä¸Ń ä¸ľ
ç´ Ĭ
çļĦ åŃĺåľ¨
åħŃ æľĪ
é¥² åħ»
ä»£ ä»·
è®® éĻ¢
çļĦ åĨ³å®ļ
æĭį çħ§
å®ŀæĸ½ æĸ¹æ¡Ī
æ¯Ľ æ³½ä¸ľ
è¯Ħ å®ļ
ä¸Ĭ åľº
åĲĪ åĬĽ
ç¥ Ľ
åĢ ļ
å·¦ ä¾§
èµ° åĬ¿
ãİ ¡
ä¿Ŀè¯ģ äºĨ
èµ° åĪ°
ä¸Ģ åħ±
çµ ®
æĦı åĽ¾
å³ ª
è· ĭ
è¡ «
èģļ ä¹Ļçĥ¯
æľº åĴĮ
åĩı ç¼ĵ
åĲĦ æĸ¹éĿ¢
ä¸¤ éĺŁ
ä¸ĵ è®¿
ä¹ĭ å¿ĥ
è¯¥ çīĩ
æĦı åĲĳ
èģĶ æīĭ
æĪĳä»¬ éľĢè¦ģ
éĽ ¯
çĿ£ ä¿ĥ
åĽłä¸º å®ĥ
æ³¢ æĸ¯
åªĴ ä»ĭ
å¥ ¸
In tel
å¹´ åĬłåħ¥
è®© åŃ©åŃĲ
ä½Ĩ ä¹Ł
åıĳè¡Į çļĦ
å¥³ ç¥ŀ
æµ¦ ä¸ľ
éĤ®æĶ¿ ç¼ĸçłģ
æ£®æŀĹ åħ¬åĽŃ
ä¸¥ ç¦ģ
å¼Ģ æºĲ
æĥ³ èµ·
è¯ķ è¡Į
å¿ħ å¤ĩ
åī¯ çĲĨäºĭéķ¿
æıĲ åĢ¡
çļĦ æ¨¡å¼ı
ç¡ķå£« çĶŁå¯¼å¸Ī
çº³ æĸ¯
æ²¹ çĶ°
ä¼ļè®® ä¸Ĭ
æĪ¿ ä»·
è¶ħè¿ĩ äºĨ
åŃ¦ ä¸ļ
B l
é¾ ļ
ä½ľåĵģ çļĦ
å·¥ç¨ĭ çļĦ
æ³¢ çī¹
Å «
å¹´è½» çļĦ
è¿ĳ è§Ĩ
äº§åĵģ æľī
æ°´ çĶµç«Ļ
åħ¬ çĶ¨
è®¡åĪĴ çĶŁèĤ²
åį«çĶŁ éĥ¨
ow er
é£İ æīĩ
åī¯ æĢ»
åĪĽåĬŀ äºİ
å» ĵ
å¨ ¶
è° ħ
åħī çº¿
èĢĲ é«ĺæ¸©
åĽ½ èµĦ
æĲ¬ è¿Ĳ
åĲĦ çľģ
æĶ¿åºľ éĩĩè´Ń
åī¯ ä½ľçĶ¨
å¤± è¯¯
å®ĮæĪĲ åĲİ
åı£ å²¸
å°ıç»Ħ èµĽ
ul t
åĪĿ å§ĭ
åĪ¶ä½ľ äºº
ä»ħ ä¸º
å¸Ĥ åĢ¼
å¢ŀåĢ¼ ç¨İ
æīĢæľī äºº
åŃ¦ ä¸ĵä¸ļ
æ³ķå¾ĭ è´£ä»»
å½¢ çļĦ
èĩªçĶ± éĢīæĭ©
æĸ° ä¸ŃåĽ½
ä¸ĥ æľĪ
å³ ¨
å®īè£ħ åľ¨
åħĭ éĩĮ
åºĶçĶ¨ çļĦ
% ;
åħ± éĿĴ
æİ Ģ
Ġ +
ä¸Ģèµ· æĿ¥
æľįåĬ¡ åķĨ
è¿ĩ å¾Ģ
åĲī å°Ķ
äºº éĢī
æĺ¾ çİ°
ä¸į ä½İäºİ
æĪĺ éĺŁ
ä¸Ģæµģ çļĦ
å·¥ä¸ļ åĽŃ
åĨįçĶŁ èĥ½æºĲ
çºªå¿µ é¦Ĩ
é² ¤
å¾· æĸ¯
å·´ æĸ¯
ä¸ĢçĽ´ ä»¥æĿ¥
ä¸į é«ĺ
Ġ zh
å±Ģ éĻĲ
è´¨ çļĦ
æķħ ä¹¡
äºĨè§£ ä¸Ģä¸ĭ
ä¸į æĦ¿
ä¸İ æĪĳä»¬
ç»Ħç»ĩ å®ŀæĸ½
åħ¶ä¸Ń æľī
ä¹Ĵä¹ĵ çĲĥ
æ·±åĪ» çļĦ
m g
æŃ¥ åħµ
A V
é¦ĸåħĪ è¦ģ
é«ĺçŃī éĻ¢æł¡
åĴĮ æ°´
çŃī åĨħå®¹
å°Ħ æīĭ
ãĢĭ :âĢľ
çļĦ æĹ¥åŃĲ
ĠT h
âĢĻ ï¼Į
ç¨³ åģ¥
S B
äººåĿĩ çº¯æĶ¶åħ¥
åĳ¼ åĲģ
ä»¥ å¤ĸçļĦ
çĳ ļ
ç¿ ¡
åŃĺåľ¨ çĿĢ
ä»ĺ è´¹
å¥³ ä¸»è§Ĵ
N O
ä½¿ äºº
éĩį åŀĭ
è½¬ ä¸º
åħļ æĢ»æĶ¯
éĢ¾ æľŁ
" ,
èº« æĿĲ
åĪ¶ æĪĲçļĦ
åįģ ä½³
é¢Ħ åĪ¶
ä½ľä¸º ä¸Ģç§į
æĬķæłĩ äºº
åĩł æ¬¡
åģļ å¾Ĺ
æĺ¯ ä¸ĸçķĮ
ç»´ åŁĥ
) (
æľºåĬ¨ è½¦
çĥŃæ°´ åĻ¨
è¿Ľ äºĨ
éķĩ æĶ¿åºľ
åĽ½æ°ĳ ç»ıæµİ
åĲĦ å¼ı
åĵģ ç±»
åĪĽ ä¼¤
å¤© çļĩ
ä¹ĭ äºĭ
å½ķ çĶ¨
éĢļ å¾Ģ
ĠS ch
æĭ¨ æīĵ
çŃī ä¸Ģç³»åĪĹ
è´¨éĩı ç®¡çĲĨ
é¢Ŀ å®ļ
é»ĺ é»ĺ
ä¼łæŁĵ çĹħ
è§Ħ ç¨ĭ
ç° ¿
çī¹çĤ¹ æĺ¯
çĶµå½± èĬĤ
Ġ ãĢĲ
çĿĢ éĩį
é©¾é©¶ åĳĺ
çİ° å°Ĩ
ä¹Ł éĿŀå¸¸
æķĪçİĩ é«ĺ
è¯ģåĪ¸ äº¤æĺĵæīĢ
åĮĪ çīĻ
æŀģ èĩ´
éĤ® ç¼ĸ
æĳ©æīĺ è½¦
éĿ¢ç§¯ çº¦
å¹´ è°ĥ
ä¸ī äºļ
é£İ è²Į
Ġ å¯¹
åĪĻ ä¸º
åĨį åĪ°
éĽĨ èģļ
åĲį å¸Ī
çīĩ åĮº
åĢŁ æ¬¾
æµĻæ±Ł å¤§åŃ¦
ä¸į è¯¦
åı¶ è½®
å¸Ĥåľº èĲ¥éĶĢ
å¹´ æĪĲç«ĭ
åĵ ¨
åĲĮ ä¸Ģä¸ª
å¾· çļĦ
é¢ ħ
é¢ Į
åıĺ éĩı
çŁ¥åĲį çļĦ
åħ¬å¸ĥ äºĨ
è¯¥ ä¹¦
ç»Ħç»ĩ éĥ¨
è¿ĩ å¤§
åıĪ èĥ½
æĽ¾ è¢«
A èĤ¡
è½» æĺĵ
åħ¨ ç§°
ä¹Ŀ æľĪ
å®¹ ç§¯
æĪĲ è¯Ń
çľŁ çĲĨ
æĬĹæĹ¥ æĪĺäºī
çķ ¸
æĬĢæľ¯ æľīéĻĲåħ¬åı¸
åĮĸ è§£
èĲ¥ä¸ļ æī§çħ§
ä¿® è¡Į
èµ· è¯ī
æ°§ æ°Ķ
æĤ£ çĹħ
æµģ åħ¥
ä¸Ńæĸĩ åĲįç§°
äºĨ ä»ĸ
è¶³ èģĶ
å»¶ è¿Ł
å¾® åŀĭ
æĶ» è¯»
od e
éĥ½ å°Ĩ
æĶ¯ æŁ±
è¡Ĺ å¤´
èģĮ äºİ
æ·± æ·±
æīĢ ä½ľ
åı° é£İ
ĠS p
å¤ ¯
å¤ļæł· æĢ§
ä¹Ł éľĢè¦ģ
çĪ± ä½ł
çŃī æĥħåĨµ
èĬĿ åĬł
çļĦ ç½ĳç»ľ
å£« é¡¿
åĿĲ æłĩ
çĶµ æŀģ
å¼º åĬ¿
éļĨ éĩį
ç½ĳ åĿĢ
å¼º åĽ½
èİ· èĥľ
æŃĮ èĪŀ
èĬĿåĬł åĵ¥
éĿ¢ ç²ī
å·Ŀ åİ¿
å®½ å¸¦
è®¨ åİĮ
èĬľ æ¹ĸ
çļĦ åĲĪä½ľ
æŃ£ æľĪ
å«Į çĸĳ
å¡« è¡¥
æµģåĬ¨ æĢ§
ä¸¾åĬŀ äºĨ
èĵĦ çĶµæ±ł
ä¸į ä½³
æĶ¹åĪ¶ ä¸º
å°ı å§Ĳ
åľ°æĸ¹ æĶ¿åºľ
è°Ī åĪ°
F R
åħ¬éĩĮ çļĦ
åŁİå¸Ĥ å»ºè®¾
èĢ³ æľº
ä¸ĩ éĩĮ
è¯ Ģ
åİĤ éķ¿
am e
åİ Ŀ
åĽº éĨĩ
èĶ Ĺ
åħ« å¤§
V ID
èĭ± å°º
åŁİå¸Ĥ ç®¡çĲĨ
en n
æĪ· ç±į
åħ¨ è¿ĩç¨ĭ
åĪĨæŀĲ å¸Ī
äºĨä¸Ģ åľº
åı£ æľį
å¿ħé¡» åľ¨
éļı åį³
è¿ĺ ä¸į
éĻĪ è¿°
ç¥ ¯
æ±ĩ éĽĨ
èĤ ½
çļĦä¸Ģ å®¶
å¤ĸ åĮħ
éģĵ åħī
æĳ §
ç»ĺ åĪ¶
æĦı çĶ²
çļ® æįŁ
éª¨ éª
çľŁ èıĮ
ä¸ŃåĽ½ åĽ½éĻħ
æľį å½¹
éĻĪ åĪĹ
æ²¹ æ¼Ĩ
å¯Į è£ķ
çļĦ åĦ¿åŃĲ
æ±Ł åĮº
èģļ åĲĪçī©
å½ĵ æĪĳä»¬
è½» è½»
æĺ¯ä¸Ģ é¡¹
---- ----
æĹģ è¾¹
ä¸ĩ ä¸ª
æģ ³
at t
èīºæľ¯ åĵģ
éĴĪ çģ¸
è¿Ŀ çº¦
åıĳ åĬĽ
çī©çĲĨ åŃ¦
ä¹ĭ ä½ľ
æĺ¯ åħ¨çĲĥ
èĴĻ çī¹
æĽ´ èĥ½
çļĦä¸Ģ æ¬¾
åºķ çº¿
çļĦ åģ¥åº·
èµĦæł¼ èĢĥè¯ķ
åı° éĺ¶
æ´ ¼
åħĪè¿Ľ éĽĨä½ĵ
æ½ľ èīĩ
çĹ ĺ
æ¯Ķ ä¸Ĭå¹´
éĤ ¯
M Hz
åĲİ åıĪ
æĮī æĹ¶
æ» ĩ
å°Ħ çº¿
æī£ éĻ¤
åľ¨ æľªæĿ¥
åħ¶ä¸Ń ä¸Ģä¸ª
æĤ¬ æĮĤ
ç¦ §
çĲĥéĺŁ çļĦ
æĸĩ ä¸Ń
ç§ĳ çļĦ
æĦıä¹ī çļĦ
ä¸Ń å¼ı
ç´łè´¨ æķĻèĤ²
Ð »
ä¸¤ å¤©
æ²³ çķĶ
an s
åĴĮ æĶ¯æĮģ
éľ Ĩ
æīĵéĢł åĩº
èĤ¥ æĸĻ
å¤´ èĦĳ
å¾ģ éĽĨ
æĭĵ å®½
é¾Ļ éĹ¨
åĩł çİĩ
ç»Ŀ å¤§å¤ļæķ°
ä¸ŃåĽ½ ä¹¦çĶ»
ä½ı äºĨ
èĭ¥ æĺ¯
æĺŃ åĴĮ
éŁ§ æĢ§
åľ¨ å¯¹
ç»ıéªĮ åĴĮ
è¥¿ æ±ī
é¢ĺ çĽ®
im e
åģļ ä»Ģä¹Ī
æī¹ éĩı
çļĦ æ¶Īæģ¯
çĹħ çĹĩ
m l
å¹¿æ³Ľ çĶ¨äºİ
çºªå½ķ çīĩ
ä¼Ĺ äºº
åĲĮæ¯Ķ ä¸ĭéĻį
è¯Ī éªĹ
çī¹æ®Ĭ æ´¥è´´
B D
æĺİ çıł
ç§ĳçłĶ å·¥ä½ľ
ç«¥ è¯Ŀ
ç» ŀ
æľīèī² éĩĳå±ŀ
èľĤ èľľ
éĢĤå®ľ ç§įæ¤į
å®ŀ ä¸ļæľīéĻĲåħ¬åı¸
åŁºæľ¬ åıĤæķ°
ä¹Ł éĥ½
çļĦ æĪĲåĬŁ
åĬ¨ èĥ½
åĬ¡ å¿ħ
ç»ıèĲ¥ èĢħ
Ã ²
çļĦéĩįè¦ģ ç»ĦæĪĲéĥ¨åĪĨ
è® ½
æ°Ķ åĬ¿
ä¸ĵä¸ļ çŁ¥è¯Ĩ
å®ļ éĩı
ç»ıæµİ å¢ŀéķ¿
ol l
åħĭ çļĦ
-- -
è½¦ èº«
åĩŃ è¯ģ
åı¸ èģĮ
æ¬§ éĺ³
åģļ ä¸º
åĪ¶ çº¦
èĦļ æŃ¥
éĩĩè®¿ æĹ¶
åĲį åı«
æķħ æĦı
å±ķçİ° äºĨ
å¦ Ħ
å¥¥ å°Ķ
çŁŃ è§Ĩé¢ĳ
å¼¥ è¡¥
åŀĦ æĸŃ
f l
å°± æ²¡æľī
æĪĲä¸º ä¸Ģä¸ª
ç»ıéªĮ çļĦ
æª Ģ
å¤§ è¾ŀåħ¸
çĶŁ æŃ»
å¤ļ å¤ļ
å¹´ ä¼ļ
ä½Ļ é¢Ŀ
å·¥ç¨ĭ æľºæ¢°
un g
è® ·
åıį æĶ»
çİ°ä»£ åĮĸçļĦ
ç¤¾ ç¾¤
åŀ £
è¯· èģĶç³»
è®¤è¯Ĩ åĪ°
è¿Ĳ ç®Ĺ
ç¤¾ä¼ļ ä¿Ŀéļľ
çļĦä¸Ģ æīĢ
å°±æĺ¯ åľ¨
èĦ± èĲ½
åŁİå¸Ĥ è§ĦåĪĴ
åŃ£åĲİ èµĽ
éĶ °
èĲ½ æĪ·
ä»Ģä¹Ī æĹ¶åĢĻ
æ£ į
è¿Ļ æľ¬ä¹¦
æ¯Ķå¦Ĥ è¯´
èĤĿ èĦı
F l
æĬĢ å¸Ī
è½¬ åŃĲ
ç»ıæµİ å¸Ī
éĿ©åĳ½æł¹æį® åľ°çļĦ
çī¹ æĸ¯æĭī
åįģ æĿ¡
å°ĳ å°Ĩ
ä¸Ńå¿ĥ å°ıåŃ¦
çļĦ åı¯èĥ½æĢ§
çĽĨ åľ°
å¹¶ æĹł
çģ« çĦ°
ä¸Ńåħ± ä¸Ńå¤®
å®ŀ äºĭ
åĪĢ åħ·
éĩı ä¸º
ä¸º åŃ¦çĶŁ
ä¸īä¸ª æľĪ
å¤ĸ ä¼¤
é£İ æ¹¿
" ï¼Į
è¾ĥ å¼º
ä¸»è¦ģ ä¸ļç»©
éĥ Ŀ
çŀ ©
éĢĨ è½¬
c i
æ¶Ī çģŃ
ä¸Ģ è¯į
P ad
åıĺ è¿ģ
æ²¹ æ°Ķ
èĲ¥ åķĨ
äºĨ æĪĳ
ä¸ĸ éĶ¦èµĽ
çĹ °
èµ· ä¼ı
éĽ¨ æ°´
çº¦ æľī
æŃ£è§Ħ çļĦ
é¢ģ å¸ĥ
ä½¿ ä¹ĭ
æĹłäºº æľº
åĲİ è¢«
ç»Ļ åĩº
åĨľ æľº
è¿Ļæł· æīįèĥ½
å§ĭç»Ī åĿļæĮģ
ç»Ħ å§Ķä¼ļ
å¤ª å¤§
åı¯ æĢķ
éĺ» åĬĽ
çļĦ åĨħ
è´Ń ç½®
æ³¨æĦı åĪ°
èĦ± æ°´
çĹħ çĲĨ
ç¯Ĩ åĪ»
ä¸ľ åĮº
æīĢ èĥ½
åįµ å·¢
ç»¿ åľ°
æİ¨ çĲĨ
å¥¶ å¥¶
å¤ľ æĻļ
ç»Łè®¡ å±Ģ
èĩ´ å¯Į
åĪ¶å®ļ äºĨ
æľīæľº çī©
ä¸ª åĽ½å®¶
æĢ ľ
ç«Ļ éķ¿
åĬł æ·±
ä¸įæĸŃ åıĳå±ķ
éĺ´ éĺ³
ç¬ ĥ
æ³¨æĦı åĬĽ
åıĳ æ³¡
ä¸» æīĵ
ä¸į ä¸Ģ
æĴŀ åĩ»
çīĽçļ®çĻ£ çļĦ
çĶļèĩ³ æĺ¯
åģ¶ å°Ķ
ä¸ĩ å¤ļ
ç®Ģ çº¦
é©± éĢĲ
éĺ¶æ®µ çļĦ
èĿ ´
æĺ¨ æĹ¥
å¯¹ ä»ĸ
å¤§ æĸ¹
èĩªå·± åľ¨
åĩł ä¸ªæľĪ
å½ĵ å±Ģ
ä¸»è¦ģ ä¸º
æ¦ ¨
è®© å¤§å®¶
ç¦»å¼Ģ äºĨ
åŁº å»º
Ġ a
æĽ´ åħ·
ç§ģ ç«ĭ
äº¬ éĥ½
èĦ¸ ä¸Ĭ
æŃ£ å¥½
æĹ¢ æĺ¯
çº³ç¨İ äºº
æĥ³ åĥı
çļĦ é¢ľèī²
ä¸į å¦¨
çģ° å°ĺ
æįķ æįī
n er
é¢Ħ è®¢
è§Ĩ åĬĽ
åĨ ¢
åĮ» æĬ¤
ĠE x
åıįæĺł äºĨ
Ġ ä»İ
çļĦ åĬŁæķĪ
å¾· çĶ²
èĻ Ĳ
è°ĭ åĪĴ
æĹ¶ æĬ¥
é£ Ļ
èĢģå¸Ī çļĦ
éº Ĵ
é³ Ħ
æĭī å¼Ģ
æ¼Ķ åıĺ
ä¼° åĢ¼
çº Ĥ
ç«¥ å¹´
æĦ §
èĲ ¤
éģĹ è¿¹
åĿļ åĽº
ä¹ĭ æĥħ
ç¬¬ä¸Ģ å®¶
DV D
è¦ģ æĬĬ
et h
éĿ¢ æĸĻ
åĨ° éĽª
èµĦäº§ ç®¡çĲĨ
åĴĮ åĽ½éĻħ
è§£ æķ£
Â ±
åº ¶
åĮĹ è·¯
æĬķèµĦ åŁºéĩĳ
t on
ä¼ģä¸ļ æĸĩåĮĸ
åįıä¼ļ ä¼ļåĳĺ
ãĢĭ ï¼ī
çļĦ è®¾å¤ĩ
ä¸ŃåĽ½ åı¤ä»£
ä»ĸ ä¸º
é¢Ĩ è¡Ķ
çģ« èĬ±
é¸ ½
æķĻåŃ¦ å·¥ä½ľ
è®¡åĪĴ çļĦ
åĩº æīĭ
ç§¯æŀģ æĢ§
åľŁ è±Ĩ
æł¸ å®ŀ
éħ¸ æĢ§
ä¸ĵä¸ļ æĬĢæľ¯äººåĳĺ
èĿ´ èĿ¶
å¹¶åıĳ çĹĩ
ç¬¬äºĮ å¤©
åħ±éĿĴ åĽ¢
æ¯« ä¸į
çķĻ åŃ¦çĶŁ
åĲĮ çŃī
ä¸ª æķĻåŃ¦çıŃ
L E
æĿ¥ çĶµ
åĿļ ä¿¡
äºº æł¼
å¯» å¸¸
åĮ Ĩ
ä¿ĿéĻ© åħ¬åı¸
æī§è¡Į å®ĺ
å°ı åĲĥ
æŁĲ æŁĲ
æķĻ åĬ¡
ä¸Ĭ åĳ¨
è§Ħæ¨¡ çļĦ
å¯¹ çŃĸ
æĺ¯ä¸Ģ ä»¶
åĮºåŁŁ åĨħ
åħļå§Ķ å§Ķåĳĺ
ãģ į
Ġ é©¬
æ¶ §
ä¼Ĺ æīĢ
éŃ Ħ
åħ³äºİ åį°åıĳ
åķĨ äºº
ä¸į æŃ¢
çĶŁæ´» æĸ¹å¼ı
èģļ ä¼ļ
ä»¥ å¤ª
çļĦ åĪĽæĸ°
æ¸¯ åħĥ
è¡ĮæĶ¿ ç®¡çĲĨ
æĸ ¼
en g
è¶Ĭ å¥½
ç¾ Į
ä¸ľ æ±ī
ç¢± æĢ§
çľģ éĥ¨çº§
çļĦ ä¸ļåĬ¡
åı¯ä»¥ ä»İ
åį¡ éĢļ
ãģ ķ
åħ¨ éķĩ
åĪ© æĸ¯
ä¼ĺç§Ģ å¥ĸ
èĭ ·
ä½Ľ å±±å¸Ĥ
æŁĶ æĢ§
åħ¥ æīĭ
å¹´ åĩºçīĪ
ä¸ĢèĪ¬ åľ¨
å¸¸ ä½ı
åĪĽç«ĭ äºİ
æĺ¯ä¸Ģ äºĽ
èĹ ķ
ä¸º è¿Ľä¸ĢæŃ¥
è¯´æĺİ ä¹¦
é¦ ı
æĺ¯ è°ģ
è¥¿ çĶ²
èĪ ľ
èľ ĺ
ç§ĳ åĪĽ
ç²¾ éĢļ
çŃĶ å¤į
ä¸ĸçºª çļĦ
å®ŀ çī©
éļ¾ å¾Ĺ
å¼¹ ç°§
ç»Ļ èĩªå·±
åĪ° æľŁ
èİ· æĤī
åŃ¦ åīį
åĩº å±Ģ
çĸ ¡
å·¨ äºº
ç»ı çĶ±
é¡¶ éĥ¨
è¥¿å®ī å¸Ĥ
åİķ æīĢ
æĺ¯ æ³ķåĽ½
æ°´ ä½į
åŁºæľ¬ çļĦ
èĩª æľī
æĺŁ ç³»
å¼Ĥ æĢ§
åħļ åı²
ç¨į å¾®
æ²¹ å¢¨
è¢« è§Ĩä¸º
æĻ® æ´±
åħ¨ èµĦ
é¡¹çĽ® ç®¡çĲĨ
çĶŁ èĤĸ
æĪĳä»¬ ä¹Ł
æ²³ åı£
yst em
æĪ Ĭ
äºļåİĨ å±±å¤§
ä¸» çļĦ
ä¹° å®¶
i el
å®ī å¿ĥ
åįĹ åĮº
çĭ¬ åħ·
åħ¬ çº¦
åĭĺ æİ¢
æĺİ æ¸ħ
M I
ä¸¢ å¤±
æĺ¯ é¦Ļæ¸¯
è¢ į
éĩį éĩĳå±ŀ
å»º æ¨¡
å±± ä¸Ĭ
çıį è´µ
å¹³ æķ´
åŃĺåľ¨ äºİ
åľ¨ ä¸Ģå®ļ
ä¸¤ é¡¹
é¥® æ°´
åĮĪçīĻ åĪ©
éĩį çĹĩ
å¾Ĺ çĽĬ
æħ° éĹ®
æľĪ çĲĥ
éª Ĩ
ä¼ģä¸ļ åıĳå±ķ
çļĦ æľĢå¤§
çĽ´ åįĩ
æĹ¥ å¼Ģå§ĭ
æ¦Ĥ è®º
æĽ¿ æį¢
ä¼ļ åĲĮ
è´¯ éĢļ
çļĦ æ¸©åº¦
èµŀ èªī
å¤§ éĺª
ä¼ļ éĢłæĪĲ
å¥½ å¥ĩ
æķĻèĤ² åĴĮ
èĢĮ è¿ĩ
ä¸į æĩĤ
æ¯Ķ åĸ»
æ»¡ æ»¡
æķ´ æ´ģ
åįĹ çĵľ
èı ł
å®ģæ³¢ å¸Ĥ
åı¯ä»¥è¯´ æĺ¯
åıĤ æ¼Ķ
æŁ¥ éĺħ
ç»ıæµİç¤¾ä¼ļ åıĳå±ķ
è¶Ĭ å¤ļ
** *
çľģ åĨħ
æĸĩåŃ¦ å®¶
ä¿ Ń
æĥħ çļĦ
èľĺ èĽĽ
æĹ© é¤Ĳ
è¿ª å£«
éª¨å¹² æķĻå¸Ī
åİŁ æĸĩ
å¼Ģåıĳ èĢħ
æĶ¾ çĶµ
æļĸ æ°Ķ
æ³ ¾
æ£Ģ çĸ«
å½±åĵį äºĨ
çĶŁäº§ å·¥èīº
èĤ ´
çªģ åĩºçļĦ
æİĴ æ°Ķ
èĶĵ å»¶
æĭī ä¼¸
åħ¥ é©»
å°ıæĹ¶ åĨħ
æĹł åı¯
éķ¿ è¿ľ
é¢Ħ æ¡Ī
on s
ä¹¡ æĶ¿åºľ
çļĦ æķ´ä½ĵ
èģĮä¸ļ åŃ¦éĻ¢
å°ģ éĿ¢
å·¥èīº ç¾İæľ¯
æľ« ç«¯
æĳĦåĥı å¤´
å¾ģ æľį
åµ ©
èĩªæĿ¥ æ°´
åľ¨ è¿Ļä¸Ģ
å¹´ æĺ¥
åŃ¦ä¹ł åĴĮ
æİ¢ éĻ©
çŃ¾ åĲį
èĬĤ åº¦
äº² åĪĩ
çıĬ çĳļ
æıŃ ç¤º
åıĮ éĩį
å±Ĭ æĹ¶
ä¸»æ¼Ķ çļĦ
çĥŃ éĹ¹
æĻļ ä¼ļ
å¤ļå°ĳ éĴ±
çĻ¾åĪĨ ä¹ĭ
éĹ´ éļĻ
å¥³ åıĭ
ç¾ ŀ
å¸® å¿Ļ
åĨľä¸ļ åĨľæĿĳ
] ï»¿
éĹ¨ å¸Ĥ
ä¹¦æ³ķ å®¶
èĩ´ ä½¿
å°ı æľĭåıĭ
ç»¿ èĮ¶
æİ¥ çº³
å±± é¡¶
åĿļ å¼º
ç³»åĪĹ çļĦ
le y
æ¶Ĥ è£ħ
è¾ Ĭ
ä¸Ģ éĿ¢
æĹłçº¿ çĶµ
ä¸Ĭ æĸ¹
Ġ éĺ¿
åĪĨå¸ĥ å¼ı
u k
an c
çļĦç»ıèĲ¥ çĲĨå¿µ
åŃĲ åĴĮ
æµĵ ç¼©
åĮ» åĬ¡
çĻ¾ åĲĪ
ãģ ¿
åıĮ æīĭ
le x
Ø §
åıĤä¸İ èĢħ
r ip
ä¸ī çĻ¾
åı² å¯Ĩ
éĽĨæĪĲ çĶµè·¯
ä¸ĩ æ¬§åħĥ
åħ¬ çĪµ
ãĢįãĢģ ãĢĮ
å¯¼ çĶµ
çİ¯å¢ĥ åĴĮ
ç¬¬åįģ åĽĽ
æĸ° æĺ¥
ä¸įå°ĳ äºİ
æª Ĳ
è¯¸ å¦Ĥ
å¤ļ ä¹Ī
éĢļ ä¿Ĺ
åīĤ çļĦ
ç¬Ķ åĲį
å¸ĥ éĩĮ
Å į
å°¤åħ¶ æĺ¯åľ¨
è½¨ è¿¹
æ´» å¡ŀ
e f
é«ĺ æĸ°
æ·± åİļ
Â· Â·
åĮħ å®¹
äºĴ è¡¥
èħķ è¡¨
å°± è¯Ĭ
åįĹ åİ¿
am es
ex e
çĦ¶åĲİ åĨį
ç«ŀäºī å¯¹æīĭ
è¿ªå£« å°¼
ç®¡ å§Ķä¼ļ
éª¨éª ¼
å½Ĵ å±ŀ
æĺ¯ çĶ±äºİ
åıĺåĮĸ çļĦ
åºĨ åħ¸
åľº é¦Ĩ
èĨ³ é£Ł
å¤§åŃ¦ æĸĩåĮĸ
èĭı å·ŀå¸Ĥ
æĮ¤ åİĭ
æĽ¿ è¡¥
ç¬¬ä¸ī æ¬¡
å±ķ åİħ
åĢ ¦
æŃ£ å¤Ħäºİ
æ¯Ĵ æĢ§
æĹ¥ åĩºçĶŁ
u i
çĻ½çĻľé£İ çļĦæ²»çĸĹ
åĮ ¿
åĤ »
å¾ģ ç¨ĭ
P r
å¿ħ å®ļ
æĵħ èĩª
åįł çĶ¨
ä¼¦ çĲĨ
ä¸Ĭ ä¸ĸçºª
æľº èĥ½
ç»ĵ ä¸ļ
åĬ© æİ¨
åĨ ¤
åıĺ æį¢
åħ³æ³¨ çļĦ
çī¹ æľīçļĦ
ä¸Ĭ èµĽåŃ£
åĹ ½
ä¹Ł åı¯èĥ½
Î ²
éħ¿ éħĴ
è° ¥
åĽ½å®¶ èĩªçĦ¶ç§ĳåŃ¦åŁºéĩĳ
w it
é«ĺçº§ ä¸ŃåŃ¦
éĢ ®
æİ¨ ä»ĭ
ä»ĸ è®¤ä¸º
èĢĮ åĲİ
M C
æĬĢæľ¯ çłĶåıĳ
åı¯ä»¥ çĽ´æİ¥
å¤® è¡Į
çļĦ éĿŀ
ä¸Ń æĸ°
éģĵ æķĻ
ä¹Ł åı«
ä¼´ éļı
T P
é¦ ħ
å·¥ ä¿¡
æĸĩ éĽĨ
è¡° èĢģ
æľ Ń
å¤§å¹ħ åº¦
ĠA l
æķħ åĲį
ç¨¿ ä»¶
åıĳçĹħ çİĩ
ç¡®è¯Ĭ çĹħä¾ĭ
å·´ æĭī
ç®Ģ æĺĵ
ç»¼åĲĪ å¾ģ
æİ ł
åİŁ åħĪ
æĹł ç©·
å¼Ģåıĳ åķĨ
é¢Ħ æĬ¥
è¿ĩ é«ĺ
éĿŀå¸¸ éĩįè¦ģ
C om
å·´ åŁº
åĪ©çĶ¨ çİĩ
ä¸Ģ æĬĬ
æĭ Ĳ
å¸¦ ä¸Ĭ
èĪªç©º èĪªå¤©
æĺ¯ æ²¡æľī
ä¾ Ī
è¿ĲåĬ¨ çļĦ
åİŁ ä¸º
éĢŁåº¦ å¿«
æ°´ åİ¿
ç¾İ å¥³
æ¢¦ å¹»
ç¾Ĭ èĤī
çļĦ åįķ
é«ĺ ç´łè´¨
Ç Ķ
è´¢ è¿Ĳ
éĩĳ æĽ²
ä¸Ģ å¤Ħ
ä¸į æ¸ħ
åįĹ å±±
çļĦ çĶ¨æĪ·
J ava
æĹł æ¯Ķ
ä¸ĸ éĹ´
% -
äº® åº¦
çŃī éĥ¨éĹ¨
æľª çŁ¥
è½¿ è½¦
åĨ³å®ļ äºĨ
ä¸Ń ç§ĭ
çĽ¸ éģĩ
æĦī å¿«
èģ Ĩ
è¡¨éĿ¢ çļĦ
åĨľä¸ļ äººåı£
çĬ¹ å¦Ĥ
H S
æµ¸ æ³¡
æµİåįĹ å¸Ĥ
äºĶ ä¸Ģ
æĮĩæĮ¥ éĥ¨
ç®Ģ è¦ģ
åħ± åĪĽ
æ³¨æĦı çļĦæĺ¯
æ²Ī éĺ³å¸Ĥ
åħĪ å¤©
åİŁ ä»¶
ä¸įä»ħä»ħ æĺ¯
åĪĨ ä¹ĭä¸Ģ
åıĬ åºĶçĶ¨
ä¸Ĭ éĺµ
Ġ st
æīĢ è¯´çļĦ
çļ® éĿ©
åİ¿çº§ ä»¥ä¸Ĭ
éĩĮ éĿ¢çļĦ
åºķ å±Ĥ
åħ¬å®ī æľºåħ³
èĤ ĭ
å¼Ģ éĹ¨
è¿Ļä¸ª æĹ¶åĢĻ
çº ¶
è§ģ äºİ
åħ¬åħ± æľįåĬ¡
èĩŃ æ°§
æł¡ ä¼ģ
æ¨ Ł
åĲ¸ çĥŁ
åª Ľ
è¯Ń æ³ķ
ç½® äºİ
ä¸º èĩªå·±
âĢ §
çĪ± äºº
çºµ æ¨ª
æķ° é¢Ŀ
ç¼ĸ è¯ĳ
âĢķ âĢķ
æķĻèĤ² å·¥ä½ľ
å·¥ä¸ļ åĮĸ
ãĦ ¢
è´§ æŀ¶
æ³¨åĨĮ åķĨæłĩ
éĶģ å®ļ
ç®¡çĲĨ ä¸Ńå¿ĥ
åľ¨ æ²»çĸĹ
éĢļ èĥĢ
è¾ħå¯¼ åĳĺ
èµ İ
éĩĳ åįİ
é² ¨
æĥ ¹
æŁ ĳ
u al
åĽĽ ç§į
ivers ity
ç»ĵ æł¸
è¶ħ åĩº
åĲ¬ è¯´
éļĶ éŁ³
éĩĳ éĵ¶
æ¸¸ çİ©
ç²ĺ åº¦
æĬķ èº«
æīŃ çŁ©
æ¦Ĥ è¦ģ
åĬ¨ å·¥
å¸Ĥåľº ç»ıæµİ
ä¹Ł æ¯Ķè¾ĥ
å°Ĩ é¢Ĩ
å¤§ åħ¸
åħ¨ æĸĩ
åľ¨ éĤ£éĩĮ
äº¦ åı¯
æ· ĩ
åªĴ ä½ĵçļĦ
è¿Ļä¸Ģ åĪĩ
ãĤ ·
Ġ é»Ħ
å¾Ģ æĿ¥
çİĩ è¾¾
ç§ģ åĭŁ
çĻ½ èıľ
åĴ Ģ
é©¬ å¾·éĩĮ
å¤§ éĿ¢ç§¯
Ph one
ç£ģ åľº
è·¯ çļĦ
ç²¾ ç¾İ
æŃ£å¼ı æĪĲç«ĭ
å¸Ĥåľº çĽĳç®¡
çłĶç©¶çĶŁ åŃ¦åİĨ
åķĨä¸ļ æ¨¡å¼ı
çļĦ å®¶åºŃ
çŃī åĬŁ
å¢Ļ ä½ĵ
çļĦæĸ° éĹ»
ç®Ģ ä¾¿
èŀº æĿĨ
âĸ ²
åľ¨ è¿ĩåİ»
ç¥Ń ç¥Ģ
å¼Ģåıĳ åĴĮ
S te
åľ¨ æ°´
ç¥ĸ ç±į
ï¼ħ ãĢĤ
åı°åĮĹ å¸Ĥ
éĴ Ŀ
é¢ģå¥ĸ åħ¸ç¤¼
æ¡ Ķ
éĤ£ æĺ¯
æ¬² æľĽ
åĨĽ å®ĺ
åºŀ å¤§çļĦ
èį Ł
åıĺ çļĦ
çİ¯å¢ĥ ä¼ĺç¾İ
åİŁ åŀĭ
é¦ĸ åº¦
ä½Ĩ åħ¶
æĸĻ çĲĨ
éĿ© æĸ°
å»ºçŃĳ ä¸ļ
åºĶ å±Ĭ
æķ° åįĥ
åģ¶ çĦ¶
æº ľ
ä½ĵ çİ°åľ¨
ä¸įä»ħ åı¯ä»¥
å»º æł¡
c c
è´ ¿
ä»£è¡¨ åĽ¢
çĽĳçĿ£ ç®¡çĲĨå±Ģ
åľ¨ ä»ĸçļĦ
æİ¢ ç©¶
æĺ¾ åŃĺ
ãĤ ī
å·§ å¦Ļ
èĥĮ åĲİçļĦ
é¢Ĩå¯¼ äºº
äºº ä½ĵçļĦ
çĶŁæĢģ ç³»ç»Ł
å¤ĸ æĿ¥
ä¸Ģä¸ª æĸ°çļĦ
åį³ ä¸º
çİ¯å¢ĥ æ±¡æŁĵ
ä¸Ĭ çľĭ
å·´ å£«
ç®¡ ç½ĳ
è¯Ħ å§Ķ
è¯¥ å¦Ĥä½ķ
å°¼ è¥¿äºļ
ç±»ä¼¼ çļĦ
çĲ Ĳ
çłĶç©¶ ä¸İ
åĪ° å¤Ħ
éŃĶ æľ¯
å¹² çº¿
åħļçļĦäºĮåįģå¤§ ç²¾ç¥ŀ
å±ħ çĦ¶
å½ĵéĢī ä¸º
æĬ¥ éħ¬
å¤ĸ å¢Ļ
ä¸ī å¤©
ä¸ŃåĽ½ ç»ıæµİ
æĪĸèĢħ åħ¶ä»ĸ
åĵģ å°Ŀ
éĵ £
åĮĹ ä¾§
ç®¡çĲĨ ä¸İ
åľ° è¡¨
æłĩ æĿĨ
åĢ¡ è®®
ä¾µ å®³
ä¾¦ æİ¢
è¿Ľ åĨĽ
çļĦçĥŃ æĥħ
å®¢ åİħ
è¦ģ ä¹Ī
æĹ¶ å¸¸
åĩº åħ¥åı£
çī¹ çº¦
åıĪ ä¸Ģ
H O
æīĵ åĮħ
å®£ è®²
éĩĳèŀį æľįåĬ¡
å¿ħ ä¸įåı¯
âĳ ¢
åıį æĢĿ
éĢ Ľ
è¡Į è½¦
é©¬ è¾¾
çĥŁ èįī
çĥŃ å¤ĦçĲĨ
å¹¿æ³Ľ åºĶçĶ¨
æĶ¾ åĪ°
è¯Ħ çº§
æ°Ķ æµģ
å¯ ħ
èĤ Ľ
åı£ çļĦ
ä¸º å®ĹæĹ¨
å°Ĩ è¦ģ
ä¾¿ æĲº
å»ºçŃĳ çļĦ
éĩı èº«
ç¬¬äºĮ åŃ£
çĿĢ æīĭ
ro id
å¤ĸ æı´
ä¸¤ å®¶
ç©ºéĹ´ çļĦ
èģĺ ä¸º
çĪ· çĪ·
è¡ĮæĶ¿åĮº åĪĴ
an ce
Ġ äºº
å¤ļ ä¸ĩ
è§ģ è§£
éĩįçĤ¹ é¡¹çĽ®
çĿ ¹
ç«Ļ çļĦ
åı· çļĦ
åŁ¹è®Ń ä¸Ńå¿ĥ
æıĴ åħ¥
çŁ© éĺµ
è¿Ŀæ³ķ è¡Įä¸º
çĶµ å®¹
æ³ī æ°´
å¹´ åĿĩ
ç´ł æĿĲ
å¨ Ħ
å®ī å¨ľ
æŀĦ çŃĳ
äºĭ åħĪ
é¥± æ»¡
é²ľ èĬ±
é¼ł æłĩ
æ¯Ĵ ç´ł
åİŁ æľīçļĦ
å°½ æĹ©
çļĦ çĲĥåĳĺ
L A
å°Ĩ å¯¹
éķ¿æľŁ çļĦ
çļĦäºĭ å®ŀ
æĸĩ èģĶ
çŀ Ħ
çĹħ åİŁ
é¢Ĩå¯¼ èĢħ
åĬĽéĩı éĽĦåİļ
åĽł åºĶ
G T
åĳ ķ
éĴ¥ åĮĻ
éķ¿æ²Ļ å¸Ĥ
) ï¼ļ
ä¿Ŀ ä¿®
å¯¼ åħ¥
åıĹ å®³
åĨ· æ°´
çļĦ æĢĿæĥ³
äºİ ä¸Ģä½ĵ
å¤© æīį
è¿ĻäºĽ éĹ®é¢ĺ
ç¼ĵ åĨ²
ãĢĭ ï¼ļ
å¸Ī ä»İ
æİĴ æ±¡
æ± Ľ
æ¸©é¦¨ æıĲç¤º
åĽ½ å®ī
æĿĳ çļĦ
éħ° èĥº
æľĪ å¼Ģå§ĭ
å¹´ çĶŁäºİ
åĢŁ çĶ±
é£Łåĵģ æľīéĻĲåħ¬åı¸
æīĢ æľª
å»ī æĶ¿
çĦ ī
çļĦä¸Ģ æĿ¡
æĹł å¥Ī
ç¤ºèĮĥ åĮº
åı¤ éķĩ
æīĺ ç®¡
ç´ł æľī
èİ·å¾Ĺ èĢħ
ä¹ ŀ
åıĳè¡¨ äºĨ
åĦ¿ ç§ĳ
è¯ģ ä»¶
è¶³ çĲĥéĺŁ
æ¡Į éĿ¢
æīĵåį° æľº
Ġ è¿Ļ
æĺİç¡® çļĦ
å§ĵ æ°ı
ä¹ł ä¿Ĺ
å·²ç»ı æľī
éĻĲ å®ļ
åħŃ å¤§
ç¤¾ éķ¿
äºĴ åĬ©
æĹ¥æľ¬ çļĦ
æ²¡ èĥ½
am p
æīį æľī
å¡« æĬ¥
åīįèº« æĺ¯
åı¸ä»¤ éĥ¨
å¹¿ çĶµ
ä¿ĥè¿Ľ äºĨ
åĽŀ åİ»
æ¸¤ æµ·
æľ¬ å¸Ĥ
çļĦ æķ°éĩı
åħļ ä¸Ńå¤®
å²Ľ ä¸Ĭ
æľ¬ çīĩ
C BA
é¦ĸ åĪĽ
R NA
ä¸Ģ åįĥ
æĵį æİ§
å·ħ å³°
èģļ èĲ½
å¸¦ çļĦ
ä¸Ģ è´¯
éĥ ¸
æĹ¥ åĩºçĶŁäºİ
èĢĮ çĶŁ
æįŁ èĢĹ
å¹ķ å¢Ļ
çģ¯ åħ·
å¹³ éĿĻ
å·¥ä¸ļ ä¼ģä¸ļ
æĹ¶ åºĶ
æī Ķ
åĨľæ°ĳ æĶ¶åħ¥
åĳ¨ åĪĬ
ä¼ĹæīĢ åĳ¨
èģ Ĥ
å¤į ä¹ł
çŁ³æ²¹ åĮĸå·¥
å£° ç§°
ä¸Ńå¤® çĶµè§Ĩåı°
çĥŁ æ°Ķ
åĲ¸å¼ķ åĬĽ
å¯¹åºĶ çļĦ
æ¸ ²
åľ¨ åĵªéĩĮ
éŁ³ä¹Ĳ ä¼ļ
åĲĽ ä¸»
è¿Ļ ä»¶äºĭ
åħ¬å¼Ģ èµĽ
åĿ Ł
åķ ¥
åĽŀ åįĩ
æ¯ı äºº
æ¥¼ æ¢¯
åĢĴ åħ¥
å¹´ åĩºçĶŁäºİ
åħ½ åĮ»
an k
æĺ¯ ä¸ĸçķĮä¸Ĭ
éķ¿ å¾ģ
èĲ¥ åĪ©
æľ¬èº« çļĦ
äºĭ åĲİ
å°º åº¦
ç¼ĸ æĽ²
å·¥ä½ľ åĴĮ
è®º è¿°
æį¢ ä¹ĺ
éī´ äºİ
åįĩ æľ¬
å¤ĩ ä»½
èĸª éħ¬
éĢģ ç»Ļ
ä¼ļ è®©
è¡ĮæĶ¿ ä¸»ç®¡éĥ¨éĹ¨
åħ¼ é¡¾
åĲĮæĹ¶ è¿ĺ
çī¹ çº§
CA D
åłĨ ç§¯
åľº åĿĩ
é¥ º
å¸ ·
ç§° åĳ¼
åıĳå±ķ åĪ°
èĢģ çĻ¾å§ĵ
ĠãĦ Į
å¤ı ä»¤
èĿ ł
æ²Ļ é¾Ļ
çº¯ ç²¹
çİ° è¡Į
ä¹ĭ ä½Ļ
çĶµåŃĲ ä¿¡æģ¯
å¤§ æµ·
è´¨éĩı çļĦ
æ½ľ æ°´
å¹¶ èĥ½
æķ°åŃĹ ç»ıæµİ
ä¸¤ ä¸ªäºº
å¯¹ ä½ł
éĻį éĽ¨
æĬĹ æĪĺ
æĹ ·
äº« å¹´
ç¾ ¡
æĬĢ æ³ķ
éķ¿ å¯¿
æ´ª æ°´
å¸¦é¢Ĩ ä¸ĭ
é»ĳ çĻ½
åĪĩ éĻ¤
å¸Į å°Ķ
é¦ĸ è¦ģ
çļĦå¤§ åĬĽ
æ²¹ çĥŁ
å¤§ åĽ½
å¾®ä¿¡ åħ¬ä¼Ĺåı·
èĩªåĬ¨ é©¾é©¶
åŁ¹è®Ń æľºæŀĦ
çľ¼ åħī
R E
ä¸Ģ ç±»
åĽ½æľī ä¼ģä¸ļ
ä¸Ń åĲ«æľī
åĩł å¹´æĿ¥
é«ĺ æīĭ
ä¸ī å±Ĥ
å®īåħ¨ ç®¡çĲĨ
è¿ĺæľī ä¸Ģä¸ª
éªĳ åħµ
æ°´ åľŁ
å¼ł ä¸ĵè¾ĳ
äº¿åħĥ äººæ°ĳå¸ģ
D I
è¿· ä½ł
å¤§ çº²
æ³ķ åĪĻ
æĪ İ
æķ°åŃĹåĮĸ è½¬åŀĭ
æ¸ į
è§Ĵ çĲĥ
èīºæľ¯ çļĦ
éĺ¿ æ£®
ĠãĦ Ĵ
çĶµåŃĲ äº§åĵģ
å¾Ī å°ı
é© ¼
äºº èº«
åı¤ è¿¹
åıĺ ç§į
) ãĢĭ
èļ Į
æĽ² çĽ®
åĲĳ å¾Ģ
éĢģ è¾¾
ä¸ĸ çļĦ
åĨħå®¹ åĮħæĭ¬
æĭ¨ æ¬¾
åıĳ éŁ³
åħ¥ ä¼į
åĵĪ ä½Ľ
æĢ¥ æķĳ
å¢Ļ éĿ¢
âĢĿ )
æĹ© æľŁçļĦ
è¿Ļæł· ä¸Ģä¸ª
åıĺéĢŁ ç®±
æĸ° åªĴä½ĵ
æķħ å®«
æĺ¾ç¤º åĻ¨
åĪ¹ è½¦
ç²Ĺ ç³Ļ
P O
æĽ¾ æĺ¯
è®¢ è´Ń
äºļ ç§į
åħ±åĲĮ åĬªåĬĽ
ç½ĳ æ°ĳ
äºĨä¸Ģ æī¹
ä¸Ģ çľĭ
éĥ¨ åĴĮ
æ£Ĵ çĲĥ
ç¤¾äº¤ åªĴä½ĵ
R A
åĲ¦ è®¤
v er
å¤į æ´»
è¯į åħ¸
è¿Ļæĺ¯ åĽłä¸º
ad e
ç¾İ äºº
éĿ ĵ
æŁ ļ
è¿Ĳ éĢģ
åĭ º
è®¯ æģ¯
æĿ ĸ
æľ¬ ä½ľ
Ġ å¤©
æĪĳ å¾Ī
ä¸Ńæĸĩ çīĪ
å¹´ èĩ³ä»Ĭ
å®¢ å®¶
çī¹ åĮº
å·´ å¡ŀ
æĿĳ éķĩ
ä¸ĢèĪ¬ ä¸º
C F
ç§ĳ å¤«
æ²Ļ çī¹
èĺ ĳ
å®ļ æĹ¶
æĬ¤ èĤ¤
åĲį åĮ»
æĻ¯ è±¡
èĭı ç»´åŁĥ
çĶµ éķĢ
çļĦ åİĭåĬĽ
åľ¨ è¿Ľè¡Į
ãģ ¯
åºķ èķ´
èģĮ åĳĺ
èİ Ĩ
è¯Ĭ æīĢ
å¤Ħ å¤Ħ
æĹħæ¸¸ ä¸ļ
æĪĳä»¬ å¯¹
å£ģ çĶ»
èµ· æºĲäºİ
å¤§åĬĽ åıĳå±ķ
çļĦ è´£ä»»
åħħ å®ŀ
æĽ¹ æĵį
å°¼äºļ å·ŀ
ä»£çĲĨ åķĨ
æ»¡æĦı åº¦
æĹ§ åĿĢ
ä¿Ŀ ç®¡
p en
åĬŀåħ¬ æ¥¼
åľº éĿ¢
è¯¥ äº§åĵģ
å¹´ ä¸º
çĥ Ľ
ä¸Ń èĢĥ
éŁ Ń
åķĨæłĩ æ³¨åĨĮ
æĪªèĩ³ çĽ®åīį
å·¥ä¸ļåĴĮ ä¿¡æģ¯åĮĸ
ä¸ĩ å®¶
èĥ¡ åĲĮ
è®¤å®ļ ä¸º
ä¸į æĹ¶
éħ ĭ
é¦ĸ æĴŃ
èŀº æłĵ
ä¸Ń ä¿¡
çĲĥ åŃ£
ä½ĵ åŀĭ
åĲĮ ä»ģ
éĥ¨ å°ļä¹¦
å¤ª éĥİ
èĩ´ è¾ŀ
åĩĨç¡® çļĦ
æ°´å¹³ åĴĮ
æ´Ĺ åĩĢ
çĲĨå·¥ åŃ¦éĻ¢
æľī å¿ħè¦ģ
ä¸į å¯¹
æİ¥ ä¸ĭæĿ¥çļĦ
ä¸» æĿ¿
æıĲ æ¡Ī
åĩ¸ æĺ¾
è¿Ĳ ç»´
ç²¾å½© çļĦ
æł¼ éĽ·
åŃ¦çĶŁ åľ¨
æħķ å°¼
åħ¬åı¸ ä»¥
ç¥ Ĳ
åĲĳ ç¤¾ä¼ļ
è¾ŀ èģĮ
èĢĮ ä¸Ĭ
éļ¾ çĤ¹
åº§ ä½į
Ġ å¥³
çĶ· ä¸»è§Ĵ
çŁ¥è¯Ĩ çļĦ
éľ Ħ
æĬĹ éľĩ
åĸľ æĤ¦
å¨ģ æµ·
èĤ¥ èĥĸ
æĪĸ ç¼º
æ°§åĮĸ çī©
éĵ ²
èħ Į
æĪĺçķ¥ åĲĪä½ľ
æİī äºĨ
åľ¨ ä»Ĭå¹´
æľº èº«
åħ° çī¹
ç¬¬åĽĽ å±Ĭ
åİĨ æĹ¶
ç®¡ çº¿
é£İ éĩĩ
æĪĳåĽ½ çļĦ
l and
è¡ĮæĶ¿ éĥ¨éĹ¨
å¥ĭ è¿Ľ
æĬ¥ éĢģ
å¤įæĹ¦ å¤§åŃ¦
ä½Ļ é¡¹
åĮħåĲ« äºĨ
äº§ åŃ¦
å°±æĺ¯ è¦ģ
åĮĹ åĮº
æķ´ é½Ĳ
èį¯ åīĤ
åį« éĺŁ
æļ ®
åī© ä¸ĭ
å¤ļ ä¹ħ
å»ī æ´ģ
åĬł å°Ķ
èĩ³ æŃ¤
é¦ĸå¸Ń æī§è¡Įå®ĺ
åĲ¬ åĬĽ
æĭ Ń
æī¹ å¤į
åĽ½ çĶ»
çľŁ çļĦæĺ¯
åıĬæĹ¶ çļĦ
éĿŀ åĩ¡
åģ¥åº· åıĳå±ķ
åĺ Ľ
ãĢĤ ï¼ī
è¡Ģ æ¸ħ
èľ ¥
éľĩ æĴ¼
ç»Ħ ç»Ħéķ¿
éĹ µ
çĬ Ģ
æģĴ æ¸©
çļĦ çĲĨæĥ³
ä¸ļåĨħ äººå£«
æīĢä»¥ è¯´
å»ºç«ĭ çļĦ
å°Ĩ æľī
çĽĳ æĬ¤
ãģ ı
çļĦ æĢ§èĥ½
å·´åŁº æĸ¯åĿ¦
è½¦ ä¸»
åľĨ æŁ±
å¤§ ç±³
è¿¹ è±¡
ä¸Ĭ æĺ¯
èµ· èįī
ä½įäºİ ä¸ŃåĽ½
æłĳ æŀĹ
ä¸º ç¤¾ä¼ļ
æľº çĲĨ
è´Ń æĪ¿
å§ ¨
çĹķ è¿¹
è¶ ¾
éĵ İ
æ²Ļ æ»©
åĴ³ åĹ½
èµĽ åľº
èĹ ī
èĦ± é¢ĸ
åº§ æ¤ħ
çŃī å¤ļé¡¹
æħķå°¼ é»ĳ
éª¨ æĬĺ
æģ¶ æĦı
åĲİ ä»»
æķ° ä½į
ç®¡ æĿĲ
ï¼ļ ï¼Ī
i Phone
ä½Ĩ å¦Ĥæŀľ
æ¸² æŁĵ
æĸ°éĹ» ç½ĳ
è¯´ äºĨ
æĿĢ äºº
å¯¹ äººä½ĵ
æ¬¡ ä¼ļè®®
ä»»æĦı çĲĥ
ä¸ĭ åįĬåľº
èµ· çĿĢ
çĴ ĭ
æ´¾ çļĦ
L P
å¤ļ ä¸ĩåħĥ
åĨ· èĹı
ç»´çĶŁç´ł C
çĽ¸ æľĽ
çĽ®æłĩ æĺ¯
çļĦ ç»ıéªĮ
ç§ĳ å°Ķ
ç»´ å¤ļ
æī§ çĿĢ
èĩ³åħ³ éĩįè¦ģ
æ°Ķ æ³¡
åģļ ä¸Ģä¸ª
åıį å¼¹
è¥¿ æĸ¯
åıĤè°ĭ éķ¿
ç¿¡ ç¿ł
éĩį åĬĽ
å¤ĩ çĶ¨
æĹ© å°±
åĩ ¿
ä¸ª æ¡Ī
åĽŀ äºĭ
è¿ŀ è½½
åľ° åĿª
èĩª è±ª
æĢ§ ä¸İ
éĩı å¤§
ä¹Į æĭī
å¤§ æ¹¾åĮº
æľŁ ä¸º
æĺŁ æĺŁ
æ±ĩ çİĩ
ï¼Ľ ï¼Ī
è§Ĵ èĲ½
å¥³ æĢ§çļĦ
åĸ· éĽ¾
ä¸Ģ ç»Ħ
åģļ æĪĲ
å½ ¤
éĺ³ åı°
éĩĩ æļĸ
ĠP l
ä¸ĸ å®¶
ä¸Ģ æĸĩ
åĽ½ ä¼ģ
çľĭ å®Į
ç¤¾ä¼ļ ç§ĳåŃ¦éĻ¢
æĹ¥èµ· æĸ½è¡Į
ä¸Ĭ æĿ¥
è½¦ ç¨ĭ
çĽĳçĿ£ æ£ĢæŁ¥
et t
çĶ¨ æīĭ
æ· ¹
èıľ åįķ
èµĦæľ¬ å¸Ĥåľº
åı¯ åĨįçĶŁèĥ½æºĲ
æķ° çĽ®
å·¥ ä¼¤
ä¸ľ ä¸´
ä¼Ĺ å¤ļçļĦ
åĽ¾ çº¸
æļĹ ç¤º
äºĨ åĲĹ
åı¦ è¡Į
å¤§ å±ķ
å¤© èĬ±
åľ¨ ä¸ĸçķĮ
åĽŀ æĹı
çĶŁäº§ åĬĽ
åĨħèĴĻåı¤ èĩªæ²»åĮº
èĤ² ç§į
æĶ¿ åħļ
ä¸° çĶ°
æĬĢ å·¥
åĢŁ æŃ¤
æ¬¾ å¼ı
æıĲ éĹ®
çļĦ èĩªçĦ¶
ãĤ ¿
ä»ĭç»į ä¸Ģä¸ĭ
æľĽ è¿ľ
æİĴ éª¨
åŃ¦æľ¯ äº¤æµģ
è®© å¥¹
å¸¸åĬ¡ å§Ķåĳĺä¼ļ
åĮĹ éŃı
in s
éĢļå¸¸ æĺ¯
äºº æĺ¯
æľįåĬ¡ æľºæŀĦ
åī¯ å¤Ħéķ¿
æ§ Ĳ
çļĦ æĿĥåĪ©
éĿĻ æĢģ
çļĦ çº¢
åĴĮ æĸĩåĮĸ
éĻ¢ æīĢ
ä¸» è®²
æĹł åĬĽ
ä¾ĭ å¤ĸ
é«ĺ åľ°
æĵį çºµ
é¦ĸ åºľ
çĽ¸ è¿ĳ
åĴĮ åºĶçĶ¨
çĤ¹ è¯Ħ
å¤§ æ£ļ
åĨľä¸ļ éĥ¨
éŁ³ ç®±
å¯¹ åĨ³
çĶŁæ´» ä¸ŃçļĦ
ä¸ĢèĪ¬ æĺ¯
åĪĨ ç»Ħ
åĩº éĹ¨
æĶ¹ è£ħ
äººçĶŁ çļĦ
éĿŀå¸¸ éĩįè¦ģçļĦ
è¯ķéªĮ æľº
åįģäºĮ æľĪ
ä¸Ģ æĹł
ä¸į åĥı
èº« å½±
æī³ å¹³
æĪĲç«ĭ åĲİ
åĲĦ è¡Į
äººæīį çļĦ
åĹ ľ
èĩªçĦ¶ çļĦ
çłĤ æµĨ
çŁ¿ çī©è´¨
æĸĩæĺİ å»ºè®¾
åĲĮ æµİ
æīį èĥ½å¤Ł
ç¼ĸ ç»ĩ
ä¸į ä¾¿
çŃī ä¿¡æģ¯
çĲĥ æĺŁ
ä½Ļ å®¶
j i
çī© ä»·
åİŁ åĳĬ
ãģ ¦
æ°´ åŁŁ
ä»£ è¨Ģ
w w
ç» ½
çĻ¾ å®¶
åľ¨ æķ´ä¸ª
è¯ļ å®ŀ
çīĽçļ®çĻ£ æĤ£èĢħ
ç¯ĩ ç«ł
æ¦ľ é¦ĸ
æ¯Ķ æķ°
èģĶ éĢļ
çļĦ å®¶
å®īåħ¨ éļĲæĤ£
ç»Ī æŀģ
æľ¨ è´¨
éĵģè·¯ å±Ģ
L G
ä¸º ä¹ĭ
åĽŃ èīº
å¼ķ èµĦ
ç¤¾ä¼ļ ä¿ĿéĻ©
å°±æĺ¯ ä¸Ģä¸ª
çļĦ å¹³åı°
æ¶īåıĬ åĪ°
il d
æĸ° ä¸ĸçºª
æ¼Ķ ç»ĥ
ç»Ħç»ĩ å¼Ģå±ķ
çļĦ çŁ¥è¯Ĩ
ä»£è¡¨ æĢ§
æĪĸ åľ¨
çļĦ èº«ä»½
å±± åºĦ
ä»ĸ è¡¨ç¤º
æĬĹ åİŁ
è¯¸ èĳĽ
çļĦå¿ĥ æĢģ
æĭ¥ æĬ±
ãĥ ¬
ç»Ī ç»ĵ
åĨ² åİĭ
åĴĮ åįİ
ç¾ Ł
åįĹ ä¾§
çļĦä¸Ģ å¤§
åħ¥ äºĨ
çĥŃ æ³µ
èģĶ è°Ĭ
æĬķåħ¥ ä½¿çĶ¨
æľĢ å°ĳ
åħ¸ éĽħ
ä¼ļ ç¤¾
æķ Ľ
èµ° å»Ĭ
çī¹åĪ« çļĦ
ç§ĳ åįı
åĬ¿ å¤´
è¯º è´Ŀå°Ķ
ä¸Ĭ æĬ¥
åĬ© æīĭ
æĪĸ ä¸į
æºĥ çĸ¡
èµĽ åĮº
ä»ħä¾Ľ åıĤèĢĥ
åīĤ éĩı
è½¯ä»¶ å¼Ģåıĳ
å¥½ è½¬
ç£ º
å¥¢ ä¾Ī
åĩº ä¼Ĺ
ç±» ä¸ĵä¸ļ
éĵº è®¾
çŃī ä¸ĵä¸ļ
ç«Ń è¯ļ
æĸĩ çļĦ
æ¾ İ
å¼Ĺ æľĹ
åĪĿçº§ ä¸ŃåŃ¦
é«ĺ æ½®
èī² è°ĥ
èĩªçĦ¶ ä¿ĿæĬ¤åĮº
æµ© çī¹
é¥® çĶ¨æ°´
ç¼º å¤±
æĸ°åįİ ç¤¾
ç»ıæµİæĬĢæľ¯ å¼ĢåıĳåĮº
èĵĿ å¤©
æŃ¤ å¤Ħ
Y O
æ³ķ æ¡Ī
èįī æ¡Ī
çļ ĵ
éĶĢåĶ® æĶ¶åħ¥
æ³ Ĺ
é¢Ĩ åľŁ
èµ· åĪ°äºĨ
èĦĨ å¼±
ä¸Ń å°Ĩ
å¸Ĥåľº ä»½é¢Ŀ
èĤ¡ä»½ åĪ¶
ç¥ĸ åħĪ
åĮĹ çº¬
ä¹Į é²ģ
c l
è¿Ľ åĩº
æ°ĳä¸» åħļ
åª ļ
éħ¿ éĢł
åħ¨ éĽĨ
ç¨Ģ éĩĬ
é¦ĸ è½®
åĲį çīĩ
ç¿ ĺ
ä¸įä¼ļ æľī
çļĦ çĻ½
å®ľ æĺĮ
éĹ® çŃĶ
æ¸ħ çľŁ
è¯¥ åĽ½
æİ¥åıĹ äºĨ
å¿ĥçĲĨ åĴ¨è¯¢
ç®¡çĲĨ æľīéĻĲåħ¬åı¸
åĺ İ
ç²¤ è¯Ń
åĮ»çĸĹ ä¿ĿéĻ©
åĮĹ æŀģ
åķ ¸
ä¸į å·²
ä½ĵç³» å»ºè®¾
å¼Ģ è½¦
çĤ ¬
åħ¬åı¸ åĴĮ
ç½Ĺ å¾·
å¤ļ å±Ĥ
åī Ķ
ä¸İ åĽ½éĻħ
æ¥ ŀ
æ³¢ å£«é¡¿
åĵĪ åĵĪ
L e
åıª å¥½
åħ¸ èĮĥ
çŃ¾ ä¸ĭ
åįı å®ļ
æ¸© å·ŀå¸Ĥ
æ¨± èĬ±
ä½¿çĶ¨ æĹ¶
ç§ī æĮģ
åıĳè¡¨ åľ¨
ä¼º æľį
ä¸Ģ å¹´çļĦ
åĿ ¯
æĺŁ çĲĥ
éĺµ åľ°
æľĪä¸Ń æĹ¬
æľº æĪ¿
å½ĵåľ° æĹ¶éĹ´
å¯Ħ çĶŁ
ç®¡çĲĨ åŃ¦
å¤´ çĲĥ
åĨħ éĺģ
åºĦ åĽŃ
åĮºåŁŁ çļĦ
å¤§ åħ´
å¾Ī ä¹ħ
ç¿ Į
çī¹ åħ°
è¾© è®º
é¹ ĥ
åĳ¼åĲ¸ éģĵ
åıĺ å¼Ĥ
æ·± èĢķ
çģĮ è£ħ
æµĭ è¯Ħ
åĬł åĽº
çºł æŃ£
å¥½ çľĭ
æ´Ľ å¤«
æĬĺ åıł
æĢ» åħ±
æĶ¶ åĽŀ
çī¹ éĩĮ
å¤ª å®Ī
çĽĳ è§Ĩ
å¹´ ä¸İ
çķĻ ä¸ĭäºĨ
æīĵ ç£¨
åįĹ éĺ³
éĢĲ å¹´
è§Ħæ¨¡ åĮĸ
éĹ½ ä¸ľ
ç¬¬äºĶ å±Ĭ
éķ¿ ä¸īè§Ĵ
å·¥ åŃ¦éĻ¢
P a
å»ºçŃĳ æĿĲæĸĻ
åħŃ åįģ
é¢ Ĳ
åı¯è¡Į æĢ§
å¨ ¥
ãģ Ĭ
èĩ Ģ
åħ¬ è®¤
å¥³ æ¼Ķåĳĺ
å¤į å·¥
åįĹ èĩ³
æĦıæĢĿ æĺ¯
åĨįæ¬¡ åıĳçĶŁ
æ²¡ ä»Ģä¹Ī
ç§° èµŀ
ç½Ĺ ä¼¯çī¹
éĺ¿éĩĮ å·´å·´
æĬĬ èĩªå·±
çĶ· çĶŁ
èĦļ ä¸ĭ
çļĦ æĦıè§ģ
èĿ ī
éĺ İ
æĪĺ ä¸Ń
or ld
æ¦Ĥ æĭ¬
ç¾İèģĶ åĤ¨
èµ· çļĦ
ç±į è´¯
è¡Į äºº
ĠãĦ ĵ
åľ¨ å·¥ä½ľ
åĨħ è®¾
ä»¥ æ»¡è¶³
çľĭ å¾ħ
ä¾Ľ éĶĢ
å»ºçŃĳ åŀĥåľ¾
åįķ ä¸ª
å¤ļæł· åĮĸ
é¡½ åĽº
çļĦ çĶŁåĳ½
ä½ĵ æ¸©
å¤§åŃ¦ æķĻæİĪ
ç«ŀäºī åĬĽçļĦ
åĲĪèĤ¥ å¸Ĥ
éĤ¯ éĥ¸
æľī å¾Īå¤§çļĦ
åĪĩ æĸŃ
æ°ĶåĢĻ åıĺåĮĸ
æĶ¯ éħį
åĴĮ ä¸Ģä¸ª
çģ ¼
äº¬ æ´¥
å¯¹ ä¼ģä¸ļ
å¿Ļ ç¢Į
çļĦ çĪ¶äº²
è¿Ľä¸ĢæŃ¥ åĬłå¼º
ä¸ĵ åĮº
çļĦ ç¬¬äºĮ
éļı ä¾¿
çĶ° åĽŃ
is e
èĪĨ è®º
çŁ« æŃ£
ä½ķ æĹ¶
ç¼º å¸Ń
åĪ° çİ°åľ¨
ä¿® åħ»
ãĤ ¸
åĩº åİĤ
å°Ĩ ä¸İ
çıł æ±Ł
åĲ¸ åħ¥
åĪĨæŀĲ ä»ª
æł· æĿ¿
åľ° æ®µ
å·¡ è§Ĩ
å¾· ç½Ĺ
å°ĳ è®¸
ç¥ŀ åľ£
çŁ³ åĻ¨
æ´Ĺ æīĭ
æĺ ¼
ä½ľæĽ² å®¶
åĲį æł¡
å¾· è¯Ń
ĠB l
ä¸¾è¡Į äºĨ
ä¸Ģ è¾Ī
å¤© åĲİ
æ²¡æľī ä»Ģä¹Ī
ç³» ä¸»ä»»
çº¸ è´¨
æĹł æĦı
ç½ĳ æł¼
çĽ´ è¾¾
ç»Ń çº¦
ä¸ŃçļĦ åºĶçĶ¨
ä»¥ è¥¿
æŁ¥ æī¾
éĥ¨åĪĨ çļĦ
èģļ ä¸Ļçĥ¯
åĬ± å¿Ĺ
åĽ´ æ£ĭ
åľ¨çº¿ è§Ĥçľĭ
åĽ¾ æĸĩ
æīį åįİ
æĶ¯ æµģ
å¯º éĻ¢
çľĭ ä¸Ĭåİ»
è½» å¾®
éĴ» çłĶ
ĠB r
é«ĺ ç²¾åº¦
c n
åĳ¨ ä¸Ģ
åĪ° åľº
æĪĳ å¯¹
éĥ½ éĿŀå¸¸
ä¸ŃåĽ½ çĶ»
è§ĦåĪĴ è®¾è®¡
çļĦ æĪĲåĳĺ
åľ¨ è¿ĻäºĽ
èĭı åĮºçļĦ
æ¯ĶèµĽ çļĦ
ð Ł
æ¼ ĵ
è¿Ļ æĺ¯ä¸Ģç§į
åĮĸ èĤ¥
å¤± è°ĥ
ç´« èī²
e al
éģį åıĬ
è·¯ çĶ±
éĴ ŀ
åľ¨ åĽ½å®¶
åº§è°Ī ä¼ļ
ä¸İ æľįåĬ¡
ä¸» æĴŃ
Ġ ï¼ī
åĮ» çĶ¨
æ³¢ å°Ķ
èĬĤèĥ½ çİ¯ä¿Ŀ
çĨĬ çĮ«
çļĦä¸Ģ éĿ¢
ç¦ı çī¹
ç¾İ æĻ¯
æłĩ æ³¨
æīĭ æĮģ
è§ ħ
æĿĢ æīĭ
æĸĩ ä½ĵ
è¾ĥ å·®
çĸ ±
éĢĴ äº¤
W h
äºĨ èĩªå·±
æĪĳ å¸ĮæľĽ
åĩı å°ı
ç¬¬åįģ ä¸Ģ
ãĥ Ń
ä¸ľ åİ¿
æŀ ¸
ä»ĸ å°±
M E
ç»ıèĲ¥ èĮĥåĽ´
éĻª åĲĮ
èĥľ åľ°
ä¸Ģ å¿ĥ
æİ¨ å´ĩ
å¹´ æĹ¶
å¹´ åįİ
æĦ¤ æĢĴ
èĢĮ æľī
åīĳ æ¡¥
æįĲ æ¬¾
åľŁåľ° ä½¿çĶ¨æĿĥ
å¯ Ŀ
æµ· ç»µ
ä½ľçĶ¨ çļĦ
çĶŁäº§ è®¾å¤ĩ
çĽĳ äºĭ
å±Ĥ å±Ĥ
ä¸įä¸Ģæł· çļĦ
èģĮ æ£Ĵ
åĪĨ éĻ¢
ä½ł çŁ¥éģĵ
èµ« å°Ķ
åĬ¨ æīĭ
æľºæŀĦ åĴĮ
å¾ Ļ
èĢ į
éĹ¨æĪ· ç½ĳç«Ļ
åĲĪä¼Ļ äºº
ä¿¡æģ¯ åħ¬å¼Ģ
æĹł çĹĩçĬ¶
éķ¿æľŁ ä»¥æĿ¥
è¥¿ çĵľ
å»ºç«ĭ åģ¥åħ¨
éĵ¾ æĿ¡
æĬ¢ æķĳ
çľĭ å¥½
æķĻåŃ¦ æ¥¼
åºĶ ä»ĺ
ä¸ĺ éĻµ
ä½ĵç³» è®¤è¯ģ
å¼ĢæĶ¾ å¼ı
æį¢çĥŃ åĻ¨
L inux
å®ĺ èĩ³
å®Ŀ è´µ
çľĭåĪ° çļĦ
çªģ åĩ»
è¿ĺæĺ¯ è¦ģ
åĨ· éĿĻ
è¡Įä¸ļ åĨħ
åĪĨéħį åĪ°
åı¯ å®ŀçİ°
æīĵ å·¥
åĻ ¬
åģľ çķĻ
å¤© çº¿
ä»¥ ä¸ľ
éĺŁä¼į å»ºè®¾
å§Ķåĳĺä¼ļ åī¯ä¸»ä»»
ä¸į ä¸Ģå®ļ
çĢ ļ
åĽ½ åºĨ
çŃī æ´»åĬ¨
æĸ° è½¦
éĶ ļ
åĭĴ æĸ¯
ä¸ĭ ä¸Ģä»£
æĬĺ æī£
æĿ¥ å®ŀçİ°
ç¬¬ä¸Ģ éĥ¨
æĶ¹ åĲį
åŁº éĥ¨
è¾ĥ æĹ©
ä»£è¡¨ çĿĢ
ä¹¦ çļĦ
çĪ± å¾·åįİ
éĢīæĭ© çļĦ
ä¸Ń æĹ¥
èĬĤ çļĦ
æ¼Ķ ç¤º
é¥® éħĴ
å¥¹ æĺ¯
éģĩ åĪ°äºĨ
å¤įåĲĪ æĿĲæĸĻ
åĲĳ ä¸ľ
è®¢ éĺħ
åħ¶å®ŀ æĺ¯
é«ĺ æłĩåĩĨ
å±± è·¯
æĪĺæĸĹ ä¸Ń
ä¸Ģ åı£
çĽ ¯
æĿĳ èĲ½
åĽ½å®¶ éĩįçĤ¹
èĢĲ çĥŃ
ä¸»é¢ĺ æĽ²
çª ĸ
åıĳå±ķ æĶ¹éĿ©
åĲĳ åįĹ
å®¢æĪ· éľĢæ±Ĥ
åĵª æĢķ
åħĭæĸ¯ åĿ¦
æľº åŀĭ
å¸ĥ éĽ·
æĬķ ç¯®
ä»¥ä¸ĭ æĺ¯
èĵĿ çīĻ
èĩª åľ¨
åı¶ åŃĲ
è¡ĮæĶ¿ æī§æ³ķ
ï¼ ĵ
ä¸Ń ä¹ĭ
ä¸ŃåĽ½ éĺŁ
é¦ĸ éĢī
éĤ® ç¥¨
åıĹ ä¼Ĺ
åħĭ æŀĹ
çĵ¶ é¢Ī
å¹¶ èİ·
æĮģ èĤ¡
è¿Ļ æĹ¶åĢĻ
åĮĹ ä¸İ
æĶ¿ å§Ķ
ä¼ł çĲĥ
æ±Ĥ ç²¾
æł¡ èĪį
æ¾ ¡
ä¹ĭéĹ´çļĦ åħ³ç³»
çĶ¨ åľ¨
å¨ ±
çŃ¹ å»º
å¨ģ å°¼æĸ¯
åīį çŀ»
åįķ è¯į
ä¸Ģ å¦Ĥ
æĿĤ äº¤
åľ¨ åĽ½å¤ĸ
çŃī èį£èªīç§°åı·
ä¸ĩ åĲį
é¢Ĩå¯¼ çıŃåŃĲ
åĽĽ æĺ¯
å¢ŀ å¹ħ
ä»İèĢĮ ä½¿
åħ¬ ä¼ļ
ãĥ ŀ
åħ¨ åĳĺ
å¾ĹåĪ° çļĦ
åħ»èĢģ ä¿ĿéĻ©
N S
åĳ¨ äºĶ
èĲ½ æĪĲ
çļĦé«ĺ çº§
ä¸Ń çļĦä¸Ģ
å»¶ å®ī
å¤§ çģ«
åĬł æĸ¯
ä¹Ŀ å·ŀ
åĨľ æŀĹ
åĴĮ ä»ĸçļĦ
å¼Ģ æĶ¯
äºĮ èĢħ
æ¯Ķ å°Ķ
æİĴ åľ¨
åİ ¥
E P
å¦ į
éĢ Ĺ
ĠP r
åľ° åĬ¿
æĽ´ ä½³
ç½ķ è§ģ
çĦļ çĥ§
æľ¬ åľºæ¯ĶèµĽ
å®ļ å¾ĭ
åĢ¼ çļĦ
è¶ Ł
äºº éĻħ
èĥ½ è®©
èĲ¥åķĨ çİ¯å¢ĥ
çļĦ è¯Ńè¨Ģ
ä¸Ń ç§ĳéĻ¢
æĽ ¦
åĪĳ æ³ķ
æİ¥ è¿ŀ
çł ļ
åĵģ åĳ³
åħħåĪĨ çļĦ
è¿Ļ å°Ĩ
æķ° éĩıçļĦ
éķ¿ éĢĶ
å°ı æĹ¶åĢĻ
W i
éĻ ¡
R T
æĸ° ä¹¡
ä¸į åĪ©äºİ
åħ° å¾·
å¦ĩ äº§
åľ° è²Į
åĽ½ äºº
åħī çļĦ
åĬ¨åĬĽ åŃ¦
å¡ĳ æĢ§
ä¾Ľ æļĸ
ä¸Ģä¸ª ä¸ª
åı· ä¸º
æĬķ éĻį
åį¡ ç½Ĺ
æĹ¶ äºĭ
èĩª åı¤
ä¸ĵ åĳĺ
ä»¥ èĩ´
æ°´ å¸Ĥ
äºĨ ä¸įå°ĳ
è½° çĤ¸
å¸Ĥåľº åĮĸ
æī¹ æ¬¡
æĹł æ¯Ĵ
æĭ¿ çĿĢ
ä½ıæĪ¿ åĴĮ
ç§ ¤
æĶ¯æĮģ ä¸ĭ
çł´ è£Ĥ
å²Ń åįĹ
æĽ´ éĩįè¦ģçļĦæĺ¯
å·¦åı³ çļĦ
åŁİ å¢Ļ
ä½ł å°±
æĳĦå½± å¸Ī
éªĦ åĤ²
ä½ ¼
åĴĮ æ²»çĸĹ
æĶ¾ ä¸ĭ
èĳĹ ç§°
n m
æĺ¯ ä»ĸ
æ³ķåħ° åħĭ
ä¸Ģ é¦ĸ
äºĮ çĶ²
èĬ± çļĦ
éħ± æ²¹
å°ĳ åĦ¿
æİĴ åºı
åĪ¶éĢł çļĦ
ä¾§ éĿ¢
åºĶ æľī
æ¾ Ī
èįī æľ¬
åĶ¯ æľī
æ§ Ł
åħ»èĢģ éĩĳ
Ġ è¯¥
ä¿¡ è®¿
ä¸į ç¦ģ
è´§ è½¦
èĥ½ ä¸º
åı¯ å°Ĩ
èĪª æµ·
åľ¨ çĶŁäº§
æ· ¬
ä¼¤ åı£
çļĦ åľ°åĮº
æĢ§èĥ½ å¥½
å¯º åºĻ
å¦Ĥ æĦı
ä¸ī é¡¹
ä¾§ éĩį
éĺħ è§Ī
Ġ å°Ĩ
çĶ±äºİ åħ¶
çļĦ å¤ĦçĲĨ
æľīéĻĲåħ¬åı¸ æĺ¯
çĶŁæ´» åŀĥåľ¾
æľī æĦı
è¡ ¢
æ·± å¤Ħ
æĹ¥ åĩĮæĻ¨
å°ı å¹³
åĵº ä¹³
åĴĮ éĿŀ
ä¸ĭ æĹ¬
åĲĮ å¿ĥ
ä¸ºäºĨ è®©
çīĩ æ®µ
è¿İ æĿ¥äºĨ
F acebook
ä½ĵ å¤ĸ
å¾® ä¼ģä¸ļ
é¼ĵ é£İæľº
ä¸ĭ åįĬ
çļĦ æĪĺçķ¥
åĴĮ å°ļ
çŃī åĢĻ
ä¼ģ åĽ¾
å· į
åĽ½å®¶ åħ¬åĽŃ
çĿ ¦
èģĨ åĲ¬
æ°´ æµģ
æ½ ĩ
ãĦ§ Ëĭ
è¿Ļä¸ª åĲįåŃĹ
å¿½ çĦ¶
ç¢ ĺ
çº¿ åľĪ
é¢Ĩå¯¼ å¹²éĥ¨
åĲĦè¡Į åĲĦ
å¼Ģ åı£
èº ¯
è¿ĻäºĽ éĥ½æĺ¯
è¯ī æ±Ĥ
æŃĮ åī§
çī¹ äº§
éĩĳ æĸ¯
ä½Ĩ å®ĥ
åĦ¿ å¥³
æĸ¹æ³ķ åĴĮ
é¢ľ æĸĻ
åįģäºĮ æĿ¡
æ³¨ å¡ĳ
æĪĲæľ¬ ä½İ
æĽ Ļ
æµ· æ»©
ç§ĳ ç§ĳéķ¿
çº¦ çĳŁ
ä¸İ ä»ĸäºº
åĲį åŁİ
O r
ä¸į ç¨³å®ļ
å¼Ĺ éĽ·
çİ¯å¢ĥ å½±åĵį
ä¸°å¯Į å¤ļå½©
R F
çıŃ éķ¿
åıĳæĮ¥ äºĨ
åľ¨ èĭ±åĽ½
ä¸į åŃķ
æ²Ļ åıĳ
ä¼ĹæīĢåĳ¨ çŁ¥
å¹¶ è¿Ľè¡Į
åıĳçĶŁ åĻ¨
å·¨ æĺŁ
èĬ± å²Ĺ
èī¾ ä¼¦
ãģ Į
rip t
æıĲ æĹ©
åı²å¯Ĩ æĸ¯
å®īåħ¨ åĴĮ
åĳ½ é¢ĺ
å¤© åºľ
ç»Łä¸Ģ çļĦ
çļĦå¥½ è¯Ħ
æ¸ħ æĺİ
å½ķ åĥı
è´¨ åľ°
åĩ¯ å°Ķçī¹
ä¸įåı¯ æĪĸç¼º
çļĦ åĽĽ
é¦Ļ èķī
æĻļ æĬ¥
åºŀ å¤§
åĨľ å®¶
éĹ¨ åīį
åĲ¸ å°ĺ
M M
åħĥ åĻ¨ä»¶
åľ ©
éĢł èĪ¹
å¸¦ å®½
éĶ £
æĭī å¾·
è®² æİĪ
ub e
å¤§ åŃĹ
æ¸ħ çĥŃ
æ¯ı ä¸Ģæ¬¡
éĢļè®¯ åĳĺ
æ±¡æŁĵ éĺ²æ²»
ä½ıæĪ¿ åħ¬ç§¯éĩĳ
çļĦ éĩĳ
å¹´ ä»½
å¾® æľº
åĨľä¸ļ çĶŁäº§
ou t
çº² è¦ģ
ç¬¬äºĮæ¬¡ ä¸ĸçķĮå¤§æĪĺ
A K
å®Ŀ é©¬
æĹł å½¢
èĴĻ å¾·
ä¸º ä»ĸ
ç«¯ åı£
ä¸» è§Ĥ
åıĻ äºĭ
åİ» çļĦ
åī§ çĥĪ
æ»¡ äºĨ
å°½ åĬĽ
çŁŃ æĹ¶éĹ´åĨħ
èµĦæł¼ è¯ģä¹¦
or g
æĹ¶ éļĶ
åĮĸ ç®¡çĲĨ
åį³ ä½į
åĪĽæĸ° èĥ½åĬĽ
æĺ¯ ä¼ģä¸ļ
åħ¶ ä¸º
ä¸»è¦ģ çĶŁäº§
åŃ¦éĻ¢ çļĦ
æĶ¹ æĢ§
ç¯ ·
åħ¨ å¤©
è¯Ŀ è¯´
å¹³æĸ¹ åįĥç±³
éĿ¢ä¸´ çļĦ
ç³» çļĦ
ä»¥ åĲİçļĦ
å¸ĥ æĸ¯
èĢĮ è¿Ļ
å»¶ æľŁ
ç´Ĭ ä¹±
åľ¨ é«ĺ
çĶ¨ å·¥
å¤ļ æĸ¹
æĪĳä»¬ åºĶè¯¥
å°ģ è£ħ
åĬ¨ çļĦ
k y
æīĢå±ŀ çļĦ
åĬ¡ å·¥
æį ı
ä¸Ģ è¾Ĩ
åľ¨ æ¬§æ´²
æŁ¥ å¤Ħ
è·¯æĺĵ æĸ¯
æĸĩæĺİ åįķä½į
å¼Ĺ éĩĮ
çŃ Ŀ
èĦ ĸ
åıĪ åı«
æĤ² ä¼¤
æĢ» çļĦ
åĽ¾ è¡¨
åĩı åħį
ä»ĸ æĽ¾
éķ¿ åŃĲ
åĬ¡ å±Ģ
æ¯Ķè¾ĥ å¥½
åĽ¢ å§Ķ
çĭ¬ èµĦ
L L
ãģ ¡
åı¯ åīįå¾Ģ
ç»ĵæŀĦ åĴĮ
å¸ §
è¾ĥ éķ¿
æ¯ıä¸ªäºº éĥ½
æľ¬ æł¡
åĽ½ åŃ¦
æµģè¡Į çļĦ
Ġ âĢĿ
çĳľ ä¼½
å·²ç»ı è¢«
æĺİç¡® æıĲåĩº
äº§åĵģ çłĶåıĳ
æĢ» èµĦäº§
æł· å¼ı
å¤± çľł
æķ£ åıĳ
ä¸Ģä¸ª æĺ¯
èº« çļĦ
èĲ¨ æĭī
è¿Ļæł· åģļ
åħ¬ åĬŀ
æĹł ç¼ĺ
æīĵéĢł çļĦ
æ°´ ç®¡
ç½ĳ çļĦ
ä¹Ł åĽłæŃ¤
æĬķèµĦ äºº
åı£ è¯Ń
å¹² æĹ±
åĸľ çĪ±çļĦ
æİ¢æµĭ åĻ¨
ä¸Ģ æĿ¥
æ¯ı å¹´çļĦ
æīĢæľī æĿĥ
åĬłåĪ© ç¦ı
èµ· åĪĿ
u ct
æģ¶ éŃĶ
ä¸į æĢķ
è·ĳ æŃ¥
çļĦ ä»»åĬ¡
åĽłä¸º åľ¨
åŁĶ å¯¨
æĸ° èĢģ
åıĪ åľ¨
ä»¬ åľ¨
èĤ¾ èĦı
å¤ĸ éĿ¢
çĦ Ļ
çĶ¨ åĪ°
æĬķ ç¨¿
éĺ² åį«
é¢Ħ å®ļ
æİ§åĪ¶ çļĦ
åº¦ é«ĺ
å¹² ç»Ĩèĥŀ
ä¸ľ ä¸İ
èĤī ç±»
å·² çŁ¥
éĩĳå±ŀ æĿĲæĸĻ
ç©ºæ°Ķ ä¸Ń
èĤĿ çĤİ
åĩĨç¡® æĢ§
è¯± å¯¼
èĦ±é¢ĸ èĢĮåĩº
ĠA n
å¹´ä»£ åĪĿ
é¦Ļ èıĩ
ĠM ar
ä¼ĺæĥł æĶ¿çŃĸ
ä¸Ĭ åįĬåľº
ç¨ĭ å¼ı
ä¹Ł æĽ¾
å¸ĪèĮĥ åŃ¦æł¡
ä»įçĦ¶ æĺ¯
æ¶µçĽĸ äºĨ
åħ³ åį¡
çļĦ ä¿ĿæĬ¤
ç©Ĩ æĸ¯
éº» éĨī
ç»ıæµİ ç®¡çĲĨ
åħ³èĬĤ çĤİ
è´« è¡Ģ
åıĺé¢ĳ åĻ¨
åįģ ä¸ĢæĿ¡
åħ¨åĽ½ æĢ§
ç¬¬åįģ äºĶ
çŃī åįķä½į
åıĳå±ķ è¶ĭåĬ¿
i am
ä¸Ĭ åŃ¦
äº¦ ç§°
åı¯ ä½¿
å¯¹ æĪĳä»¬
éĿĴæµ· çľģ
ç»Ī ç©¶
éļ¾ åħį
äºĮç»´ çłģ
åĲįäºº å½ķ
åĮĸ åİ¿
äºĶ çĻ¾
è¯¦ è§ģ
ç®Ģ çĽ´
æľī åħ´è¶£
äºĭä¸ļ éĥ¨
çļĦ åķĨä¸ļ
ç§ Ĩ
åģļ åĪ°äºĨ
O K
æĸ° åĵģ
æĬ¢ åħĪ
é¢Ħ ç¤º
ç¡®å®ļ çļĦ
çŃī ç¦»åŃĲ
ä¸ĭ è½¦
çĶ» å»Ĭ
re e
æŁ¬ åŁĶå¯¨
éĺ¿æ£® çº³
æĭĽåķĨ å¼ķèµĦ
åľŁåľ° éĿ©åĳ½æĸĹäºī
æķ¢ äºİ
çĬ¶ åħĥ
èĥĮ éĿ¢
èµ° ä¸Ĭ
P I
æ¥¼ å®ĩ
èĬĤåº¦ ä½¿
ä½ĵ åĬĽ
åĽŀ è½¬
ç½ĳ æĺĵ
å¥ĳ çº¦
å¼º åĬĽ
ĠP h
æ¶Į çİ°
æĹ¶ æľī
çŁ¥åĲį åĵģçīĮ
åĳĬè¯ī è®°èĢħ
æĺ¯ åĪ©çĶ¨
ä¸ĵ åįĩæľ¬
å¸Ī å¤§
æĶ¹ ç§°
å®ģ å¾·
å¾Ĵ åĪĳ
çĹħ åŃ¦
ak e
éĢī åıĸ
æ²³ è°·
åħĪåĲİ ä»»
åħ·æľī ä¸Ģå®ļçļĦ
éĿ¢ç§¯ ä¸º
ç»ĵæĿŁ äºĨ
çī¢ è®°
æ°ĳ èŃ¦
ä¸ĸçºª åĪĿ
èĪª è¿Ĳ
é©¬ åĬĽ
æľº æ²¹
ä»¥ä¸Ĭ åŃ¦åİĨ
ä½ĵåĪ¶ æĶ¹éĿ©
æ± ²
è½¬ åıĳ
åŃ ļ
åºĶ éĤĢ
åħ¨çĲĥ åĮĸ
å¤§ä¸ĵ åŃ¦åİĨ
åĮº éķ¿
æł¸ æŁ¥
è®¾ç«ĭ äºĨ
èĢĮ æĿ¥çļĦ
ä¾µ èļĢ
æ©¡ å¡ĳ
åı ®
æľ¬ç§ĳ ä¸ĵä¸ļ
ä¸Ĭ åįĬ
èİ± åĿŀ
æ³Ħ éľ²
ä¸ĩ åŃĹ
æ·± è¿ľ
ä¼ł çľŁ
å¤į ä»ĩ
çłĶç©¶ æĬ¥åĳĬ
çĿĢ çľ¼
çŃ¾ åŃĹ
GP T
ç¼ĸ èĳĹ
ç´« å¤ĸ
çĵ· çłĸ
æĻĭåįĩ ä¸º
åģļ è¿ĩ
é©¬æĭī æĿ¾
çĶŁ æľº
è½¬ è¿Ĳ
éħ¸ éĴł
æ°´ éĿ¢
å»ºæĪĲ åĲİ
J ohn
è° İ
çĻ» å±±
çĺ Ļ
ä¼´ ä¾£
å¤© çİĭ
æŀľ æłĳ
åľ£ æ¯į
æĶ¹ç¼ĸ èĩª
ç§ĳåŃ¦ çłĶç©¶éĻ¢
èĽ ¾
åĩıéĢŁ æľº
é£İ åı£
æľī ä¸ī
æĮĩå¯¼ ä¸ĭ
åıĳçĶµæľº ç»Ħ
å¥¹ è¯´
å¥ĩ å¹»
Ġ è¥¿
æ±ĩ ç¼ĸ
å·§ åħĭåĬĽ
G e
åĳĬ åĪ«
åĲĮæĹ¶ åľ¨
çºµ åĲĳ
å·¥ä¸ļ åĮº
æĿ¯ åĨłåĨĽ
ä¸»äºº åħ¬
åĪĨ æīĭ
æĥ ķ
è¿ĩ ç¡¬
æµª æ½®
æ¶¡ è½®
æ³¨ éĶĢ
åºĶå½ĵ åľ¨
ä¿¡æģ¯ å®īåħ¨
çŃī æĬĢæľ¯
åħ¨ å±Ģ
æ¤Ń åľĨå½¢
éļ¾ å¿ĺ
åľ° çĭ±
å¼Ģ å±Ģ
çī¹ éķ¿
åĬ³ å·¥
æĸ° é«ĺ
æł¼ æĸ¯
çļĦäºº ç¾¤
è¡Į åĪĹ
on y
ä¸´ è¿ĳ
ãģ ĵ
çļĦ è¯´æ³ķ
ä¸į åı¯ä»¥
ä¸į è¡Į
é¢Ĩ äºĭ
çļĦè¯Ŀ é¢ĺ
äºº æīĢ
ER P
åı¯ ä¸º
ä¼ģä¸ļ éĽĨåĽ¢
çļĦä¸Ģ ç³»åĪĹ
ä¿Ŀ è´¨
å¦¥ åĸĦ
ç§ģ å®¶
èħ¹ æ³»
åĮĹ å¸Ĥ
èĢĥ éĩı
ãĥ³ ãĥ
è°ĥ çĶ¨
åĸľ å¥½
æŃ¦æ±ī å¤§åŃ¦
å±ı èĶ½
ç²® æ²¹
éļ¶å±ŀäºİ äºĳåįĹçľģ
åĽ½åľŁ èµĦæºĲ
çĺĻ çĹĴ
å¤© èµĭ
å¯Ĩ çļĦ
æĢª çī©
å·¥ åĮł
åįİ ä¸½
åİ»å¹´ åĲĮæľŁ
èįī èİĵ
è®¾å¤ĩ åıĬ
ä¼ļå±ķ ä¸Ńå¿ĥ
åįķ æīĵ
ä¼ļ ç»Ļ
H T
èĢħ åľ¨
è¯ķ é¢ĺ
ä¸Ń åħ´
å¢ŀ æķĪ
ç¦ı å·ŀå¸Ĥ
or n
åºŁå¼ĥ çī©
åĪĻ åľ¨
èĻļ æŀĦ
æ°´ ä½ĵ
æĮĩ å®ļçļĦ
I E
å±ŀ çļĦ
é²ģ è¿ħ
æ¶Īéĺ² å®īåħ¨
è´´ è¿ĳ
ä¹³ èħº
çĽ´åįĩ æľº
èĢĮä¸Ķ è¿ĺ
os h
æĺ¥ é£İ
æĳĨ æĶ¾
C o
Ġ æį®
åħ ľ
ä¸į è¢«
çĸĳ æĥĳ
çļĦ åĽłç´ł
æĸ §
å° ¬
è¢ ľ
æ²¿ å²¸
ä¸į å®ļ
ä»»åĳ½ ä¸º
ä½Ļ äº©
åĲĦç§į åĲĦæł·çļĦ
ä¼¦ å¤ļ
ä¼¯ çĪµ
ä¸Ģä¸ª äººçļĦ
ç½ĳç»ľ ä¸Ĭ
èĩª ç§°
æĸ° æĿĳ
ä¸¤ åľ°
ç»ıèĲ¥ çļĦ
çļĦ ä¹¦
ä½ı æ°ĳ
G r
ä»ĸ äºİ
åĥµ å°¸
æĹł æķĮ
éĻ¤ åİ»
æľ¨ é½Ĳ
æ¶² ä½į
æĺ¯æĮĩ åľ¨
æī¿ ç§Ł
çªģ åıĺ
ç½ĳç«Ļ ä¸Ĭ
ç¥¨ æį®
åĪĨ åĮĸ
èģĶèµĽ åĨłåĨĽ
åĴĮ ä»ĸ
å² Ĥ
åĲĽ åŃĲ
æĿ¥ åĪ°äºĨ
å®ī åºĨ
çļĦ æĶ¿çŃĸ
âĢĶâĢĶ âĢľ
ç¬ĳ å®¹
æ´¾åĩº æīĢ
çŀĦ åĩĨ
è®¡ æĹ¶
åı¤ ä»Ĭ
ä¼ļ æīĢ
å¼Ģ éĺĶ
å°± æŃ¤
åŃĺ æ´»
æĳĦ æ°ı
å·¥èīº åĵģ
çĽĳ åĪ¶
çº³ å¾·
ä¸ĵ æłı
åĲĦ åįķä½į
ä¸ŃåĽ½ çī¹èī²
æĺ¯ çļĦ
å¯ ŀ
æĸĩåĮĸ ä¼łæĴŃ
æĶ¯æĮģ åĴĮ
æĪĳ è¯´
çļĦ åĪ¶ä½ľ
åİŁåĪĻ ä¸Ĭ
ç§ĳæĬĢ éĥ¨
æ»ļ åĬ¨
olog y
çº¦ åįł
åħ¶ä»ĸ äºº
éģ¥ æİ§
çĶŁçī© è´¨
æĦŁè§ī åĪ°
çļĦ æĦıä¹ī
æľī æĹł
ä¸ŃåĽ½ ä¹¦æ³ķ
å¤ª åĲİ
åħ¥ åľº
åŃĲ ä¸Ĭ
æĢ» å·¥ä¼ļ
åĨĻ éģĵ
ro up
æķĳ æĬ¤
è¡Į éĶĢ
æŃ¥ æŀª
åĪĨæķ° çº¿
æľĢå¤§ éĻĲåº¦
çļĦ ä¸Ńå¿ĥ
ç§ĳæĬĢ ä¼ģä¸ļ
çļĦå¿ĥ æĥħ
é¼ĵ èĪŀ
çļĦ ä»ĭç»į
èĬ ¸
åıĳçĶŁ åıĺåĮĸ
è¿ŀç»Ń åī§
çĭŃ çªĦ
æĦŁ æĤŁ
åį° èĬ±
è¿ľ éĶĢ
æĶ¿åºľ éĥ¨éĹ¨
å½Ĵ çº³
æľį ä»İ
åıĪ è¢«
æĬĹ çĶŁç´ł
ä¼ĺ äºİ
å¥ł åŁº
åĨĻåŃĹ æ¥¼
æľī ä¸įå°ĳ
å¢ŀ è®¾
æĺ¯ ä½ł
å·¥ä½ľ æķĪçİĩ
åħ ¢
åŃĹ åı·
å¤ĸ åľ°
åľ¨ åŃ¦æł¡
ç³»ç»Ł éĽĨæĪĲ
æŁĵèī² ä½ĵ
åµĮåħ¥ å¼ı
çĽ¸åħ³ ä¿¡æģ¯
ä»ĸ å°Ĩ
å¼º è¿«
çİĩ é«ĺ
al e
å¤§ä¸ĵ æĸĩåĮĸ
éĥ½ æ²¡
åĬŁ èĢĹ
tern ational
ä¸Ģ ç»ı
åĽŀ èĲ½
åĽłä¸º ä»ĸä»¬
ä¸İ çİ¯å¢ĥ
ä¸īåĪĨ çĲĥ
åħ¬åħ± äº¤éĢļ
è·¨å¢ĥ çĶµåķĨ
éĩĩ æĳĺ
è§ĦåĪĴ åĴĮ
å¦ Ĭ
éĢī åĩº
æŃ¢ äºİ
çĺ ¾
ç§ĳæĬĢè¿ĽæŃ¥ äºĮçŃīå¥ĸ
ä¹Įé²ģ æľ¨é½Ĳ
å¤± æķĪ
æİĴ éĺŁ
çª ¥
æ½ľ èĥ½
çļĦ éĶĢåĶ®
åºĶ æ³¨æĦı
å±± äºº
æł¡ åĨħ
æľ¨ èĢ³
å¼Ģå¹ķ å¼ı
ç³Ł ç³ķ
æľĽè¿ľ éķľ
èį¯ çĶ¨
çļĦ æĵįä½ľ
é»Ħ çĵľ
åįģä¸Ģ æľĪ
äºĳ ç«¯
çī¹ æķĪ
åģļ å¤§
æĶ» çķ¥
å¹¶ åı¯
èĭı ä¸¹
çł ²
åĽĽ æĸ¹
ç½ĳç«Ļ å»ºè®¾
å¼Ģ ä¼ļ
æĬ¤ èĪª
ãģ Ĥ
åĲ¯ ç¤º
æ¦ ķ
æľ¬ åľº
r on
è¿Ļ ä¸¤ç§į
åºĵ éĩĮ
åĮ»çĸĹ åį«çĶŁ
ä»¥åıĬ å¯¹
è§Ħç«ł åĪ¶åº¦
è¨Ģ è¯Ń
æĬĹ æ°§åĮĸ
å°Ĭ æķ¬
ç½ĳç»ľ èĲ¥éĶĢ
åĲ¸ åıĸ
åķĨ æĪ·
å°ĳ æŀĹ
çĽ®åīį åľ¨
åŃĲ åŃĻ
åģı å·®
æľī ä»»ä½ķ
çº¢ èĮ¶
ç¨ ļ
èĢģ èĻİ
éĥ½æĺ¯ åľ¨
æľ« æľŁ
åħļåĳĺ å¹²éĥ¨
èķ Ĭ
ov e
åı¯ä»¥ çľĭåĩº
åıĺå¾Ĺ æĽ´åĬł
ãĤ «
ç§ĭ å¤©
çļĦ æĪĲæľ¬
çĤ¹ çĤ¹
èµĽ åīį
è¯º å¤«
æ³ķ åŃ¦éĻ¢
æĸĩ åĩŃ
æĮ ł
åĪĽæĸ° åıĳå±ķ
ä¹Łæĺ¯ ä¸Ģä¸ª
ç¯ĩ è®ºæĸĩ
éĢĤåĲĪ äºİ
it al
åİ¨ å¸Ī
æľīæīĢ å¸®åĬ©
è½¬ç§» åĪ°
çļĦ åĲį
ä¸º åħ¬åı¸
å¾Ī éķ¿
æīį åı¯ä»¥
èī¯ æĢ§
æ¯« æĹłçĸĳ
åĳĺ çļĦ
ä¸ŃçļĦ ä¸Ģä¸ª
çĴ §
åīį æīĢæľª
çİĩ çļĦ
S L
çĶ± æĿ¥
æŃ» äºİ
åīį ç«¯
ä¸ī éĥ¨
éī´ åĪ«
å°± è¿Ļæł·
åºŃ éĻ¢
åĽ ļ
äºĮåįģ åĽĽ
äºĮ æĪĺ
å¤ª æ¹ĸ
æĪĲä¸º ä¸ŃåĽ½
æľįåĬ¡ æľīéĻĲåħ¬åı¸
èļ Ĥ
åĳ İ
åīĸ æŀĲ
( ?
éĿ ¡
ä¸Ń ä½¿çĶ¨
åĬł çıŃ
ä¿¡ å¾Ĵ
åıĭ æĥħ
ç§Ģ ä¸½
m p
ç§ĳæĬĢ èĤ¡ä»½æľīéĻĲåħ¬åı¸
éĢ® æįķ
å¹¿è¥¿ å£®æĹı
æ¨ª è·¨
èĥĨ åĽºéĨĩ
æłª å¼ı
æ¤į è¢«
åĴĮ ç¾İåĽ½
åĩº å¢ĥ
èĤł èĥĥ
æī¹ åĪ¤
ä¸Ĭ è¯ī
** **
æĸ°åĨł çĹħæ¯Ĵ
å¾Ī åı¯èĥ½
ä¸Ģ çķª
å®ī åĮº
ç¥Ŀ è´º
çļĦ è¡Įä¸ļ
è´¨ æĦŁ
ä½İ æĶ¶åħ¥
æľĢ å¼º
éħįå¥Ĺ è®¾æĸ½
çļĦ ä¸ªäºº
æīĵ éĢļ
M W
çł´ éĹ¨
åĨ ĩ
æµ· æ·Ģ
éĢī ç§Ģ
å¸¸è§Ħ èµĽ
ä¸¤ä¸ª æľĪ
æł¸å¿ĥ æĬĢæľ¯
è® ¶
éĿŀ çī©è´¨
æŀ¸ æĿŀ
åħ¬ åħ³
ĠãĦ ı
æķĻ è®Ń
éĽ ı
è¿Ĳ åĬ¿
ä¸Ģ å°ı
ä¸Ńå¿ĥ ä¸»ä»»
æĹ¶ è¦ģ
ç§įæ¤į ä¸ļ
çĬ ģ
m a
åį¡ è½¦
P LC
èŃ¦ ç¤º
ä¸ĩ æĪ·
åĨħéĥ¨ çļĦ
ig h
ä¸ĵä¸ļ æ¯ķä¸ļ
ä½ĵç³» çļĦ
è¾Ľ è¾£
åĽ½ ç±į
èĹı ä¹¦
ĠT r
æĪĳ çŁ¥éģĵ
æ¿ ĳ
åĮĹæµ· éģĵ
çłĶ ç£¨
åŃ¦ åĪĨ
æľĢ åıĹæ¬¢è¿İ
åĨľ çī§
èĹı åĵģ
åĲİ å¤ĩ
è¯¾åłĤ æķĻåŃ¦
çĸ«æĥħ å½±åĵį
åıĤ äºĪ
æľĢ éķ¿
çĪ± ä¸Ĭ
å§Ĭ å¦¹
æīĢ è¯´
æ¯«æĹłçĸĳ éĹ®
ç» ħ
çŁ³ èĨı
çģ¿ çĥĤ
èĢ³ æľµ
éĿ¢ä¸´ çĿĢ
èİ º
åĪĩ æĪĲ
ç§ģ èĲ¥
æĬĢæľ¯ å¼Ģåıĳ
çº¸ å¼ł
ä¾Ľ éľĢ
å®¡ è§Ĩ
æĩ ¿
åĮ»çĸĹ æľįåĬ¡
çļĦ å¢ŀéķ¿
çļĦ æĸĩç«ł
çĥŃ èĥ½
åı¯ çĽ´æİ¥
æĸĩåĮĸ äº¤æµģ
ä½Ľ æ³ķ
æī ¯
äºĨä¸Ģ ä»½
èĭ± éĩĮ
æķ°æį® åĪĨæŀĲ
æłªå¼ı ä¼ļç¤¾
åİŁ ä½ľ
çľĭ å¾Ĺ
åİī å®³
ä»»ä½ķ äºº
çļĦ æľªæĿ¥
åĩº åħ¥
ç¢İ çīĩ
åľ¨ åĽ½åĨħå¤ĸ
æ° °
æ´Ľ æĸ¯
æĹº çĽĽ
äººåĬĽèµĦæºĲ åĴĮç¤¾ä¼ļä¿Ŀéļľ
N et
ä¸ĥ ä¸ª
èĲİ ç¼©
çļĦ å»ºè®®
å³° ä¼ļ
re d
æľĪ é¥¼
çĶµ è½¦
æľºæ¢° å·¥ä¸ļ
å¹´ ç¾İåĽ½
éĺ³ äºº
çĲĨ æŁ¥
Ġ å¦Ĥæŀľ
åİĭ æľº
ä¸Ģ åĲĳ
åįĬ å¾Ħ
è¦ģ æ¯Ķ
éĹ´ æĸŃ
å¢ŀå¼º äºĨ
å¾Īå¥½ åľ°
èİĨ çĶ°
èįī åĿª
åĨľæ°ĳ å·¥
æķĪæŀľ å¥½
å¹¿è¥¿å£®æĹı èĩªæ²»åĮº
åħ¶ æīĢ
ç¨Ģ åľŁ
æĻ¯ å¾·
ç¢³ åĮĸ
æĶ¿æ²» å®¶
è¡° éĢĢ
æı ī
åıĸ åĩº
ä¸º é¦ĸ
ä¼ł å¯¼
åı¥ åŃĲ
ç¿° æŀĹ
åħ¬äº¤ è½¦
åĨ· éĵ¾
èħĲèļĢ æĢ§
åħ± åĴĮ
éĻį èĩ³
äºĨ ä¸¤
å¢ŀ æĶ¶
çļĦ å¥³åĦ¿
åıĳ è´§
åįİ ç¡ķ
ç½Ĺ æĭī
æĻ®éĢļ è¯Ŀ
ä¸įåı¯ éģ¿åħį
ç¬¬ä¸Ģ åŃ£
èĪĴéĢĤ çļĦ
éĹ´ è·Ŀ
çłĶç©¶æīĢ æīĢéķ¿
ä½ľ å®¶åįıä¼ļ
åŁºç¡Ģè®¾æĸ½ å»ºè®¾
å¾· å·ŀ
åħ¬åı¸ å°Ĩ
æ· ¤
åİŁ çĶŁ
åĻ¨ çŃī
è´¢ç»ı å¤§åŃ¦
çī¹ éĤĢ
P H
æĦŁ æ¿Ģ
æĬ¤ çħ§
èĦĬ æ¤İ
ä»¥ éĺ²
åı¯ä»¥ æĺ¯
m er
äº« çĶ¨
ç¡ħ èĥ¶
å¿ĥ ä¸ŃçļĦ
ä¸ľ ç»ı
ç§ĳåŃ¦ åıĳå±ķ
çŁŃ ç¼º
æ© ±
æķ¦ çħĮ
op h
çļĦ ç¾İåĽ½
åı¯ çĪ±çļĦ
æľºæ¢° åĮĸ
å¼ºåº¦ é«ĺ
åĢ¼å¾Ĺ æ³¨æĦıçļĦæĺ¯
åĩº è´§
æį· åħĭ
éĽĨ è®Ń
å¹´ ä¸ĬåįĬå¹´
æĭĽ åĭŁ
T H
åī¯ æľ¬
æľī å¤§
å¨ ł
è´¢åĬ¡ ç®¡çĲĨ
åľ¨ ç½ĳä¸Ĭ
éĤ£ ä¸Ģ
çļĦ åįķä½į
èĮĥåĽ´ åĨħçļĦ
åĨį çİ°
æĺ¯ ä¸İ
æķ° ä¸º
åķĨ åľĪ
ä¿Ħ åĽ½
II I
æģĲ æĢķ
ä¸¤ ç«¯
è¥¿ åĮº
çļĦ åı¤
åľ¨ è®¾è®¡
ç¤¾ä¼ļ åĲĦçķĮ
D D
ç¼ ļ
å¾Ģ è¿Ķ
ä¸ĢèĪ¬ æĥħåĨµä¸ĭ
ä¸ĩ è¾¾
ä½Ĩ æĪĳä»¬
åĪĽéĢł åĩº
à ¤
è¾ĥ æħ¢
å¹´çļĦ åıĳå±ķ
ä¸ĵ ä¸º
äº¤ éĶĻ
éĩĩçĶ¨ çļĦ
çĶµ éĩı
çĥŃ åĪº
åĮĸåŃ¦ åıįåºĶ
å·¥åķĨ ç®¡çĲĨ
éĿ ´
éºĴ éºŁ
èĮ ľ
è´Ńçī© ä¸Ńå¿ĥ
ow n
æĹ¢ å¾Ģ
å¤Ħ æĸ¹
æĶ¿æ²» éĥ¨
å°ı åŃ¦çĶŁ
å¡ŀå°Ķ ç»´äºļ
åħĥ å®µ
ä¹¡ è¯ķ
an a
æĲŃ æ¡£
å°Ĩ ä»İ
éĿŀå¸¸ å¥½
ä¹Ł å¼Ģå§ĭ
ä¼ĺç§Ģ åħ±äº§åħļåĳĺ
æµĵ åİļ
çĽ¸äºĴ ä½ľçĶ¨
åįģä¸ī äºĶ
çĿĢ çļĦ
ä¼¤ çĹħ
è½¦ è½½
è¯ģ çĽĳä¼ļ
éħ¸ ç¢±
ä¸ĭ è¾¾
äº¬ åī§
çİ°æľī åĳĺå·¥
å¿ĺ äºĨ
çļĦ çĲĥéĺŁ
æ¸ħ ç®Ĺ
åİĤ åĮº
åĺ ²
ä¸½ èİİ
åĽĽ èĤ¢
äº§ åĩº
ä¸Ĭ éĻĲ
æĸ° ç¼ĸ
è¿Ļä¸Ģ æ¬¡
çº¸ ç®±
æĸ°ä¸Ģ è½®
ä¹¦çĶ» éĻ¢
çŃī è¯¸å¤ļ
ĠãĦ ĳ
åĪĽä¸ļ èĢħ
æĢĿ å¿µ
æ½ ¢
çīł ä»¬
ç´§ éĤ»
ä¸ī åįĥ
æĮĩ çº¹
æĥ© ç½ļ
èķ ¨
ï¼ ķ
åº§ çļĦ
é¡º å¾·
ç½ĳ çº¢
çĥŃ è¡Ģ
çĽ®åīį ä¸ºæŃ¢
ä¼´ æľī
å° ´
ä¹Ł æĺ¯ä¸Ģ
ä¿ĿæĮģ çĿĢ
è¿« åĪĩ
æ¹ĺ æ½Ń
åĭĺ æŁ¥
èĢģ åħ¬
éľ² åĩº
å¹¿æĴŃ çĶµåı°
ä¿Ŀ é²ľ
æīĺ é©¬æĸ¯
ä¹ĭ åĬĽ
æĻº åĪ©
è¿ª äºļ
èł ķ
æķ´ ä½ĵçļĦ
æĽ¾ ä¸º
M o
æĭ¿ åĩº
åĢ¼ çıŃ
æŁĵ æĸĻ
å®ŀéĻħ è¡ĮåĬ¨
çĽ¸è¾ĥ äºİ
ä½Ĩ ä»į
æĹłç¼Ŀ éĴ¢ç®¡
ä¸Ń åĮ»éĻ¢
éĻ ¨
æ·® åįĹ
åĪĨæĶ¯ æľºæŀĦ
çģ« åĬĽ
ãĦ ©
å¦Ĭ å¨ł
G S
ç»´å¤ļ åĪ©äºļ
å·²ç»ı æĺ¯
èĢ ½
Ġ i
Ġ é¦Ļæ¸¯
æľĢ å¿«
å¤ª å¤ª
s c
åĲĪå¹¶ ä¸º
çĲĨè®ºä¸İ å®ŀè·µ
ä¸įæĸŃ å®ĮåĸĦ
åľ° ä¸Ńæµ·
åĲį å°Ĩ
éĿŀå¸¸ æľī
S CI
æĬķèµĦ æľīéĻĲåħ¬åı¸
æºª åİ¿
åįĹå®ģ å¸Ĥ
ç¦» åĲĪ
éļ¾ éģĵ
èĩª æŃ¤
å°´ å°¬
éĵ Ĥ
ar a
èĩª å¼º
æĸ¯ æīĺ
å¤§åŃ¦ æ¯ķä¸ļ
èŀº ä¸Ŀ
ä¼ļ åĦ¿
å®ŀçĶ¨ æĸ°åŀĭ
åĺī åºĨ
å¾Ĺ å¥ĸ
æĢ» çº¿
ä»· çļĦ
é«ĺ ä½İ
om e
åģļ äºº
åı¯ è§Ĥ
æĤ į
æĮĩ åĲĳ
èı² åĪ©
ä¸į åĸľæ¬¢
ä¿® éģĵ
æľ¬ ä¼ļ
å®« å»·
æĹ¶ ä¼ļ
è·Ŀ åİ¿åŁİ
å¼Ģ æľĹ
çļĦ å®ĹæĹ¨
ç½ĳç»ľ æ¸¸æĪı
æīĵ çĶµè¯Ŀ
G Hz
ä¹° åħ¥
çłĶåıĳ ä¸Ńå¿ĥ
J R
åıł åĬł
ä¸ĭéĿ¢ å°±
ä¸º çĶ¨æĪ·æıĲä¾Ľ
åĽ½å®¶ ä¸Ģçº§
æĬķèµĦ çļĦ
è¿ĩç¨ĭ çļĦ
ä¸Ģ åĪĨ
åŃ¦ç§ĳ å¸¦å¤´äºº
è¦ģ åıĬæĹ¶
éĻĨ åľ°
éĩİçĶŁ åĬ¨çī©
å¹¶ ä¸įèĥ½
å¼Ĺ æĭī
åĴĮ ç»ıæµİ
ç¾İ åĨĽ
éĩįè¦ģçļĦ ä½ľçĶ¨
çĽ¸åħ³ è´Łè´£äºº
è¿Ń ä»£
åĽłä¸º ä»ĸ
åħ± æĮ¯
çĶ¨æĪ· ä½ĵéªĮ
V S
Ġ äºİ
æĸ° ç«¹
åįģä¸ī æĿ¡
å·² æĺ¯
åľ¨ éĢīæĭ©
è¡Ĺ åĮº
è¡ĮæĶ¿ æ³ķè§Ħ
åĪ· æĸ°
æĸĩ åı²
ä¹ĭ çİĭ
å®Į äºĨ
å¸Ĥåľº ä¸»ä½ĵ
ç»ĩ çī©
ä¸ĵç§ĳ åĮ»éĻ¢
ç²¾çĽĬ æ±Ĥç²¾
å¯¼èĩ´ äºĨ
æľŁ æĿĥ
åĲİ ä»£
è¿Ľ åľº
çļĦ è¿ĲåĬ¨
çļĦ èī¯å¥½
ç¼ ª
çº¿ä¸Ĭ çº¿ä¸ĭ
å©´ å¹¼åĦ¿
æ»ĭ åĳ³
æķ£çĥŃ åĻ¨
åĴĮ çĽ¸åħ³
åĪ» èĭ¦
å²Ľ çļĦ
Ġ z
at er
å·ŀ äºº
è£ħ æľī
ä¸į èĥľ
åı° ä¸Ĭ
ä¹¦çĶ» å®¶
å·¥åĨľ çº¢åĨĽ
åĨħ éĻĨ
æŁ¥ çĲĨ
è®¤ä¸º æĺ¯
æĭĨ åį¸
æĸ¯ èĴĤ
ä¸į ä¿Ĺ
æĸĩåĮĸ æĹħæ¸¸
é¤Ĳ é¦Ĩ
è¯ £
é£İ åĬĽ
æĬĢæľ¯ çłĶç©¶
é£İæĻ¯ åĲįèĥľ
å§Ķåĳĺä¼ļ ä¸»ä»»
éª¨ æŀ¶
ä¸ŃåĽ½ ç¾İæľ¯
a ur
åħī çħ§
æĿľ é¹ĥ
åĵ ©
Çİ n
ç¬¬ä¸ī ä»£
éĤ® çĶµ
æ°Ķ åİĭ
ç¿ Ł
ä¸° æĶ¶
é²ľ èī³
ä¸į ç»Ŀ
ä¸įæĸŃ åĪĽæĸ°
æĿ° åĩºçļĦ
æĹıèĩªæ²» å·ŀ
çļĦ èĩª
çŃī é¡¹çĽ®
æī¾ ä¸įåĪ°
å®ŀ æĥł
çªĹ æĪ·
æĿĳ éĩĮ
å¤ļ æł·çļĦ
æĿ¾ ä¸ĭ
çľ ·
æº¶ æĢ§
ä¸į æĪĲ
å¤ļ æľī
çļĦåīį èº«
Ð ²
çĤ¹ åĴĮ
er y
å·¥ä½ľ æĹ¶
ä¸į åĪĨ
çĻ¾ èĬ±
åĨ³èµĽ ä¸Ń
æľ¬ åĵģ
åŃ¦ éĹ®
é«ĺçº§ èģĮç§°
äº¿ åĲ¨
è¿ĳ ä¼¼
æ¸ħ æĻ¨
åĨ° å·Ŀ
åķĨåĬ¡ éĥ¨
å¹´ äºİ
å®ī äºº
ä¼ł æİĪ
åįķ è½¦
ç»´ ä¹Ł
å¸¸æĢģ åĮĸ
çļĦ è·¯
ä½į ç§»
å¸¦ åĪ°
éķ¿ å®ĺ
è¥¿ ä¸İ
å¯¼ æ¸¸
è½» åŀĭ
åı¤ äºº
æĦī æĤ¦
å¦Ĥæŀľ åľ¨
å¹¿ ä¹ī
äºļ å½ĵ
çī¹ èģĺ
éĥ½ çĿ£
åĲİ äºº
åįĹ ä¸İ
çļ® å¸¦
å¯¹ éĿ¢
ï¼ī âĢĿ
åī¯ ä¸»ç¼ĸ
éĢĤ åº¦
æĹħ é¦Ĩ
æ¦ľ æł·
å¸Ĥåľº ç«ŀäºī
ç»ıéªĮ ä¸°å¯ĮçļĦ
é¦Ļ æĸĻ
é¾Ļ æ³ī
æĮ¤ åĩº
çĭ ¸
å¸®åĬ© ä¸ĭ
åı¯ æİ§
å°Ĩ ä¸įä¼ļ
ç¾İ åĮĸ
èĢ »
çŃī åĲĦç±»
åİ» çľĭ
ç¨İ çİĩ
ä»Ĭå¹´ ä»¥æĿ¥
ä¸į éĢĤåĲĪ
å¾Ī ç®Ģåįķ
ĠM an
çł º
ä¿¡çĶ¨ åį¡
å»ºè®¾ åįķä½į
æĹĹ å¸ľ
åĴĮ çİ¯å¢ĥ
ä¸į å°½
èįī èį¯
èĦĳ è¡Ģç®¡
æĸ¯ åį¡
T I
äºĨ åĩł
æĻºèĥ½ å®¶å±ħ
çŃī çĹĩçĬ¶
éĽĩ ä¸»
ä¾¿ ä¼ļ
é¢Ħ åħĪ
èĸĦ å¼±
éĻĦå±ŀ åĮ»éĻ¢
å¤§ åŁİå¸Ĥ
è¿ĺ æľª
çģµ èĬĿ
å¿ĥ å¾Ĺ
æĢ§èĥ½ åĴĮ
åĬł æģ¯
äº§åĵģ è®¾è®¡
éģĩ åĪ°çļĦ
Ġ åįĹ
çĶŁ çĮª
æĹ¶ æķĪ
ç®¡çĲĨ æĿ¡ä¾ĭ
å±Ģ åĬ¿
æĻļ å¹´
æľĢåĪĿ çļĦ
æµ· æ»¨
æĢ» äº§åĢ¼
ç»ıåħ¸ çļĦ
åį«çĶŁ åģ¥åº·
ä¸¥æł¼ æī§è¡Į
è´¢æĶ¿ å±Ģ
æľīéĻĲåħ¬åı¸ æĺ¯ä¸Ģå®¶
åįİ è¯Ń
ãģ §
èĢĮä¸Ķ åľ¨
åıĳè¾¾ åĽ½å®¶
åĵ ī
å¤ļ å°Ķ
éĩĳ æ²Ļ
å°¼ åı¤
äºĭä¸ļ çļĦ
æ³ķå®ļ ä»£è¡¨
ä¸į åłª
é¢ł è¦Ĩ
åĽº æĢģ
ä¸Ĭ éĿ¢çļĦ
çī¹ è®¸
E F
æİ ·
åĢ ©
éĶĢåĶ® çļĦ
æ°ĳ æ³ķ
å¥¶ èĮ¶
çĶľ èľľ
æľŁ å¾ĴåĪĳ
æĺŁ éĻħ
æ¶² åĮĸ
åıĳ æĸĩ
M L
å¸Ī éķ¿
çĬ¹ è±«
ç§ĳæĬĢ åĽŃ
éļı èĳĹ
åľ¨æł¡ çĶŁ
çļĦ ç³»ç»Ł
ç»¿ è±Ĩ
åį´ åľ¨
æľī ä¸¤ç§į
ä¸º å·±
æ¹¿ æ¶¦
åĨľæ°ĳ äººåĿĩçº¯æĶ¶åħ¥
ä¹Ł è¶ĬæĿ¥è¶Ĭ
åĲĳ åĮĹ
åĽ½æľī èµĦäº§
çļĦ åĲĮ
å¤§ äºº
ä¹ĭ ä»¥
å¼ı å»ºçŃĳ
éĺ² ç©º
æľĿ çĿĢ
è¥¿ æ¸¸
æŃĮ å£°
ç» ļ
åĵª å®¶
æľĢéĩįè¦ģ çļĦæĺ¯
æĪĳä»¬ å¿ħé¡»
è¶ħ å¼º
åĭŁ éĽĨ
å¼Ģ åľº
è¡Įä¸ļ æłĩåĩĨ
âĢ¦âĢ¦ âĢĿ
æŃ§ è§Ĩ
çļĦ äºĨè§£
ç»Ħç»ĩ åĴĮ
æ¬§ æĸĩ
åħ¬å¼Ģ æĭĽèģĺ
ï¼ ĭ
ç»Ń èĪª
æ±ī åł¡
æĶ¾å°Ħ æĢ§
æ®µ çļĦ
æĹ© æĻ¨
åĪĨåĪ« åľ¨
çĬ¶ çļĦ
ä¸Ģ éĹ´
å®¶ å¸¸
å±± ä¸ĭ
æĦŁ æħ¨
ç į
ä¸į ä¸ĭ
çŃī åĽ½å®¶
äº¤æ±ĩ å¤Ħ
l i
çļĦ æ³ķå¾ĭ
äº§ åĮº
ä¸¤ éĥ¨åĪĨ
äºĭä¸ļ åıĳå±ķ
èķ ĥ
çĶŁ æ°Ķ
ä¸» éĺŁ
å¦Ĥæŀľ è¯´
èĬ± åºı
çļĦç¾İ å¥½
Ġt o
è§£ è¯´
ä¹ĭ å¥³
è§£ æ¯Ĵ
çĮ ¿
äºĮ çĻ¾
è½¦ åİ¢
æ·± åĬłå·¥
å°ģ ä¸º
éħį æĸĻ
ä¹ī ä¹Į
ç½Ĺ éĤ£
çľŁ å¿ĥ
å² Ķ
oc i
åŃ¦ åłĤ
åħ« ä¸Ģ
åı² æĸĻ
ic t
åĬ¨ æľº
å£® è§Ĥ
çººç»ĩ åĵģ
É ¡
å¢Ļ å£ģ
éħįå¤ĩ äºĨ
æĺ¯ åŁºäºİ
ä¼Ĭ åĪ©
å¦Ĥ åĽ¾
çĹħ éĢĿ
èĩª æĪĲç«ĭä»¥æĿ¥
äºĮåįģ å¹´
äº§åŃ¦ çłĶ
âĢĿ âĢĶâĢĶ
èħ ĵ
ä¸»èĲ¥ ä¸ļåĬ¡
ä¹ĭ åĲį
å½ĵ æĪĳ
ä½ıæĪ¿åĴĮ åŁİä¹¡å»ºè®¾
Ġ |
å®ī å®ļ
çļĦ çī¹æĢ§
e a
æĺ §
å®¤åĨħ è®¾è®¡
ä½ľåĵģ æľī
éĢļçŁ¥ ä¹¦
åºĶ åıĺ
æ·± éĢł
èİ· åĽ½å®¶
åıªæľī åľ¨
é¢ĩ æľī
è¶Ĭ éĩİ
è¯ĳ ä¸º
éģµ ä¹ī
ç® Ķ
åı² èĴĤ
å®¶åºŃ çļĦ
çľģ ä¼ļ
åģļ å¼º
ä»¥åıĬ åľ¨
æĬĹ çĸ«
èĬ± é¸Ł
å®¶ æĶ¿
æľ¬ é¡¹çĽ®
ç»Ĩ å¿ĥ
å¦Ĥæŀľ æĪĳä»¬
éĩİ å¤ĸ
è¦ģ çĶ¨
æ®Ĭ èį£
è¦ģ çŁ¥éģĵ
çĶ· åıĭ
ä¹Ļ éĨĩ
å¨ĥ å¨ĥ
åĩºç§Ł è½¦
æľŁ æ»¡
æĿ¡ çłģ
äºº åĲį
éĵ¶ è¡Įä¸ļ
åľ° å±Ĥ
ä¸ľ çĽŁ
F or
ä¸Ń åŃ¦æł¡
éĺ ±
æĸ° ç§Ģ
åı£ åı·
ä¿ĿæĮģ åľ¨
åľ¨æł¡ åŃ¦çĶŁ
éĢĤ æĹ¶
èĩ »
in i
é¡º åºĶ
æķ¬ è¯·
é«ĺè´¨éĩı çļĦ
å±± æŀĹ
æĬĢæľ¯ åıĬ
é¦Ĩ éķ¿
ä»¤ ç¬¬
æ¯Ķäºļ è¿ª
ç» °
åł ķ
ĠA d
äººæ°ĳä»£è¡¨å¤§ä¼ļ å¸¸åĬ¡å§Ķåĳĺä¼ļ
åĨ ī
é«ĺ å¼ºåº¦
åħ¬åı¸ ä¸İ
åĻ¨ åħ·
æĹłéĶ¡ å¸Ĥ
èģĶç³» æĸ¹å¼ı
åĳĬè¯ī ä½ł
? ?
è¥¿ éĩĮ
è¯´ æľį
çļ®èĤ¤ çļĦ
éĩĮç¨ĭ ç¢ĳ
åľŁåľ°éĿ©åĳ½æĸĹäºī åĴĮ
ä¸Ģ æīĭ
å·¥ä¸ļ çĶŁäº§
åıĹ è®¿
ç¬¬åįģ åħŃ
åį ¯
æ¯ıä¸ª äººçļĦ
ĠCom p
èĥĮ éĥ¨
å¹´ ä¸ĸçķĮæĿ¯
æĳĦ åıĸ
çĽ´æĴŃ åĲ§
çļĦ åľŁåľ°
æīĭ å¥Ĺ
æµĭè¯ķ ä»ª
èĢ ¦
é»ĺ è®¤
çļĦ åĮºåŁŁ
çĶ¨ æĪ¿
éģ ´
å·¥ä½ľ ä¼ļè®®
äºĨä¸Ģ æĿ¡
ç£ģ æĢ§
çĽ´ éļ¶
æ³¢ éķ¿
æĳ§ æ¯ģ
åıĤ éĺħ
é¢ ¤
æĪĳ çĽ¸ä¿¡
æīĭ æ¸¸
ä¹Ł æĹłæ³ķ
æŃ¤ äºĭ
åį³ä½¿ æĺ¯
ç¬ ¨
é¢Ĩå¯¼ åĴĮ
å¸½ åŃĲ
ç¿ ©
è¿½æº¯ åĪ°
ç³¯ ç±³
å² ĳ
éĽħ åħ¸
éľī ç´ł
å·¥ä½ľ æĬ¥åĳĬ
æ¶Īè´¹ åĵģ
è¦ģ æĺ¯
èŀº çº¹
çļĦ æľ¬
æĹı ç¾¤
èµ° è¿ĩ
æ°¸ ä¹Ĳ
æıĲä¾Ľ ä¸Ģä¸ª
æĽ¾ äºİ
W in
æĺİ äºĨ
è½» è´¨
åıĪ ä¸Ģæ¬¡
ç½ĳç»ľ çļĦ
le t
åĬłå¿« æİ¨è¿Ľ
åī¯ å¸Ĥéķ¿
æĥĬ è®¶
èĥ½ ä¸įèĥ½
å¹³ åĿ¦
ä¸ĩ äº¿
éĶĻè¯¯ çļĦ
å°ı åº·
æĹł å®³
å¸· å¹ķ
ç®¡çĲĨ èĢħ
çļĦ æŃ£
çĽ ı
æĻ ı
æľĢåĲİ ä¸Ģä¸ª
çħ¤ æ°Ķ
äºĮ çļĦ
å·¥ä¸ļ äºĴèģĶç½ĳ
åĲĥ äºĨ
è¥¿ èĩ³
ĠãĦ ħ
å¤¯ å®ŀ
çļĦ åĬŀåŃ¦
èĮ ģ
éĥİ ä¸Ń
Ù Ħ
çķľ ç¦½
ç¬¬äºĮ æĿ¡
æ²¿ éĿ©
ä¸Ģ ä¸¾
ä¸Ń æĢ§
è·¨ çķĮ
æ¨¡å¼ı çļĦ
ä¾Ľ è´§
çĭ¬ æľīçļĦ
åı¯ éĢī
å¤± è¸ª
åŁ¹è®Ń åŃ¦æł¡
ç»´ä¹Ł çº³
è±¡ æ£ĭ
äºĶ ä»£
E d
m e
å¤ļ çī¹
åĬł ä¹ĭ
ãģ Ļ
éĩįéĩı è½»
åŃ¦ åĴĮ
åŃ¦çĶŁ ä»¬
å¤ļ éĥ¨
å°± è¿ŀ
ä»» æķĻå¸Ī
è¢« æİĪäºĪ
æİ§åĪ¶ åľ¨
æ¹ĸ åĮº
çķĻ æł¡
D r
åĪĨ éĶĢ
å»ºç«ĭ èµ·
æľ¬ ä¸ĵä¸ļ
æĬĹ èıĮ
åįļå£« çłĶç©¶çĶŁ
ä¸Ń èİ·å¾Ĺ
ç¡®å®ļ ä¸º
æĺ¾å¾® éķľ
åħ« ä¸ª
åĮ ¡
åĶ± æŃĮ
æĺİç¡® äºĨ
ä¸Ńå±± å¤§åŃ¦
åŃ¢ åŃĲ
D M
å½ĵ åľº
åľ¨ æİ¥åıĹ
éĩĩ çŁ¿
æģ ª
ä½İ æĪĲæľ¬
æĪĲåĬŁ åľ°
ä½ł éľĢè¦ģ
ä»¥ æıĲé«ĺ
åħ¨ å®¶
åĨ· åºĵ
å¢ŀåĬł åĢ¼
æĶ» æīĵ
æĭĨ è¿ģ
åı¯ä»¥ ä½¿
ç®¡çĲĨ åĳĺ
çļĦ åĬªåĬĽ
éĩı äº§
åĴĮ ä¸į
ä¸ĭ æ°´
å¿ĥ èĤĮ
åıĺ è´¨
é£Ł æĢ§
ä¸ĩåħĥ ä»¥ä¸Ĭ
çŃī ä¸ļåĬ¡
çļĦ çĪ±æĥħ
ç¦ı çĶ°
å¹´ èį£èİ·
åĴĮ å®ĮåĸĦ
åĨ¶ çĤ¼
æĥł å·ŀ
æĴ°åĨĻ çļĦ
èĪ ħ
çīĩ ä¸Ń
è± ļ
æĭŁ ä»»
å¯¹ èĩªå·±çļĦ
çĥŃ çĶµ
é¢Ħ çķĻ
è£ģ å®ļ
åº ĩ
ç»¼åĲĪ åĪ©çĶ¨
åĬł çĽĸ
å¾ģæ±Ĥ æĦıè§ģ
æīĢ çĶ¨
åįİ å±±
æĴŃ ç§į
æĹ¶éĹ´ éĩĮ
åį§ å®¤
T R
çļĦ çī¹èī²
å®ī æħ°
æĸĩä»¶ çļĦ
å´ĩ æĭľ
åı¯ ä¸İ
çİ° è´§
åıĪ ç§°ä¸º
ä½Ľ éĻĢ
ä¸į ä»£è¡¨
å¾Ĺ ä¸»
ç«ĭ æ¡Ī
åħ¨ä½ĵ åĳĺå·¥
ä¸Ģ åŃ£åº¦
åŃ¦ çłĶç©¶
æ¸¯ å¸Ĥ
ä¿Ħ è¯Ń
æ¿ĢçĥĪ çļĦ
æİ¥ çº¿
ä»ªåĻ¨ ä»ªè¡¨
åĳķ åĲĲ
H R
ä¸Ģ å£°
åĵĪ åĪ©
ä¸į åħ·å¤ĩ
è¦ģ ä»¥
èħ ¥
æĽ´å¤ļ ä¿¡æģ¯
åĵ ĳ
ou nd
èŃ¦ æĥķ
æĺ¯ åħ¶
æľĪ åĪĬ
èĬ ¥
è£ħ åį¸
åªĴä½ĵ æĬ¥éģĵ
M icro
æ³ £
ç²¾ç¥ŀ åĴĮ
é¾Ļ äºķ
ä¿ĥè¿Ľ ä¼ļ
ä¸Ń ç¾İ
å¸ĮæľĽ å¤§å®¶
ou nt
Ġ åı·
æĹ¥ æ²»
ç»¼èīº èĬĤçĽ®
åı¯ åı£
æķĳ æ²»
æº ´
ç¹ģ å¤ļ
è·³ è·ĥ
é¢Ī éĥ¨
å¤ļ å¹³æĸ¹ç±³
äºĨä¸Ģ ä¸ĭ
ĠR es
æļĳ åģĩ
åĲİ åı°
çĹħ äººçļĦ
ĠãĦ ī
çļĦå¤ĸ è§Ĥ
çĭ¬ ä¸ĢæĹł
ç¯® ç½ĳ
ä¹Ł æĪĲä¸º
ä¼ĺè´¨ çļĦæľįåĬ¡
st r
èĦ± ç¡«
èĩ´ åĳ½
å¥¢ åįİ
è¿Ľä¸ĢæŃ¥ æıĲåįĩ
ä¸ĵä¸ļ äººå£«
æĿľ ç»Ŀ
èģĶèµĽ çļĦ
å½ ª
ç²ĺ åĲĪ
ä½ľä¸º ä¸ĢåĲį
æĹħæ¸¸ å±Ģ
å·´å¡ŀ ç½ĹéĤ£
n a
çļĦ åĵģè´¨
çļĦ åģļæ³ķ
æ²¹ èıľ
åıĳ çĥ§
åıĸ èĥľ
ç»ıçºª äºº
ä¸º æ°ĳ
åĸĿ éħĴ
æĪ· åı£
å¿ĥèĦı çĹħ
ç»Ĩ åĮĸ
ä¹³ åĮĸ
çĿ£ æŁ¥
åįģåĽĽ å¹´
æĶ¿çŃĸ åĴĮ
çĶ¨ é¤Ĳ
èµ° åľ¨
çļĦ èĮĥåĽ´
ä¸İ ä¼ģä¸ļ
æ°´ æĸĩ
çļĦä¸Ģä¸ª éĩįè¦ģ
èıĬ èĬ±
åĪļ å¼Ģå§ĭ
éĿŀçī©è´¨ æĸĩåĮĸéģĹäº§
ä¸Ń ä¹Ł
å² ±
æĿ¿ ä¸Ĭ
ä»£çĲĨ äºº
è¾¾ å·ŀ
çļĦä¸» ä½ĵ
åľ¨ ä¸ĢäºĽ
åĩº çº¿
éĥ½ ä¸įä¼ļ
éģĩ ä¸Ĭ
ç½Ĺ æ±ī
ç¦» èģĮ
ä¸º åİŁæĸĻ
è± ģ
åĳ¼ åĴĮ
ä¸² èģĶ
L D
Ġ ãĢĮ
æŀģ é«ĺçļĦ
ä¸Ģ å¾ĭ
åĵģ ä½į
ç³»ç»Ł çŃī
æĺŁ åħī
å°ģ å»º
è¡¨è¾¾ äºĨ
ä¸Ń ä¹¦
æµģ è½¬
çģµ æ´»æĢ§
çĸ ¤
æŃ ¼
åĪĨéĴŁ åĲİ
å°Ķ é¡¿
èĬĤèĥ½ åĩıæİĴ
ç²¤ æ¸¯æ¾³
å¾ĹçĽĬ äºİ
å¤´ æĿ¡
èİ· æī¹
åĨĻ äºĨ
é£ŀ èĪ¹
ä¸ĩåħĥ çļĦ
ä¸ĵ å¿ĥ
è¶³ è¿¹
åįĹäº¬ å¤§åŃ¦
è£Ĥ ç¼Ŀ
äº² å±ŀ
ä¹īåĬ¡ æķĻèĤ²
æŃ» äºĨ
æ³Į å°¿
éĺ² éĶĪ
åį« æµ´
åĩĨå¤ĩ å¥½
çģĮ æľ¨
é¦ĸ å°Ķ
å¤Ħ çº§
èĮ ¹
çģ« çĪĨ
åºķ çĽĺ
äºĨè§£ äºĨ
çļĦ æİ§åĪ¶
æĸ° åĨľæĿĳ
æīĢ äº§çĶŁçļĦ
æ´ŀ å¯Ł
éĥ½ çŁ¥éģĵ
åĽ°éļ¾ çļĦ
å¤§ èĥľ
çĽ¸ å·®
Ġ æł¹æį®
ä½ľçĶ¨ ä¸ĭ
æķĳ çģ¾
å¸Ĥåľº è§Ħæ¨¡
æĸ¯ æ´Ľ
å¾Ī æĺ¯
åĴĮ å®īåħ¨
ä¼¤ äº¡
Ġ çĻ½
ç² Ł
èı² å°Ķå¾·
up er
åħ¨ æĻ¯
åİĨ å¹´
ç©ºæ°Ķ è´¨éĩı
ä¿¡æģ¯ æľįåĬ¡
ä¸Ģèµ· æĿ¥çľĭçľĭ
å·¡ æĬļ
çļĦ æ¯ĶèµĽä¸Ń
ä»İ ä¸Ģä¸ª
çļ ĭ
éĴĵ é±¼
åĪĽ ä¸ĭ
ĠC on
è¿Ľä¸ĢæŃ¥ æıĲé«ĺ
èĿ İ
èĺĳ èıĩ
èĥ½ ä½¿
æİ¨ æµĭ
ä½ĵ æĵį
éĽ· éĶĭ
åĽ½èµĦ å§Ķ
çļĦ æĿ¡ä»¶
ç§ĳ ä¸»ä»»
éĹ¨ å¤ĸ
åįĩ èĩ³
åĨħ å¿ĥçļĦ
S Q
ä¸ľ éĤ»
èĢģ å©Ĩ
èĢħ ä¸º
æĪ· æķ°
æīĵ äºĨ
çļĦæ²»çĸĹ æĸ¹æ³ķ
çŁ³ åĪ»
çĶĦ éĢī
éĩį å·¥
è®¾è®¡ éĻ¢
çº¢ æĺŁ
æ²³æµģ åŁŁ
ä»į æľª
it ion
åĪĹ åĩº
é¾Ļ å±±
æ¯ģ çģŃ
æ³¢ çº¹
ç»¼åĲĪ ç´łè´¨
åľ¨ ä½ł
è°Ī è¯Ŀ
éĺ² çº¿
åħ¨éĿ¢ åıĳå±ķ
å¼Ģ çļĦ
åħĭ åĪ©
æ£Ģæµĭ è®¾å¤ĩ
æ¡ ¦
èĢģ é¼ł
ãĤ Ĵ
è¿ĺæľī ä¸ĢäºĽ
æĬ± çĿĢ
Ġ äº§åĵģ
b ox
è§Ĥä¼Ĺ çļĦ
ä¸º çĽ®çļĦ
é©¬ è·¯
ä¸į èĤ²
Ġ äºĮ
æĹ¶éĹ´ éķ¿
å¥½ èİ±åĿŀ
æŃ¦ æĺĮ
åį«çĶŁ å±Ģ
en c
æĬ± æĢ¨
çłĶç©¶ æľºæŀĦ
è®¾ äºİ
åİĤ çļĦ
å»ºçŃĳ è£ħé¥°
çľ¼ çļĦ
èĪ¹ åıª
çģŃ ç»Ŀ
p H
å°± å¿ħé¡»
å¸¦ éĺŁ
èı ģ
æĹłçº¿ çĶµè§Ĩ
å¤§ è¥¿æ´ĭ
ä¼ļ ä¸įä¼ļ
æ³ķ ä»¤
çİĩ åĴĮ
ç§ĳæĬĢ åħ¬åı¸
ä¸ĵ åįĸ
ç»Ł æĪĺ
åħĪ åīį
çīĽ æ´¥
éľ² å¤©
Ġ ä¸ĩ
å®Įæķ´ æĢ§
çİ° éĺ¶æ®µ
èĬ³ é¦Ļ
èĢĥ çĤ¹
åį« åĨķ
è¸ı å®ŀ
åĬ¨ è½¦
çļĦäºº å·¥
æĢ¥ éľĢ
ä¸ŃåĽ½äººæ°ĳ å¤§åŃ¦
æĪĺæĸĹ æľº
Y ou
å¤§ å®Ĺ
æĪĲ å½¢
èĢĮ éĹ»åĲį
è·Ł è¿Ľ
æĺ¯ åı°æ¹¾
ä¹ĭ æīĢ
æľ¯ åĲİ
è¿ĳ çĻ¾
å®« æ®¿
çĶŁäº§ åĪ¶éĢł
æĺĵ çĩĥ
åºĶ åıĬæĹ¶
ä¸ĵéĹ¨ ä»İäºĭ
ä»ĸ åıĪ
è° į
éª¨ è´¨
os s
em ent
åĽ½ è¶³
åįģ ä¸Ģå¹´
åıĻ åĪ©äºļ
çĻ½ èī²çļĦ
çľĭ è¿ĩ
åĩł çĻ¾
åĲİ æĿ¥çļĦ
åĨĽ æł¡
åįĹ å¼Ģ
çļĦ å¯¹
å°ı é¾Ļ
åĽ¾ æĸ¯
é¢Ŀ åº¦
äºļ çĥŃå¸¦
æ°ĳ å®¿
åŁºåĽł ç»Ħ
ro w
B N
å¯Ĥ å¯ŀ
è´® åŃĺ
ä¸º éĩįçĤ¹
åıĤ è§ģ
åĵģçīĮ å½¢è±¡
ä¸İ åĲĪä½ľ
åĤ¨ èĵĦ
ç§ĳ å§Ķ
çļĦ ç§ĳåŃ¦
çļĦ çĲĨè®º
å®¶ æĿĳ
æİ¥ ç®¡
æŃ£å¸¸ è¿Ĳè¡Į
éĵ¸ ä»¶
M ac
ä¸Ń åıĳçİ°
åºĶ æľīçļĦ
æīĢ ç§°
æĥ³ çĿĢ
å®¢ åº§
æ¸¯ åĮº
èģĮèĥ½ éĥ¨éĹ¨
éĩĳ èī²
è¨Ģ è®º
è®°èĢħ ä»İ
è¿Ľ æĿ¥
åı¯ ä½ľä¸º
åĪĿ æ¬¡
ç§»åĬ¨ äºĴèģĶç½ĳ
åĳĬè¯ī ä»ĸ
ä¸Ģå®ļè¦ģ æ³¨æĦı
ä¸į å¥½çļĦ
ä¸Ĭ æľĪ
æŃ¦ ä¾ł
æ¿ ®
ç»ıéªĮ ä¸°å¯Į
åįģåĽĽ æĿ¡
çļĦ ä»£è¡¨
äº§ åĲİ
é£Ł æ¬²
éĺ´ æĢ§
ç»¿èī² çİ¯ä¿Ŀ
é¦ĸ çĽ¸
çļĦ è´¹çĶ¨
åįĬ ä¸ª
éĤ» å±ħ
éĽĨ ç»ĵ
ĠG r
å°± è¶Ĭ
å¤ª ç¥ĸ
çļĦä¸Ģ çĶŁ
åľ°ä¸ĭ æ°´
å¦Ĥ éľĢ
çĶ ©
åı· æ¥¼
èĢĮ è¿ĻäºĽ
åģľ éĿł
æĪĺçķ¥ æĢ§
çĶ± åİŁ
å¼Ģåıĳ äºĨ
äº¤ æĽ¿
åĲĳ ä¸ĭ
åĲİ æĸ¹
éģ ı
ech n
èĬĤ æ°´
çĶ» ä½ľ
è·¯ çģ¯
åĽŀ éģ¿
éĿĴå¹´ æķĻå¸Ī
èĭ Ł
å·¥ä½ľ ç«Ļ
çĥŃ çģ«
è§¦ åıĳ
çĲĥ è¡£
äº ¢
å°Ĩ æĮģç»Ń
èĻ ı
å©ļ çº±
åįĸ å®¶
çļĦ åĪĨæŀĲ
ä¸İ æĬĢæľ¯
ç¾ ²
æĪĸ æľī
çļĦé«ĺ éĢŁ
åŃ¦ è¯´
çŃĶ åºĶ
ä¸Ģ ç¯ĩ
åĶĲ å±±
ãĦ¨ Ëĭ
éĽį æŃ£
å®½ æķŀ
æĪĲæŀľ å¥ĸ
ä¸į åħģè®¸
æī© åħħ
èµł éĢģ
ç©Ĩæĸ¯ æŀĹ
æĶ¿åºľ çī¹æ®Ĭæ´¥è´´
åĩı å¼±
è¯ ¡
åľ°çĲĨä½įç½® ä¼ĺè¶Ĭ
ä½Ļ ç§į
åıĳå±ķ æĸ¹åĲĳ
âĦĥ ãĢĤ
å¤§ å°ĨåĨĽ
æł¼ å¤ĸ
åĵª ç§į
æľī çļĦäºº
ä¸į åİ»
æĬ¥ åºŁ
çĥŃ å¿ĥ
åĮħæĭ¬ äºĨ
èĮģ å£®
åľ¨ ä¸įåĲĮ
çł´ è§£
è¯Ħ æ¯Ķ
å¤± ä¿¡
è°Ī è®º
é«ĺ ç©º
è¯Ĺ éĽĨ
æķħ å±ħ
C V
é¥® åĵģ
çĽ İ
åĮº ä½į
éĩį ä¿®
ä¸» è½´
å±ķ åĮº
æģ ¤
ãĢĭ, ãĢĬ
å»º åĪ¶
ä¸ĵä¸ļ äººåĳĺ
åĽ½ è¯Ń
æ£Ģæµĭ ä»ª
æŀĦæĪĲ äºĨ
è¾¨ è¯Ĩ
çļĦ ä¼ĺçĤ¹
è§£ åīĸ
èº« å¤Ħ
æīĢåľ¨ çļĦ
ç½Ĺé©¬ å°¼äºļ
å§¿ åĬ¿
çİ ®
æľ¬ éĥ¨
åĬł è£ħ
åİĭ åĪ¶
æĦŁ åı¹
æ·ĺæ±° èµĽ
è¿Ļ å¯¹äºİ
è®¿ è°Ī
ä¸İ ä»ĸ
åıĬ æľįåĬ¡
æģ ķ
èį¯ ä¸ļ
åįķ ä½ĵ
èģĶ è½´
å³ Ń
èĽ ¤
å¤© çĶŁ
çİ º
çĦ ĸ
æł¡ å¤ĸ
ç¨³ åĽº
ä¸ĭ éĿ¢çļĦ
å¥½ äºĭ
é»İ æĺİ
ç¿ħ èĨĢ
äº¤ ä¼ļ
éĩı åĴĮ
ä½Ļ ä¸ª
éĻĲ æľŁ
æķĻåŃ¦ åĴĮ
åĪĿ åĪĽ
æĸ° æµª
æıĲ è®®
å¥Ĺ æĪ¿
è¿ĺæľī å¾Īå¤ļ
æĹłçĹĩçĬ¶ æĦŁæŁĵèĢħ
åıĹ éĤĢ
éĻĪ ä»£è°¢
æ·± åİļçļĦ
èļĤ èļģ
å®ŀ æľ¨
çĸı æĿ¾
ä¸Ń æŃ¢
å®ŀ åĬĽçļĦ
åĨħ æĸ¯
çĽ¸ æİ¥
ç¢³ ä¸ŃåĴĮ
åĽĽ åĨĽ
äº§ä¸ļ ç»ĵæŀĦ
ä¸Ńå¿ĥ åĴĮ
èĭĹ æľ¨
æ·±åº¦ èŀįåĲĪ
ar r
èĭ± æīį
ä¸ĩ åįĥçĵ¦
èĬ± çº¹
åĲĪæł¼ çļĦ
ç»½ æĶ¾
Ġ q
åĴ¨è¯¢ æľīéĻĲåħ¬åı¸
äºļæ´² æĿ¯
çĽ¸ è¯Ĩ
ä¸Ĭ åįĥ
èµ¶ ç´§
äºº ç¤¾
åħ¬ åŃĲ
èı© æıĲ
ä¸Ń å¹´
ç¬¬ä¸Ģ äº§ä¸ļ
å®¢æĪ· æľįåĬ¡
ä¹ĭ å¹´
åı¯èĥ½ å¯¼èĩ´
éŀ ĺ
å¼ Ī
æķĻèĤ² åŃ¦
æłĩå¿Ĺ æĢ§
å¢ Ł
éĻĲ éĩı
çĮľ æµĭ
M et
èĬ± æł·
åı¯ ä¹Ĳ
é«ĺ åº¦çļĦ
å¤´ çļ®
å¤ĸ åķĨ
èį¯çī© æ²»çĸĹ
æł¡ çº§
èĬĻ èĵī
ä¸Ģ æĿ¯
åįĩ åŃ¦
ç»ıæµİ æĢ»æĶ¶åħ¥
æľīè¶£ çļĦ
åľ¨ å¤©
å®¢ éĺŁ
ç¬¬äºĮ è½®
çĽĽ ä¼ļ
æī¹åĩĨ çļĦ
è¾ĥ å¿«
èĤ¡ä¸ľ çļĦ
åľ¨ çĶŁæ´»ä¸Ń
äºĮ å±Ĥ
è¿Ļç§į æĸ¹æ³ķ
å®ĩ èĪª
S i
çļĦ æł·åŃĲ
å½ĵ æĪĲ
è£ħ è½½
çº¢ æĸĳ
éĩį å¿ĥ
æľĢ ç¾İ
çļĦ è¡¨éĿ¢
å°± æĺ¯ä¸Ģ
å¹´ ä»¥
è´¨ æ£Ģ
ç¬¬ä¸Ģ æ¬¾
ä½ı æĪ·
æķ´ å¥Ĺ
å±ŀäºİ å±±åĮº
é¢ĨåħĪ åľ°ä½į
åħ¨ ç¤¾ä¼ļ
åŁİ éĻħ
è¿Ľè¡Į åĪĨæŀĲ
åľ£ åľ°
ä¾µ çķ¥
çļĦ åħ¨éĥ¨
ä¸İ æĤ¨
æĻ¯å¾· éķĩ
åĨ² åĪº
ik e
ç§ĳæĬĢè¿ĽæŃ¥ å¥ĸ
åĽĽ çº§
åİ» æī¾
äººåı£ æĻ®æŁ¥
äº² å¯Ĩ
ä¸İ ä¼Ĺ
çº¢ æŀ£
æł¸å¿ĥ ç«ŀäºīåĬĽ
Ġ æĿ¨
è¥¿ èĴĻ
æĸĩåĮĸ éĥ¨
è±Ĩ çĵ£
éħĴ åºĦ
ä»£è¡¨ æĢ§çļĦ
çĶŁäº§ åķĨ
æķĻåŃ¦ è´¨éĩı
åĪļ å¥½
å±ħ å¤ļ
åħ¼ åħ·
ĠãĦĲ ãĦ§ãĦ
èĥ ±
åºĶå½ĵ æĮīçħ§
è®¾ç½® çļĦ
èĦĤèĤª éħ¸
èĢ ¸
æĻºæħ§ åŁİå¸Ĥ
ä½ĵ éķ¿
èĩª å®ļä¹ī
ï¼ī ãĢģãĢĬ
çļĦé«ĺ æĸ°æĬĢæľ¯
å¤ĸ åĽ´
èĥĥ èĤł
å¸Ĥåľº ä¸Ń
èįī åľ°
è¿½ åĬł
ab le
çļĦ èº«ä½ĵ
è½¦ éĺŁ
äºĨ ä»ĸçļĦ
è½® å»ĵ
å¾Īé«ĺ åħ´
çĥĺå¹² æľº
ä¼ł æķĻ
ä¾¦ å¯Ł
ä¹Ł æĺ¯ä¸Ģç§į
è´¹ å°Ķ
è´Ŀ åħĭ
æł¸ çĶµ
å°± æĬĬ
ç¦ģ å¿Į
çŃĽ æŁ¥
ç»ĵåĲĪ èµ·æĿ¥
åıĳå¸ĥ ä¼ļä¸Ĭ
æŀĦæĪĲ çļĦ
å¤ĸ åįĸ
ä½Ĩ åĽł
éħį è§Ĵ
åķĨ æľº
ä¹ĭ çĶ¨
é©¬ éŀį
åŁº äºļ
è§Ħæ¨¡ æľĢå¤§çļĦ
åĳ¼ åı«
âĢĿãĢĤ âĢľ
æķ°æİ§ æľºåºĬ
ä¸» å¹²
è¡¨ çļ®
åºĹ çļĦ
çļĦ å¯¹è±¡
ä¸Ń ç©º
åįģäºĶ æĿ¡
é«ĺ åĩº
ç§ĳ æķĻ
èĬĤ åģĩæĹ¥
åĽ¢éĺŁ çļĦ
ç»ıæµİ åĴĮ
åľ¨ å»º
åį°åº¦ å°¼è¥¿äºļ
åħħè¶³ çļĦ
çº¢ åĪ©
ä»İ ä¸į
AT A
ä¸ĵå®¶ åŃ¦èĢħ
æĲŃ ä¹ĺ
åĴĮ åĪĽæĸ°
é© ¹
ä¸ĩ å¹´
åĩł ä½į
å¥ĩ å¦Ļ
ä¹Į é¾Ļ
ä»¥ ä¿Ŀè¯ģ
éľĩ åĬ¨
å¤ļ éĩį
åįĹ æŀģ
æīĺ è¿Ĳ
S C
æĪĳä»¬ æľī
è¯Ĺ æĸĩ
M BA
åħ³ ç¨İ
çĽ®æłĩ çļĦ
æĴŃ æĺł
è¾ĥ å¤ļçļĦ
åŁºç¡Ģ çŁ¥è¯Ĩ
çĶµå½± çļĦ
~ ~
åįĩ æł¼
åĴĮ äº§åĵģ
æļĳ æľŁ
ä¸Ń éĵģ
éĻ Ĥ
ä»ĸ ä»¥
ä¸ĩ åı°
åĩºçīĪ çļĦ
å®¾ å®¢
æ¡¥ éķĩ
æĤī å°¼
âī ¤
æķ´ æľº
èīºæľ¯ è®¾è®¡
å·¥ä½ľçļĦ éĢļçŁ¥
åı¯ä»¥ åĪĨä¸º
é£İ çļĦ
E l
Ġ åħĥ
ç¢³ æİĴæĶ¾
æħķ å®¹
r ist
èĭ¥ æľī
a o
ä¸ī åħĥ
æķĻèĤ² åŁ¹è®Ń
éĥ¨åĪĨ åľ°åĮº
å°ı å°ı
éĽĨ èµĦ
ä½ł èĥ½
åħĪè¿Ľ æĬĢæľ¯
èĥ¡ æ¤Ĵ
å¹´ éī´
åĲ¯ èĴĻ
å¥½ è¿Ĳ
åľ¨ ç¬¬
æľº ç¥¨
åľ° åľ¨
æĹł å¿§
ĠL e
å·¥ æľŁ
al d
ĠA pp
æĺ¯ èĭ±åĽ½
ä¸¤ è¾¹
ä¼ĺ ç¾İçļĦ
åħ¶ä¸Ń åĨľä¸ļäººåı£
æĿł æĿĨ
çĬ¶æĢģ ä¸ĭ
éª ģ
å®ĥ åħ·æľī
èĴ¸ æ°Ķ
ä¸ºä»Ģä¹Ī è¦ģ
å¤§ åĨĽ
åı¯èĥ½ çļĦ
å¼Ĥ åľ°
ä½ĵç§¯ å°ı
åı¸ éķ¿
çĥ§ çĥ¤
çĽ¸åħ³ è§Ħå®ļ
åĢ¼ ä¸º
çĽĳæİ§ ç³»ç»Ł
i i
åĪĻ æľī
åıĪ è¦ģ
ç¬¬ä¸ī ä¸ª
ä¼¯ æł¼
çļĦ åĳ³éģĵ
åĳ¼åĴĮ æµ©çī¹
è¿Ľ é£Ł
çº¢ èī²çļĦ
éĽĨä¸Ń äºİ
ä¿Ŀæ¸© æĿĲæĸĻ
èĸª èµĦ
åħ¥ ç¼ĸ
æĥħåĨµ çļĦ
å¼Ģ æľº
ç´¢ å¼ķ
æ°¸ ç»Ń
æĥł æ°ĳ
æĪ´ ç»´æĸ¯
ä¸»ç®¡ æľºåħ³
é¡¹çĽ® ä¸Ń
å¼Ĥ çļĦ
æĬļ åħ»
åĪĻ ä¼ļ
åº§ èĲ½
åĵ ®
åİħ éķ¿
A ut
çī¹ è´¨
èİ· çľģ
è·¯ ä¸İ
åıĤ ç¼ĸ
çŁŃ æĿ¿
å¹¶ æł¹æį®
éĽ¶ é£Ł
æľ¬ åĲį
çļĦ å½¢è±¡
æ°´ æ¸©
å£® çĥĪ
åľ¨ å®ŀéĻħ
ç«ĭ å¼ı
ç¡ ¼
è¾Ľ åĭ¤
çī§ å¸Ī
ä¹ĭ åŁİ
æĻ Ł
çĭ ©
c on
å¹´ åĬłåħ¥ä¸ŃåĽ½åħ±äº§åħļ
çİĭ èĢħ
åĪ¶éĢł æľīéĻĲåħ¬åı¸
æĸ° æĺŁ
éĹ® ä¸ĸ
æĭī åĬĽ
æľª æĪĲå¹´äºº
åĲĦè¡ĮåĲĦ ä¸ļ
ç¼ ®
å¾Ī å¼º
åĽĽ å¤Ħ
çĭ¬ è¡Į
ä¼° ç®Ĺ
å¹´ å¹´
èģĮä¸ļ éģĵå¾·
æľī å¤ļå°ĳ
ä¸Ĭ éĥ¨
è°ĥ åĪ¶
åľ° æłĩ
åıĹ ä½ĵ
åĲ¾ å°Ķ
R ob
åĨħ æł¸
ç¥ º
äº§ä¸ļ éĽĨç¾¤
èĿ Ļ
v e
åĩº äº§
åĪĨ æĺİ
é¢Ĩ åľ°
Ġ ä¸ľ
çļĦ ä»»ä½ķ
å¯¹ çĹĩ
å¾Ĺ å¤©
èĢ¶ åĴĮåįİ
èĳ¡èĲĦ ç³ĸ
æīĺ çĽĺ
ä¸ŃåĽ½ å®¶
çļĦäºĭ ä»¶
ä¸ĭ è¡Į
ä¸ŃåĽ½ ä¼ģä¸ļ
æĽ¾ æĭħä»»
éŃĶ åħ½
èº«å¿ĥ åģ¥åº·
ãĦ ¥
è½» å·¥
åįĩ æ¸©
æľīä¸Ģ çĤ¹
w ard
é¡º çķħ
æīĵçł´ äºĨ
æµ· äºĭ
é¹ ¦
éĢļè¿ĩ ISO
åŁºçĿ£ å¾Ĵ
æµģæ°´ çº¿
éĺ¿ æĸ¯
åĸ §
æķĻ å®Ĺ
æ²¹ çĤ¸
åĳ¨ åħŃ
è¿Ļé¦ĸ æŃĮ
ä½Ĩ ä»ĸä»¬
çİ¯ åį«
æĥĬ èī³
è¿Ļä¹Ī å¤ļ
å«Įçĸĳ äºº
æıĴ æ§½
æį Ĩ
åħ±äº§ ä¸»ä¹ī
æĪ¿å±ĭ ç§Łèµģ
æ· «
æ½ľ å¿ĥ
å®īä¸ľ å°¼
å¤Ħ å¥³
åįķ é¡¹
èĨľ çļĦ
å¤§è¿ŀ å¸Ĥ
éĤ® å¯Ħ
è¥¿éĹ¨ åŃĲ
åħ¬åı¸ äºİ
åıª åľ¨
åĽ° æĥĳ
ãĢĭ ;
çĶ» çļĦ
s oft
æ²³ è¥¿
ä¸ī å®¶
S I
æľī çĶ¨
è¾ĥ å°ıçļĦ
çĶŁçī© æĬĢæľ¯
å¤§ä¼ļ ä¸Ĭ
éĴĪå¯¹ æĢ§
èĮ ¸
ä½İ ä»·
èģĶèµĽ ä¸Ń
ç¬¬åħŃ å±Ĭ
çļĦ æĥ³æ³ķ
ç¾ ¹
å°± å¥½
æĬ¥ åĪ°
éĢļ åĳĬ
ä½ľåĵģ ä¸Ń
æĢ» å·¥ç¨ĭå¸Ī
èĿĻ èĿł
éĿŀ éģĹ
åıĤåĬł è¿ĩ
åĩº å¤Ħ
åħ·æľī éĩįè¦ģ
èµĦæºĲ åĴĮ
æ¤į æłª
å±± åı£
ç½ĳ åį¡
éĩįçĤ¹ æĸĩçī©ä¿ĿæĬ¤åįķä½į
ä½¿çĶ¨å¯¿åĳ½ éķ¿
å±± èį¯
è§ĦåĪĴ æķĻæĿĲ
çļĦ å®ŀéĻħ
çŃī è¯¾ç¨ĭ
åīį æĸ¹
è¡¨ æī¬
ĠC ol
åħĪè¿Ľ æ°´å¹³
ä¸Ń åŃ¦çĶŁ
ä¸ŃåĽ½ åĽ½å®¶
å¥Ķ é©°
D O
éĴĪå¯¹ æĢ§çļĦ
é»Ħ çīĮ
æ»¡ æ´²
ä¸İ å¤§
åŃ¦éĻ¢ æķĻæİĪ
èĴ¸ é¦ı
åĲİ åĽł
æĸĩ åĪĽ
æ¯Ķè¾ĥ å¤ļ
èĢ ĺ
éĵ¶å±ĳçĹħ çļĦ
ä¸įè®º æĺ¯
e am
å°± åı¯
éĢı æ°Ķ
åĲį åŃ¦çĶŁ
éĺ² çĽĹ
E B
ä¸į éļ¾
ä¸ŃåĽ½ æķĻèĤ²
äººæ°ĳ çļĦ
çļĦæĮĩå¯¼ ä¸ĭ
çľ¼ ä¸Ń
é¤Ĳ æ¡Į
è®¾ç½® äºĨ
ä½¿ èĢħ
æľĢé«ĺ äººæ°ĳæ³ķéĻ¢
çĥ§ ç»ĵ
ä¸Ĭ çĻ¾
åĪ¶å®ļ çļĦ
ä¹ĭ ç±»çļĦ
æīĢ å¸¦æĿ¥çļĦ
æµ· æ¹¾
G PS
å¤ı æĹ¥
æľĢè¿ĳ çļĦ
æĶ¹ çīĪ
å®½ æĿ¾
æĸ° åĵģç§į
èĢģ é¾Ħ
åī§ çĽ®
at or
çĽ Ķ
æ¯ı èĤ¡
å¨ģå°Ķ å£«
æľĭåıĭ åľĪ
åľ¨ å°ı
éĩĳ çļĦ
é£İ æľºçļĦ
çłĶç©¶ é¢ĨåŁŁ
åĨĽ åĮ»
æŁĶ åĴĮ
And roid
ä¾ Ħ
äº¤éĢļ äºĭæķħ
æĸ¯æĭī å¤«
ç¬¬åįģ ä¸ĥ
çļĦ å¤´
éĩĳ çīĽ
å¤ª å¤ļçļĦ
æ¯Ķè¾ĥ é«ĺ
çĽ´æİ¥ å½±åĵį
æĹ§ éĩĳå±±
çŁ¥ åºľ
åħį è´£
é¸¡ èĤī
ä¹ĭ éĥ½
é¢Ĩ è·ĳ
ä¸īè§Ĵ æ´²
éŁŃ èıľ
å¯¹ æĪĺ
å¹³ æ»ĳ
ä¹ĭ å¤§
é¦ĸ é¡µ
ç»´ åĲ¾å°Ķ
å¥ĸ çīĮ
å¢ŀ çĶŁ
ä¸į è§ī
ç²¾ç¥ŀ çļĦ
è½¦ åºĬ
æľŁéĹ´ çļĦ
æ³¨åĨĮ çļĦ
åĴĮ æĸ¹æ³ķ
åĮĹ æĸĹ
åıĳå±ķæĶ¹éĿ© å§Ķ
å¿ĥ åĬ¨
çĤ¹ çĩĥ
åħĭ é²ģ
å°ıæĹ¶ çļĦ
ä¸ĵ äºº
æĥħ ä¾£
D DR
è¿Ī è¿Ľ
ä¸º çĶ¨æĪ·
ç»Ļ åŃ©åŃĲ
è¿Ļä¸ª ä¸ĸçķĮ
ä¸īè§Ĵ å½¢
å±ķ ä½į
è±ª éĹ¨
åĽŃæŀĹ ç»¿åĮĸ
S UV
å®¶ è£ħ
æľĪ èĩ³ä»Ĭ
åħ± é¸£
é«ĺ ç®¡
ç§¦ çļĩ
ä¸ªæľĪ çļĦ
éķĩ æ±Ł
è½½ èį·
ĠãĦ į
è½¬åıĺ ä¸º
çĶŁäº§ æĢ»åĢ¼
åľ¨ åı°æ¹¾
éī´ èµı
éķ¿ èĢħ
ä¸¥ åİī
æ¶² æĢģ
it ed
å¹³ æ°ĳ
åıĪ ä¸į
å®ŀ çĶ¨çļĦ
èį¯ æĿĲ
Ġ âĢĶ
éĢī ä¸Ń
E A
æĺ¯ æĹł
é£Łåĵģ èį¯åĵģ
éĺ² æ½®
çĶµè§Ĩ èĬĤçĽ®
ot t
åĢ¾ åĲ¬
æĭĽæłĩ æĸĩä»¶
éĥĬ åĮº
ç«ĭ çļĦ
åıĳçİ° èĩªå·±
== ==
ä¸Ńå¤® ç©ºè°ĥ
è¯¦ å°½
ou d
ä¸¥éĩį å½±åĵį
æľĪ åħ¥åħļ
è¿Ľ é©»
æĽ´ å¼º
å®Ŀ é¸¡
äº¤éĢļ åįģåĪĨ
ä½ł å¥½
ä½Ĩä¸į éĻĲäºİ
æį® ä»ĭç»į
è¯· åľ¨
çº¢ æ¥¼
æłª æ´²
æ³ķ åĴĮ
èĮĥåĽ´ çļĦ
èİ± æĸ¯
æĭ £
äºļ è¿Ĳä¼ļ
å¼ł åĬĽ
åį´ ä¸į
åĮħ å¤´
éĽĦ åİļçļĦ
å·² è¾¾
äº¿ æ¬§åħĥ
T F
å¤§ åºĨ
è¿Ļ ä»¶
åİŁ ä½ľèĢħ
çĥŁ èĬ±
æĮ« æĬĺ
è¿İ æĪĺ
os e
ç§ĳæĬĢ çļĦ
éģ¿åħį äºĨ
çºªå¿µ ç¢ĳ
å¤© é¹ħ
é© ´
æĺ¯ éĿŀ
å·ŀ åºľ
é¢Ħ éĢī
æĹħæ¸¸ æĻ¯åĮº
ä¹Ł ä¸įè¦ģ
åĮ»æĬ¤ äººåĳĺ
çİĭ çļĦ
åľ¨ éĤ£
ä¸İ æĹ¶
èĢĮ å¯¹äºİ
å¹¶ çĶ¨
èĦ Ĳ
ä¹¦æ³ķ ä½ľåĵģ
èĲ½ çļĦ
ç®¡çĲĨ æ¨¡å¼ı
åıį åĵį
æĤ² åī§
ä¸ļ èĢħ
å®ı ä¼Ł
æĸĩ äºº
ä¸Ģ å¹ħ
æĥł æĻ®
ä¼ĺå¼Ĥ çļĦ
ä¸ī çĽ¸
æĭī åĬ¨
çŃ¹ åĪĴ
P l
ä¸į æģ¯
èµĦæł¼ çļĦ
ä½ı å»º
å¾® è§Ĥ
åŃķ èĤ²
å¾Īå¤§ ç¨ĭåº¦ä¸Ĭ
åįĥä¸ĩ ä¸įè¦ģ
æŀģ é«ĺ
åıĬåħ¶ å®ĥ
ä¸» äºĭ
ç§ĳçłĶ éĻ¢æīĢ
æ²ī é»ĺ
Ġp ro
çļĦ çī¹æ®Ĭ
æµ· çĽĹ
æĥħ å¢ĥ
èĻ« å®³
ä¼ļ å¼ķèµ·
å¿ħ å°Ĩ
åĺī ä¹ī
å°¸ ä½ĵ
çļĦä¸Ģ ä½į
å·® çļĦ
æķı æį·
æĶ¿ å·¥
å¦Ĥä»Ĭ çļĦ
æµģéĩı è®¡
èĢĮ å¯¼èĩ´
çĺ Ģ
é»Ħ åŁĶ
it t
è´¢ æĬ¥
é¢Ŀ å¤ĸçļĦ
å¸¸ä½ı äººåı£
å¹´ ç»ı
çļĦ å®ŀæĸ½
è¿Ļ å¼ł
èĦ¾ æ°Ķ
å¼Ģ æĴŃ
äºĨä¸Ģ æ¬¡
æĸĳ çĤ¹
æ¯Ķ çİĩ
ä¸ĵéĹ¨ çļĦ
ul l
é»Ħ çŁ³
ĠE d
æĶ¯ è¡Į
å°Ĩ çĶ±
åİ¦éĹ¨ å¸Ĥ
ä¼ģä¸ļ æıĲä¾Ľ
èĤº çĻĮ
å±ŀäºİ èĩªå·±çļĦ
å¥Ĺ è£ħ
ä¸Ń çĶ²
D B
æĹ¥ æľĪ
ç¹ģ å¿Ļ
ä¸ī åįģå¹´
åħ³ æĿĳ
æµģ ç»ı
ä¸ĸ äºº
äº² çĪ±çļĦ
åĮ ¾
èĭı å®ģ
æµģ çļĦ
å·¥ç¨ĭ è´¨éĩı
ä¸Ĭä¸ĭ æ¸¸
ä¸ĸçķĮä¸Ĭ æľĢ
âĢ į
æİ¨ è¿Ł
ãĤ Ń
è´´ å¿ĥ
ï¼Ľ âĢľ
å·¥ä¿¡ éĥ¨
æ¤įçī© çļĦ
åħ¨ ä¹¡
ä¼ł è®°
éĴ» äºķ
å¹´ ç§ĭ
åºŁ æŃ¢
ä»İ åīį
åİ¿ å¸Ĥ
æĶ¾ ç¼ĵ
æĵįä½ľ ç®Ģåįķ
çļĦæĹ¶éĹ´ åĨħ
æīİ æł¹
ä¸ºä¸»é¢ĺ çļĦ
æľī ä¸įåĲĮçļĦ
åĵĪ çĻ»
åĴ½ åĸī
é¡¶ ç«¯
çĨŁæĤī çļĦ
ä¹Ł å¯¹
ä¿® è¡¥
æĿĲæĸĻ åĴĮ
æļ´ éĽ¨
Ġ çĶ±
åı¯ä»¥ è¾¾åĪ°
äººåĿĩ èĢķåľ°
ä¹Ł ç§°ä¸º
èĥľ åĩº
åįģåħŃ æĿ¡
å¸Ĥ éĿ¢ä¸Ĭ
å®ļ äºİ
å±ħä½ı åľ¨
çļĦ è¶ħ
ä¸» çº¿
èĿ ĩ
éĻ· éĺ±
æ±ī ä»£
çĶµåŃĲ æľīéĻĲåħ¬åı¸
èģĶç³» çĶµè¯Ŀ
åħ¬ è¯ģ
æĺ¯ è¢«
æĽ´ è¦ģ
è§ģ è¿ĩ
å·¥åķĨ è¡ĮæĶ¿
a el
Ġ ï¼ļ
çł ¸
ç²¾ èī¯
ãĦ £
æ¸ħæ´ģ èĥ½æºĲ
åĽŀ è·¯
è´¢ ç¨İ
D æīĵåį°
ç«ĭ å¿Ĺ
è§Ĩ åĲ¬
a ir
å¤ļ ä½Ļ
åĴĮ å»ºè®®
çŃī ä¼Ĺå¤ļ
å®Ŀ è´µçļĦ
æľ¬ æ¡Ī
çĶŁåĳ½ ç§ĳåŃ¦
ç»¼åĲĪ æ²»çĲĨ
åĪºæ¿Ģ æĢ§
å¹ķ åĲİ
åĸ Ļ
Ġ re
åĴĮ åĪĨæŀĲ
è°ĥ éĢŁ
å®Į å¥½
å¢ŀéķ¿ çİĩ
èĭ ŀ
çĻ½ éĵ¶
æ±¤ å§Ĩ
èī° è¾Ľ
åį«çĶŁ éĹ´
åı· åıĬ
ãĤ Į
çŃī è¿Ľè¡Į
å±ķ é¦Ĩ
å¾Ĺ çļĦ
æľª å¿ħ
åīĤ åĴĮ
ä¹ĭ é¦ĸ
æīĵ åį¡
çŁŃ çīĩ
å¥ĭ åĬĽ
éĴ± å¸ģ
ä»» å¤©åłĤ
å¼Ĥ åĳ³
åı¯ä»¥ ä¸º
åı£ è¢ĭ
çģ« çĤ¬
éª¨ å¤´
é¢ľ åĢ¼
éĴ ³
å¹´ æŃ£å¼ı
r ic
ä¾Ľ å¥ī
æĹ¥ è¶ĭ
åª ³
çĦ¶åĲİ åľ¨
èµŀ åĲĮ
æľ¬ç§ĳ æ¯ķä¸ļ
NG C
çļĦ æ¯įäº²
éĻµ åĽŃ
æ£ķ èī²
in o
åįģ ä¸īå¹´
ç»´ æĭī
å¯Į è´µ
åı¬ åĶ¤
å¤§ å±Ģ
åĪ¶åĵģ æľīéĻĲåħ¬åı¸
æłĩ ç¤º
æĪĳä»¬ æīĢ
ç®¡çĲĨ å¤Ħ
èĲ½ åı¶
åĬŀåħ¬å®¤ åī¯ä¸»ä»»
ot h
è¾¨ åĪ«
åĪ° å¤§
ç¡ Ĵ
å¦ĩ èģĶ
åĴĮ ä¸ĵä¸ļ
è¾¾ äºº
å£° åĻ¨
åŃĻ åŃĲ
çº½ å¸¦
ä¸º åħĪ
åįı åĬĽ
ç»Ŀ ä½³
ç¥Ī ç¥·
æĹ¥ æ¶Īæģ¯
éĩĳ éĻµ
å¤ªæŀģ æĭ³
æľĢ éĢĤåĲĪ
ç»´ åħĭ
å®ŀè·µ ç»ıéªĮ
åıĤ åĨĽ
äº¤æĺĵ å¹³åı°
äº® çļĦ
å£ ¬
et er
åĶ ĳ
å®ŀè·µ æ´»åĬ¨
éģ¥ æĦŁ
æĢ» åĨłåĨĽ
èĩ´ çĹħ
åŃĺåľ¨ çļĦéĹ®é¢ĺ
âĢ Ĥ
ç¾İåĽ½ äºº
çŀ Ĵ
ä¾¿ æ°ĳ
èįĶ æŀĿ
çĪ¶ åŃĲ
ç§ĳ çº§
çļĦå·¥ä½ľ äººåĳĺ
å·¥ åĨµ
å¤ĸ æĺŁ
é£İ åĲ¹
æł¼ åĭĴ
æľ¬ æĬ¥
æīĢä»¥ æĪĳä»¬
çļĦ åĪĨ
æķĻèĤ² å®¶
ä¸»è¦ģ ç»ıèĲ¥
ä»ĭ äºİ
æĲ¬ å®¶
è°Ī åıĬ
æĵ ¢
çº¢ æľ¨
æĹ¶ éķ¿
æµ· è¿Ĳ
çķĮ éĻĲ
æĥ³ ä¸įåĪ°
ä¸ľ èĩ³
å²ģ ä»¥ä¸Ĭ
æĿ¨ å®¶
æ² ½
åĽĽ ä½į
åħµ åĻ¨
éĺ´ å½±
ç¡® åĪĩ
å¨ ´
ç§ĳæĬĢè¿ĽæŃ¥ ä¸īçŃīå¥ĸ
çļĦ åĲįç§°
åĽŀ é¦Ī
æİ¢ å¯»
åĪ¤ å®ļ
ĠUn iversity
åįģäºĮ äºĶ
èĭıåĮºçļĦ åıį
çļĦ çĬ¶åĨµ
åī¯ çłĶç©¶åĳĺ
ä¼ĺè´¨ æľįåĬ¡
Ġ ä½įäºİ
Ġ æŀĹ
ç¼ ķ
è½¦ ç¥¸
ç´ł çļĦ
åĪĩ åħ¥
å·¥ç¨ĭ éĻ¢
æħİ éĩį
å¼Ģ æ°´
æĿĤå¿Ĺ ç¤¾
åĽ½ å°ı
ĠE n
ä¹ ĸ
è¯ Ľ
åĴĮ ç»´æĬ¤
åĳ¨ è½¬
G W
åĬłå·¥ åİĤ
åħĭç½Ĺ åľ°äºļ
åºŁ éĻ¤
åĽºå®ļ çļĦ
åľ° ä¸º
å» ¿
å±ĭ éĿ¢
å¤§ ä¸Ń
æĦı å¢ĥ
æ²³ éķĩ
éķ °
èĩª å®¶
åħĥ å¸ħ
en e
av id
å¥¥ è¿ª
ä¸įæĺ¯ å¾Ī
åĪĽ åĪĬ
çģŃ èıĮ
éĻĦ çĿĢ
çĽĲ éħ¸
æĹł ç§ģ
éĢī åĿĢ
æľĪåĩºçĶŁ äºİ
åĬł è½½
æ±Ł æĪ·
è¿ĳ è·Ŀç¦»
å¦Ĥä½ķ åľ¨
çļĦ ä¸¤ä¸ª
æĺ ķ
å¦Ĥ æľŁ
éĺ³ åĮº
éĵ¶ æĿı
æĽ² æĬĺ
è¡° ç«Ń
å¤© åĨħ
åĳ¨ åĪ°
åį¡ çī¹
ãĤ Ĥ
ç¡¬ è´¨
çłĶåıĳ çļĦ
æĺİ æľĪ
åĪĨæŀĲ äºĨ
ç¼Ķ éĢł
æ³¨ éĩĬ
æİĴ çĲĥ
éĥ¨ åī¯éĥ¨éķ¿
ä»ĸä»¬ å¯¹
éħĴ ä¸ļ
åĽ½åĨħ çļĦ
ç»ıèĲ¥ çĲĨå¿µ
éĴ± åĮħ
log o
åŁİ äºº
ä¸Ńå¤® åħļæł¡
å®ŀçĶ¨ æĢ§
V A
è®¾ æĥ³
èĢĮ å®ļ
æĹ¥ åħī
çłĶ ä¿®
æĸ½å·¥ çİ°åľº
åľ¨ è¥¿
åĬ© åŃ¦
Ġ ä»ĸ
Ġ åĳ¨
ãĢĤ ãĢĤ
åĲĮ æ²»
ä¸Ģä¸ª å°ı
Ġ èĢĮ
èĬ± å¼Ģ
è¿Ħä»Ĭ ä¸ºæŃ¢
I BM
ä¸Ģ è§Ĵ
åĬŁ å¾·
æ·± æĦŁ
å±ħ äºİ
åĽŀ åĪ°äºĨ
çĲ¼ æĸ¯
Ġ ç¾İåĽ½
ãĢĤ âĢĻ
éĵ¶ å·Ŀ
åıĳå±ķ ä¸º
æī§ æĶ¿
éĩį éĩį
æıĴ ä»¶
å ¶
ä¸»è¦ģ è´Łè´£
åįıä¼ļ çĲĨäºĭ
å±ı éļľ
> \
èį¯ å¸Ī
è¯¯ è§£
åħ¥ çĲĥ
æłĩåĩĨ åĴĮ
åįłæľī çİĩ
æł ©
æĮ ¨
åĵģ å¾·
åĥ ļ
åĲĳ å¤ĸ
è¿Ī åħĭå°Ķ
ä¸ī ä»£
Ġ å½ĵ
Ġ Â°
äº² è¿ĳ
çĻ½çĻľé£İ æĺ¯ä¸Ģç§į
æ¯Ķè¾ĥ å¤§
å¸®åĬ© ä¼ģä¸ļ
çıį èĹı
æ³¨ å®ļ
åĨĻ åĩº
ç»Ŀ å¤§éĥ¨åĪĨ
éĽķ åĥı
ä¸Ń éĿĴå¹´
åı¯ä»¥ å®ŀçİ°
æĸĩ æĺĮ
è¯¸ ä¾¯
å¿į èĢħ
ä¸İ ä¼łç»Ł
æŀĹä¸ļ å±Ģ
æİ º
æĭĽ çīĮ
å¤§ä½¿ é¦Ĩ
ç«ĭ æŁ±
åĬłå¯Ĩ è´§å¸ģ
èİ ½
ap h
æľīåħ³ äºĭé¡¹
é¹ Ń
çĶŁäº§åĴĮ éĶĢåĶ®
åľ ĥ
âĢĿ ï¼ļ
çľ º
å¹¶ ä¸įä¼ļ
èº« ä¸ĬçļĦ
ãĥ ķ
æ¯« åįĩ
ä¸ľ å±±
ãĤ ª
åľ¨ å½ĵåľ°
åħ¨ ç¾İ
ç¥Ŀ æĦ¿
çļĦ èĲ¥åħ»
æĪ Į
æĺ¯ éľĢè¦ģ
æĹ¶ èĬĤ
éħį åģ¶
æłĩ åħµ
æ® ¡
çķľçī§ ä¸ļ
! âĢĿ
- )
ä¸ĵ ç²¾
çĻ½ çļĦ
çīĩ æľº
å¦ĩ å¹¼
åļ ¼
ä¸į å±ŀäºİ
èĦļ è¸ı
T ro
åĭ Ĳ
ä¾¿ åı¯
æ¥¼ çĽĺ
åĬ¨çī© åĽŃ
H A
æıĲä¾Ľ æľįåĬ¡
æĸ° æ¨¡å¼ı
èµĽ ç¨ĭ
e an
æ¸ħ æ¾Ī
åĽ½ æłĩ
ç¡¬ ç¬Ķ
ä¼ļ åľº
æ¬¢ åĸľ
éª¨ ç§ĳ
ç¡ħ è°·
åĵ ĩ
çļĦ é©¬
è¾ĥ çŁŃ
è¯Ńè¨Ģ æĸĩåŃ¦
ç»´ æĿĥ
è¿ŀ äºĳ
ä¸ĢçĽ´ èĩ´åĬĽäºİ
ä¸įä»ħ è¦ģ
åıį ä¹ĭ
ĠC o
] ï¼Į
ä¸´åºĬ åĮ»åŃ¦
å¹´ çīĪ
å£° ä¹Ĳ
ç¢° åĪ°
å°Ĩ è¾¾åĪ°
ç®¡çĲĨ å±Ĥ
åĳ½ åĲįçļĦ
çĲĥ å¢¨
Ñ ĥ
çľģ åĴĮ
æ®ĭ éħ·
æĲľ å¯»
çļĦ å¿ĥçĲĨ
è¾ ľ
è¯¥ åºĦ
æ¡£ æ¬¡
åħį ç¨İ
åįģä¸ĥ æĿ¡
ç§ĳåŃ¦ä¸İ æĬĢæľ¯
ä»· éĴ±
æļ ĩ
çļĦ ä»ĸ
åŃ¦éĻ¢ éĻ¢éķ¿
åŃ¦æł¡ çİ°æľī
çĺ Ł
åĴĮ ä½ł
çļĨ ä¸º
âĢĭ âĢĭ
å¤ĦçĲĨ è®¾å¤ĩ
åīª åĪĩ
éĶĲ æĦı
O L
ä¸Ģ æł¹
åįģ äºĶå¹´
çľ¼ æ³ª
çİ¯å¢ĥ åį«çĶŁ
å¹¸ç¦ı çļĦ
åĽĽ éĿ¢
çĶŁäº§ æĬĢæľ¯
ä¸ŃåĮ»èį¯ å¤§åŃ¦
å¤§ åĶĲ
é«ĺ å°ļ
ä¸ĭ ä»¤
é¦ĸ é¥°
å³° åĢ¼
è¦ģ å¤ļ
åıªæľī ä¸Ģä¸ª
éĢī åħ¥
åĮĹ èĩ³
å·¥ä¸ļ è®¾è®¡
æ´ĭ èĳ±
çĶµ èį·
çº¢ åįģåŃĹ
å¼± åĬ¿
å¹´ æĪĲä¸º
æĸ° èµĽåŃ£
ä¿Ŀåģ¥ åĵģ
è¿ŀéĶģ éħĴåºĹ
å¸Ń ä½į
é£ŀè¡Į åĳĺ
è¿Ļ çĤ¹
æĸ° åıĳå±ķ
ç»ĵ å°¾
åĿĩ åľ¨
è¿ĺæĺ¯ åľ¨
æ·± æĢĿ
éĩįå¤§ é¡¹çĽ®
è¿½ éĢĲ
æĬĽ å¼ĥ
å¹³ åĴĮ
åĢŁ è´·
åĩº èµĽ
å® ¦
æĹ¥ èĢ³
æ²¡ æĶ¶
ä¹ĭ çĪ¶
å¼Ģ åĽ½
æŀĹ æľ¨
an y
ä½ľä¸º ä¸ŃåĽ½
è¿Ļç§į çĸ¾çĹħ
æ¸ħçľŁ å¯º
å¦Ĥ æĿ¥
å¢ŀ éĩı
æ»¥ çĶ¨
éĽĨä½ĵ ç»ıæµİ
æļĤè¡Į åĬŀæ³ķ
æĶ¶çĽĬ çİĩ
å·ŀ ç«ĭ
ç¬¬åįģ åħ«
j ect
å¹´ èĢĥåħ¥
è¯¥ é¡¹
è¯¦ç»Ĩ ä»ĭç»į
æ°Ķ ä½ĵçļĦ
åıĸ åĲį
æį ¡
åı° å¸ģ
ï¼Į ãĢĮ
æĹ¥ åħĥ
èĦļ æľ¬
äºĨ å¤§éĩı
å¤± åĪ©
æł¡åĽŃ æĸĩåĮĸ
æ· Ĩ
åĲĳ è¥¿
è¡Įä¸ļ çļĦåıĳå±ķ
ä¸¤ ç±»
åĩĨ åħ¥
çłĶç©¶çĶŁ éĻ¢
èĲĥ åıĸ
ä»¥ è¾¾åĪ°
ä¸ĵ ä»»æķĻå¸Ī
å®ŀ æķĪ
é³ŀ å±ĳ
åĩ¯å°Ķçī¹ äºº
æĺ¯ ä¸Ń
å¸Ī å¾·
çļĦä¸Ģ èĪ¬
ä¸Ģ äºĮ
ä¼ł ä¸Ń
ä½Ĩ å¯¹
æĺ¾èĳĹ çļĦ
å¤§ èĴľ
ie w
Ġ èĢħ
æīĭ ä¸Ĭ
çĶŁåĳ½ åĳ¨æľŁ
éĴ ¨
ä¿Ŀ ç¨İ
ä¾¿ ç§ĺ
æ³Ĭ å°Ķ
çī¹ åĭĴ
éļĲ å½¢
Ãł o
ä¾¦ æŁ¥
å®ī åº·
è£ħ æ½¢
çĽĳ å±Ģ
ĠA I
æ´ª æŃ¦
ä¸ĭ éĥ¨
çļĦ èĢĥçĶŁ
å¼Ģ ç«¯
Q u
æ°´ åĬ¡
èĬĴ æŀľ
è¿ĩ å¹´
ä½Ĩ å¯¹äºİ
åıª æĺ¯ä¸Ģä¸ª
æĿ¡ çĽ®
å¤į è®®
æ¥¼ é«ĺ
åįķ èº«
å¾Ģå¾Ģ æĺ¯
è°ĥ ä»»
å´ĩ ç¥¯
èĵ¬åĭĥ åıĳå±ķ
çİ°ä»£ åĨľä¸ļ
çłĶç©¶ è¡¨æĺİ
åħ·æľī è¾ĥå¼ºçļĦ
åĮĹ ä¸Ĭ
ä¼¤ åĬ¿
ç° ĩ
éĻ ĭ
æŀĹ åľº
ä»ĸä»¬ ä¼ļ
æĸĩåĮĸ äº§ä¸ļ
æĻº åºĵ
P L
åįĥ åħĭ
åı³ èĦļ
èģĮ æĿĥ
è¯Ħ è®®
çĶ° æĿĳ
æĹ¥ ä¸¾è¡Į
å¹´ ä»ĸ
C on
å¤ļ ä¼¦å¤ļ
æ¸¸æ³³ æ±ł
ç©º å¿ĥ
æľ¬æ¬¡ æ´»åĬ¨
ä¸į æ¸ħæ¥ļ
è· »
ä¸İ è®¾è®¡
å¹¶ åĪĹ
åĨľæ°ĳæĶ¶åħ¥ ä¸»è¦ģä»¥
å¤§ çİĭ
çĤ¹ ç¼Ģ
çº¿ åĴĮ
æĢĿ è®®
æĸ½å·¥ åįķä½į
åĲĦèĩª çļĦ
åħļå»º å·¥ä½ľ
o ad
é¢Ĩ éĺŁ
éĹ®é¢ĺ æĺ¯
èµŀ èµı
n et
æĸ¹åĲĳ çļĦ
è¯» åıĸ
IP O
èħĲ è´¥
åģ¿ è¿ĺ
ä¸Ģ è¯´
åĽ¢ çļĦ
ç»Ħ åĪĨ
ãĤ ³
èĩªåĬ¨ æİ§åĪ¶
çĵ· åĻ¨
ä¸į åºĶè¯¥
æĬĢæľ¯ æĶ¯æĮģ
é¦ĸ é¢Ĩ
er e
æĥħåĨµ è¿Ľè¡Į
çĲ ¢
ä½ľ å¥½
æ² ®
è¦ģ åģļ
çĶµ çĥŃ
ç§¯åĪĨ æ¦ľ
ä¸Ń åĮº
æľ¬ æĿ¡ä¾ĭ
èĸ °
åĲİ ä¸ĸ
è½® æľº
ä¼ļ æĺ¯
ç¤¾ä¼ļ ç»Ħç»ĩ
ç¥ŀç»ı ç³»ç»Ł
ä¸į å½±åĵį
ç»ĵ çŁ³
éĢĥ ç¦»
éķĩ ä½įäºİ
åĿļ ç¡¬
çīĪæľ¬ çļĦ
çī© ä»¶
åħĭ èĲ¨æĸ¯
ç¬¬ä¸Ģ ä»£
ĠI I
åĴĮ è´¨éĩı
ç§į çļĦ
å®ĥ ä¸İ
æĮ¥ åıĳ
Ġ æĹ¥æľ¬
åħļ åĴĮ
æľī èĢķåľ°
åľ° åŁº
åľ° è¿Ľè¡Į
çĶŁ çĹħ
èĥ¶ å¸¦
çĸĳ ä¼¼
æīģ å¹³
ä¸Ģ èĤ¡
ä¸ľ èĲ¥
å´© æºĥ
ä¸į è§ĦåĪĻ
çŃī å½¢å¼ı
æĪ· åŀĭ
æĬµ å¾¡
å°±åı¯ä»¥ äºĨ
è·¯ åĨĽ
æĶ¾ æĺł
ä¸į è¿ľ
at ch
ĠC PU
èĤ ĺ
ä½ł æĥ³
è¿Ļ è¾¹
æľįåĬ¡ ä½ĵç³»
é¢Ħ åĶ®
æ»¡æĦı çļĦ
åħ¬ ç«ł
çļĦ å½¢æĪĲ
çĶŁäº§ æķĪçİĩ
èĭ± çī¹å°Ķ
ç» ®
at GPT
èĦ± åıĳ
è¯± æĥĳ
O pen
å¤ļ å±Ĥæ¬¡
ç¼ĵ åŃĺ
ç² ½
æľºæŀĦ æĶ¹éĿ©
æĶ¶ æĶ¯
æľª æľī
èĬĤçĽ® ä¸Ń
æ¨± æ¡ĥ
å¤ªåİŁ å¸Ĥ
æĹł ä¸Ģ
æŀĦ æĢĿ
æ¥¼ å±Ĥ
ä¼ł çķ¥
æ¬¾ é¡¹
å·²ç»ı å¼Ģå§ĭ
åı¬ éĽĨ
ä¸º ä»ĸä»¬
ãģ £
çļĦ è¶ĭåĬ¿
åıĬ æĹ©
åĪĴ åĪĨä¸º
åıĮ å±Ĥ
åıĳ ç»Ļ
éĢļ åħ³
èıľ ç³»
) .
ç®¡ å®¶
åĩº å®¶
çĻ ¸
æŀľ æ±ģ
ï¼ Ķ
ä¸º ä¸Ģä¸ª
éĹ «
çİ¯ å½¢
åı£ å¸Ĥ
æĸ°éĹ» åĩºçīĪ
ä¿Ŀæ¸© ç®¡
ç²¾ åŃĲ
åįĩ ä»»
çģ« çĥŃ
åĪĽä½ľ èĢħ
ç®¡çĲĨ çŃī
å¤´ ä¸Ĭ
åŃ¦ä¼ļ å¸¸åĬ¡çĲĨäºĭ
åıĳå±ķçļĦ éĩįè¦ģ
f orm
åħ¨ é¢Ŀ
ä»»ä½ķ ä¸Ģä¸ª
ç«ŀäºī ä¼ĺåĬ¿
æĳĦåĥı æľº
çīĮ åŃĲ
çļĦå¥½ å¤Ħ
B I
ä¸»ä¹ī çļĦ
ç§ ¸
åħī çĽĺ
èµĦæł¼ å®¡æŁ¥
æ±¡æ°´å¤ĦçĲĨ è®¾å¤ĩ
æ¸ħ æľ«
åī¯ æīĢéķ¿
äºĮåįģ ä¸ĸçºª
åĹ ħ
å°¾ å·´
å¼Ģ åħĥ
ä½İ è°ĥ
ä¸º éĤ»
æķĻ èģĮ
æľįåĬ¡ è´¨éĩı
ä½ĵèĤ² å±Ģ
ĠãĦ Ĭ
å¹²éĥ¨ èģĮå·¥
ç§¦çļĩ å²Ľ
æľ ½
è¯¥ åľ°åĮº
çľ¼ éĩĮ
éķ¶ åµĮ
l ine
N ew
æĢ ł
çıŃ çļĦ
å¼Ĺ åħ°
ä»¥åīį çļĦ
èĤ¢ ä½ĵ
è¯Ń çļĦ
å¸ĮæľĽ èĥ½å¤Ł
æĬĵ æīĭ
çĶŁ å§ľ
å½ĵ å¹´çļĦ
æĢ¥ è¯Ĭ
çļĦ åķĨåĵģ
çº¢ çļĦ
èµŀ æī¬
åĴĮ éĶĢåĶ®
åį° ç¬¬
çĳ Ļ
+ âĢĿ
åı Ń
ä½Ĩ ä»İ
åħī åº¦
æ¤į æłĳ
ĠãĦ Ķ
ä¼ļ é¦Ĩ
çľģ çļĦ
è¿ģ èĩ³
é³ Į
æ»´ æ»´
ç§ ĥ
åĳ½ä¸Ń çİĩ
è° ı
æĽ´ åĲį
å·´ èµ«
èķ´ åĲ«
æľī ä½Ļ
åı¯ æıĲä¾Ľ
èĬ± äºĨ
å¾Ĺ ä¸įåĪ°
åĪĽéĢł åĬĽ
æ·· æ·Ĩ
åıĹåĪ° å½±åĵį
æĺ ±
æ¨¡ æł·
Ã ¼
ä¸į æĦ¿æĦı
æİ¨åĬ¨ äºĨ
éĹ® åį·
æİ¨ åĲĳ
éĿŀå¸¸ éĢĤåĲĪ
æ¶Ĥ æĬ¹
è¿Ī åĲĳ
æĬĹ åĩ»
éŁ³ä¹Ĳ çļĦ
å²ģ ä»¥ä¸ĭ
å¤« æĸ¯åŁº
æĻ®æ´± èĮ¶
ç²¾ é«ĵ
æĤ¨ åľ¨
æĬĹ çĻĮ
åĪ¶éĢł ä¼ģä¸ļ
è®© æĽ´å¤ļ
åĮĸåŃ¦ çī©è´¨
äº¤ ç»ĩ
åħĭ éĽ·
ç§ĳçłĶ æľºæŀĦ
D F
y pe
ä¸Ģ éĺµ
ä¸ĵ æ¡Ī
ç» ·
åĽ¢ è´Ń
æĹ¢ èĥ½
åĽ¢ åĳĺ
ä¼¸ ç¼©
å¦Ĥ æĺ¯
å¸Ŀ çİĭ
åĴĮ æĪĳ
æķĻ ä¹¦
å°½ æĥħ
ç»Ļ ä»ĸä»¬
éľĢè¦ģ è¿Ľè¡Į
å¸ĮæľĽ éĢļè¿ĩ
Ġj i
å¾Ĺå¤© çĭ¬
% ï¼ī
éĤ ¸
æĺ¾ç¤º åĩº
æĹ¶ èĩ³
è¿Ļ å¥Ĺ
å±± åĿ¡
æīĭ æĦŁ
æĭī èĲ¨
åĨ·åį´ å¡Ķ
çĶ¨ åĬĽ
åĨį è§ģ
ç»¼åĲĪ ä½ĵ
èı ı
çĵ ¯
è½¯ ç®¡
èıľ èĤ´
ä¸»æ²» åĮ»å¸Ī
Ġ å®ī
å¹´ è¿Ľåħ¥
è¡Į éģĵ
ç»ıæµİ åŃ¦å®¶
åĽ½éĻħ æłĩåĩĨ
ç¤¼ æĭľ
æĢª åħ½
æ·ĭ æ¼ĵ
äººæ°ĳ æĹ¥æĬ¥
æľºæ¢° åĬłå·¥
é²ľ æĺİçļĦ
æİ¨å¹¿ åºĶçĶ¨
æį® ç»Łè®¡
æ£ º
é¢ĺ ä¸º
çĻ½çĻľé£İ æ²»çĸĹ
ä¼Ĭ æĭīåħĭ
ä¼ļ å°Ĩ
åĨĽ å·¥
åĬŁèĥ½ æĢ§
çĽ¸åħ³ ä¸ĵä¸ļ
ä¹Į æĸ¯
ä¸» åĶ±
è·Ŀ ä»Ĭ
é«ĺ åĪĨ
çĤ¸ å¼¹
é«ĺ æŀ¶
æĹı çļĦ
å¢ŀ åİĭ
çļ® è´¨
ä¸į é¡¾
åĩ Ħ
æľįåĬ¡ çŃī
æ±¡æ°´å¤ĦçĲĨ åİĤ
ä¸Ĭ ä¹Ł
æĬĬ ä»ĸ
åį´ åıĪ
åľŁå·¥ èĨľ
çļĦ è®¡åĪĴ
çļĦ è®¤è¯Ĩ
éĺ² éĿĻçĶµ
av e
æºĲ åľ°
åĲĮæ¯Ķ å¿«éĢŁå¢ŀéķ¿
æł¼ é²ģ
é¢Ħ è¨Ģ
çĤ Ļ
æ»¡è¶³ äºĨ
åĮĸ ä¸º
åĨ» ç»ĵ
åĪĻ ä»¥
ç²ĺ ç»ĵ
ä¸º å®ŀçİ°
P R
é£İ æ°´
ä¸Ģå¯¹ ä¸Ģ
åīį åįģ
ä»ĸä»¬ æĺ¯
æĢĿ ä¹ī
å£®çĥĪ çīºçī²
ä¸į ä¸º
å¼Ģ äºĳ
è´¢ ä¼ļ
ä¹ĥ æĺ¯
éĤĵ å°ıå¹³
çļĦ äºĶ
åĨį åĬł
of f
çļĦä¸Ģ çĤ¹
ç£ Ĳ
åĨ³ ç®Ĺ
M y
çļĦ çħ§çīĩ
è¿Ļ çīĩ
çľĭ ä¸įåĪ°
ç¤¾ä¼ļ åŃ¦
Ġ .
èĩª é©¾
çĽĽ å®´
çĶ¨ æ³ķ
å¿į åıĹ
æľī æľŁå¾ĴåĪĳ
åºĬ ä¸Ĭ
çº¤ç»´ ç´ł
ä»£è¡¨ äºĨ
åıĳè¨Ģ äºº
ä¸Ń å±±å¸Ĥ
ä»¥ æ±Ĥ
æŃ¤ åĪ»
èľ Ĺ
ä¸į å¿ħè¦ģçļĦ
æ±Ł å±±
æĸĩ æ¡Ī
åīį çº¿
çº¢ éħĴ
éĤª æģ¶
èīºæľ¯ çķĮ
åľ° å°Ĩ
æĸ¹å¼ı çļĦ
åĳ¨åĽ´ çļĦ
å¤ª è¿ĩ
çĶ» åĨĮ
èĪª è¡Į
æĽ´åĬł å¤ļ
çĶµçº¿ çĶµç¼Ĩ
èģ ĭ
è° Ľ
ä¸ī æľŁ
ä»£ åı·
å¤§çĲĨ çŁ³
å¤§ èĤł
äº¤ è°Ī
äº² äºº
æĪĳä»¬ æĺ¯
çīĮ çħ§
éĺ» å¡ŀ
éĥ½ å¿ħé¡»
Ġ e
ç¬¬ä¸Ģ çĻ¾
æĻ® æĥł
å¾Ĺ å¥½
éħ ī
å¥ĸ æľĢä½³
ç«ł èĬĤ
åīª è¾ĳ
æŀľ èĶ¬
çĲī çĴĥ
ä½ĵ åĨħçļĦ
ç±³ äºļ
çĥŃ åº¦
åĴ¸ ä¸°
å¹´ ä»ħ
å¹´ æĺ¯
ä»ĸ äººçļĦ
æ¡ ¨
éĺ¶ å±Ĥ
è¿Ļ ä¸İ
å·² ä¹ħ
éľ² èĲ¥
æĵ Ĵ
éĢģ ä¸Ĭ
æĸ° é£İ
åº¦åģĩ æĿĳ
ä¸įä»ħ èĥ½
æİĢ èµ·
ä¸Ń é£İ
ä¸½ æ±Ł
è¿ĩåİ» äºĨ
æģ° å½ĵ
æ³ķå®ļä»£è¡¨ äºº
ä¸ŃåĽ½ æĸĩåĮĸ
æ°Ķ è¡Ģ
æ¬º éªĹ
èĥ½ æīĭ
å°Ħ é¢ĳ
Ġ ãĢİ
ä¸º å¥ĳæľº
äºĨ èµ·æĿ¥
æĳ© å°Ķ
æĸ½ èĤ¥
èĢģ å¤§
åģľ æľº
æıŃ éľ²
åľ¨ æķĻåŃ¦
åŃ¦ åºľ
è¿Ļ åĿĹ
åĨį çĶ¨
å¨ģ æĸ¯
å¯¹ æľ¬
ç¼ĸ çºĤ
ãĤ ¨
åĬ¨çī© çļĦ
é»ĳèī²ç´ł ç»Ĩèĥŀ
æŁ¥ å°Ķæĸ¯
æ²¹ çļĦ
ä¸ºä¸» ä½ĵ
éľĩ æĥĬ
è® ³
æĶ¯ çº¿
æĭ¥æľī çļĦ
çĹĩ çļĦ
ĠS erv
åı¯ å®¹çº³
å¤§å¥ĸ èµĽ
æĹ¥èĢ³ æĽ¼
E I
å°ı æıĲçĲ´
ç¬¬äºĮ å¤§
éĢģ åĩº
åº¦åģĩ åĮº
æĹ¶ ä¸º
é«ĺ æķĪçİĩ
èī¾ æ»ĭ
æºĲ åİ¿
çļĦ çĲĨè§£
æĬ¥ ç¤¾
åį´ è¢«
æĸ¹ æŃ£
ä»¥ èµ´
æĹ¶ è¢«
è¿ĺ åħ·æľī
çŃĶ è¾©
ä½¿ ä»ĸ
çł´ æįŁ
çŁ¿äº§ èµĦæºĲ
çķ¸ å½¢
èµ· é£ŀ
æĶ¶ çĽĺ
çļĦ ä¼ĺç§Ģ
äº§åĵģ åľ¨
åĪ¤ å¤Ħ
e i
âĢ »
æĿ¥ è®¿
å®¤ çļĦ
æ¤į åħ¥
æĢ¥ åī§
äººä»¬ åľ¨
ç¨İåĬ¡ æĢ»å±Ģ
Ð ´
ï ¸
éļ ħ
è®¾å¤ĩ çŃī
è¡ĮåĬ¨ è®¡åĪĴ
ä»¥ èĩ³äºİ
ä¸ī æĿ¡
éĵ¶ å¥ĸ
æĺĨ å±±
æıĲ çĤ¼
æīĭ èĩĤ
ar i
é«ĺæĸ°æĬĢæľ¯ äº§ä¸ļ
çļĦ ç»ıåħ¸
çĶ± åĽ½å®¶
åħĭ åĬ³
çļĦ æľĢé«ĺ
éĩį çĶŁ
å±± è°·
æĺŁ ç©º
æ»¡ åĪĨ
ä¼ĺ èĥľ
w ay
ä¸į ä½ľ
æĬķ æīĭ
ç´§ åĽº
æīĢä»¥ æĪĳ
æŁ´æ²¹ æľº
æº º
ä¸ªæľĪ åĨħ
ä¸İ çłĶç©¶
è´£ä»» æĦŁ
çĲ ¶
ç½ ¹
åıĳçĶµ åİĤ
åĬł åĭĴ
åħĪ é©±
ä¸įåĨį æĺ¯
è¿Ľ æ°´
å°ĳ è§ģ
æ´» åĮĸ
è§Ĩ çº¿
æŃ¦ å£«
æ»ĳ åĬ¨
æŀģå¤§ åľ°
èģļ éħ¯
åĬĽ å£«
æĤ ¼
ä¾ ĥ
å¤© ä½ĵ
âĢĶâĢĶ ãĢĬ
å¥´ éļ¶
ç§ĳ åĳĺ
æ±Ł éĺ´
åĪ» çĶ»
è´« ç©·
æľº ç®±
èİ ħ
ãĦ ł
éĢĤåºĶ æĢ§
æĶ¶è§Ĩ çİĩ
åľ¨ åįĹ
çĬ¯ç½ª çļĦ
èĬ± éĴ±
æ¯ı å½ĵ
æĸĩ ç§ĳ
çĹħ æĪ¿
å¤© æ²³
æį® æĬ¥
èİ· åħ¨åĽ½
è¯Ŀ åī§
æĲŀ ç¬ĳ
èĲ ¼
ä¿Ŀ æ´ģ
éĩĳ æĺŁ
éĹŃ çİ¯
b ps
ä¸ª çľģ
è¯Ħ æłĩ
å¾Īå¤ļ æĹ¶åĢĻ
F F
åĴĮ åħ¶å®ĥ
å¸¸ æ¸©
ä¸ĵå®¶ ç»Ħ
ç§¯ç´¯äºĨ ä¸°å¯ĮçļĦ
æ½ ¼
çº¯ åĩĢ
ä¸ĵ éķ¿
æŃ¤ åľ°
åį° æŁĵ
as ter
å¹¶ å°Ĩåħ¶
ä¿Ŀ æľī
å¤¸ å¼ł
å¾Ī ä½İ
äº§åĵģ åĴĮæľįåĬ¡
æĦıä¹ī ä¸ĬçļĦ
Ġ å®ĥ
èĬ± æľµ
éĩĩ çº³
æĸ°åĨł çĸ«æĥħ
P N
æĬĢæľ¯ åºĶçĶ¨
æĢĿ æĶ¿
èĢĹ æĿĲ
æĮĩæĮ¥ å®ĺ
çİ¯æ°§ æłĳèĦĤ
ä¹ĭ ä¹ħ
æĬĹ åİĭ
æķĻçłĶå®¤ ä¸»ä»»
å¦ĩäº§ ç§ĳ
çº¹ çĲĨ
åĿĩ çĶ±
Ġ åĲ´
åıĮ è¯Ń
æĭĽ å¾ħ
çĶ² éĨĩ
éĹ½ åįĹ
åı¯è§Ĩ åĮĸ
C ar
Ġ éķ¿
çļĦ åĽ½
ç®¡ è·¯
æĸĩ å¸Ŀ
æ²³ ä¸ľ
åĩĢ åľŁ
Ġ éĢļè¿ĩ
è¦ģ ä»İ
äº¤çķĮ å¤Ħ
å¤§ æľī
ï¼Ī ãĢĬ
åĳĬè¯ī æĪĳä»¬
æīĭ éĩĮ
åľ¨ ä¼ģä¸ļ
ä¿Ŀ åĪ©
äººåĳĺ åĴĮ
ä¹Ŀ æ±Ł
éľį å°Ķ
åľ¨ åħ¬åı¸
ä»İèĢĮ è¾¾åĪ°
éĤ£ å¤©
ĠãĦ ĩ
æĮ½ åĽŀ
æıĲ åĪ°çļĦ
çŁŃ è·¯
ä¸»è¦ģ çłĶç©¶æĸ¹åĲĳ
ä¸Ń éĺŁ
æľĪ æŃ£å¼ı
æıĲä¾Ľ ç»Ļ
ä¿¡æģ¯ åĴĮ
å®£ ç§°
æ°¸ ä¸į
ä½ĵ èĥ½
å»ºè®¾ éĥ¨
å½¢æĪĲ ä¸Ģä¸ª
çĽĽ ä¸ĸ
S N
å¼¥ éĻĢ
å¹³åĿĩ åĢ¼
å·®å¼Ĥ åĮĸ
è¥Ħ éĺ³
åĩº ç¤º
æĪĸ å¤ļ
Ð ¹
åħ¬åı¸ æĪĲç«ĭäºİ
æıĲ è´¨
è´¢ çī©
åĸ· å°Ħ
åĽ½éĻħ åĲĪä½ľ
æĹ¥ äºİ
çľ¼ ç¥ŀ
æİ¥ åĬĽ
äº² æĥħ
èĭĹ æĹı
æĪĲ åĲį
çļĦ é£İæł¼
ä¸º çĶ±
æ²³ åİ¿
ç«ŀ ä»·
æĦıä¹ī ä¸Ĭ
åıĬä»¥ä¸Ĭ åŃ¦åİĨ
åį«çĶŁ éĻ¢
åĨ¬å¥¥ ä¼ļ
b it
å¿ »
çļ® ä¹¦
è¤ ¶
Ñ Į
å¹³ å¸Ĥ
æĹł èī²
å¥ĳ åĲĪ
å°Ĩ è¿Ľä¸ĢæŃ¥
æĺ¯ä¸Ģ åľº
èĤī è´¨
åĳĺ å¤ĸ
èı² å°Ķ
æľ¬ æľŁ
ä¸¥ èĭĽ
é½Ĳ é²ģ
éĩĮ æĺĤ
ä¸Ģå®ļ æĺ¯
å¤º åıĸ
åħ ®
æĻ® é²ģ
æĬĢæľ¯ ä¸Ńå¿ĥ
è®© çĶ¨æĪ·
èįĨ å·ŀ
ä½ľåĵģ éĽĨ
çīµ æ¶ī
åĴĮ åŃ¦çĶŁ
å¹¶ æĪĲä¸º
è¿ĺ æ¬¾
å¤ª å®Ĺ
ç¬¬ä¸Ģ ä¸ŃåŃ¦
åĢºæĿĥ äºº
h u
Ġ éĤ®ç¼ĸ
æ°´ è§£
åĽŀ è´Ń
åıį æĬĹ
ä¸Ń æŀ¢
ç¾ ģ
çĽ´ ç«ĭ
æľīéĻĲ çļĦ
å°¼ é¾Ļ
æµĭ éªĮ
ä¸ĩ çļĦ
æĥ³ æĥ³
éĩį å¤§çļĦ
äº¤éĢļ å®īåħ¨
æľī ä¸ĭåĪĹ
æŃ ª
æīĢ éľĢè¦ģçļĦ
åįĬ å°ıæĹ¶
åį´ æ²¡æľī
çĲĨè®º ä¸Ĭ
åįĸ åĩº
çºµ éĺŁ
éģ´ éĢī
U I
ä¸ŃåĽ½ ä¼łç»Ł
ä½İ ä¸ĭ
éĺ¶ æ¢¯
åľºæ¯ĶèµĽ ä¸Ń
ä¸İ ç¾İåĽ½
ä¸ºä»£è¡¨ çļĦ
ä¸İ çİ°ä»£
è° ķ
ç¦ı é¼İ
ä¸Ńåįİ åĮ»åŃ¦ä¼ļ
èĦ¾ èĥĥ
å±ķ åĵģ
çŁ¿ çŁ³
çķ¥ æľī
è¿ħ çĮĽ
ä¿± è¿Ľ
åĲİ æĤĶ
è¡£ çī©
å±ıå¹ķ å°ºå¯¸
å¼Ģå·¥ å»ºè®¾
ä¸Ń èģĮ
åıĳ åĩºçļĦ
çĶŁæ´» ä¹łæĥ¯
å¼ķåıĳ äºĨ
âī ¥
çļĦ åĬ¨ä½ľ
ä¸į åıªæĺ¯
æĢ» éĺŁ
å¸ĥ æĶ¿
ç¢ ¾
åīį èĮħ
è°ĥ éħį
å®£ä¼ł çīĩ
æĳĦ åĪ¶
å¹´åıĤåĬł å·¥ä½ľ
çłĶç©¶ åıĳçİ°
ç»ıè¿ĩ å¤ļå¹´çļĦ
åĽĽ äºº
åĲ¬ ä¼Ĺ
å¿ħè¦ģ æĹ¶
çľŁçļĦ å¾Ī
ä¸ĭ æ²ī
ä¸ĸçºª æľ«
éĻįä½İ æĪĲæľ¬
æŁĲç§į ç¨ĭåº¦
ä»Ļ äºº
æĶ¾ åģĩ
é»Ħ èĬ±
ç«ŀ éĢī
ä»¥ä¸ĭ åĩłä¸ª
åı¯ä»¥ å¯¹
ä¾µ åħ¥
æµ ļ
Ġ åŃ¦æł¡
æĮĩ æİ§
é£Ł çĽĲ
çķĻ å®Ī
é¡¾ åĲį
åİŁ ä½ıæ°ĳ
éĤ£ æĹ¶åĢĻ
ä¸į è´Ł
Ġ ä½Ĩ
è¢« åĪĹä¸º
éĢĥ éģ¿
è§Ĩ ç½ĳ
é»ĳ å®¢
ä¸ºå·± ä»»
æ°´ æ±ł
çĥ ģ
æł¹ æºĲ
CH I
ä¸į çĽ¸åĲĮ
æķĻ åĳĺ
åŁİéķĩ åĮĸ
åı¤ ç±į
èµĦæºĲ åħ±äº«
åħ¨åĬĽ ä»¥èµ´
R e
æķĻèĤ² äºĭä¸ļ
åĵ² åŃ¦å®¶
æĺ¥èĬĤ æľŁéĹ´
ä¸Ģ äºĭ
æ´¾ å¯¹
æĸ° æīĭ
y d
çļĦ æĶ¿æ²»
éĢļ è¯Ŀ
ãĤ £
éĹ¸ éĹ¨
ç¼ ¤
æ± ŀ
ä¹° äºĨ
æĸ°åŀĭ åĨłçĬ¶çĹħæ¯Ĵ
æĽĿ æ°Ķ
ens is
èĢĮ è¡Į
æŃ£ åĢ¼
éĶħ ä¸Ń
æ¯ ĭ
åŀĭ äººæīį
çļĦä¸Ģ å¤©
æľī å°ı
æĶ¯ æ°Ķç®¡
æ²³ æ°´
å®ŀæĸ½ ç»ĨåĪĻ
åŁİ åįĹ
å¥ĸ æĿ¯
å·¡ æŁ¥
åıī è½¦
è¯´ åĩº
ä½³ ç»©
æľ¬ éĻ¢
ç¦ º
æĽ¾ åħĪåĲİ
æĮī éĶ®
é£ŀ éĢŁ
ä¼¦ æĸ¯
æĪĲéķ¿ çļĦ
ä¸Ĭæµ· äº¤éĢļå¤§åŃ¦
åħĥ ä»£
åıĮ åŃĲ
åĮĸ å¸Ĥ
ç»Ŀ æľĽ
æİĮ å£°
æĢİä¹Ī åģļ
çļĦ åĮºåĪ«
æľī èĥ½åĬĽ
çļĦ çī©è´¨
åĮħæĭ¬ ä½Ĩä¸įéĻĲäºİ
åĩĿ èĥ¶
æĪ´ å°Ķ
å¼ºåĪ¶ æĢ§
ä¼Ĭæĸ¯åħ° æķĻ
é£İæĻ¯åĲįèĥľ åĮº
T T
æĿ¥ åģļ
çĶŁçī© åĮ»èį¯
æļĸæ°Ķ çīĩ
ä¸į çĽ¸
ä»ĸ ä¼ļ
åĵĪ å¾·
åĪĽåĬŀ äºº
è¦ģ åĬłå¼º
é«ĺ éĽħ
çļĦ è¥¿
å¥¶ æ²¹
èĤĩ åºĨ
çļĦä¸Ģ åľº
èĬ± æľŁ
èĢĲ ä¹ħ
éĶĻ äºĨ
èİ ĺ
è¿Ļ åĲį
çļĦä¸Ģ ä»½
am b
æĸ°åħ´ äº§ä¸ļ
æ¨¡ ç»Ħ
ç©¿ æ¢Ń
åħ¶ çĪ¶
éĽª å±±
æ±ī ä¸Ń
è¾ĸåĮº åĨħ
ear ch
ä¸ª èĩªçĦ¶æĿĳ
çķĻ ä¸ĭçļĦ
ä¸ŃåĮ» åŃ¦éĻ¢
åĴĮ çłĶç©¶
è¯´ èµ·
æĻ® æĭī
è½½ åħ¥
åīĤ çŃī
äºĭä»¶ çļĦ
ç»ıèĲ¥ æ´»åĬ¨
éĿŀ èĲ¥åĪ©
éĹª çĶµ
ä¸į åĩĨ
æĪĳ è¿ĺ
è¡¨ è¿°
éĹ® åĢĻ
å®ĥ èĥ½
éĽĨåĽ¢ èĤ¡ä»½æľīéĻĲåħ¬åı¸
ãĢĢ ãĢĢ
è¤ ª
ran s
æĥ «
å¢ŀ èĩ³
ä½Ļ ä¸ĩåħĥ
é¥° åĵģ
èĩªä¸» çŁ¥è¯Ĩäº§æĿĥ
æĪĺäºī ä¸Ń
ä¸Ģ å¤ľ
å¥³ ç¯®
è¯ģæĺİ äºĨ
çĽĸ å¸½
æľĢ ä¼ĺ
æķ´ é¡¿
è¡¨ åĨ³
an e
çľ¼ çĲĥ
ĠF l
åĴĮ æİ§åĪ¶
æł¸ å®ļ
ä¼Ĭ å°Ķ
çļĦ åıĳ
å·¥ è´¸
çļĦ å®¢æĪ·
å®¤ æ¸©
çĳ ķ
æĬĺ å°Ħ
è¿Ŀ çºª
æĹħæ¸¸ æĻ¯çĤ¹
TO P
a a
å®ļ çĲĨ
ä¸Ń è¿Ľè¡Į
é£İ ä¿Ĺ
æł¼ æĭīæĸ¯
å¼Ģ è£Ĥ
å¾Ī æľīåı¯èĥ½
åĹ ĵ
c el
å¯¹ åħ¬åı¸
éĽĨ éķĩ
åºĶçĶ¨ é¢ĨåŁŁ
åıĳçĶŁ äºİ
çļĦ çİĭ
çĹ ¹
äºº ä¹Ł
å°± èĥ½å¤Ł
ä¸ĩ ç«ĭæĸ¹ç±³
ç¤ºèĮĥ æĢ§
ä¸Ģ éģį
è®¡ æķ°
ä¸¤ åĳ¨
å®īåħ¨ åı¯éĿł
æĥĬ äºº
æľīå®³ çī©è´¨
æĸ¯ éĩĮ
å½± ä¸ļ
åĳ¼ åºĶ
æ±½è½¦ çļĦ
ä¸ŃåĽ½ å¸Ĥåľº
ä¸¾ ä¾ĭ
å¤§ ç±»
éĽĨ éĤ®
ç¬¬äºĮ ä»£
æĸ°åĨłèĤºçĤİ çĸ«æĥħ
æĺİ æĹ¥
ä»İäºĭ ç¬¬ä¸Ģäº§ä¸ļ
éļĶ èĨľ
è¿ŀæİ¥ åĻ¨
åħ¨ èĥ½
ä¹ĺ è½¦
ä¸ľäº¬ éĥ½
çŁŃæľŁ åĨħ
æľĿéĺ³ åĮº
äºĶ åįĥ
ä¿Ŀ èĤ²
åī¯ ä½¿
çľĭ ä½ľ
åħ« åį¦
æ°´åĪ© æ°´çĶµ
s k
å¹´ åħ¥
ä¸į åıª
åĨ³å®ļ çļĦ
æ¾Ħ æ¸ħ
å±± ä¹¡
æ¯Ľ åıĳ
çŃī åİŁåĽł
æ¶ Ŀ
åĸ Ķ
å¼Ģå§ĭ åľ¨
éĺģ ä¸ĭ
éĵ µ
åºĶçĶ¨ æĬĢæľ¯
äºĭ ä¾ĭ
èĬĤ çĽ®çļĦ
èĩ´ æķ¬
è¿Ļ ä¸įæĺ¯
åĽłä¸º æĪĳ
ç»ĻäºĪ äºĨ
å±±ä¸ľ å¤§åŃ¦
ä¼į å¾·
åľ¨ å½ĵæĹ¶
åĩº ä¸Ģä¸ª
ãĢĤâĢĿ âĢľ
æİĮæı¡ äºĨ
éĩĳ åŃĹ
éļı èº«
ä½įäºİ æ³ķåĽ½
æĬ¥åĳĬ ä¸Ń
ing s
æľ¬ è½®
æ²¹ ä»·
éĿŀå¸¸ å¥½çļĦ
å¥ĩ èīº
æ³° åĭĴ
è¿Ŀ èĥĮ
çļĦ å¥³æĢ§
çĶŁ åīį
æĿ¿ å¼ı
ä¸´åºĬ ç»ıéªĮ
èĩª è´¸
ç¼º åı£
çļĦä½¿çĶ¨ å¯¿åĳ½
ä»£è¡¨ éĺŁ
çļĦ èģĮä¸ļ
çľ ©
Ġ æľĢä½³
æ²»çĸĹ æķĪæŀľ
ä¸Ģå¦Ĥ æĹ¢å¾Ģ
V M
åıĬ åĳ¨è¾¹
ç§¯æŀģ æİ¢ç´¢
ä¸Ģç§į æĺ¯
è¡Ģæ¶² å¾ªçİ¯
åľ¨ æĪĳä»¬çļĦ
ä¸į æī¿æĭħ
ä¸Ģ èĩ³
åĽł çĹħ
çľģ çļĦä¸Ģä¸ª
èį¯ åŃ¦
åıĭ äºº
éĢĢ è¿ĺ
äºĭ ä¸Ń
ç«ŀèµĽ ä¸Ń
çĭĹ çĭĹ
é¡¾åĲį æĢĿä¹ī
ä¼ļ åıĳçĶŁ
äº« èªī
åĩ ĭ
è§Ħæ¨¡ æľĢå¤§
å¤§ èģĶçĽŁ
å¸Ĥ æĸ°
re am
æĶ» åħĭ
æľī å¾Īå¤§
å¯Ĩ éĹŃ
ä¹Ĳ åĿĽ
èĬ± é¦Ļ
ç½® æį¢
çļĦå°ı è¯´
éħ Į
å°ĳ äºĨ
è¿Ĳè¡Į çļĦ
èĩªä¸» åĪĽæĸ°
Ġ åħ¬éĩĮ
å¸Ĥ åĨħ
æ´» çĿĢ
åıĮ äºº
åį³ä½¿ åľ¨
ç§» å±ħ
æĺ¯ æĸ°
è´¨éĩı ä½ĵç³»è®¤è¯ģ
å·¥ä¸ļ åįıä¼ļ
èĨľ çĤİ
èĢģå¸Ī ä»¬
B B
åīĬ åĩı
G E
ook ie
å®° çĽ¸
ä¸¤ å±Ĥ
ä¿® ç¼®
åħĪçĶŁ çļĦ
æĸĻ çļĦ
tr a
åĪ° ä¸Ģä¸ª
è½¦ è½®
æĨ ©
é¥®é£Ł ä¹łæĥ¯
y th
ç»§ç»Ń æķĻèĤ²
è°ĭ æ±Ĥ
éĻ¤å°ĺ åĻ¨
è¿ĩ åĪĨ
æĪĺ è½¦
è¯¥ å¸Ĥ
å¿« èĪ¹
å¼Ģåıĳ åĪ©çĶ¨
åħ±åĲĮ ä½ĵ
æ»¤ æ³¢
åĮĹ èµ·
åĲĬ é¡¶
åĴĮ å¸Ĥåľº
èį· èĬ±
æ¯ ĵ
è¯¾ å¤ĸ
èĥ¶ åİŁ
åĪĿ å¹´
æŀģ ç®¡
é¢Ħ æľŁçļĦ
äºĴ åĪ©
æ¯Ľ ç»Ĩ
åįļçī© éĻ¢
ä¸´åºĬ è¯ķéªĮ
æīĵ åĬ¨
ä¼¤ å¿ĥ
ç§Ł åĢŁ
åī¯ ç§ĳéķ¿
åĴĮ åĲĦç§į
ä¹Ļ çº§
åľ¨è¿Ļç§į æĥħåĨµä¸ĭ
æ¡£æ¡Ī é¦Ĩ
å¼ĢåĲ¯ äºĨ
æĬĢæľ¯ åľ¨
éľī èıĮ
ä¸Ģ èģĮ
åĪ¶åº¦ çļĦ
ä¸į éľĢ
ç®¡çĲĨ è§Ħå®ļ
æĮĩ çĶ²
æĪĲåĬŁ çİĩ
çļĦä¸Ģèĩ´ å¥½è¯Ħ
å¸ĥ è¢ĭ
è¿« ä½¿
å®¶åįıä¼ļ çĲĨäºĭ
ä½ ¬
åĩº æµ·
ç½Ĺ èĮ¨
ä»İäºĭç¬¬ä¸Ģäº§ä¸ļ äººæķ°
ä¹Ł èĥ½å¤Ł
æŃ¤ é¡¹
åĽ½ æĹĹ
å½± éŁ³
æĹ¥ å¿Ĺ
ã Ĭ
åıĮ æīĵ
è¡Ģ èĦĤ
äº¤ è´§
è½¯ åĮĸ
èµŀ ç¾İ
è¿Ļ ç¯ĩæĸĩç«ł
åŃ¦æľ¯ ä¼ļè®®
åĽ½ èĦļ
æ´» åĬĽçļĦ
æ·± å¤ľ
æ¯ı å°ıæĹ¶
åĢ¾åĲĳ äºİ
è·» èº«
åħī è¾ī
æĸŃ å±Ĥ
èļĮ åŁł
m s
é»Ħ å¸Ŀ
åħįè´¹ çļĦ
åħ¨ ä¼ļ
ç«¯ åįĪ
ä¹ĭ å¤ľ
è¾© æĬ¤
ä¸Ĭ éĥ½
å®ŀæĸ½ çļĦ
é«ĺ ä½į
ä¸ĩ èĤ¡
ä¸įå¾Ĺ è¶ħè¿ĩ
âĢĿ, âĢľ
æ´Ľ éĺ³å¸Ĥ
ä¸Ģ è¿ŀ
æĹ¥ æ¸Ĳ
ä¼ģ åĪĴ
èĥĮ é³į
åīįåĪĹ èħº
åıĳè¡¨ çļĦ
æģĭ æĥħ
æ±Ĥ åŃ¦
æĺ¯ä¸Ģ æ¬¡
éĴ µ
æĿĳ çº§
çĮ ©
åįģåħ« æĿ¡
ä¾¿æĲº å¼ı
åħ¨ å¿ĥ
æŃ» çļĦ
ä¸įç¡®å®ļ æĢ§
åľ¨ æŁĲäºĽ
ç«ĭ äº¤
å¤į å®¡
å¾· åĭĴ
äºī çĽ¸
åįĴ äºİ
ä¸į æľį
éĺ² æĻĴ
ä¼ĺè´¨ çļĦäº§åĵģ
åķĨåĵģ æĪ¿
ç»ĵæĿŁ æĹ¶
æĮĩå¯¼ åĴĮ
çŃ¹ éĽĨ
çļĦ çĶŁéķ¿
éķ¿ å¹´
éĺ² æ´ª
è¿½ éļı
ç¬¬åįģ ä¹Ŀ
ä¸º æĪĳåĽ½
ä»ĸ æīĢ
éħ¸ éħ¯
åİ¿ åŁŁ
çľĭ çļĦ
ç¾¤ ä½ĵçļĦ
ç»Ļ åĩºäºĨ
åĪļ æĢ§
æĺ¯ä¸Ģå®¶ ä¸ĵä¸ļä»İäºĭ
åĪ¶çīĩ äºº
è¿Ĳ æ°Ķ
éĢĤ éħį
å·¥åķĨ èģĶ
æķĻç§ĳ æĸĩ
æľ¬ æľĪ
åı£ å¤´
å®¹ è®¸
ä»·æł¼ çļĦ
çĮ« åĴª
èĢ¦ åĲĪ
èĦĬ æŁ±
é¢ĩ ä¸º
å¤©æĸĩ åı°
åŁİ å»º
æĦıè¯Ĩ åĴĮ
Ġ åĮĹäº¬
å¢ĥ åĨħçļĦ
çļĦå¤§ éĩı
ãĥ Ĩ
äº« åıĹåĪ°
èĴĤ å®ī
ä¹¡æĿĳ äººåı£
è¿Ļ æĶ¯
èİ· åĪ©
èĤĸ åĥı
ç¼ł ç»ķ
åİĭ è¿«
å¯¹ çİ¯å¢ĥ
è· ª
äº¤ éĻħ
åıį åĲĳ
æĹ¥ çĶ±
èº« äº¡
åĪĨäº« äºĨ
Ä Ľ
ä¸ī ç±»
å¸¦ åħ¥
åģı æĸ¹
x i
éĩį åĽŀ
æĹħæ¸¸ åĮº
æł¡ åĩĨ
äººåĳĺ åľ¨
é¤Ĳ åħ·
åħ¬å¼Ģ çļĦ
çļĦ è§ĤçĤ¹
åı· ç§°
çº¦çĳŁ å¤«
æķ° ä»¥
é¡¹çĽ® ç»ıçĲĨ
è´£ä»» å¿ĥ
, (
æĸ°çĶŁ åĦ¿
èĻ Ķ
èĲ½ åĪ°
åĨħå®¹ åĴĮ
ç¬¬ä¸ī æĿ¡
æ¶ī å¤ĸ
çĶ¨ èĩªå·±çļĦ
å¸ĥ ç½Ĺ
ä¸İ å®¢æĪ·
æĪ¿ ä¼ģ
å¼Ģåıĳ åĩº
å¿µ ä½Ľ
æ¶Ī æŀģ
è¿ĩ éĩı
çĶŁäº§ åĬłå·¥
æĦŁ å®ĺ
ä¸´åºĬ ä¸Ĭ
æŃ¤ ç§į
éķĩ çļĦ
ĠN ew
åįģåħŃ å¹´
åħ¬ æĺł
å¤ļ ç±³
è¢« åıĳçİ°
ĠM us
éĺ» æĮ¡
åľ¨ ä½į
çİ¯ è·¯
åįĹ ç«Ļ
è®¾è®¡ äºĨ
é¢ĨåŁŁ ä¸Ń
å°ĳ åĲĥ
- ),
æľī ä¸º
éĺ² æ¸Ĺ
VID IA
R C
çĻ½ çŁ³
çī¢ çī¢
çĨ¬ å¤ľ
æĶ¾ å®½
è½¯ ç¡¬ä»¶
F L
åľ° æ¯¯
å¤§ åħ¬
ç®¡çĲĨ å§Ķåĳĺä¼ļ
äº§åĵģ å¼Ģåıĳ
åĽ½å®¶ å®īåħ¨
è®¡ çĶŁ
åįĹ æľĿ
éĻ¤ æ¹¿
èıı æ³½
ç« ¿
æĿİ çĻ½
çĶĺ èĶĹ
ç¥· åĳĬ
ç¦ħ å¸Ī
å®¶ åĴĮ
æ°´ èĤ¿
äº§åĵģ ç±»åŀĭ
è¯Ŀ è¯Ń
è¸ Ĭ
çĻ½ ç³ĸ
åİĭ éĵ¸
åĮĹ éĿ¢
çĶ² çĥ·
æķı éĶĲ
åįķä½į åĴĮ
éĽ· éľĨ
åħ¬çĽĬ æĢ§
çļĦ æĥħç»ª
çĶµ ä½į
ä¼ĳéĹ² å¨±ä¹Ĳ
ç¡®å®ļ äºĨ
çĸ² æĥ«
Th ink
æ·¬ çģ«
å¤§ æĪĲ
åģı åĲĳ
Ġ åıĬ
å¼ķ åıĳçļĦ
ä¸Ń æĸ¹
å°Ĩ éĢļè¿ĩ
ä»ªåĻ¨ è®¾å¤ĩ
éĢĨ åıĺ
æİ¨ ç§»
èĬ± çĵ£
éĿ©åĳ½ çĥĪå£«
è®¾è®¡ æĸ¹æ¡Ī
é¡º æ²»
ä¹ĺ éĻį
ç©ºæ°Ķ ä¸ŃçļĦ
éĥ½ä¼ļ æľī
è§£ éĶģ
èĥ¶ ç²ĺ
ä¸¤ åº§
å¤ı å¨ģ
è½¦ ä¸Ĭ
æ¸ħ éĨĴ
ä¸ī éĹ¨
è¥¿ éĤ»
åģļ åĩºçļĦ
èİ·å¾Ĺ åĽ½å®¶
å®ľ å±ħ
æŀĦå»º äºĨ
å¤§åŃ¦ åĴĮ
ä¹¦çĶ» èīºæľ¯
è£ģ åĨ³
ä¹¡ äºº
çŁ³å®¶åºĦ å¸Ĥ
åľ° å§Ķ
å½± åŃĲ
åĩł åįģå¹´
ĠĠĠĠ Ġ
è¿Ľè¡Į å¤ĦçĲĨ
æĶ¾ è¿Ľ
æĶ¯ä»ĺ å®Ŀ
æľº èĬ¯
å¹¶ åıĸå¾Ĺ
åįı åĴĮ
èĵĿ åĽ¾
w ork
çŁ¥åĲį ä¼ģä¸ļ
éķ ĸ
çļĦé«ĺ ç«¯
ä½Ľç½Ĺ éĩĮ
åī¯ åİ¿éķ¿
çĨ Ħ
å¹´çļĦ åİĨåı²
ä¸ĢçĽ´ ä»İäºĭ
äº¤æĺĵ ä¸Ńå¿ĥ
ç³ĸ æŀľ
å¾Ĺ ä¸Ĭ
åĢ ĺ
è¿Ľè¡Į æ£ĢæŁ¥
éĺ² ä¼ª
éĺ¿ å¯Į
åĵĪ æĭī
å¥Ķ è·ĳ
ä¼ĺç§Ģ äººæīį
Ġ åı¯
ä¸º é£Ł
æĶ¹ åĬ¨
å¡ŀ çº³
æĤĦ æĤĦ
åįµ å½¢
æĺĨæĺİ å¸Ĥ
éķ¿æĺ¥ å¸Ĥ
ous e
é³ŀ çīĩ
äº¬ åŁİ
è§Ĵ çļĦ
éĺ¿ åħĭ
éģ¿ å¼Ģ
æĿľ åħ°çī¹
ä¸į éĻĲ
åŃ¦çĶŁ ä¼ļ
åĬ© æķĻ
åĳ¨ æĹ¥
åĲĮ æĢ§
ç¤ºèĮĥ åŁºåľ°
ð «
æĿ¡ çº¹
åºĵ å°Ķ
è¦ģ æł¹æį®
ä¸» æĸĻ
éĽĨåĽ¢ æĹĹä¸ĭ
è½¬æį¢ ä¸º
è¾© è¯ģ
çļĦ é»ĳ
ä¸į è®¡
åīį éĢĶ
çīĪ çĶ»
ä¹¡ éģĵ
ä¸Ģ ä¸Ŀ
å®´ ä¼ļ
åĪ¶ æŃ¢
æŀľ çĦ¶
äº² æĪļ
èŀįåĲĪ åıĳå±ķ
ä¸įåĲĮ çļĦæĺ¯
æĭľ è®¿
æĹł ä¸į
å¾Īå¤ļäºº éĥ½
åŃ¦ ä¸İ
åºĶ æĪĺ
è¥¿ çº¢
æ²¿ éĢĶ
å°Ĩ ä»ĸ
Sc ript
æ°´ æ·±
èĪŀåı° ä¸Ĭ
D N
ç¿» æĸ°
çĺ¦ èĤī
ä¸Ĭ å²Ĺ
åĨį ä¸Ģæ¬¡
èģĶè½´ åĻ¨
äºĮ ä»£
è¯· éĹ®
èĴ ¿
éĵĥ æľ¨
ä¸Ĭ å±Ĥ
åħ¨ äº§ä¸ļéĵ¾
éĥ½ èĥ½å¤Ł
æĢ» ç½²
æĭ¼ æİ¥
Ġ ä¸Ĭæµ·
åħ¬åı¸ äº§åĵģ
æľĢ åħĪ
æĪĳä»¬ çŁ¥éģĵ
Ġ åĮĹ
çļĦ æľĢåĲİ
å¾Ĺ æĽ´
å¥¥ åĪ©
æ··åĲĪ çī©
çĽĽ åħ¸
e at
åŁº çŁ³
åħ« åįģ
éĺ´ è°ĭ
ä¸İ ä¸ĸçķĮ
çº¢ èĸ¯
æĮī å¯Ł
p a
åĽĽ æ°Ł
æµ´ å®¤
äºº èĦ¸
æĪĳ æľī
ç±» äº§åĵģ
æĬ¥ éĶĢ
æī¿ å¾·
å¥¥ æĭī
åĪĽéĢł æĢ§
æĶ¿åįı åī¯ä¸»å¸Ń
B L
çĶµåĬĽ æľºè½¦
æĺ¯ä¸Ģå®¶ ä»¥
çŃī å¤§åŀĭ
çģŃ äº¡
T X
æ¸ħ é¦Ļ
äºī éľ¸
åĲ¬ è§ģ
æī¹åĩĨ åĲİ
åıĳ äºĨ
æĪĲ æīį
ç¼ ī
ä¸´ çķĮ
ĠãĦ Ī
å°¤åħ¶ åľ¨
G C
äºº æľī
ãĢĭ )
å®ī åįĵ
å°¼ æĹ¥
å¤ıå¨ģ å¤·
åĲĦ åİ¿
æµ·æ·Ģ åĮº
E n
åĵģ æł¼
åį¡ çīĩ
åĲ¸ æ°´
å¸ĮæľĽ å¯¹
é¥¼ å¹²
åįĹ ç¾İ
å®ľ å®¾
æĺ¯ å¤ļå°ĳ
ç®¡ ä»¶
é¹ ī
èĦ±è´« æĶ»åĿļ
ä¸º ä¾Ŀæīĺ
ä¸į å®Įåħ¨
ç½ĳ æ¸¸
ãĥ ī
åħī å¤§
èĥ° å²Ľ
r is
çļĦ æŃĮæĽ²
åĸĩ åıŃ
å¿ĥ çĹħ
ä½ı æīĢ
åıĤåĬł åħ¨åĽ½
çļĦåħ¨ æĸ°
å¯¹ æĪĳä»¬çļĦ
ä½Ĩ æ²¡æľī
é«ĺ å±Ĥæ¬¡
éĥ½ åħ·æľī
æĺİ æĺİ
å½Ĵ ç±»
éĩĮ æľī
çĵ¦ æĸ¯
çº§ åĪ«çļĦ
èĢģ æĹ§
åŃĹ çļĦ
æµĵ åİļçļĦ
ç¦»åŃĲ çĶµæ±ł
ä¸Ľ æŀĹ
âĸ ł
åĲĳ ä¸ĬçļĦ
å¢Ļ æĿ¿
å¤ĸ åľ¨
è½¬ åĪ°
ä¿® é¥°
ä¸Ńèį¯ æĿĲ
åŃĲ å¼Ł
åºĦ éķĩ
æľĪ ä¸ĭæĹ¬
å¸¸ å¾·
éĤ£ ä¸į
M ich
U L
æ°´ ä¸ĭ
çĲĥ èıĮ
äº¤ èŃ¦
ä¸¤ ä¼ļ
l a
Ġ ç±³
ut e
ä¸īåĪĨ ä¹ĭä¸Ģ
åĮĹäº¬ å¸ĪèĮĥå¤§åŃ¦
æ²Ļ æĭī
éĹ² ç½®
é¢ĩ åħ·
ä¿ ı
åı° è¯į
ç¬¬äºĮ åĲį
ä¸įä»ħ å¦ĤæŃ¤
å§Ĩ å·´
é¢Ī æ¤İ
å¸Ĥåľº ä¸ĬçļĦ
æ»¡ è´¯
ç»¼åĲĪ å®ŀåĬĽ
åĨ² åĬ¨
åħ¥ èģĮ
æĹł åģ¿
èľ Ĵ
åŁ¹åħ» åŃ¦çĶŁ
å« Ĥ
éĤ£ä¹Ī å¤ļ
è¸ı ä¸Ĭ
åĲį èĳĹ
é©¬ é¾Ļ
æī¿ å»º
å®Ī æ³ķ
æ¯Ķ çļĦ
æĬĢæľ¯ åĳĺ
æĪĸ æľįåĬ¡
åıĤ ä¿Ŀ
éŃĶ é¬¼
åł¡ åŀĴ
ä¸ĵä¸ļ äººæīį
æĿ¥ å¾Ģ
ï¼ļ "
åħ³éĶ® æĬĢæľ¯
ç¾¤ä¼Ĺ çļĦ
åįģä¹Ŀ æĿ¡
åĪĨ æµģ
ä¸ī åĲį
åįĪ é¤Ĳ
æł¡ä¼ģ åĲĪä½ľ
æĪĳä»¬ è¿ĺ
åĪĨéĴŁ è½¦ç¨ĭ
åı¯ ä¿¡
æľŁ çĽ¼
å¾Ī çŁŃ
åı¤ å¸ĮèħĬ
äº¤æĺĵ çļĦ
é«ĺçŃī ä¸ĵç§ĳåŃ¦æł¡
å¯¹è±¡ çļĦ
ä¹Ł å¥½
å¤Ħ åī¯å¤Ħéķ¿
è¯· æ³¨æĦı
å±Ĭ æ»¡
ä¸Ģ åı¥è¯Ŀ
è§Ħæ¨¡ ä»¥ä¸Ĭ
ç§¸ ç§Ĩ
ä¿ĿæĬ¤ åĴĮ
å®ľ äºº
æ®ĸæ°ĳ åľ°
çºªæ£Ģ çĽĳå¯Ł
åľ¨ æ²¡æľī
è½¦ åĨħ
åľ¨ åİŁ
é«ĺ é£İéĻ©
çł ¥
åķĨ çļĦ
åıĺ èī²
çłĶç©¶ä¼ļ ä¼ļåĳĺ
èĲ ±
éĺ¿å¯Į æ±Ĺ
æ²¿ çĶ¨
ä¸į åĮħæĭ¬
éħį ä¸Ĭ
è¯Ńè¨Ģ çļĦ
æĮ Ŀ
æ¥ ¹
æ´Ĺ æ¾¡
ä¸įåı¯ æĢĿè®®
æĢ§ åıĬ
ä¸ĩ ç§ĳ
ĠA ss
m i
åħ¬ æľī
å¾Ĺ æīĭ
æĪĺ çº¿
s ch
è¿Ĳ è½½
å®ĥ æĺ¯ä¸Ģç§į
çļĦäºº æĸĩ
åĬ¨åĬĽ çĶµæ±ł
æ³ķåħ° è¥¿
ä¸ĩ èĥ½
æĶĢ åįĩ
æĳĦæ°ı åº¦
ç«ĭ éĿ¢
è¶ħ äºº
æ²¹ èĢĹ
L a
çļĦ äº¤éĢļ
æµ· ä¸Ń
åĬłå¤§ å¯¹
å½ĵ ä¸ŃçļĦ
b y
æĹ¶ æīĢ
æĪĳ çĪ±
å®£ è¨Ģ
éĢĶ ç»ı
g r
Ġ çĶ±äºİ
åĬł åĪ©äºļ
å·¡ éĢ»
ä¸İæĹ¶ ä¿±è¿Ľ
äºº å±ħ
åħ¨ å¥Ĺ
çĴ ¨
ä¸º ä¸Ń
éĹ¨ ç±»
å®ĭ æľĿ
é©° åĲį
å¹¶ åħ·æľī
ç»¿èī² åıĳå±ķ
å¼łå®¶ çķĮ
ç²ª ä¾¿
åŁİå¸Ĥç®¡çĲĨ æī§æ³ķ
åľ¨ ç¤¾ä¼ļ
çĲĨ åĮĸ
åı² è¯Ĺ
ic ation
æĻļ é¤Ĳ
åģı å¥½
ç½ļ çĲĥ
èĥ½ ä¸İ
åĽł æŀľ
ä¸»è¦ģ äº§åĵģ
çº³ ç²¹
é£ŁçĶ¨ æ²¹
éĢĤçĶ¨ èĮĥåĽ´
çº·çº· è¡¨ç¤º
åŃ¦åīį æķĻèĤ²
èĩª åĪ¶
è¥¿ æİ¥
ç»ĵ è¯Ĩ
ç®¡çĲĨ æľºæŀĦ
âĳ £
ç»ĺ åĽ¾
åľ¨ä¸ŃåĽ½ å¤§éĻĨ
åº§èĲ½ äºİ
D E
è·Į å¹ħ
ud io
ä¸įåĬ¨äº§ çĻ»è®°
äºĮ åı·
èģĶè°Ĭ ä¼ļ
æĺ¯ è¯¥
æķ ĸ
çĶŁæ´» åĴĮ
åĵĪ éĩĮ
åĲŀ åĲĲ
éĢı æ¼ı
æĮ¯ èį¡
ed ia
éĺħè§Ī å®¤
I L
ä¹¦ åĲį
æĶ¶ åĪ°äºĨ
åģļ èµ·
çłĶ ä¹ł
ä¸Ĭ è°ĥ
å¹³ å®ļ
æĢ»æķ° çļĦ
ä¸° åİ¿
) ï¼Ľ
å¤§åŃ¦ èĭ±è¯Ń
æ¸ħ æī«
åĴĮ å¤ļ
æŃ¥ éģĵ
åħ·ä½ĵ æĥħåĨµ
å¤§å¤§ æıĲé«ĺ
åħ¨èµĦ åŃĲåħ¬åı¸
é¢Ħç¤º çĿĢ
é«ĺ éĢļ
æĪĺ å¹³
é¦Ĩ èĹı
èĢķ èĢĺ
æĢ» åĪĨ
ç¬¬åħ« å±Ĭ
éĥ½ ä¸įæĺ¯
æĮĩå¯¼ æĦıè§ģ
æľĢä½³ çļĦ
çļĦ äº§çĶŁ
ä¸º è¯¥
éĥ½ åı¯
çļĦä¸»è¦ģ åİŁåĽł
ĠW eb
è¡ Ļ
è§£ èĦ±
åı¤ å»ºçŃĳ
é¦Ļ æ°´
æķĻå¸Ī çļĦ
å°¤æĸĩ åĽ¾æĸ¯
çŃī åĽ½
ä¿ĿçķĻ äºĨ
é¹¦ é¹ī
+ +
è¥¿ è¾¹
åĩŃ çĿĢ
åīį åį«
çĥŃ è¡·
ä¿¡æģ¯ ç½ĳ
çļĨ æľī
éĺ Ļ
çº¿ ç¨ĭ
ĠC ent
æ³ķåħ°åħĭ ç¦ı
ä¸Ń å¯¹
å®« é¢Ī
å¿«éĢŁ çļĦ
ä¸»ä¹ī èĢħ
ç¬¬ä¸ĥ å±Ĭ
åįģä¸Ģ äºĶ
åĩºå¸Ń ä¼ļè®®
è´¨éĩıç®¡çĲĨä½ĵç³» è®¤è¯ģ
åŃĺ çļĦ
å£° ä¼ĺ
é¦ĸåħĪ æĺ¯
å¿ ±
æįķ èİ·
ä¸Ĭå¹´ åĲĮæľŁ
ä¸º åħ¨çĲĥ
çİ¯å¢ĥ çĽĳæµĭ
çĶµå½± éĻ¢
æĺĶ æĹ¥
ç´§ç´§ åĽ´ç»ķ
å¤§ è§Ĥ
èĩª éĹŃ
ä¿ĿæĮģ èī¯å¥½çļĦ
çļĦ ç¨ĭåº¦
éĥ½ ä¸įèĥ½
ä»İ ä¸¥
åŃĺ éĩı
çģ« èħ¿
ĠO r
åĲĬ è£ħ
èľĤ çªĿ
è¾¾æĪĲ åįıè®®
æıĲåıĸ çī©
ä¸ī çĤ¹
ä¸Ń ä»¥
éĴ °
äºĨä¸Ģ å¥Ĺ
å¼Ģ æĿ¥
å¼Ģå§ĭ çļĦ
æ³° å®ī
æĭħ è´Ł
æģĭ äºº
åıĤèµĽ èĢħ
æĺŁæľŁ åħŃ
å°ı åŃ¦æł¡
çĩĥ çħ¤
æĸ¯ åĽ¾
ç®¡çĲĨ äºº
æ¸© å·®
æĻ® æ£®
ä¸ĩåħĥ äººæ°ĳå¸ģ
ä¸ºä¸» å¯¼
ĠG roup
æĥĬ äººçļĦ
è¡Į éķ¿
æĹł æ±¡æŁĵ
åĬŀ çļĦ
ç©º åİĭæľº
åī¯ä¸»ä»» å§Ķåĳĺ
è§Ħ çŁ©
äºļ çī¹åħ°
è¿ŀ åĲĮ
åı¤ å·´
çº¢ åĮħ
èģĮä¸ļ éĻ¢æł¡
çİ° èº«
ä¹ĭ å£°
æŃ£å¸¸ å·¥ä½ľ
è¯» æľ¬
å¤į è¯ķ
èŃ ¬
éĤ¢ åı°
ä¸ĩ äºĭ
æĭįæĳĦ çļĦ
èĤļ åŃĲ
ä¹ĭ æĹ¥
æ°ĳ å±ħ
åħ° åį¡
çķĻ ç»Ļ
åºĦ ä¸¥
æµ® éĽķ
æľ« å¹´
éķ¿ æķĪ
é¡¹çĽ® åĴĮ
æĬµæĬĹ åĬĽ
è§¦æĳ¸ å±ı
åįķ äºº
åİ» åĮ»éĻ¢
æī¾ å¯»
èĢ³ é¼»
æ²ī éĻį
åľ¨ ä»»ä½ķ
ä¸Ĭ è¿Ľè¡Į
ä¸ª åŁİå¸Ĥ
çª į
åĩł å¹´çļĦ
åħ¨éĿ¢ æİ¨è¿Ľ
äºİæĺ¯ ä»¥
äº Ł
äºļ åĨł
çļĦä¸Ģ åĲį
åħĥç´ł çļĦ
åī© ä¸ĭçļĦ
è¿Ļéĥ¨ çĶµå½±
å¤ĸ ç±į
è´¸æĺĵ æľīéĻĲåħ¬åı¸
æĬķåħ¥ åĪ°
å¹³ æĹ¥
åħ¨éĿ¢ æıĲåįĩ
å¸¸ å·ŀå¸Ĥ
å°¼ åħĭæĸ¯
å¤ĸè§Ĥ è®¾è®¡
ä¸ĭ è°ĥ
åı° å¼ı
åľ¨ æ³ķåĽ½
ä¸ĭ åįķ
éľ ¾
æĮĩå¯¼ åĳĺ
åı¤ è£ħ
æľªæĿ¥ åıĳå±ķ
P lay
å°ı å°ıçļĦ
æģ º
æĹł å°½
æ±Ł åĮĹ
æĹ¶ éĢŁ
ä¼ģä¸ļ ä¹ĭä¸Ģ
åŁİ åħ³
æıĲä¾Ľ äºĨä¸Ģä¸ª
åıĤåĬł ä¼ļè®®
ï¼Į ï¼Ī
ä¸İ åĲ¦
ç¾İ éĩĳ
æİ§åĪ¶ åĴĮ
è£Ĥ çº¹
è¦ģ å°Ĩ
æĥ °
çĸ«æĥħéĺ²æİ§ å·¥ä½ľ
æĽ¾ æľī
ä¾Ľ åħ»
åĪĨéĴŁ çļĦ
åŃŁ åĬłæĭī
å¯¹ ä»ĺ
åħĪ åıĳ
ç¥ŀ ç¤¾
åºĶçĶ¨ åľ¨
ç»¼ ä¸Ĭ
æ°Ķè±¡ å±Ģ
æį £
äº¬æ´¥ åĨĢ
ä¸Ģ éĶ®
å¥½ å¤ļ
ä¸ŃåĽ½ çİ°ä»£
å»ºè®¾ ä¸Ń
çĽĬ çĶŁ
ãĢ ľ
çļĦ çİ°ä»£
åĲĮ ä¸º
æĬĢå·¥ åŃ¦æł¡
æĹ¶ å°±
çĥŃ æ½®
âĢĿ ï¼ģ
åºķ åº§
å³ Ļ
ä¸Ĭ å°Ĩ
æĹ¥ æĸĩ
åı³ æīĭ
åħ´ ä¸ļ
ç§» äº¤
åľ¨ ä¸Ģæ¬¡
ä»¥ èĩ³
åĪĨ å±Ĥ
èģĮ æķĻ
ĠR e
ä¹ į
ä¸įå°ĳ äºº
æĺ¯ æĪĳä»¬çļĦ
âĢĿ ï¼Ł
å¯¹æĸ¹ çļĦ
æ¸ħ åĩī
è®¾å¤ĩ å®īè£ħ
l er
äºĨ åĲ§
éķĩ éķ¿
éŁ¦ å°Ķ
éĥ¨ å§Ķ
è¨Ģ ä¹ĭ
å®ŀéªĮ åŃ¦æł¡
çĲĨè®º çłĶç©¶
èĩª ç«ĭ
æł¼ æĸĹ
çļĦ åŃ¦æł¡
åľ¨ åħ¶ä¸Ń
è°ĭ æĿĢ
è¯Ńè¨Ģ åŃ¦
è¯īè®¼ æ³ķ
éĩį å¡ĳ
æ¸© åĵ¥
å¾ģ æĪĺ
ç©¿ éĢı
æľĢå¤§ åĮĸ
æĭ Ĥ
ç¬Ķ çĶ»
C L
å¯ ¥
çŁ¥ æĻĵ
åķĨ éĵº
å»ºçŃĳ æĸ½å·¥
åĵĪå°Ķæ»¨ å¸Ĥ
ä½İ å»ī
æīŃ è½¬
æº ħ
æĺĮ åİ¿
èĬ± æ¤Ĵ
å¥Ĺ é¤Ĳ
åı¯èĥ½ä¼ļ å¯¼èĩ´
æĪĸ ç§°
æīĵ ä¸ĭ
çĶµåŃĲ æĬĢæľ¯
èĤ© è´Ł
å®ŀä½ĵ ç»ıæµİ
ãģ ¤
åŁ¹è®Ń åĴĮ
ç»ĵæŀĦ æĢ§
ä»£çĲĨ æľºæŀĦ
çļĦ å·¥åħ·
æ³ķå¾ĭ è§Ħå®ļ
æ·± å¾Ĺ
ç¬¬ä¸ī åŃ£
å¤§ åĿĿ
å½ĵ æĻļ
çĶŁäº§ æĪĲæľ¬
æĻ® å°Ķ
ç¥ŀç§ĺ çļĦ
åĮĹ ç«Ļ
çŁ³ éĹ¨
èĢ¶ å¤«
æľīäºº è¯´
æĺĤ è´µ
äºº åıĤ
äºĶ æĺŁ
ãĢĤâĢĿ <\/
å¾Ĵ æŃ¥
ä¸ĭ æ¬¡
æŃ¦ åĬŁ
åĭĥ åĭĥ
çļĦ äº¤æĺĵ
è°ĥ åĴĮ
al k
ä¸įå¿ĺ åĪĿå¿ĥ
åĪ° çĽ®åīįä¸ºæŃ¢
å·´ åħĭ
å®ľ åħ´
çĶ±æŃ¤ åı¯è§ģ
o int
ä¸Ģ éĹ¨
å¿ĥ æĢĿ
èĭ ĩ
æ¸ħ åĩĢ
æĸ½ åĬł
æĸ¹æ³ķ çļĦ
æ¬º è¯Ī
ä½İ è¿·
æĺ¯ä¸Ģ æľ¬
åħīä¼ı åıĳçĶµ
ä¸į éĢļ
çī¹ æĸ°
ä¸ŃåĽ½ åĨľä¸ļ
åĽł åľ°
æŀĦ åĽ¾
è¿ŀ çİ¯
é¢Ħ èµĽ
æĽ¾ ç¥ĸ
å¯¨ æĿĳ
åĦĴ å®¶
æľī åĲį
ä¼ł éĹ»
éĶĢ å¾Ģ
åĬŁèĥ½ åĴĮ
çŁ¿ äºķ
æĺİæľĿ æĶ¿æ²»äººçī©
è¿Ļ åľ¨
æ±² åıĸ
åı¯ çŁ¥
åįĹ è¾¹
ä¹Ķ æľ¨
p ro
è´Ł åİĭ
å¤§å®¶ åľ¨
èĲ½ ä¸ĭ
è¿Ļæł· åı¯ä»¥
è´µ éĺ³å¸Ĥ
éĵľ çīĮ
ç¾ ļ
èĩªå·± æĺ¯
åĩ ³
åħįè´£ å£°æĺİ
ä¸¤ éĿ¢
åįĬ çĲĥ
æľī åĨľæĪ·
èĩª èĲ¥
æľĢ åıĹ
æ²» çĹħ
åĽº çĦ¶
ä½ĵèĤ² ä¸Ńå¿ĥ
A c
çŃī éĩįçĤ¹
åĪĽæĸ° åŀĭ
å¢ŀéķ¿ çļĦ
ï¼ Ļ
æ²³ çļĦ
éĶ» éĢł
ä¸ª é¡¹çĽ®
è¿ŀ çº¿
çłĶç©¶ä¼ļ çĲĨäºĭ
ä¸Ń éĢĶ
å¤§ é£İ
æĸ° èį¯
æĲ ģ
å¤ĦçĲĨ åĲİ
å¥¥ çī¹
éĢļå¸¸ ä¼ļ
å¢ĵ èĳ¬
æ¶ī æ¡Ī
çĹħ æĤ£
çĶ³è¯· è¡¨
ä¸ªæĢ§ åĮĸçļĦ
å¤ļæ¬¡ è¢«è¯Ħä¸º
åħ¶æ¬¡ æĺ¯
ä¸¤ åľº
æŀģ éĢŁ
é»Ħ åĨĪ
éĵ¶è¡Į çļĦ
åı°ä¸Ń å¸Ĥ
ä¸Ģ ä½ĵçļĦ
åľ¨ åĲĮä¸Ģ
ä¸ĸ ä¸Ĭ
å®ŀæĸ½ åĬŀæ³ķ
o le
åľ¨ åĲĦ
å®ĺ åħµ
ä»¥ éģ¿åħį
ä¸Ń çļĦä¸Ģç§į
æ²¡ äºº
éĹª åħī
ä¸į è¯´
å¹² æ¶ī
æŃ¦ å¤·
çĸı æķ£
å¤§ å¸Ŀ
åĲİ äºİ
ä¹Ĳ æĽ²
å¹¶ ç»ĵåĲĪ
ä¹Ĳ äºİ
ç§ĺ é²ģ
æ²¼ æ³½
åħ¬åħ± åľºæīĢ
åħĳ æį¢
ä¸Ģ çĲĥ
åį° ç«ł
oo t
èħ ĭ
çĩĥæĸĻ çĶµæ±ł
M T
ä¸Ģ çľ¼
å³ ¦
æľ¬ äº§åĵģ
çĽĽ å¤§
åĶ¤ éĨĴ
åľ¨ åĲĮ
å¹´ ä¸ĸçķĮ
äºº å¯¿
å½ĵ ä»ĸ
åĻ ¶
ä»Ĭ å±ŀ
ç¤¾åĮº å±ħå§Ķä¼ļ
éļıæĹ¶ éļı
åĲ ¡
åĮĹ æ¬§
æģ© æĸ¯
å·¥ éĥ¨
é£İ éĢŁ
å¯Į è±ª
åħ¨ æĺİæĺŁ
å¤§åŀĭ çļĦ
å¤§ éĥ½
åıĳå±ķ ä¸Ń
è¾¾ ä¸įåĪ°
æİ¥ æĽ¿
æľºæ¢° åİĤ
åįĹæĺĮ å¸Ĥ
äºĮ æ¥¼
çĿĢ èī²
åĩĨå¤ĩ å·¥ä½ľ
æĭ ¢
è¯ķ è¯ķ
æĶ¹éĿ© çļĦ
ä¿¡æģ¯ ä¸Ńå¿ĥ
çŁŃ ç¯ĩå°ıè¯´
ä¹° åĪ°
å¢ŀéķ¿ éĢŁåº¦
æĺĨ ä»ĳ
Ð¸ Ñ
ãĢĭ ï¼Ľ
ä»· ä¸º
çļĦå¤§ éĥ¨åĪĨ
åĲĮ èĥŀ
æŀģ åº¦
å°ĸ ç«¯
æŁ³ å·ŀ
æĪĸ åħ¶
åĪĽ è®¾
å½Ĵ æĿ¥
è®ºæĸĩ éĽĨ
å¹ķ åºľ
èģĺ ä»»
çĸ«æĥħ æľŁéĹ´
ill iam
èĥ½ æķĪ
åĲİ æīį
èµ° è·¯
åı¬å¼Ģ çļĦ
æģ° æģ°
åıĳ çĤİ
ä¸ª æĿĳ
ä¸İ å®ŀè·µ
er o
æĪĸèĢħ è¯´
AC ç±³åħ°
Ġ #
ç§Ł æĪ¿
å¦ĸ æĢª
äºī è®º
çĽĽ è¡Į
åħħåĪĨ èĤ¯å®ļ
è¿ĺ éľĢ
æľī åħ¶
åŃ¦ å¹´
æĹ¥ åĿĩ
åīį å¤ķ
èĬĤ æ°Ķ
ç§ĳæĬĢ å±Ģ
å±ħ å£«
ç»ĵæŀľ æĺ¾ç¤º
æīĢ åĲ«
è¡¨ çİ°åľ¨
åĽ¢ åľĨ
è¯ķ åį·
åģ¥åº· ç®¡çĲĨ
ä¸Ńå°ı åŀĭ
çļĦ èµĦæĸĻ
äºĮ ä¸Ń
å¤§ çīĩ
åħĥ æĹ¦
äººåĬĽèµĦæºĲ ç®¡çĲĨ
æĹ¥ åĩº
çİ»çĴĥ çº¤ç»´
æµ· æ¸¯
R ed
çļĦ éĺ¿
æĶ» åĬ¿
çĨŁ çŁ¥
åĮĸ èº«
ä»£ ä¼ļ
åŁİ ä¸Ń
æ¢ ¢
åľĨ éĶ¥
è®¢ ç«ĭ
çĶ» åĥı
çİ© æ¸¸æĪı
å¼ĢæĶ¾ çļĦ
æľ¬ èįī
æľĢ èĳĹåĲįçļĦ
ä¸Ŀç»¸ ä¹ĭè·¯
A g
æĸ° éĻĪä»£è°¢
éĿ¢ æĿ¡
å¤ļåħĥ åĮĸçļĦ
åŃĹ æł·
åŁ¹åħ» äºĨ
æ»¤ èĬ¯
Ġ ç½Ĺ
å¹¶ è¡Į
ä¸¤ ç»Ħ
ä»Ĭ æĻļ
èİħ ä¸´
ç«ĭè¶³ äºİ
äºº æĥħ
æµģ åĲĳ
èĩ´ çĶµ
æ¼« æŃ¥
å¥½ åĲĥ
æĪĸ ä¸ªäºº
å¸¸ çĨŁ
ç©ºæ°Ķ åĩĢåĮĸ
å¹´ æľŁ
èĢģ æĮĿ
æ´»åĬ¨ åĴĮ
åįģä¸ĥ å¹´
æ¸©åĵ¥ åįİ
çļĦ çī¹å¾ģ
å¹´ ä»İ
âĹ Ĩ
å¦Ĥ å®ŀ
ç¥ŀ èĪŁ
åıĪ ä¼ļ
åĲ¦ å®ļ
æ¸Ĳ è¿Ľ
ç¾¡ æħķ
F A
åĽ½ ä¸Ń
åī¯ äº§åĵģ
ä¸º æĪĳ
é©±éĢĲ èĪ°
åı¯ çĩĥ
ä»ĸ æĮĩåĩº
åħ¬åı¸ å·²
åĤ¨ éĩı
çĹħæ¯Ĵ æĦŁæŁĵ
çĤ ľ
æĸ¹æ³ķ æĺ¯
éĿł è°±
åĬłçĥŃ åĻ¨
äºĨ è¿Ļä¸ª
å¢ŀåĬł åĪ°
F ran
å¤ļå¹´ åīį
çİĩ è¾¾åĪ°
éĢģ å¾Ģ
ä¸ĥ åįģ
èľ ¿
F S
ç¥ŀ ä»Ļ
é¸ ¥
éĩİ æĪĺ
çŃī åħ¶ä»ĸ
èŃ¦ æĬ¥
ç«ŀäºī ä¸Ń
ä¸ªå·¥ä½ľ æĹ¥åĨħ
Ç Ĵ
åŀĭ åĴĮ
åĨ² éĶĭ
æĹ¶ éĴĪ
ä¼ł çĥŃ
åħ·æľī è¾ĥé«ĺçļĦ
åħħ æ²Ľ
æĿ¡ä»¶ åĴĮ
iv er
åħ¨ éĺŁ
è½¬ æĪĺ
æ·± æµ·
Ġ å¯¹äºİ
å¹´ éĿĴ
åĲĦ æł·
ç²¾ åĪ¶
éķĩ åĮº
Ġ ä½ł
åĽ½ èĲ¥
çĿ ¾
åĪĨéĴŁ åĨħ
åīįæīĢæľª æľīçļĦ
åīį è¾Ī
æµģ æ´¾
æīĵ å¥½
ãĦ¨ãĦ ¢
W S
ä¹ī å¤§åĪ©
çļĦä¸Ģ é¦ĸ
æĳ© æł¹
çĶµåĬĽ ç³»ç»Ł
ä½Ĩ å¥¹
æĸŃ è·¯
åĩł åįĥ
åħ¨åĽ½ çļĦ
å²Ĺä½į ä¸Ĭ
æĢ» ç«Ļ
è¯· åĭ¿
çļĦ æ°´å¹³
å°¼ æ³Ĭå°Ķ
äºİ ä¸ĸ
å¤ļ äº©
åħ± çĶŁ
åħ»æ®ĸ ä¸ļ
çŃī åĲĮ
è¿Ļ ä½¿å¾Ĺ
å¤ĸ ä¾§
èĥľ ä»»
ä¸»åĬŀ æĸ¹
éĹ º
ç½® ä¸ļ
åĪĩ çīĩ
å°ĺ åŁĥ
æľī å¤ļç§į
é«ĺ ä¸ĵ
æľĭåıĭ çļĦ
æł¹æľ¬ ä¸Ĭ
ç²¤æ¸¯æ¾³ å¤§æ¹¾åĮº
å°ı çĻ½
å°Ķ åħĭ
åľ°çĲĥ ä¸Ĭ
æĹł é¡»
ä¸İ æĸ°
çł ¾
è®¾è®¡ ä¸Ń
æĸ°éĹ» åıĳå¸ĥä¼ļ
å¥¶ ç²ī
è¿Ļ è®©
çºª å§Ķä¹¦è®°
åĿ¦ è¨Ģ
è¤ Ĵ
æĶ¿åºľ åĴĮ
äºº æľº
SQ L
çī© è¯Ń
å¸¦ èµ°
æīĭ æŀª
åı° å±±
åįĩ ä¸º
çľģéģĵ åı°
çŃī å¤ļå®¶
æŃ¤ ä¸¾
å¼Ģæĭĵ åĪĽæĸ°
çĬ¹å¤ª äºº
è®¾è®¡ åıĬ
äºļ ç¾İ
ç§ĳæĬĢ åıĳå±ķæľīéĻĲåħ¬åı¸
éĥ¨åĪĨ ç»ĦæĪĲ
ç¥ŀ å·ŀ
èĢĥ åıĸ
od el
æĽĻ åħī
a j
ä¹ĭ æŃĮ
éĵ¶ çīĮ
è¸¢ çĲĥ
èĮĦ åŃĲ
å®ŀ åĲį
é¢Ĩ æĤŁ
éĢł è¯£
åĩı åİĭ
ä¸į åģļ
å¤© çĮ«
é© ¯
ä¸įæĸŃ å¢ŀåĬł
å¤§ ä½ĵ
Ch atGPT
ä¸į è®©
äº¤ éĶĭ
éĢī åĮº
åħ·æľī ä¸Ģå®ļ
ĠS ystem
è¢« æĶ¶åħ¥
èį· åı¶
? âĢĿ
w e
å¼ķ åĬĽ
ä½ķ ç§į
çļĦäºº åĬĽ
ol y
éĢĤåĲĪ èĩªå·±çļĦ
å¼Ģè®¾ äºĨ
åıĮ éĿ¢
å¤§ æ´ĭ
æķ´ å¤©
æĺĵ æĩĤ
ä¹ł é¢ĺ
è¿ĩ å¤ļçļĦ
çļ® çĲĥ
å§Ķåĳĺä¼ļ ä¸»å¸Ń
æĪª éĿ¢
åī¥ ç¦»
åľ¨ åħ¶ä»ĸ
è¦ģ åģļå¥½
in es
åı³ è·¯
çĿ£ å¯Ł
æĬĢæľ¯ åĬĽéĩıéĽĦåİļ
å¹´ æĭħä»»
åĽŀ äºĨ
çĴ Ĳ
ä¸į å¹³
åĮ»çĸĹ ä¿Ŀåģ¥
æİ¨ éĢģ
MV P
b o
ä¸Ģ å¹¶
è¿Ļ éĥ¨åĪĨ
çĽ¸åħ³ å·¥ä½ľ
åİĮ æ°§
ç´§ è¿«
å·¥åķĨ å±Ģ
çİĦ æŃ¦
åĲĪ å½±
èıł èıľ
åĥ »
éĿ¢ç§¯ è¾¾
æĶ¿åĬ¡ åħ¬å¼Ģ
ä½ľ æ³ķ
ä½Ĩ ä¹Łæľī
æĸĩåĮĸ é¦Ĩ
æķ£ æŃ¥
æ³¨åĨĮ ä¼ļè®¡å¸Ī
ç³»åĪĹ æ´»åĬ¨
äº§ éĶĢ
èĮ ī
è¶ħ é«ĺ
åľ¨æŃ¤ æľŁéĹ´
è¯· æĤ¨
åħįçĸ« ç³»ç»Ł
ä½Ĩ éļıçĿĢ
åĨľ åŃ¦éĻ¢
å®ļä¹ī ä¸º
Ġ ä¸»è¦ģ
M R
ä¸º æ³ķåĽ½
åıª æĥ³
æĻ® ç½Ĺ
åĪ¶ åĽ¾
ä¼ģä¸ļ æīĢå¾Ĺç¨İ
t a
åŃ¦ æ´¾
æĽ´ éķ¿
å¾· åĨĽ
åħ« è§Ĵ
äºĶ èĬ±
ä¸Ģ æł¼
ä¸ĩ åįĥ
åķĨ ä¸ĺ
æľĪ åħī
æ²»çĸĹ çīĽçļ®çĻ£
åįĵè¶Ĭ çļĦ
è½¦ ä¼ģ
æµİ å®ģ
åŃ¦æľ¯ æľŁåĪĬ
èµĦæł¼ è¯ģ
ç¼¤ çº·
å®ī å®ģ
æ£ £
çĻ½ é©¬
é¦ĸ æ¼Ķ
å¥ĩ çī¹
æ£Ģå¯Ł å®ĺ
i us
ä½ °
æĮ£ æīİ
ä¸ĵç²¾ çī¹æĸ°
åıĳå¸ĥ åħ¬åĳĬ
æ´ŀ ç©´
äº¿ç¾İåħĥ çļĦ
è¿Ļ åľºæ¯ĶèµĽ
æĬĬ èĩªå·±çļĦ
åŁºæľ¬ æĥħåĨµ
èĭ±åĽ½ çļĦ
ä¼ł åħ¥
æµĭ ç®Ĺ
èĢ½ è¯¯
å¹´ åħ¨æĿĳ
å¤© åŃĲ
äºĶ æĺŁçº§
æķĻèĤ² å·¥ä½ľèĢħ
èĤ¡ æľ¬
é² Ī
åĨ¬ çĵľ
æĭ §
åĪĴ å½Ĵ
çĴ Ģ
æŃ£ å¾·
å§Ķ ä»»
éĺ¿ èģĶ
çļĦ æľĢæĸ°
å¼ Ľ
æľįåĬ¡ åħ¬åı¸
æ²³ å¸Ĥ
åĩºæĿ¥ äºĨ
è¯ «
çłĶç©¶ èĢħ
å®Ŀ èĹı
åŁº æķ°
èİ Ĵ
çº¦ ä¼ļ
ç½ĳç»ľ ç§ĳæĬĢæľīéĻĲåħ¬åı¸
å¿ħä¸įåı¯ å°ĳçļĦ
ç¤¾ä¼ļ åĽ¢ä½ĵ
å®īåħ¨ äºĭæķħ
äº² åıĭ
å¸ķ å°Ķ
æĵ¦ æĭŃ
æĪĲä¸º ä¸ĢåĲį
ä¸º ç¡®ä¿Ŀ
æľ¬ åįķä½į
Ġ åĽ½å®¶
äºĭ çļĦ
æĹ¥ å¤ľ
æµģ æĺŁ
åħ³ç³» åĪ°
åľ¨ åľº
é¾Ļ æ½Ń
ç»ıåİĨ è¿ĩ
è¢« åĪĹåħ¥
æĹł å¤Ħ
å¿«ä¹Ĳ çļĦ
çĽ®åīį æŃ£åľ¨
ç¬¬ä¸ī èĬĤ
æ·¡ çļĦ
çĪ± æĬ¤
æĸ° æľĪ
LO GO
T IM
æĿ¥ åĽŀ
è®° è´¦
æīĵ åĵį
ãĦ ľ
å¥Ĺ è·¯
å¥ĭ åıĳ
æĤ¬ å´ĸ
éľ¸ çİĭ
æĭ Ļ
çŃī éĥ½
å¼º æľīåĬĽçļĦ
çŁ¿ åĮº
è·³ èĪŀ
çªģåıĳ äºĭä»¶
ä½³ ä½ľ
çļĦäºĭ çī©
æ°§åĮĸ éĵĿ
å»ºéĢł å¸Ī
) âĢĿ
ä¸Ń æ®µ
å¹´ åıĪ
ä»¥ éĺ²æŃ¢
çĥŃ åĬĽ
åĳĬè¯ī æĪĳ
é¼» åŃĲ
åĪĳäºĭ è´£ä»»
æľī ä»¥ä¸ĭ
ä½Ľ åĥı
èļ Ŀ
ç¢³ çº¤ç»´
èĴĤ äºļ
è¯¥ ç³»ç»Ł
çļĦäºº ç±»
æ¤įçī© åĽŃ
è¾¹ åĮº
å¹³æĸ¹ç±³ çļĦ
åºĶæĢ¥ é¢Ħæ¡Ī
âĪ ¶
èĹı æĹı
TV B
ä½¿ æĪĳä»¬
æŀģ ä½³
ç»Ĩ å¾®
çĳ ¾
çĤ ½
ä¸ī çľģ
é¦ĸ éĥ¨
çĶ» éĻ¢
è®¡åĪĴ åľ¨
è¶ĬæĿ¥è¶Ĭ å¤§
çĽ¸å¯¹ åºĶ
åļ £
pr ess
ä¹ĭ åĪĨ
éº» è¾£
åīª çº¸
éĻį çº§
éĢĲ ä¸Ģ
åĩĢæ°´ åĻ¨
åĶ® ç¥¨
U P
çľģçº§ ä»¥ä¸Ĭ
ä¸į ç®Ĺ
æĸ° åĽĽåĨĽ
ç§Ģ ä¸½çļĦ
æłĳ çļĦ
è¿Ļä¸ª è¯į
åľ¨ è¯»
å¤į åı¤
è´µ äºº
ä½ĵçİ° åĩº
åĪĨ åıĳ
å·¥ç¨ĭ åĴĮ
æ´Ľ ä¼Ĭ
åĩĨç¡® åľ°
å°ĳ äºİ
åıĬ åĲĦç§į
æīĵéĢł äºĨ
ä¸ī çĶ²
æ²³ åĨħ
è¿ľ ä¸ľ
ç½ķ é»ĺ
æĺ¯ äººç±»
åĽ½éĻħ ä¸Ĭ
ä»¤ æĪĳ
è§ĦèĮĥ æĢ§
çļĦ æĥħå½¢
åĽĽå·Ŀ å¤§åŃ¦
è¢« æįķ
ä¸¤ äººçļĦ
åĨį æĿ¥
çĪ¶äº² çļĦ
ĠãĦĴ ãĦ§ãĦ
é«ĺè´¨éĩı åıĳå±ķçļĦ
ä¸ «
çĽ´ éĢļ
t o
ä¼ł åĩº
åĩºçīĪ äºĨ
éĽĦ æĢ§
éĩį çİ°
åİŁ èĳĹ
å·¥ç¨ĭ éĢłä»·
çŁ³ æ¦´
ä¸º åħ¨åĽ½
åįĹ ä¸ĭ
å»ºè®¾ å·¥ä½ľ
åī ĥ
çŃī åĲĦ
èº« åĲİ
åĽ¾ è§£
æĺ¯ä¸Ģ æĿ¡
åĲ¬ è¯ģ
çıį è´µçļĦ
C G
åľ¨ çľģ
åĢĻ è½¦
æ¯į åħ¬åı¸
è¾ĥä½İ çļĦ
è¯º åŁºäºļ
åĪĽéĢł ä»·åĢ¼
ä»ĸ ä»İ
æ³ī å·ŀå¸Ĥ
EE E
éĢī èĤ²
ç²¾ ç¾İçļĦ
åıĸ æļĸ
éĿŀå¸¸ ç®Ģåįķ
ĠC or
æĸĩåŃ¦ ä½ľåĵģ
çŃī é¢ĨåŁŁçļĦ
å°ı åĵģ
åįķ æľº
ç»Ļ æĤ¨
if e
æľī ä½ķ
åĪ» æĦı
è°· çī©
çŁ³å¢¨ çĥ¯
ä¹ĭ äºİ
æĥ³ çŁ¥éģĵ
åĬ© åīĤ
æĮī ä¸ĭ
æŃ¦ æŀĹ
èľľ èľĤ
éĥ ´
ç»ıèĲ¥ æĿĥ
åĬł éĩĮ
äºº ä¸į
æĪĲåĳĺ åĽ½
è¶ĭ äºİ
éĢĥ èĦ±
çļĦ åĲĮåŃ¦
ä¸İ ä½ł
å§ĭ ç¥ĸ
å®¤ ä¸»ä»»
éĹ½ è¥¿
æĪĳ æīĢ
éģ Ĳ
è¾¾ åħĭ
æºª å¸Ĥ
å¸Ĥåľº åĴĮ
æĿĤ çī©
è¡ĮæĶ¿ åĮºåŁŁ
å°½éĩı éģ¿åħį
åŃ¦ åĽŃ
æŀľ åĽŃ
æľī ä¸Ģæ¬¡
çļĦäºº å£«
çĶµåŃĲ ç§ĳæĬĢæľīéĻĲåħ¬åı¸
è¿ĳ æĿ¥
åıį æ¸ĹéĢı
å®Ī ä¿¡
é»Ħ æµ·
çĶµæ°Ķ åĮĸ
å½Ŀ æĹı
ç¦» ä¼ĳ
éļĲ èĶ½
çĲ µ
ä¹ĭ åħī
æłĳ ç§į
é±¼ çļĦ
æĹ¥ åĴĮ
éĴ ´
åİ¿ éģĵ
è¸Ĭ è·ĥ
èľ¿ èľĴ
å®ī å±ħ
çº¿ åŁİå¸Ĥ
èĢģ åŃĲ
é¡¹çĽ® éĥ¨
åĵĪ èĲ¨
å¾Ģå¾Ģ ä¼ļ
O H
u ro
èĥ½ æľīæķĪ
ä¸ĩ èĭ±éķĳ
ï¼ļ âĢĺ
æł¸å¿ĥ æľŁåĪĬ
è§Ĩé¢ĳ ä¼ļè®®
wit ter
z ui
çľģ éķ¿
ä¸įåĲĮ ç±»åŀĭçļĦ
å»ºç«ĭ åľ¨
ä¿® çĤ¼
æľī èī¯å¥½çļĦ
åı¯ä»¥ æıĲé«ĺ
åı² è®°
åºŁ æĹ§
åŁºéĩĳ é¡¹çĽ®
ç¬¬ä¹Ŀ å±Ĭ
å¹´ æľŁéĹ´
å°ı çº¢
ä¸¤ éĥ¨
èĬ± èİ²
æĬ¢ æĸŃ
æĹłçĸĳ æĺ¯
ç§¯æŀģ éħįåĲĪ
æĪĺ çļĦ
çļĦäºº æĿ¥è¯´
çĶŁçī© ç§ĳæĬĢæľīéĻĲåħ¬åı¸
ç¨ĭåºı è®¾è®¡
å¤© å±±
éĩĳ çĲĥ
çĽ´ éĶĢ
åľ°è´¨ åŃ¦
r es
æľī ä¹¡æĿĳäººåı£
è¯ģåĪ¸ æĬķèµĦåŁºéĩĳ
å¤§ æŃ£
æĢ»ä½ĵ è§ĦåĪĴ
æĶ¶è´¹ æłĩåĩĨ
Ð¾Ð ²
æľ¬ çº§
èīºæľ¯ èĬĤ
åįģåħ« å¹´
æ¸ħæĻ° çļĦ
çļĦ ä¸ĵå®¶
ç© ¹
çļĦ åı¯èĥ½
æĺ¯ å±ŀäºİ
å½± è¯Ħ
è¶ħ æłĩ
å¹¶ ä»İ
è·¨ åº¦
æ¯ķä¸ļçĶŁ å°±ä¸ļ
åĩĿ åĽº
æĮĩ è´£
ç§Ĵ éĴŁ
å£ģ åŀĴ
ä¸Ń åħ³æĿĳ
æĤŁ ç©º
äº¿ ç«ĭæĸ¹ç±³
ä»» æľŁ
ä¸įçŁ¥ ä¸įè§ī
á ŀ
åħ¨ åı°
åĬŀ ä¸»ä»»
æ¤ ¿
çº¯ æ°´
è®¡ç®Ĺæľº ç½ĳç»ľ
åĮł å¿ĥ
ĠY ou
ç§¯ æ°´
æķĻèĤ² åŁºåľ°
é¢ į
åĮº çº§
åĬł æĮģ
ä¸Ŀ ç½ĳ
çŁŃæľŁ å¤§åŃ¦
åĪĨ å·®
æ°Ķ çĽ¸
èµĦæºĲ ä¼ĺåĬ¿
æĭŁ å®ļ
ä¸į å°ıå¿ĥ
é¦ĸ èĬĤ
æŁ¥ éªĮ
è¯º æĸ¯
éģĵè·¯ ä¸Ĭ
å»Ĭ åĿĬ
ä¿®éģĵ éĻ¢
è¿ĩ åī©
æīĢ è¾ĸ
ä¸ī åħ«
ç¬¬ä¸Ģ æŃ¥
é¡¶ å±Ĥ
Ġ èĩª
åĬŀ æ¡Ī
åİĨ å±Ĭ
ä¸ļåĬ¡ èĮĥåĽ´
åħĶ åŃĲ
æľ¬ ä½ĵ
çĪ¶æ¯į çļĦ
åºŁæ°´ å¤ĦçĲĨ
çĪ±åĽ½ ä¸»ä¹ī
é¦ĸ æ¬¾
çī©çĲĨ åŃ¦å®¶
ï¼ ĸ
æĪ· éĥ¨
åŃ£ åĨĽ
å¹¿æ³Ľ çļĦåºĶçĶ¨
èİ± èĮµ
è´Ŀ å£³
å¤´ è¡Ķ
åıĳæĮ¥ çĿĢ
å¤ļ åıĺ
æĸ° çīĪ
éĩį åıł
åıĸ èĩª
æľª æĽ¾
ç»ĵæŀĦ ç®Ģåįķ
è·Ŀç¦» æĿĳå§Ķä¼ļ
çº¢æ¥¼ æ¢¦
Ġ ä½¿çĶ¨
æĺŁ çļĦ
ä¸Ģä¸ĭ åŃĲ
åĮº äººæ°ĳæĶ¿åºľ
åīį ç½®
åĿļ æŀľ
çİ°åľ¨ æĺ¯
èģĶç³» æĪĳä»¬
ä¸į ç»ı
åŃĹ èĬĤ
æĸĩåĮĸ ä¸Ńå¿ĥ
äºĨ åħ¶
å®ŀ å¹²
äºĽ ä»Ģä¹Ī
æĬ¤ åį«
éĩįè¦ģ æĢ§
åĬłå·¥ å·¥èīº
æľº ä¸Ĭ
æİĴåĲį ç¬¬ä¸Ģ
Ġ æµ·
ç¼ĸ æİĴ
æĬĴ æĥħ
éĿĻ æŃ¢
åĪ¸ åķĨ
è½¬æį¢ æĪĲ
ä¹ĭ å¤ļ
åı¤ æľ´
è¹ ²
æ±Ĺ æ°´
ä¼łåªĴ æľīéĻĲåħ¬åı¸
å´Ń æĸ°çļĦ
å°± ä¸įèĥ½
äºĶ å½©
åħ¬åı¸ ä½įäºİ
æīĵ éĢłæĪĲ
å¤ļå¹´ çĶŁ
åĵ® åĸĺ
çĤ¹ çģ«
g y
åĪ° åĮ»éĻ¢
éĢł ç¦ı
çİĭ å®¶
ãĥ £
åĲĥ èĭ¦
o T
åºĬ ä½į
ç²¾åº¦ é«ĺ
Tro j
æĺ¯ä¸Ģ æł·çļĦ
å¹´åº¦ æľĢä½³
åıĳåĬ¨ æľºçļĦ
æİĴæĶ¾ æłĩåĩĨ
ev el
åĮĪ å¥´
çļĦé«ĺæĸ°æĬĢæľ¯ ä¼ģä¸ļ
æĺ¯ åįģåĪĨ
åı¯èĥ½ åľ¨
åºı å¹ķ
çħ¤ åĮĸå·¥
è¶ĬæĿ¥è¶Ĭ é«ĺ
å¤Ħ ä»¥
çļĦ çĭ¬çī¹
åĩºçİ° éĹ®é¢ĺ
å¸® ä½ł
æ¯ı ç§į
èģĶ å¸Ń
èŀ ĥ
çŃ¾è®¢ äºĨ
ä¾Ŀèµĸ äºİ
äºº æµģ
çĹħ èĻ«å®³
æĭ¿ åĪ°äºĨ
is tr
PC I
ä¸Ģ åłĤ
åı¯ä»¥ æĬĬ
åĨľä¸ļ äº§ä¸ļåĮĸ
ä¸ŃåŃ¦ é«ĺçº§æķĻå¸Ī
ĠF or
çľŁç©º æ³µ
è¥¿çº¢ æŁ¿
æī Ĵ
åįĹ éĤ»
éŁ ¬
K EN
æŃ£ åĲĳ
æµģ åĩº
ç³»ç»Ł å·¥ç¨ĭ
éĽĨåĽ¢ èĳ£äºĭéķ¿
æ¶¨ ä»·
æĬ½ æŁ¥
ä¸į åĲĪçĲĨ
æ¶² çļĦ
æ¯Ĵ åĵģ
ç§ §
æŃ¤ åī§
è¾ħ æĸĻ
éĢī åŀĭ
åħĭ éļĨ
âĢ² âĢ²
æĶ¿åºľä¿¡æģ¯åħ¬å¼Ģ å·¥ä½ľ
éĥ½ ä»¥
æ¸¸ ç¦»
çªĹ å¸ĺ
å¢ĵ åľ°
æĪĳ å±Ģ
åĲĦä¸ª æĸ¹éĿ¢
ä¸į åĲĪ
é«ĺ äº§
ç©º è¿Ĳ
åĪĨæŀĲ ä¸İ
å¼¥ æ¼«
éĺ² å°ĺ
åħ» åĪĨ
ç²ĺ èĨľ
æ¡Ĥ èĬ±
çļĦä¸Ģ åįĬ
åĽ¢éĺŁ åĲĪä½ľ
æĹł å£°
å¸Ī çĪ¶
ä½Ĩ åĽłä¸º
æĬķ èŀįèµĦ
å¤ª é«ĺ
æ°¸ å®ī
ä¸Ń è¥¿éĥ¨
çĹħ éĺ²æ²»
æ¼Ķ ä¹ī
ä¸ĢçĽ´ åĪ°
åĩŃåĢŁ çĿĢ
ä¸Ńçº§ äººæ°ĳæ³ķéĻ¢
å¹´ å°Ĩ
ä¿Ŀ æļĸ
èĩ´ çĻĮ
å·¦ æīĭ
çī§ åľº
çļĦä¸» åĬĽ
éĩĮ å¥¥
åĽĽ æµ·
éĺ² æ±Ľ
åľ¨ å¾·åĽ½
åıª æĺ¯åľ¨
è¿ĲèĲ¥ ç®¡çĲĨ
Ġ al
åĪĨ æľŁ
åħ¨ è¦ĨçĽĸ
æ°´ åĬĽ
çŁ¥ æĥħ
éĹ®é¢ĺ åĴĮ
éĻį æ°´
å·¥åķĨ æĪ·
SE E
åĩº éĻ¢
è§Ħ éģ¿
å®ĥ å°Ĩ
å®¢æĪ· çļĦéľĢæ±Ĥ
çº¢ è±Ĩ
ä½ĵèĤ² è¿ĲåĬ¨
æĻ ¾
ä¿Ŀ åĬłåĪ©äºļ
å·¥ä½ľ å§Ķåĳĺä¼ļ
æĬĢæľ¯ çļĦåıĳå±ķ
æĬķèµĦ é¡¹çĽ®
éĺ¶æ®µ æĢ§
æĮģ æľīäºº
åı¥è¯Ŀ è¯´
% ~
åĲĪä½ľ åįıè®®
ç£ģ åĬĽ
è´§å¸ģ æĶ¿çŃĸ
åĬ¨ æ¤įçī©
æīĢ èĳĹ
G MP
åľ¨ è¢«
æŃ» åĪĳ
CC TV
G l
ä¸ī åĽĽ
æĪĸ å°Ĩ
è§Ĩ å¯Ł
å¼Ģåıĳ æľīéĻĲåħ¬åı¸
è´£ä»» åĪ¶
äº¿åħĥ çļĦ
å¡ ¾
è½» éĩį
ä»į æĹ§
æĺ¯ åħ·æľī
åĽ¾ çļĦ
å¤ļä¸ª åĽ½å®¶
éħµ æ¯į
å¿« é¤Ĳ
è¿ĺæĺ¯ æ¯Ķè¾ĥ
ä¸º èĥĮæĻ¯
åįģ åł°
èĩª åıĳ
ç§ĳ å¤§
å½© ç»ĺ
K W
çļĦ åĬ¨åĬĽ
åı¯ è°ĥ
æĽ´ ä½İ
çİĭ åºľ
èĢĮ ä¸ĭ
ä¸ī èı±
æķ°æį® éĩĩéĽĨ
åĪĽä¸ļ æĿ¿
æľī æŀĹåľ°
äºĨ æĸ°çļĦ
çĥŁ éĽ¾
å½» æĸ¯çī¹
ä»İæĿ¥ æ²¡æľī
ä¸ĭ ç§°
çī¹åĪ« è¡ĮæĶ¿åĮº
t he
çļĦ éĻĲåĪ¶
å¯¹ æĤ£èĢħ
æ¯Ķ ä¸ĺ
åıĤåĬł å·¥ä½ľ
æĻ®éĢļ é«ĺçŃīåŃ¦æł¡
æģ¶ å¿ĥ
åįĩ åįİ
åĽ½éĻħ å¸Ĥåľº
äºĳ éĽĨ
åħ¨ åĨĽ
éĻ¤ èĩŃ
äº¤éĢļ ä¾¿æį·
å¤ļ åľ°
åĲİ ä¼ļ
èĢĮ çŁ¥
äºĶ è¡Į
ç¬¬ä¸Ģ å¤§
åı¬å¼Ģ äºĨ
ä¿Ŀåģ¥ é£Łåĵģ
æ¼Ĥäº® çļĦ
è´Ł äºİ
åºĶçĶ¨ åľºæĻ¯
æĭ© ä¼ĺ
è¡Ģ çĹĩ
çĹĽ çĤ¹
æĪĳ èĩªå·±
èµĦæºĲ ä¸°å¯Į
æĬĵ ç´§
èŀĥ èŁ¹
èĸ ı
å®ŀéªĮ æķĻåŃ¦
åĽ½ åĢº
æľº æŀª
èµĽ é©¬
åĳ¨ ä¸ī
äº§ä¸ļ åŁºåľ°
èĥ½ æ»¡è¶³
å¢ŀ é«ĺ
æ¯Ľ å·¾
èįŁ èĲĥ
ç§ĺä¹¦ å¤Ħ
åĴĮ ä¿¡æģ¯
åĩº çĤī
è§ĦåĪĴ å»ºè®¾
åĽŀ æĥ³
åĳ¨ åĽĽ
ç¬¬ä¸Ģ éĺ¶æ®µ
éĵĥ èĸ¯
ä¼ ¶
ç»ĵæŀĦ è®¾è®¡
è¿Ļç§į æĸ¹å¼ı
åıĳè¡¨ åŃ¦æľ¯è®ºæĸĩ
ç¼ĸè¾ĳ éĥ¨
æ¿Ģåħī åĪĩåī²
è¢«åĳĬ äºº
åľ¨ å·¥ä½ľä¸Ń
è½¯ä»¶ çļĦ
) -
ä¸Ń éĶĭ
é¾Ļ å²Ĺ
éĻµ åİ¿
çŃ ·
æĮ Ľ
å¤© éĹ¨
è¡¨éĿ¢ å¤ĦçĲĨ
åıĳå±ķåĴĮ æĶ¹éĿ©
å¹´ ç»Ī
åĨħ çĩĥ
åįģ ä¸ª
èĥ½ éĩıçļĦ
åºĶ æł¹æį®
å¼Ģ åĩº
å¾Ĺ èµ·
in c
éĺ¿ å§Ĩ
ç©¿ æĪ´
æŃ£è§Ħ åĮ»éĻ¢
ä»İ å¤´
ä¼ļè®® çĶ±
éĢļå¸¸ åľ¨
ä¸º é¢ĺ
å¤§ å°Ĩ
å¼Ģ å¤´
åĪ¶ å®ľ
éĽħ æĢĿ
ä»»åĬ¡ çļĦ
b a
è®¾è®¡ åħ¬åı¸
er m
èĪª éģĵ
æĬĺ ç£¨
åį°è±¡ æ·±åĪ»
éĺĲ éĩĬ
B E
åĲİ å°Ĩ
è¯· åıĬæĹ¶
æ¹ĸ çķĶ
ç¼ĺ æķħ
w are
å¹´ å·¦åı³
çĶ³è¯· ä¹¦
è¿ŀæİ¥ åĪ°
çļĦ åĳĺå·¥
åĬĽ å¼º
é£İ åĲĳ
åģľ çķĻåľ¨
è¿Ľåħ¥ åĪ°
èĻ¹ æ¡¥
ä¸Ģ çŃī
å½ Ĺ
è¿Ľ æ°Ķ
ç»Ł ç§°
çħ ŀ
åĩı çģ¾
åĪ ¨
çļ® çĤİ
æľīæķĪ æľŁ
æĸĩæĺİ çļĦ
èĲ¥åħ» ä»·åĢ¼
åŁº ç«Ļ
æĹł åĲį
ä¸¤ çº§
ç»Ļ æ°´
å¤ĩ èĢĥ
çĻ½ çİī
æ¼« éķ¿çļĦ
åĴĮ å¤§å®¶
åģļ ä¸ĢäºĽ
ç§¯æŀģ æİ¨è¿Ľ
æ°´åľŁ ä¿ĿæĮģ
è¦ģ å¯¹
çĭł æĬĵ
ï¼ ĺ
å¹´ éķ¿
çłĶç©¶ ä¸Ń
è´¯å½» æī§è¡Į
å½¢åĬ¿ ä¸ĭ
D e
çĸ £
åįİ æ¶¦
æĽ² èīº
å¿į ä¸įä½ı
ç¾Ł åŁº
V OC
å·¥ä½ľ ç»Ħ
äºĮ éĨĩ
çĮİ äºº
ä½ĵç³» åĴĮ
æıŃ çīĮ
åıĹ éĻĲ
æīį çŁ¥éģĵ
åī§ ç»Ħ
å¼Ģå§ĭ åĲİ
ç©Ĩ ç½ķé»ĺ
éĿ©åĳ½æł¹æį®åľ°çļĦ åľŁåľ°éĿ©åĳ½æĸĹäºīåĴĮ
Ġ èµµ
æĢ» æĪĲç»©
æ¨¡åĿĹ åĮĸ
ä¸Ģ æ³¢
å¤§åŀĭ ä¼ģä¸ļ
çļĦ è¯¾ç¨ĭ
æĹ¥ äº§
äºĭ çī©çļĦ
æĹł çºº
æĸŃ éĿ¢
IN G
è°ĥçłĶ åĳĺ
æīĢ ä½¿çĶ¨çļĦ
å°Ĩ è¿ĻäºĽ
éħį ä»¥
éħį ä¹Ĳ
æŃ£å¸¸ ä½¿çĶ¨
è¯ķéªĮ åĮº
æĪĪ å°Ķ
æ± Ĳ
çĻ¾ ä½Ļ
çļĦ èĥ½éĩı
æĬķ ä¿Ŀ
æ¸© å¸¦
ç»Ħ åĽ¢
æ¢¦ è§ģ
ç¡ķå£«çłĶç©¶çĶŁ å¯¼å¸Ī
æĭ ĩ
å¦ Ĵ
æĥħåĨµ åĴĮ
éĢĢ åĮĸ
èĦļ æīĭ
åķĨåĬ¡ éħĴåºĹ
éĺĲè¿° äºĨ
æģ¯ æģ¯
éĽĨåĽ¢ åĨĽ
å¯Ħ å®¿
çļĦ æľīåħ³
ä¹Ł éļıä¹ĭ
é²ľ ç¾İ
æĲ¬ åĪ°
å°ģ éĶģ
åŃĶ éĽĢ
çļĦ åľ£
ä¼ļ å¢ŀåĬł
çĶµ å®¹åĻ¨
ä¸ľ ç«Ļ
æĮģ æľīçļĦ
ä¹Ł ä¸İ
éĿĴ èĬ±
ä¸Ģå®ļ ç¨ĭåº¦ä¸Ĭ
æ·± å±Ĥ
éº» çĸ¹
çŀ °
è§īå¾Ĺ èĩªå·±
åĲ¸ çº³
è°ĥæķ´ ä¸º
å±¥ åİĨ
åĨħ äºļ
æĹł èģĬ
äº² åĴĮ
çĶ³ è¯ī
é²ģ èĥ½
ç»¿èī² å»ºçŃĳ
ä¼ª éĢł
è¯ķçĶ¨ æľŁ
; âĢľ
å®ŀéªĮ å°ıåŃ¦
åıĳ ç¥¨
åħ° èĬ±
ç»¿èī² ä½İç¢³
å¦¨ ç¢į
çĻ½ éĩĳ
çĶ· å£«
è¯º åħĭ
çĥĺ çĦĻ
åħ¨ èģĮ
en er
æ¼«çĶ» å®¶
çļĦ çĶµåŃĲ
æĳ ¹
éĻį ä¸´
è´µ éĩĳå±ŀ
åŁİ åĨħ
æİ¨ éĶĢ
æıŃ å¹ķ
éĩį åĲ¯
è¶³çĲĥ èģĶèµĽ
æıŃ æĻĵ
Ġ âĢĶâĢĶ
æĪĳ æľĢ
æĹ§ å¸Ĥéķĩ
ãĢĤ )
ä¼ļ ä»¥
éŁ³ æķĪ
çŀ ³
è®¾ æ³ķ
ä¹Ł åįģåĪĨ
åºĶ è¯ķ
è½¦ åºĵ
åĪĻ çĶ±
ä¿ĿæĮģ äºĨ
èĢĮè¨Ģ ä¹ĭ
èī¾ å°Ķ
ç»§æī¿ äºº
åºĹ éĿ¢
le d
åľ¨æŃ¤ åŁºç¡Ģä¸Ĭ
åĿļå®ŀ çļĦåŁºç¡Ģ
å¤§ æĺİ
éĢī ä¿®
é»ĳ äºº
ç§»åĬ¨ éĢļä¿¡
åı¯æĮģç»Ń åıĳå±ķçļĦ
è¾ĵéĢģ æľº
èĩªåŃ¦ èĢĥè¯ķ
å®īå¾· çĥĪ
S m
åħļ åĬ¡
æĭ¥æľī ä¸ĢæĶ¯
ä¼Ĭ å§ĭ
åĲ¸å°ĺ åĻ¨
ä¸» ä¸ļ
å¹¶ ä¸¾
éĵ¶å±ĳçĹħ æĤ£èĢħ
çīĪæĿĥ å½Ĵ
æĺ¯ æĬĬ
åıĮ èµ¢
qu e
èĩª åªĴä½ĵ
çĶ³è¯· çļĦ
æĭĸ æĭī
çĭ¬è¡Į ä¾ł
ä¸Ń å¤§
éĩĳ çŁ³
ç¬¦åĲĪ æĿ¡ä»¶çļĦ
çİ°å®ŀ çļĦ
é¥°æ¼Ķ çļĦ
Ġ åīį
ä¸İ åĪĽæĸ°
èĥ ¤
éĻĲ é¢Ŀ
åķĨä¸ļ åĮĸ
èµĦæĸĻ æĺ¾ç¤º
åı¯ä»¥ è¿Ľè¡Į
æĪ¿åľ°äº§ å¸Ĥåľº
åħ¶ æĹ¶
æĬĢæľ¯ çĽĳçĿ£
åı¯ä»¥ èİ·å¾Ĺ
æĬĢæľ¯ æ°´å¹³
èģĶ åĨĽ
é½Ĳ é½Ĳ
è¯´æĺİ äºĨ
æ¶ Ł
es ign
ä¿± åħ¨
ä¸ªä½ĵ å·¥åķĨæĪ·
æį® æŃ¤
é£İéĻ© ç®¡çĲĨ
Ġ ä½ľä¸º
çĶ° éĹ´
äºĮåįģ ä¸Ģ
åįģ éĩĮ
èĮ Ĺ
æĿĥ å±ŀ
çīĽ ä»Ķ
åĩĿ ç»ĵ
èĬŃ èķ¾
æ¹ ĥ
åĲ¸ è¡Ģ
æ´Ĺè¡£ æľº
ä½ĵ åĴĮ
åıĮ çľ¼
ãĦ ¡
å« ¡
ä¸ĵé¡¹ èµĦéĩĳ
å¼Ģæĭĵ èĢħ
åħ« è·¯åĨĽ
ä¿Ŀè´¨ æľŁ
F P
åľ¨ èĩªå·±
è®¾æĸ½ çļĦ
åķ ¶
èĭ ĵ
çĤ® åħµ
æĢ»çļĦ æĿ¥è¯´
åįķ æĿ¿
å¤ĩ æĪĺ
éª¨ é«ĵ
ç£¨ ç»ĥ
KO YO
çļĦ æĹ¥æľ¬
ä¿Ŀ é©¾
äºĶ ç§į
ç»ıæµİ åıĳå±ķçļĦ
ç©¿ ä¸Ĭ
ç§Ĵ æĹ¶
åŃĲ å¼¹
ç«ĭ å¾·
èĩ´ çļĦ
é»Ħ åľŁ
f t
å§Ĩå·´ ä½©
è½ ¼
æĺ¼ å¤ľ
éĽĨåĽ¢ åľ¨
æķĳ æµİ
ä¸ī çŃīåĬŁ
èĻ½çĦ¶ åľ¨
åıĽ ä¹±
çļĦ æķ°åŃĹ
äº¤ æİ¥
å¹³åı° åĴĮ
äºĨä¸Ģ æ®µ
ç¬¬åĽĽ èĬĤ
çĲĥå¢¨ éĵ¸éĵģ
r it
ç¾İ èªī
çļĦ ä¸´åºĬ
æ¯Ľ åĪ©çİĩ
å»ºç«ĭ ä¸Ģä¸ª
æİ¥è§¦ åĪ°
ä¸ŃåĽ½äººæ°ĳ éĵ¶è¡Į
ĠSch ool
ä¸Ģ è§Ī
è£ħæľº å®¹éĩı
å®ļ é¢Ŀ
æľĢ åħĪè¿ĽçļĦ
çĽ¸ å£°
æĽ¼ è°·
æŃ£ å®Ĺ
åĽ½å®¶ åıĳæĶ¹å§Ķ
çļĦä¸Ģ æ®µ
å°±æĺ¯ æĮĩ
åĺī å®ļ
è¿ĻéĩĮ æĺ¯
çļĦ èµĦéĩĳ
åı° å·ŀ
æĮģ å¹³
ä»·æł¼ ä¸Ĭæ¶¨
çº¯ åº¦
æĿŁ ç¼ļ
èĨĢ èĥ±
èĬ¹ èıľ
å¼Ģ åºĹ
çĽĲ åŁİ
çļĦ æĸĩä»¶
æł¡ æŃ£
è§Ĥ æĳ©
å¨ģ åĬĽ
éĺµ èĲ¥
å® ķ
åºĶ ä¸º
å¸¸ æľī
çĳ Ľ
æ»ļ çŃĴ
åĩĿèģļ åĬĽ
èĩª è´Ł
è¥¿ åĮ»
Ġ ãĥ
è·¯ æ¡¥
ç¬¬åįģ å±Ĭ
æ¼Ĥ æµģ
çļĦ ç¬¬ä¸Ģä¸ª
åĪĨ æŃ§
åĩºå¸Ń äºĨ
çĴĢ çĴ¨
æ¸ħ åħīç»ª
å´ĩ å°ļ
å·¨ åŀĭ
åįĹ éĿ¢
æĮī è¦ģæ±Ĥ
å¤§å®¶ å¯¹
æ´ĭ æº¢
åĮĸå·¥ æľīéĻĲåħ¬åı¸
åħ¬ å¢ĵ
è½» å·¥ä¸ļ
é«ĺ å¤§
æĻ® æŀĹ
è¯» éŁ³
åĦ¿ç«¥ çļĦ
å¤§å¤ļæķ° äºº
èµ ¦
åĪĨ æĭħ
å»¶ è¯¯
è·Ł æĪĳ
æľĢ å¸¸è§ģçļĦ
æ¸ħ ä¹¾éļĨ
èį· è½½
çļĦ ç§įç±»
æĻ¯ æ°Ķ
éĴ¢ä¸Ŀ ç»³
éĻ¨ çŁ³
å®¶ åħ¬åı¸
ç´ł æıı
å®ŀçİ° çļĦ
å¢¨ å°Ķ
æİ¥å£¤ çļĦ
I O
ä¸Ģ ç¬Ķ
ç«ĭ éĻ¶
ä½Ĩ çİ°åľ¨
åĺ ħ
Ġ ä¸ºäºĨ
æľ¬ åī§
èµ° åĩºåİ»
çļĦ çĶŁçī©
å¦ ¾
æķħ éĩĮ
çļĦ åĪĽä½ľ
åħ¬ å®³
ç»ı åķĨ
æĤ ļ
ç½® èº«
çĽĲ æ°´
çģµæķı åº¦
Ġ çĽ®åīį
çļĦ ä¸ĭ
éģĵ æŃī
ç¼ĸ å¯¼
åĩºçīĪ çī©
å¤ĸäº¤ éĥ¨
è¢« æĿĢ
çļĦ æ£Ģæµĭ
åĮĹ éĤ»
çıŃ è½¦
ãĤ µ
çģĮ è£ħæľº
çļĦ çĶ»éĿ¢
è¿· å®«
ï¿½ ï¿½
æľī éĴ±
æĿ¡ å½¢
çļ ¿
è¦ģ åİ»
æ°´ æ»´
å®¢ æłĪ
æĹ¥ çĶŁäºİ
å°± è¡Į
å¾® åĪĽ
åįĥ äºº
åĨ³çŃĸ éĥ¨ç½²
çļĦ ç»ĵåĲĪ
ä¸Ģ ä¹¦ä¸Ń
åĽ¾ çĶ»
ä¸ľ æĻĭ
å¾® ç±³
ãĤ °
åį¢ çĵ¦å°Ķ
æł¼ æĿ¿
èį¯ åºĹ
åŁºç¡Ģ æķĻèĤ²
åºĦ åŃĲ
çī¹ æľĹ
æŃ£ ç»Ł
è½¬ æĬĺ
æĻ® æ³ķ
èĩªçĦ¶ çģ¾å®³
ãĢĭ ãĢĭ
ç¯ ¡
çļĦ åħ³æ³¨
çĤ¹ æ»´
ãĦ ¤
ç¬¦åĲĪ åĽ½å®¶
çĶŁ éĶĪ
è¿ĩ å¾Ĺ
çļĦä¸Ģ åĳĺ
åĩłä¹İ æ²¡æľī
èµ· å§ĭ
åĲ¬ èµ·æĿ¥
ä¸į è´¥
æµ Ĵ
éħį èī²
is m
æľºåĻ¨ åŃ¦ä¹ł
äººæĢ§ åĮĸ
ç§ĳåŃ¦åıĳå±ķ è§Ĥ
ì Ŀ
ä¸Ģ å¤´
åľ¨ å¹¿å·ŀ
å°± æĿ¥
è¯· æ³¨æĺİ
è¢« å®³
ä½İ éŁ³
åı¯èĥ½ æľī
åį« åģ¥
F O
åĸ· æ³ī
çķª ç¦º
åĲĪ èĳĹ
ä½¿ åŃ¦çĶŁ
çŁ³ éĽķ
ar m
çĶ³ èĬ±
ĠA nd
é¢ĨåħĪ æ°´å¹³
t d
å°Ķ æĳ©
çļĦ çĶµ
æ´» è¡Ģ
ä¸ª èµĽåŃ£
ç®¡ å¼¦
æŃ¦ èŃ¦
åĳ³ ç²¾
T D
åħ¶ä¸Ń ä»İäºĭç¬¬ä¸Ģäº§ä¸ļäººæķ°
æĿ¾ æ±Ł
ä¸º åĽ½
åı¯ä»¥ æ»¡è¶³
ç¼ĸ å®¡
æĺĮ å¹³
èĴĻåı¤ æĹı
åľ¨ æĦı
ä¸Ĭ åıĳè¡¨è®ºæĸĩ
åįĹ ç«¯
èĢĥ è¯Ħ
æ»¡ æĹı
æĹ© äºİ
éĴŁ è¡¨
æ²Ĳ æµ´
T L
å·´ é©¬
åĨ² æ³¡
æŃ¤æ¬¡ æ´»åĬ¨
ä¸Ń ä¸ĸçºª
é© Ń
çļĦçĥŃ éĩı
åĽŃ åĨħ
è¶³ æĢ»
åĪĿ å®¡
å¤º ä¸ĭ
è®° è¿°
ç¬¬äºĮ éĺ¶æ®µ
è¯¾ç¨ĭ çļĦ
è¯¸èĳĽ äº®
æĹ¶ åĪĨ
åĩº æ¸¸
åĪ¶åº¦ æĶ¹éĿ©
çļĦ åĲ«éĩı
ä¸Ģ æŀļ
äºĨ æĪĳçļĦ
èµ£ å·ŀ
å¤į åĩº
TC L
Î¼ m
è½ ¶
åıĪ ä¸Ģä¸ª
å¥¥ åı¤
æĮĩ éĴĪ
åĽ¾ ä¸º
äº² èº«
è§Ħå®ļ äºĨ
ç§¯æŀģ åıĤåĬł
å¹¶ä¸į ä»£è¡¨
çĪ± å¥ĩèīº
æĻ®éĢļ äºº
å¹´ äº§åĢ¼
ç« º
åĩĢ èµĦäº§
æ·Ħåįļ å¸Ĥ
å°ı äºĭ
è¢« æī§è¡Į
è°ĥ åħ¥
éĢģ æĿ¥
æĸĩåŃ¦ å¥ĸ
å¼± çļĦ
åħ³éĶ® çļĦ
è¯ģæĺİ æĿĲæĸĻ
èĬ±å²Ĺ å²©
ä¸İ åīį
æĪĳä»¬ å·²ç»ı
æ²» å¥½
çĹħ æĤ£èĢħ
å¹´ èĸª
ç¾İ å¦Ļ
æŀĹ åĮº
æĿ¿ åĴĮ
çİ¯å¢ĥ æ¸©åº¦
ĠL inux
å¨±ä¹Ĳ åľĪ
ä¸Ń äºļ
åĽĽ ä¸ĸ
è¿ĳ äºĽ
ç³»ç»Ł åľ°
æĬĬ åħ³
äº² æīĭ
é»ĳ æ´ŀ
æĳ© æ´Ľ
åĬ Ī
å±± å³°
æĶ¿æ²» å§Ķåĳĺ
å¯¹åħ¶ è¿Ľè¡Į
ä¸ª è§ĴçĲĥ
ç±³ é¥Ń
åĲī æĸ¯
è½¬ æĴŃ
åħ« å¼º
ç¬¬ä¸ī åĲį
æ½® å·ŀ
å°Ĩ å£«
ä¸Ĭ æĸ°
çĲĨ ç§ĳ
åĪĨ éĩı
an o
ĠT echn
è®¿éĹ® åŃ¦èĢħ
åİ¦éĹ¨ å¤§åŃ¦
éĻ¢ åĨħ
æ·± æĥħ
è´Łè´£ ç®¡çĲĨ
è¯¯ åĮº
åŃ¦ éĥ¨
åı° çļĦ
èħ ĳ
åħ¬å®ī éĥ¨
åĨħ é©¬å°Ķ
è¥¿ å±±
å±Ĥ éĿ¢çļĦ
åĪĽå»º äºĨ
èµĦæľ¬ ä¸»ä¹ī
å¤§åŃ¦ æľ¬ç§ĳ
çĽĨ æĻ¯
çļĦçİ¯å¢ĥ ä¸Ń
ç«ĭéĻ¶ å®Ľ
åĬ¨ è¯į
çº¦ å®ļçļĦ
ç¬¬äºĮ æī¹
è¡¨ å±Ĥ
å½± å±ķ
èĩªçĦ¶ äºº
Ġ åĽ½éĻħ
ä¹Ł ä¸įåĲĮ
è®¤åı¯ çļĦ
éķ¿æĹ¶éĹ´ çļĦ
æģ¶æĢ§ èĤ¿çĺ¤
æ¸¸ èīĩ
åĮĸåŃ¦ ç³»
çĦ¦ ä½ľ
ĠĠĠĠĠĠĠĠ ĠĠĠĠĠĠĠĠ
Ġ ä½ľèĢħ
æĸ° å¨ĺ
å°Ĩ çĲĥ
äººæ°ĳæĶ¿åºľ æī¹åĩĨ
çłĶåĪ¶ çļĦ
å¾Īå¿« å°±
å¹´ å»ºæĪĲ
åĺī å¥ĸ
ä¸Ĭ è¡Į
æĿ¥ å®¾
æĸ¹å¼ı åĴĮ
é¢ĳ é¢ĳ
å¯¼ è½¨
åįİ å°Ķ
éħĴ çļĦ
åĢĻ è¡¥
ä¼¯ åĪ©äºļ
æ·±åħ¥ äºĨè§£
è¹ ¦
ä¸Ĭ ç¯®
çĶ¨æĪ· åľ¨
ç§ģ æľī
æľ¬ é±¼
çłĶ åĪ¤
æ¡ĥ æºĲ
åħ¨æĿĳ è¾ĸ
ä¸ĵ åľº
è·¯ è¾¹
éħį å¯¹
è¦ģæ±Ĥ åĴĮ
æ¯į æł¡
çģ¯ å¡Ķ
éĨĴ æĿ¥
å·¡ æ´ĭ
æĶ¿æ³ķ å¤§åŃ¦
è¿Ļ ä¸īä¸ª
æİĴ éķ¿
ç¬¬åĽĽ æĿ¡
åĨħ é¥°
ä¸¥æł¼ éģµå®Ī
ä¸į åħ¨
ä¼ļ è§ģ
åºĹ åĨħ
åŁ¹è®Ń åŁºåľ°
èĦļæīĭ æŀ¶
åĽŀ æµģ
ä¿Ŀé©¾ æĬ¤èĪª
çļĦ ç½ĳç«Ļ
ä¹ĭ ä¹±
é©¬ åĪº
ä¸ĵä¸ļ å§Ķåĳĺä¼ļå§Ķåĳĺ
éŁ³ä¹Ĳ èĬĤ
ç¬ĳ çĿĢ
T ube
è¯ķ æł·
éĥ½æľī çĿĢ
ä¸ª ä¸ĵä¸ļ
å¤© é¾Ļ
çī¹ æľī
åĽ¾ ä¸Ń
é¥º åŃĲ
æľīæľº èĤ¥
å¯¹ çĿĢ
åİĨ æĿ¥
æľĢåĲİ ä¸Ģæ¬¡
ä¸Ń éķ¿æľŁ
éĶĢåĶ® ä¸ºä¸Ģä½ĵçļĦ
èħ¹ åľ°
åĴĮ éĺ¿
F e
æľĪ çĶ±
ä¸ĭ çıŃ
èĮ¶ åĽŃ
è®¤è¯ģ çļĦ
æ¦Ĩ æŀĹ
åĪ° è¿ĻéĩĮ
æĻ ¤
è¾ĵ ç»Ļ
æ¢ħ å°Ķ
åľ¨ åĮĹ
åī Į
åĪ° ä½İ
çľŁ æĥħ
åĩı éľĩ
ç»ıè¿ĩ äºĨ
èĢĮ å¼Ĥ
è¿· äºº
å®¶çĶ¨ çĶµåĻ¨
åĪĨ éļĶ
ä¸ī ä¸Ń
æĽ´ æĸ°çļĦ
æĭĽ æĬķæłĩ
Ã¡ ng
ä»İ å®¹
çĪĨ æĸĻ
ä¸¤ å§Ķ
æĿĥ éĩį
åıªè¦ģ ä½ł
ä¸º æ¶Īè´¹èĢħ
æĹ¥ çĶŁ
çĤ¹ èµŀ
å¹´çļĦ æĹ¶éĹ´
åı¦å¤ĸ ä¸Ģä¸ª
ä¸Ģ æ¥¼
åįĹ æ´ĭ
X å°Ħçº¿
å¾· æĦıå¿Ĺ
å·¥ç¨ĭ æĬĢæľ¯äººåĳĺ
éĥ½ æĹłæ³ķ
åĪĹ å®ģ
å¤ª è¡Į
er a
æĪĲ ä¸Ģä¸ª
ä¸ŃçŃī èģĮä¸ļåŃ¦æł¡
æĹ¥ çĶ¨
ç«ĭ äºİ
äº¬ å¸Ī
åľ£ æ®¿
è¿ª æĭľ
ç»ı å¼Ģ
æĮīçħ§ åĽ½å®¶
æĹ¢ è¦ģ
ä»¥ è´¨éĩı
å¸ĥ åħ°
é©¬ èµĽ
èĭı åĮº
çļ®èĤ¤ çĸ¾çĹħ
éľĩ èį¡
ä¸Ĭå¸Ĥ çļĦ
æĥĬ åı¹
éĽĨ æķ£
è½® åĽŀ
å¸Ŀ åĽ½çļĦ
åħ¨æĸ¹ä½į çļĦ
å·¥ä¸ļåĴĮä¿¡æģ¯åĮĸ éĥ¨
åįĹ åħħ
æĬ¥ è®°èĢħ
ãĤ Ħ
é¹ Ĭ
éŁ³ä¹Ĳ åī§
äºĮåįģ äºĶ
æĦŁåıĹ åĪ°äºĨ
å¯ĨåĪĩ çĽ¸åħ³
åĪĴ åħ¥
ç»ıæµİ è´¸æĺĵ
äº¿ åįĥçĵ¦
è¡¥ ç»Ļ
ct ion
è®½ åĪº
æ¶Ī æ³¡
ç§ĳçłĶ è¯¾é¢ĺ
çļĦ å®ļä¹ī
ä¸İ å°ı
ä»ĸä»¬ å°Ĩ
åģĩ åĨĴ
éĵģçŁ¿ çŁ³
ä¸º çķĮ
éĿ¢ åħ·
çĹ ¤
å®ıè§Ĥ ç»ıæµİ
å®ŀ è¯ģ
æ»ĳ åĨ°
å½Ĵå±ŀäºİ ä¸Ĭå¸Ĥåħ¬åı¸
ä¾ ı
åıį è½¬
èµ° çļĦ
è·¯ ç«Ļ
PC B
ç®¡çĲĨ æ°´å¹³
åıĬæĹ¶ æ²»çĸĹ
b r
æµ· éĩĮ
ä¸ĢèĪ¬ éĥ½æĺ¯
å·¦ è·¯
åĬłå·¥ è®¾å¤ĩ
äºĨ è¯¥
çĶŁ é²ľ
åħļ é£İ
å·¥ä¸ļ æľºåĻ¨äºº
æĢ§èĥ½ çļĦ
ç¬¬åħŃ æĿ¡
åĴĮ çľģ
åıĳ èĬ½
ä½ľ åĩºçļĦ
ç¬ ł
æıĲé«ĺ åĪ°
ç²ĺ æİ¥
if f
ä¹ĭ ç¥ŀ
çļĦå½±åĵį åĬĽ
SE O
çļĦ çľŁå®ŀ
çĶ² çŃī
åĪļ æīį
æĻ®éĢļ é«ĺæł¡
å®¢åº§ æķĻæİĪ
è§Ĩç½ĳ èĨľ
çĽ´ è¨Ģ
æ¼« éķ¿
æĺ¯ éĩĩçĶ¨
æ¬¡ åŃĲ
åľŁ å»º
çŃī æľīåħ³
ç»Ń éĽĨ
çº³ å°Ķ
ä¸ī æĸ¹
åħħçĶµ æ¡©
åįĴ å¹´
ä¸Ģè¾Ī åŃĲ
Ġ ä¸į
å°± åºĶè¯¥
çİ¯å¢ĥ ä¸İ
è¿ĻäºĽ äºº
åıĺå¾Ĺ æĽ´
æĿı ä»ģ
åĪĨ åºĹ
åįļ å¼Ī
æĤ£ åĦ¿
å¤§ å±±
åħ¶ ä½ľåĵģ
åıĺ çĶµç«Ļ
å¹´ åĽł
å¤§ ä¸º
éĢł æŀĹ
çİĩ éĺŁ
ç»§ çĶµåĻ¨
çĽ¸æ¯Ķ ä¹ĭä¸ĭ
çĪĨåıĳ åĲİ
Ġ æ°´
è¡Į äºĭ
ä¸ĭ éĽ¨
åĪ© ç¨İ
ä½¿ ä»ĸä»¬
æł¼ åĬĽ
D J
æ¯ı ä¸Ģå¤©
èĩªçĦ¶ çķĮ
ç¨Ģ æľī
åľ° çĥŃ
å¯¹ ç«ĭ
æ³¢ å½¢
åĵĪèĲ¨ åħĭæĸ¯åĿ¦
å¸Ĥ æķĻèĤ²å±Ģ
åħ´ åĽ½
åħ¶ä¸Ń äººåĿĩèĢķåľ°
è¿Ľä¸ĢæŃ¥ å®ĮåĸĦ
çłĶç©¶ å¼Ģåıĳ
ç¾¤ çļĦ
Äģ o
åĽ½ æ³°
å¿ħé¡» æĺ¯
æľīä¸Ģ æĿ¡
M ark
æł¹ åŁº
èĢĮ æĹł
éĢīæĭ© æĢ§
èĩªçĶ± åŁº
åºĬ åŀ«
çļĦå®īåħ¨ æĢ§
å¼º ä¼ģä¸ļ
è®© è§Ĥä¼Ĺ
èĤ¥ æ²ĥ
è¯¦ç»Ĩ ä¿¡æģ¯
ä¸»è¦ģ èģĮè´£
èį£èªī è¯ģä¹¦
æİ© æĬ¤
åĽ¾ è°±
èĮ¶ çļĦ
ç¬ĳ è¯Ŀ
IN SEE
çµ® åĩĿ
èİ± å¾·
åºĶ ä»¥
å®ī æīĵ
æ±Ĥ åĬ©
é©¬ éĵĥèĸ¯
è¿ŀ è¿ŀ
ç®¡çĲĨ è½¯ä»¶
åİ¿ å¿Ĺ
åĽĽ æ¬¡
å®ŀéĻħ çļĦ
å©Ĩ å©Ĩ
e k
é¼ĵ æ¥¼
å¤§ åĬŁçİĩ
æĽ´ éĢĤåĲĪ
å¯¼ çº¿
åĨĻ çľŁ
å¤ĸåĽ½è¯Ń åŃ¦éĻ¢
E G
re en
ä¸Ģ è½®
æıĲ æĭĶ
çļĦ åľ°ä½į
æ¸¸ äºº
çĥŃ èº«
é²¤ é±¼
çŃī ç§°åı·
èĩ³ å°Ĭ
è¡¨éĿ¢ ä¸Ĭ
ang e
ä¸ŀ çĽ¸
åı¯ä»¥ åĲĳ
Çİ o
NT N
åĴĮ æķ°æį®
å¯¹ åŃ¦çĶŁ
çĽ¸ åĬ©
å¾Ī ä¸į
éĿŀ æłĩ
éĢĤ éĩıçļĦ
çº¢ èĬ±
åĴĮ è§£
ç§ĳåŃ¦ çŁ¥è¯Ĩ
éĢı æ°´
å¤§èµĽ ä¸Ń
éķ¿ èĢģ
çĻ½ è¡Ģ
è¿Ļä¸Ģ å¤©
æĦıè¯Ĩ çļĦ
çĥ¹ è°ĥ
å¯¹ ä»ĸä»¬
ä¸»è¦ģ äº§åĵģæľī
çĭ© çĮİ
å¤ĸ çĶ¨
ä¸ľ èĬĿ
çŁ³ çªŁ
çª ľ
å¼ºåº¦ åĴĮ
ä¼ĺç§Ģè®ºæĸĩ å¥ĸ
çļĦ åĶ¯ä¸Ģ
å°Ĩ èĩªå·±
èį Ģ
çģ« çļĦ
çıł ä¸īè§Ĵ
èģĶç³» äºº
å¿ĥ çĽ®
å¹¶ æŃ¢äºİ
å¤į äº§
è¿ª æĸ¯
åħ¬åı¸ æĺ¯
æĢ» ä¹¦è®°
æĮ¥ åıĳæĢ§
æĢ§èĥ½ ç¨³å®ļ
éĽĩ åĳĺ
ä¸º ä¿Ŀè¯ģ
çī¹ æĦı
ç´§ ç¼º
çĮ® è¡Ģ
æķĻèĤ² æľºæŀĦ
æħ ·
èģĶåĲĪ ä½ĵ
ä¸Ń æŃ£
æ¥¼ å¸Ĥ
ç»Łæ²» èĢħ
åľ¨ èĩªå·±çļĦ
èĻļæĭŁ çİ°å®ŀ
é¢ĦéĢī èµĽ
çļĦ è¯Ĺ
å¹´ ä¸Ĭæĺł
å¤© æ¶¯
è´¨éĩı æİ§åĪ¶
ä¸ī éĩį
çĲĥ å½¢
çĽ¸ éĢļ
ãģ ł
æĬļ é¡º
æľī ä¸į
çİĭ çīĮ
éħį åĪ¶
ä¹¡ ä½įäºİ
èı²åĪ© æĻ®
åĬŁ åĭĭ
çĲĥåĳĺ çļĦ
ï¼ Ŀ
éĽĨ çº¦
å½¢ çĽ®
æĸĩåĮĸ ä¸İ
æ¶īåıĬ çļĦ
åħ¬åı¸ ç®Ģä»ĭ
è¥¿ æ¬§
åĬ¨ äºº
èĢĮ æĺĵ
ä¸º åĲį
åħ¶ åŃĲ
æĹł éĩı
äº¤éĢļ éĥ¨
åĴĮ è®¾å¤ĩ
æĸ° è®¾
äºļ ç§ĳ
å¨ ©
ä¸ºäºĨ éģ¿åħį
S R
åĽ¢éĺŁ æĪĲåĳĺ
çº¸ ä¸Ĭ
èĴĤ æĸ¯
é¢ľèī² çļĦ
âĺ Ĩ
éĩĳ é»Ħ
éĿĴ é¾Ļ
æľª å©ļ
æį¢ ä»£
åħĪè¿Ľ çļĦçĶŁäº§
çŃī åľ°åĮº
é«ĺ æĬĢæľ¯
å®£ è¯»
éĽĩ ä½£
åħ¨ èĥľ
è¿ģ å¾Ļ
æ°¯ ä¹Ļçĥ¯
åİ¿å§Ķ ä¹¦è®°
çĭ Ļ
é£ŀ è·ĥ
æŃ» èĢħ
é£ŁçĶ¨ èıĮ
éŁ³ä¹Ĳ å®¶
éĵ¶è¡Į åį¡
æĸ° ä½ľ
æķ° æ¬¡
ä»¶ çļĦ
é¢Ħ ä¼°
æī¬ å£°åĻ¨
æĨ ¬
ä¸į çĿĢ
åıĭ åĸĦ
ĠS c
åįļå£« çĶŁ
åľ° çº§
æľīä¸Ģ ä½į
æ¯« åħĭ
å·¥ä½ľ åİŁçĲĨ
ä»ħ åľ¨
çļĦäºº æķ°
èºº åľ¨
ä¸Ģ ä¾§
åĽł ç¼ĺ
éģĹ å¿ĺ
çİī æŀĹ
å·® çĤ¹
æĭ ·
åįĹ ä¸´
åħ± çĶ¨
æ±Ĥ æĺ¯
èµĦæĸĻ çļĦ
å¸ ¼
å®¢ æµģ
åģľ äº§
éĿ¢å¯¹ éĿ¢
ä¾ Ĺ
ç¦» éĢĢä¼ĳ
ä¼ĺåĬ¿ åĴĮ
åħ·å¤ĩ äºĨ
Ġ å±±
æķ° å¹´
äºº æĦı
æĹ¥ ç¨ĭ
çĶ± ç¾İåĽ½
åĲĦ å¼Ĥ
èıľ è°±
å¤ıä»¤ æĹ¶
éħ± é¦Ļ
çī¹çº§ æķĻå¸Ī
åĽ½éĻħ éĩĳèŀį
èĮ¶ æłĳ
N a
èĬ ·
åĳ¨ æĺĵ
è¿Ķ ä¹¡
æ·ĩ æ·ĭ
. ãĢĬ
é«ĺ å¼º
ç®Ģ æĺİ
ä¼¤ å¯Ĵ
åħ¼ å¤ĩ
ç¿» çĤĴ
ç»ıçĲĨ äºº
äºĮ æŀģç®¡
çı ĳ
åĲĮæµİ å¤§åŃ¦
å®ľ åħ°
èĲ¥åħ» æĪĲåĪĨ
çļĦ äº¤æµģ
æŀģ æĺĵ
åĬ¿ å¿ħ
æĴŃ åĩºçļĦ
çĶ¨ ä¹¦
æĬĢèĥ½ äººæīį
ĠĠĠĠ ĠĠ
åħ ĸ
éģĵ å¤«
èĢĲ åĢĻ
æķĻèĤ² æ´»åĬ¨
æĶ¯æĮģ çļĦ
çĽĺ çĤ¹
éĽħ åĲĦ
Ġ å¤ļ
åŁº æĿĲ
èĬ± èįī
æĬĬ æīĭ
åľŁæľ¨ å·¥ç¨ĭ
åľ¨ æĹ¥å¸¸çĶŁæ´»ä¸Ń
æľ¬ çĶ°
ä¸ĸçķĮ ä¸Ģæµģ
éĢĢ ç¨İ
å¹´ä»£ çļĦ
åįĩæł¼ ä¸º
ä¹Łæĺ¯ å¦ĤæŃ¤
å½© ç¥¨
æĪ ³
å¤į æł¸
Ġ åĽłæŃ¤
èĩª æĪĲ
äºĮ åŃĹ
æ¸ħ åī¿
èĲ½ è´¥
åģ¥ èĦ¾
è·Ł ä¸Ĭ
çĪĨ çł´
åĪĴ å®ļ
çĶµè§Ĩ æľº
è®¸ æĺĮ
Ġ æĸĩ
ä¸Ģ åŃĹ
å¯¹ åı£
æĪĳä»¬ å¸ĮæľĽ
æľįåĬ¡ ä¼ģä¸ļ
åº§ èĲ½åľ¨
åľ£ çģµ
æľĢå¤§éĻĲåº¦ åľ°
ä¸Ń ç§ĳ
åıĳå±ķ ä¸İ
å¤´ æĿĳ
å®£ä¼ł æ´»åĬ¨
æł½ ç§į
åĴĮ å¤ĦçĲĨ
é«ĺ æ¡¥
åĬ¨ èį¡
è¿ĺ åºĶ
äº§ä¸ļ åĽŃåĮº
å¤® ä¼ģ
å®īè£ħ äºĨ
c k
åħ¬ ç½²
å¸¸ è¢«
å®¢ ä¸²
m ail
é«ĺ å®Ĺ
å®ĥ ä¼ļ
åħ« è¾¾
åįł äºĨ
è½½ äºº
åıĤè§Ĥ äºĨ
ä¸Ń è¡¨ç¤º
æ°Ķ çĲĥ
ç»Ī çĶŁ
åĲĮæł· æĺ¯
äº§åĵģ éĶĢåĶ®
åĨĽ çĶ¨
è¯¥ çī©ç§į
çļĩ åĨł
æ¶ ª
åĽ½åĨħ å¸Ĥåľº
æ³ķå¾ĭ æľįåĬ¡
å¦Ĥ åħ¶
åħ´ éļĨ
è¯¾ åĲİ
å¤ļä¸ª åĽ½å®¶åĴĮåľ°åĮº
éĢļçŁ¥ å¦Ĥä¸ĭ
æĢ»ç»ĵ äºĨ
o om
éĢļ è¾¾
äº§ä¸ļ çļĦåıĳå±ķ
ä¸¥æł¼ èĲ½å®ŀ
ç§ĳæĬĢ å·¥ä½ľèĢħ
ĠO ne
åľ¨ å¥¹
åĴĮ ç²¾ç¥ŀ
é«ĺ è¶ħ
ä¾Ŀ å±±
å¢ŀéķ¿ äºĨ
å¿§ éĥģ
åŃ¤ åĦ¿
ç»ıæµİ å»ºè®¾
éĻį å¹ħ
çĿ ģ
åĽŀ åĳ³
è´¹ åŁİ
éŀ ł
å¤§ æ²³
åĮĸ éªĮ
é¢ Ĭ
é»Ħ è±Ĩ
é£Łåĵģ åĬłå·¥
æľ± åħĥ
ç»ıå¸¸ ä¼ļ
è¿Ķ è¿ĺ
éĥ½ å·²ç»ı
æ°Ķ åĬŁ
æ» Ķ
è¿ľ å¾ģ
ä¾Ŀæ³ķ è¿½ç©¶
ä¸ĸçķĮåĲĦåľ° çļĦ
ä¸ĸçķĮ çº§
ç¬¬ä¸Ģ æľŁ
ä½³ èĬĤ
åĮĸå·¥ åİĤ
å±¥ èģĮ
y m
å¤ķ éĺ³
é¢Ĩ çķ¥
æŃ¢ çĹĽ
ç²ĺ åľŁ
æ°¸ å®ļ
æĭ¿ èµ·
çĹ¤ çĸ®
åı¯ä»¥ æıĲä¾Ľ
æĹ¶ èĢĮ
æİ¥ è½¨
æī¿ éĩį
or a
æ´»åĬ¨ ä¸Ńå¿ĥ
æ²»çĸĹ éĵ¶å±ĳçĹħ
çĢ Ľ
ç¾İ å¾·
æĬķèµĦ åħ¬åı¸
æĹ© åīį
ç»§ èĢĮ
å¹²çĩ¥ æľº
æ°ĳ æŃĮ
æģĲ æħĮ
ä¸Ĭ æ¦ľ
åįĹ å®ī
åħī å½©
æĭī çī¹
éħĴ ç±»
or th
åħ¨çĲĥ çļĦ
ç«£å·¥ éªĮæĶ¶
éĥ½ è¯´
è°ĥ æĸĻ
æĤ¨ å°Ĩ
è®¨ ä¼Ĳ
æĲľ çĭĲ
çļĦ åĲĦé¡¹
è§Ĵ èĨľ
é£ŀ ç¿Ķ
æĭĽæłĩ æĬķæłĩ
æĴĴ åĨ·
ä¼ģ é¹ħ
ç²¾ æ²¹
ä½³ èĥ½
äº¤éĢļ æĸ¹ä¾¿
å»¶ ç¼ĵ
æĨ §
å¤ļ æľĪ
æĹ¥ è¢«
éĽĦ é¹¿
èł ¢
b l
æĸ° å¾ģç¨ĭ
åĨĻ ä¸ĭ
åĲİ è£Ķ
ä¸ī éĿ¢
æĭ¥ æĬ¤
åĪĺ å¤ĩ
ç£ģ çĽĺ
he m
é¦ Ĵ
å¢Ļ ä¸Ĭ
æĲŀ å¥½
äºĨ ä¸ª
æ» ģ
æ±½è½¦ ç»´ä¿®
ç§¯æŀģ åĵįåºĶ
Ġx i
ä½į æķ°
åı£ éķĩ
åı¯èĥ½ éľĢè¦ģ
åĲĦ è¡Įä¸ļ
æŃ£ èĥ½éĩı
åĨħ èĨľ
åĲĦ åĮº
P K
çĮ ķ
éĺ¿ å¾·
åħ±åĲĮ åıĳå±ķ
ä¸Ĭ åı°
è¦ģ åĿļæĮģ
äºĮ åº¦
ç½Ĺ éĹ¨
è¥¿çıŃçīĻ è¯Ń
ä¸ªç¯®æĿ¿ åĴĮ
åħ» çĮª
çĸ¤ çĹķ
g u
åĽ½ åħ¬
å¤ļ åı°
å¯¹ è¿ĻäºĽ
ç©Ĩç½ķé»ĺ å¾·
èĭ± åĭĩ
è¿ĩ çĥŃ
è¯¥ éĻ¢
åºķ ä¸ĭ
åı¦ä¸Ģ ä½į
éĹ´ æŃĩ
ç£ ĭ
æ°¸ åº·
æ¯Ľ åĽĬ
èĦī ç»ľ
ä½łä»¬ çļĦ
ä¸º æĮĩå¯¼
åĶ® åįĸ
å¸Ĥ å®¹
äº§åĵģ åıĬ
çº³ è¥¿
ä¸¹ å°¼å°Ķ
äº§åĵģçļĦ çłĶåıĳ
B R
M n
åĬ ¾
å¹¶ ç§°
åħ´ æĹº
å¹¼ èĻ«
ot e
æĸ¹ æĸ¹éĿ¢
çĻ½ å±±
åĽ½å®¶ ç»Łè®¡å±Ģ
ä¸ĵä¸ļ æĢ§
æĽ¾ èİ·å¾Ĺ
æĲ ĵ
åĢºåĬ¡ äºº
åĬłæ²¹ ç«Ļ
äº¤éĢļåįģåĪĨ ä¾¿åĪ©
ä¸Ģå¹´ çº§
å»ºéĢł çļĦ
è¾ į
ä¹ĭ äºĮ
åħ¨åĽ½ ä¼ĺç§Ģ
ä¸ªäºº æīĢå¾Ĺç¨İ
åı¸ä»¤ åĳĺ
å°½ è´£
è§Ĩè§ī æķĪæŀľ
èĮ §
è¿ľ æĸ¹
åľ¨ çİ°ä»£
å¼ ¼
ä¸ľ è¾¹
çľģ æķĻèĤ²åİħ
åĬłå·¥ ä¸Ńå¿ĥ
åĢĴ éĹŃ
èº«è¾¹ çļĦ
åĪĬçī© ä¸Ĭåıĳè¡¨
åĩº æĸ°
ä¹Ł åºĶè¯¥
é¢ĦåĳĬ çīĩ
è´ ±
å°± å°Ĩ
æĬĢæľ¯ çŃī
å½¢ ä½ĵ
åįļ æł¼
åķĨåĵģ çļĦ
ä»Ļ å¥³
å·¡æ´ĭ èĪ°
å¹¶ æ²¡
åıĳçĶµ éĩı
åħ¬åĬ¡åĳĺ èĢĥè¯ķ
B T
L CD
ä¸Ģ èº«
æľī åĲįçļĦ
æĹł æįŁ
åıį è¶ħ
æŃĩ å°Ķ
çļĦäººåı£ æķ°éĩı
å¤§ æĪ·
çİĩ åĨĽ
è®² åłĤ
å¹´ä»£ æľ«
éĥ¨ä½į çļĦ
èĲ¥ä¸ļ é¢Ŀ
æīŃ æĽ²
æľ¬ è¯¾ç¨ĭ
åĲĮ è¡Įä¸ļ
ç»Ĩ å°ı
en a
èİ± çī¹
ç¼Ŀ éļĻ
åįĹåĮĹ æľĿ
H E
y r
æĪĳ èĥ½
ä¹Ł ä»İ
èĢĥ åľº
éĺ² éĽ·
ç»ıæµİ æįŁå¤±
å¼Ģåıĳ äººåĳĺ
ä»İèĢĮ å¯¼èĩ´
æºª éķĩ
ĠCom m
åį°ç¬¬ å®ī
çĶŁäº§ è¿ĩç¨ĭ
éĿĴ è®Ń
è¿ĺæĺ¯ å¾Ī
å±ł å®°
æĺ¯ åĮĹäº¬
æľī å¾Īå¥½çļĦ
äºĮ éĽ¶
ç»ĵ èĤł
æĿĢ èĻ«
æĹ¶ éĻĲ
å®¶ å®¶
ä¸» å§Ķ
éķ¿ å¾Ĺ
æłĩ æĺİ
å¹¿æ³Ľ åħ³æ³¨
å¹¸ åŃĺ
è¦ģ çľĭ
å¤© ä¸Ĭ
æµ· éĩı
èĲ¥ åľ°
èİ² èĹķ
ä¼ļè®® åĳĺ
èĦĸ åŃĲ
åŃ¦ åĪ°
åĲĮ çº§
æ·±åħ¥ å¼Ģå±ķ
Ġ ;
ä¸Ģ çĶŁçļĦ
åĲİ ä¸º
æ¯Ķè¾ĥ å¥½çļĦ
çļĦ åį±éĻ©
åĬł åİĭ
å¥½ çİ©
ç»¿ åŁİ
Ġ on
å»ºè®¾ çĶ¨åľ°
æĳ©æ´Ľ åĵ¥
åı¯ éĢīæĭ©
åį³ ä¾¿æĺ¯
çĨ ¹
åıĶ åıĶ
çĮķ çĮ´
å¿ĥ åĬĽ
ç»ıæµİ åĮº
ç¬¬ä¸Ģ è½®
ç¨ĭåºı åĳĺ
æĬķæłĩ æĸĩä»¶
è¿ŀ è´¥
éĵĿ åŀĭæĿĲ
Ġ åĽĽ
ä¸º æİ¨åĬ¨
åį³ åľ¨
çĶŁçī© åĮĸåŃ¦
é«ĺ é¾Ħ
æ°´ ä¸ŃçļĦ
åŃĹ å½¢
è§ĦèĮĥ çļĦ
ä¹ĺ çĶ¨è½¦
èĢ¶ è·¯
è¦ģ å¡ŀ
å®ī å¦®
Ã© n
æĸ°é²ľ çļĦ
åı¯ ä½¿çĶ¨
å·´ åĭĴ
åºĶçĶ¨ ä¸Ń
é¦Ĩ åĳĺ
åĽ½ ç¨İ
æİ ı
åı¯ éĩĩçĶ¨
çģ« çĥ§
æĺ¥ æĻļ
åĺ »
ä¸ī æ±Ł
æķ ķ
å®Ŀ åħ¸
Ġ çĶµè¯Ŀ
èĢĮ åİ»
éĢļ è·¯
ä¼Ĭ ä¸½èİİ
æĸĩåĮĸåĴĮ æĹħæ¸¸
NA CHI
åį³ æĹ¥èµ·
ãĥ Ĭ
åĿļ éŁ§
åĳ Ĳ
çĶŁ æĪĲçļĦ
åĪ« åħ·
å¾ģ æĸĩ
ç»ĺ æľ¬
æĥ³è¦ģ çļĦ
çĽĬçĶŁ èıĮ
é¦ĸ æĺł
è¿Ļä¸Ģ å¹´
åĭĴ å¸ĥæľĹ
Ġ æĢ»
ber g
åĩº åĩ»
èµ¶ åĪ°
ä¸Ĭ é¥¶
ä¸ľ åĿ¡
é»ı èĨľ
åľ£è¯ŀ èĬĤ
t s
éĽ ³
å·¥ä½ľ é¢Ĩå¯¼å°ıç»Ħ
åŁİ éĹ¨
ç»¿ æłĳ
çĶµåŃĲ æ¸¸æĪı
M D
åĲĮ ä¼´
çĸĹ ç¨ĭ
ä¿ĿæĬ¤ çļĦ
å§Ķåĳĺä¼ļ çļĦ
N i
åħ¨ éĻ¢
D avid
çļĦ æ°ĽåĽ´
é«ĺ ä¸½
æĹ¥ æľŁéĹ´
çŃī çĿĢ
ç»ı æĸĩ
æĿİ å®¶
éĥ½æĺ¯ çĶ±
us tr
ä¸İ æĸĩåĮĸ
éķ¿ æ²»
è®© äººä»¬
ç½Ĺ ä¼¯
å½ķ å½±
å¾® å°ı
çĲ ¥
åħ¨ å¢ĥ
çĻ½ èļģ
W W
å¤ĸ äºĭ
è¿ĺ å¾Ĺ
æłĩ éħį
ãĤ º
æĶ¾å¼ĥ äºĨ
æĮĩ çļĦ
å¥ı æĽ²
æĪ Ł
èį ĥ
æĺ¯éĿŀå¸¸ éĩįè¦ģçļĦ
ä¸» æĶ»
åĨ³ æĪĺ
ç®¡çĲĨä½ĵç³» è®¤è¯ģ
éĤ£ä¸į åĭĴæĸ¯
èĢĮ äº§çĶŁ
è¿ĳ åĩłå¹´æĿ¥
åĽ½éĻħ äº¤æµģ
ä¸ģ åł¡
åŃ¦ å¾Ĵ
æĳĩ ç¯®
è¡Į èĢħ
èµĽ åĨłåĨĽ
å¾· å·Ŀ
é»Ħ èľĤ
åĩºçĶŁ åľ¨
ç»Łè®¡ æķ°æį®
åıĮæĸ¹ çļĦ
çĻ¾ç§ĳ åħ¨ä¹¦
ç»ı ç»ľ
çĤ Ĭ
çĸ¾ æİ§
æĻ®éĢļ é«ĺä¸Ń
äº«åıĹ åĽ½åĬ¡éĻ¢
éĩį ä¼¤
ä¸ĥ å¤§
is ion
äº¤ æīĭ
çīĩ å°¾
åħ° å·ŀå¸Ĥ
éĩĬ è¿¦
å¹¿æ³Ľ ä½¿çĶ¨
åħī èĬĴ
èĢģ å®¶
ç¬¬ä¸Ģ ç«ł
æĴŃ éŁ³
çº¿è·¯ åı£
ff ice
çļĦ ç»ıåİĨ
çļĦ å±ĢéĿ¢
ï¼Ī âĢľ
åĪ¶ è£ģ
ä¸ŃåĽ½ çŁ³æ²¹
çī¹ åľ°
æĹł èıĮ
æģ© æĸ½
æĺ¯ä»Ģä¹Ī åĳ¢
å»ºåĽ½ åĲİ
ä¿ĥ æĪĲ
ä¸ºä¸» çº¿
ç¬¬äºĶ æĿ¡
çļĦ å¹³åĿĩ
èį ¼
éĹ» åĲįçļĦ
è¶ħçº§ èģĶèµĽ
æľŁéĻĲ åĨħ
å¯¹ ç¤¾ä¼ļ
éķ¿ è¾Ī
ä¸ŃåĽ½ è¶³çĲĥ
èĢ¶è·¯ æĴĴåĨ·
åĬĽ éĩıçļĦ
ä¹Ļ éħ¸
ĠIn ternational
æĽ ľ
æĭĽæłĩ äºº
å¦ĩå¹¼ ä¿Ŀåģ¥
Think Pad
çļĦ åıįåºĶ
çĻ½ æ²Ļ
ä¸¾ åĬ¨
ç¨İåĬ¡ æľºåħ³
App le
å¯¹ æĸ°
åħ¨ åŁŁ
è½¬ ä¸ļ
è¾ĵ åįµ
è§ĦåĪĴ çļĦ
åıĳ å£°
éĥ½ ä¸İ
éļıçĿĢ æĹ¶éĹ´çļĦ
å¤ļ çĤ¹
çĶ· åįķ
æľºæ¢° å·¥ç¨ĭ
çļĩ å®¤
åĩĨ èĢĥè¯ģ
åŃ¦æł¡ åĴĮ
è´¨éĩı çĽĳçĿ£
çĽĬ æĻº
åĩĢ åĢ¼
ä¸Ģ ä¸ĩ
è¿Ļ ç¬Ķ
è° ¬
è½´ çº¿
åĽ½ ç±³
æĪĳ åĸľæ¬¢
æĺİ æľ«
éĢĤ ä¸Ń
è¡ĮæĶ¿ è®¸åı¯
çļĦé¦ĸ éĢī
ç¬ Ļ
çĥŃ è®®
éŁ³ è®¯
V C
èĢĮ æŃ»
çĽ¸åħ³ åĨħå®¹
é©³ åĽŀ
u z
åľ°çĲĨ æłĩå¿Ĺ
ä¾ĿçĦ¶ æĺ¯
è§Ħæł¼ çļĦ
çĶ¨ æĸĻ
ç´¢ å°Ķ
åĨ° æ·ĩæ·ĭ
ä½© æĸ¯
ä¸Ńå°ı åŃ¦çĶŁ
å¥½ åŃ¦
åı¤ å±ĭ
å½Ĵ è¿ĺ
ä¼ĳ åģĩ
å¿«æį· éħĴåºĹ
æ²® ä¸§
o ch
ne y
ä¹Įæĭī åľŃ
ä¸Ģ æĸ°
åĨħ æĪĺ
è´¨ æĬ¼
æŃ¤ ä¹¦
å®ŀåľ° èĢĥå¯Ł
åĤį æĻļ
åĽ¾ æłĩ
ä¸Ģä½ĵ åĮĸçļĦ
å®ī è¾¾
åı¯ä»¥ ä½ľä¸º
ç«¯ æŃ£
éĢģ è´§
é£ŀ åĪ©
çĽĲ ä¸ļ
å¥ĸ çļĦ
æ³¢ éŁ³
æĿĲæĸĻ æľīéĻĲåħ¬åı¸
ä¸ŃåĽ½çī¹èī² ç¤¾ä¼ļä¸»ä¹ī
æµ· çļĦ
çĶ· æ¼Ķåĳĺ
èĵ Ł
éĽ¨ æŀĹ
åĪĢ çīĩ
åľ°éĵģ ç«Ļ
çº ¾
èĻ½çĦ¶ æĺ¯
æ²Ł æĿĳ
åŁĥ å¾·
éĹª çĥģ
åĴ ¤
èĩª æĪĳçļĦ
è´¹ çĶ¨çļĦ
å·¦ ç¿¼
åĿĹ éĴ±
æīĢ çĶ¨çļĦ
æŃ£ åĽłä¸º
æīĭ ä¸ĭ
éĶ¦ æ±Ł
æĬĳéĥģ çĹĩ
å¤´ é¡¶
åĲĪåĲĮ çļĦ
ç»´çĶŁç´ł B
ç§ĳ æ¯Ķ
éĥ½ æ¯Ķè¾ĥ
ä¸ĸçķĮ ç¬¬ä¸Ģ
çĭ¬ åĪĽ
éĿŀå¸¸ å¤§
æĿ¥è¯´ æĺ¯
çĬ¶æĢģ çļĦ
æ¨ª æ¢ģ
æ·±åħ¥ çłĶç©¶
ä¹° æĪ¿
çĶŁéķ¿ åľ¨
å¯¹å¤ĸ è´¸æĺĵ
ãĦ¨ãĦ Ļ
æĬ¬ å¤´
è§Ĥ å½±
åıĳçĶŁ åĲİ
ç´« çłĤ
æĸ°åŀĭ çļĦ
æĹł éļľç¢į
ä½ł è¯´
å®½ å¹¿
ä½ķ åĨµ
åİĭ æĬĳ
åĵª åĦ¿
æĺł å°Ħ
åĽ½åĬ¡éĻ¢ åĬŀåħ¬åİħ
æĴ¤ éĢĢ
ï¼ Ĥ
éĩį ç£ħ
éĻį åĪ°
çī©çĲĨ ç³»
åĽłåľ° åĪ¶å®ľ
åħĭ æ´Ľ
ä¸İ æİ§åĪ¶
æ¯ģ åĿı
å¡«è¡¥ äºĨ
çļĦ å¢ŀåĬł
æŃ¥ æŃ¥
è´ °
èīºæľ¯ ä¸Ńå¿ĥ
è°¢ å°Ķ
çĪ ¹
æ¶Ī éĢĢ
ãĤ ¦
è¥¿ ç«Ļ
å¸Ī çļĦ
å¤Ħ å¢ĥ
è¿Ļä¸ª äºº
éħ¸ å¥¶
ä¸į ä¸Ģèĩ´
çĶ¨ è¯Ń
å¸ĥ çº¿
é¢Ħ å¤ĦçĲĨ
å±ł æĿĢ
åĴĮ è¦ģæ±Ĥ
åĪ° è®¿
åħ¬ çīĽ
ç¡®ä¿Ŀ äºĨ
æĬ½ åıĸ
æĢ§è´¨ çļĦ
ä¸º æķ°
å¹³ é¡¶
å®¶åºŃ æķĻèĤ²
èĤ¡ä¸ľçļĦ åĩĢåĪ©æ¶¦
âĢĿ ï¼īï¼Į
å¸¸ çĶ¨äºİ
äº¤ çº³
æĹı äºº
æĶ¯éĥ¨ ä¹¦è®°
tern et
åĶĲ è¯Ĺ
åĩ¯ æĸĩ
è´¢æĶ¿ åİħ
ç²¾ç»Ĩ åĮĸ
o e
ç» Ĭ
èĥ½ è¾¾åĪ°
åįİ è£Ķ
æĮĤ éĴ©
éļıæĹ¶éļı åľ°
TIM KEN
éĢī å®ļ
å¿µ å¤´
æĪĲåĬŁ ä¸¾åĬŀ
æıĲä¾Ľ æĽ´
å³¨ çľī
åİ» å¹´çļĦ
è®© å®ĥ
æ¬§ èģĶ
åŃ¦ é£İ
Ġ ä»¥åıĬ
Ġ ç³»åĪĹ
åħ Ģ
å¤© æ¡¥
ä½Ĩ å®ŀéĻħä¸Ĭ
å¹¿å¤§ å®¢æĪ·
æ³³ æ±ł
ç¿Į å¹´
ä¸į éĹ´æĸŃ
æ°´ å¢¨
æ¸ħ è¿ľ
æĸĳ åĿĹ
åĩº ä¸į
å© ¿
æıĴ åº§
åĵĪä½Ľ å¤§åŃ¦
éĶ Ń
éĩĳ é¾Ļ
åįĹ ç¾İæ´²
åħ± åĪĨ
çĽ®åīį å·²ç»ı
çĲĨæŁ¥ å¾·
çļĦ è·Ŀç¦»
çļĦ æŃ£ç¡®
èĩª å¸¦
åıĹ è¿ĩ
æĤ¬ çĸĳ
AM D
iel d
çļĦ ä¹łæĥ¯
å·¥ä½ľ åĿĬ
é£Ł çĸĹ
is c
æĬ¥åĲį æĹ¶éĹ´
Ġ ç¥ŀ
å¸ Ľ
æĶ» åħ¥
ãĦ§ ËĬ
æĺŁ äºĳ
ç½Ĳ å¤´
å¹¶ æĬĬ
è¯Ń åı¥
éĺ³ æĺİ
åıĪ å°Ĩ
çĻ¾ éĩĮ
æį¢ åı¥è¯Ŀè¯´
ĠA ir
ä¸ģ ä¿Ĭ
çĦ¶åĲİ å°Ĩ
å¹´åīį çļĦ
å· ³
æĸ° åı°å¸ģ
äº¤ èŀį
è¶ħ ä½İ
ç§ĳåŃ¦ çłĶç©¶æīĢ
ä¹¦æ³ķ å®¶åįıä¼ļä¼ļåĳĺ
ĠK B
æ¼³ å·ŀ
çľģçļĦä¸Ģä¸ª å¸Ĥéķĩ
å¹´ åħ¨çĲĥ
ä¹Ł è¢«ç§°ä¸º
éĺ¿ å§¨
èĥĮ åıĽ
è§Ĵèī² çļĦ
åĪĳ éĥ¨
æľī å¥½
éľ ¹
äºļ çĽ®
èĢħ ä¼ĺåħĪ
æŁ¥ æĺİ
æľ¨ å·¥
ä½ľåĵģ å±ķ
è¡¡ éĺ³
å¯ĦçĶŁ èĻ«
å·¥ç¨ĭéĻ¢ éĻ¢å£«
ç ĥ½
ä¸ĩ è±¡
å®¹ è²Į
è½¬ èº«
å·Ŀ åĮº
é»ĺ å¥ĳ
éĻĦåĬł åĢ¼
ä¸Ĭ æł¡
è·¯ ç¨ĭ
å¢ŀ äº§
æ¶ī è¶³
è¿ĩ åħ³
æĪĳä»¬ è®¤ä¸º
è§£ çłģ
re at
æĥ¯ ä¾ĭ
é«ĺèģĮ é«ĺä¸ĵ
Ġ Â·
åĮ ®
åı¯ èİ·å¾Ĺ
ä½ł æīĢ
ĠC ar
æĬ« éĴĪ
åľ¨ è®¸å¤ļ
ä»¥ å®ŀçİ°
åĲİ éĿ¢çļĦ
æĺ¯ çĶ¨æĿ¥
åıª åī©
ç»Ļ å¥¹
å¾Ģ äºĭ
åĩ¡ äºĭ
æīĵ æī®
ĠM c
æĢĢ å¿µ
é¥¥ é¥¿
å¤ļ æĿ¡
ä¹¦ æĪ¿
éĺ¿ å¼¥éĻĢ
ç¤¾åĮº çļĦ
æľ¬ è§Ħå®ļ
èĢĮ å¯¹
æİĴ åįµ
æĭ³ åĩ»
ä¸Ń åĩºçİ°
æī ¼
åŃ¦ çķĮ
å°± è¿ĳ
ä»£ æķ°
éĿŀå¸¸ é«ĺ
æ¥¼ æĪ¿
ç½Ĺé©¬ å¸ĿåĽ½
å±ĢéĻĲ æĢ§
åĨħ çº¿
å¢¨å°Ķ æľ¬
V I
ä½Ĩ åħ¶å®ŀ
æ¹ĸ å·ŀ
æĢĿæĥ³ åĴĮ
éĩįæĸ° åĬłåħ¥
æĺ¯ çİ°ä»£
åľ¨ æĹ¥å¸¸
ä¸į ç§»
ç¬¬äºĮ ä½į
åĲ¬ ä»İ
å¾·åĽ½ çļĦ
é«ĺéĢŁ éĵģè·¯
ĠW indows
çİ° å½¹
åĩł åĨħäºļ
å¹´ éĢļè¿ĩ
å¹´ æ¯ķä¸ļ
æľĪ èİ·
éĤ ¨
ä¸ĸ ä¿Ĺ
è¿ģ åħ¥
Ġ çĽ®
æ´Ĺ è½¦
çŀ© çĽ®çļĦ
h a
åı¯ è¾¾åĪ°
åħį éĻ¤
å¤©çĦ¶ çļĦ
çĽ´ èĤł
æĭī å°Ķ
åĪĽåĬŀ çļĦ
æľĢ å¿«çļĦ
åıĤ æĶ¿
å¸®åĬ© ä»ĸä»¬
è§Ĵèī² æī®æ¼Ķ
å¤ĸ å¥Ĺ
æį® çĤ¹
åħĪ å°Ĩ
çº¦ç¿° éĢĬ
ro p
ï½ ľ
çļĦ å¦»åŃĲ
å±±æ°´ çĶ»
M an
çĲ Ľ
åįıä¼ļ åī¯ä¼ļéķ¿
è´¡çĮ® åĬĽéĩı
å¤ļæ¬¡ åıĤåĬł
äº¤åıī åı£
us s
è£ħå¤ĩ åĪ¶éĢł
ä¸Ń éĥ½
åħĪ çŁ¥
æ±Ł æ²³
çº¯ æŃ£
çĤ¼ æ²¹
ä¸» æĿĥ
æĿ¾ åĬ¨
å·¥èīº æµģç¨ĭ
ä¸įè¶³ ä»¥
ä¹ĭ è°ľ
è¿ĳ å¹³
æł¹æľ¬ æĢ§
æİ¥å£¤çļĦ å¸Ĥéķĩ
å±± åįĹ
åı¯ä»¥ è¢«
éĽĦ ä¼Ł
è¿ĲèĲ¥ çļĦ
å·ŀç«ĭ å¤§åŃ¦
å¤§ å£°
ä¸į æĺ¯ä¸Ģ
éª ¸
è¯ķ çĿĢ
ç»¿ æ°´
è¡ĮæĶ¿ å¤įè®®
çĶµåķĨ å¹³åı°
h am
åľ¨ åŃ¦ä¹ł
äºĨ æĸ°
è¡¨ çļĦ
åıĤ éĢī
åĪĹ ä¸¾
è®¾æĸ½ é½Ĳåħ¨
çŃĶ é¢ĺ
éķľ åŃĲ
æıĴ åĽ¾
ä¸į å¤ĸ
åĲį å£°
è¿ĺ èĥ½å¤Ł
å§ĭ åĪĽ
å°±æĺ¯ è¿Ļæł·
éĻį èĲ½
ä»İ è¿Ļä¸ª
èģĶ æİ¥
ç¼ĸ ç»Ħ
æŃĮ è¿·
é¦Ļæ¸¯ çļĦ
éĿł çĿĢ
k a
ç»Ļ ä¸İ
çŃī ä¸įåĲĮ
çŁ¿ åºĬ
åĨ° å²Ľ
éĵĿ æł¼æłħ
æĺŁæľŁ äºĶ
çļĦ è§Ĩé¢ĳ
ä¸Ĭ æīĭ
åľº æ¬¡
åĩı éĢĢ
äº¤éĢļ æŀ¢çº½
èĥ¸ éĥ¨
éģı åĪ¶
çĶŁ æºĲ
æĪĳ åı¯ä»¥
æķ° ä¸ª
ä¸ŃåĽ½ å·¥åĨľçº¢åĨĽ
ç¥ ī
å¾Ģ å¹´
ãĢĳ ãĢĬ
è¯» çī©
è´Łè´£ ä»»
çĹħæĥħ çļĦ
æľī èĩªå·±çļĦ
éĥ½ åºĶè¯¥
åħĥ æľĿ
åħ·æľīéĩįè¦ģ æĦıä¹ī
ç¤¾ åĳĺ
åħļæĢ»æĶ¯ ä¹¦è®°
U PS
æĺ¯ ä¸įèĥ½
å°± å·²
è½´ åĲĳ
çħ ľ
ç»Ļ æĤ£èĢħ
è§¦ åıĬ
æĭħä»» è¿ĩ
æľĪ æľ«
çİ© èĢį
ä¹Į åħ°
åľ¨ å¾Īå¤ļ
å¤į åİŁ
é¡ºåĪ© å®ĮæĪĲ
Ġ éĥĳ
äºº é©¬
åħĪåĲİ è¢«
åĬłåĪ©ç¦ı å°¼äºļå·ŀ
åħįçĸ« åĬŁèĥ½
ä¼Ĳ åħĭ
RF ID
ç¢ĳ æŀĹ
å®¶éķ¿ ä»¬
åĬŁ åºķ
äºĶ åĽĽ
ä¼ļåĳĺ åįķä½į
æĸ¹ åĿĹ
å¸¸ ç»¿
çŁ³ æ¡¥
éĺ¿ å¸ĥ
æĶ» éĹ¨
æ»¨ æ±Ł
æĨ§ æĨ¬
è´¹ çļĦ
åľ¨ åĲĦç§į
æĹ¶ éĴŁ
ä¹Łæľī äºº
åľ¨ æīĢæľī
æĸ° å·¥èīº
åĮĹ å¹³
äºĶ ä½į
å¥ĩ å¼Ĥ
éĢĥ è·ĳ
æĿ°åħĭ éĢĬ
E O
èĩªçĦ¶ çİ¯å¢ĥ
çĶµè¯Ŀ åı·çłģ
åĪĨç¦» åĻ¨
æ³ķ æĭī
æ°´ çĶ°
ä½ķ å¤Ħ
ä¸»ä»» å§Ķåĳĺ
çī¹åĪ« å¼ºè°ĥ
å°ĸ éĶĲ
åıĳ åŀĭ
ä¸Ĭ ä»»
çİĩ ä½İ
ãģ ĺ
åıĤä¸İ çļĦ
ä½ĵä¼ļ åĪ°
I EEE
ä¸Ń åİ»
çŀ© çĽ®
åĴ ķ
å¤§ ä¸Ńåŀĭ
æķĻèĤ² ä¸İ
è¡Ģ ç»Ł
å¹¸ç¦ı æĦŁ
çĶŁçī© åĮ»åŃ¦
ç¬¬åĽĽ æ¬¡
â ĭ
åĪĨ å¨©
å¥ĩ çļĦ
çĲĨè®º çŁ¥è¯Ĩ
l es
Ð ¼
éĻ¢ ç³»
ç»Ī å¹´
äºĴ æį¢
éĩįçĤ¹ å·¥ä½ľ
éĶĤ ç¦»åŃĲçĶµæ±ł
ä¹ĭ ç±»
çĹ ī
è´µ å®¾
çĲµ çĲ¶
æĸĩ æķĻ
åĲĳ çĿĢ
å±Ģ éĻĲäºİ
åĿĩ éĩĩçĶ¨
å®½ éĺĶ
ä¼´ å¥ı
ç»ı ä¹ħ
ä¸Ģä¸ª å¥½çļĦ
ç»¼åĲĪ çĹĩ
åĮ»çĸĹ è®¾å¤ĩ
åħ¬åħ± èµĦæºĲ
æĹģ çļĦ
ç§ĳåŃ¦ä¸İ å·¥ç¨ĭ
åĬłå·ŀ å¤§åŃ¦
åľ¨ æ·±åľ³
è§Ĥ æĻ¯
åħ¶ä¸Ń ä¹ĭä¸Ģ
é¸ ł
ĠãĦ Ļ
å¸ķ çī¹
åĬłåĭĴ æ¯Ķ
åĬŁ èĩ£
å¸®åĬ© æĤ¨
IN E
æİ§èĤ¡ æľīéĻĲåħ¬åı¸
ä½ľ æģ¯
å¤© ä¸»
é£ŀåĪ© æµ¦
ä¸Ń å±Ĥ
å·ŀ éķ¿
åĪĿ è¡·
ç¼© åĩı
çĬ¯ç½ª å«Įçĸĳäºº
éħ· çĪ±
ç¦ģåĮº åĨħ
è¾ĵåįµ ç®¡
åīį ä»»
ä¼ģä¸ļ ä¸İ
åĲĳ æĤ¨
å¸ĥ ä¼¦
å¸®åĬ© æĪĳä»¬
çĸ«èĭĹ æİ¥ç§į
ut ion
æľĢç»Ī ä»¥
æĭĸ å»¶
èĢĲç£¨ æĢ§
éĹ¨ ä¸ĭ
ä¹Łæĺ¯ éĿŀå¸¸
å¿§ èĻĳ
æ¾İ æ¹ĥ
> >
åħ¶ ä¸Ģ
æ® ī
éĿĻ éĿĻ
çº¸ æĿ¿
åĲīæŀĹ å¤§åŃ¦
äº¤æį¢ æľº
èĢĮ ä¸º
çº¢ æ²³
ä»¿ åı¤
æ²§ å·ŀ
æĹ¥æĻļ éĹ´
åľ¨ ä¸įåĲĮçļĦ
å¤§ éĢī
ĠW orld
ĠĠĠĠ ĠĠĠ
èĩ´åĬĽäºİ ä¸º
çĮ® ç»Ļ
åį«çĶŁ ç»Ħç»ĩ
çī©æµģ åħ¬åı¸
çļĨ æĺ¯
æ¯ Ļ
ç²ĺ è´´
åı¯ä»¥ ä¸İ
çİ° æķĪåĬĽäºİ
ç½® ä¿¡
æĶ¿çŃĸ æİªæĸ½
å°ı å¾®ä¼ģä¸ļ
çĶ± åħ¶
åı¯ä»¥ æľīæķĪ
å·¥ç¨ĭ åħ¬åı¸
ä½ľåĵģ è¢«
ĠI nd
æī¹åıĳ å¸Ĥåľº
ç±³ ç²ī
åĲ¬ è§ī
ä¸ªå·¥ä½ľ æĹ¥
åĳµ æĬ¤
è¿Ļ åıª
æĿ¥ å®ĮæĪĲ
æ¸ħ çĪ½
çĶ ¬
ä¸ĵä¸ļ åŃ¦æł¡
è¯¾ æľ¬
è¿Ľä¸ĢæŃ¥ çļĦ
er r
ç§¯æŀģ åĪĨåŃĲ
ä¸Ń æ¬§
å±ŀ åľ°
éĿŀ éĩĳå±ŀ
åĪ¶éĢł å·¥èīº
æķ£ å°Ħ
éĽ¶åĶ® åķĨ
åĲİ åįĬ
ç² ±
æİ¨ çī¹
éĿ©åĳ½ åĨĽ
çļĦ æķĻå¸Ī
åĩº å¾ģ
ç¾İ åıĳ
æľ¬ èģĮ
èĤī çľ¼
æĽ´å¤ļ çļĦæĺ¯
æ¢ħ å·ŀ
Ġ å¦Ĥ
å¹´ æīį
æĸ° ä¸ľæĸ¹
æĥ³ è¿ĩ
å®ļ åģļ
æ·± æ°´
ç³»ç»Ł æĢ§
æłı æĿĨ
âħ ¡
çļĦ æ¶Īè´¹
å¥½ äºº
åĸľ åºĨ
çī¹åĪ« æ³¨æĦı
åį§ å¼ı
åĳĺå¤ĸ éĥİ
æī Ľ
éĢ į
è£ ĺ
æĬ¥ å¤į
åıª ä¸º
è´Ń ç¥¨
èĤ¾ ä¸Ĭ
çļĦ èģĶç³»
å¹´ åĽ½å®¶
æĬĢæľ¯ ä¸Ĭ
åıĺ çĶµ
å¥ĩ çĳŀ
èĦ¸ éĥ¨
æ³ķ çĶ²
å¾Ī éĩįè¦ģçļĦ
åıĸ æł·
ä¹Ķ ä¸¹
ä¼Ļä¼´ ä»¬
ç¡Ŀ éħ¸
d e
ä¸ŃåĽ½ ä¸ĵå®¶
å®¤ çŃī
AP I
æĬ ī
é¦ĸ ä»»
å°ļ æľī
ãĦ¨ãĦ Ł
åĮºä¸º UTC
ä¸ľ éģĵ
è°ĵ ä¹ĭ
åĽ½åĬ¡éĻ¢ åħ³äºİ
éĢĥ çĶŁ
ä¸ĭéĿ¢ æĺ¯
ä¸ģä¿Ĭ æĻĸ
åŃ¦ç§ĳ å»ºè®¾
æĦĪ åĲĪ
åľ¨ å®¶éĩĮ
éĺ² çģ¾
è¿ŀ éĢļ
çĵ¦ æĭī
é¾Ļ åįİ
or s
åĸ· æ¼Ĩ
ä¸īéĥ¨ æĽ²
å°¼æĹ¥ åĪ©äºļ
æľĢ å°ıçļĦ
åİĨåı² ç³»
ä½Ļ çĥŃ
è¯į äºº
åĽºå®ļèµĦäº§ æĬķèµĦ
ä¸ĭ ä¹¡
ä½ł èĩªå·±
éĽ· è¯º
éĹ °
å¥ĭ æĪĺ
åºĻ å®ĩ
è¿ħéĢŁ åıĳå±ķ
Äģ ng
åŃ¦ ç¤¾
æĪĳ çİ°åľ¨
èĩª å¦Ĥ
çĽ¸ çĪ±
å¼Ģå±ķ çļĦ
æķĪçİĩ åĴĮ
ä¸Ńçº§ èģĮç§°
æ¸ħ åĪĿ
åĴĮ æĹł
æ²¹ æ°´
ä¿® çŃĳ
éĢīæĭ© åĲĪéĢĤçļĦ
è£ħç½® çļĦ
å±¡ å±¡
åĲĮ æĥħ
è§Ĥå¯Ł åĪ°
å¸Ĥéķĩ ç¼ĸçłģ
æĪĲ åĽł
å±± ä¸Ń
å¤´ æĻķ
é»Ħ æĺı
ä»¤ åħ¶
ç»ĵæŀľ çļĦ
INSEE å¸Ĥéķĩç¼ĸçłģ
ä¼ģä¸ļ å½¢è±¡
èĢĥè¯ķ æĪĲç»©
åı¬ åĽŀ
æº¶äºİ æ°´
Micro soft
Ġ ç¬¬äºĮ
å¹´ å¤ıåŃ£
è¿Ļ æľ¬
æ²³ æĿĳ
al ax
å°Ĭ ä¸¥
çİ°å®ŀ ä¸Ń
åľ¨ä¸Ģå®ļ ç¨ĭåº¦ä¸Ĭ
èĥ½ æľī
èĢĮ åĬªåĬĽ
ç«¯ åŃĲ
æ°¸ ç£ģ
ç»Łè®¡ åŃ¦
å¤ļ å¤Ħ
åĲİ å°±
æ¯Ķ æĭŁ
æ¥ Ķ
æĤ¬ å¿µ
é«ĺåĵģè´¨ çļĦ
çļĦ çĸ¾çĹħ
åįķ åĲĳ
åĨĻ æĪĲ
è½» åº¦
ĠP art
å®ļ åŀĭ
åĪĻ éľĢè¦ģ
åİĭ å®ŀ
æ¥ Ĥ
åĩºçİ° äºİ
æ³¥ åľŁ
èĤ¡ç¥¨ ä»£çłģ
çļĦæ°´ æŀľ
F M
ä½ ¥
åľ¨ çİ°åľº
ç´ł é£Ł
èĩª è´¡
Ġ åŃĻ
ä¸Ń è½¬
åĨį åĪ©çĶ¨
è¯» åĨĻ
è½¯ éª¨
å¯Ł è§ī
é¹ Ī
è¯º æĽ¼
æĭĶ å°ĸ
è´£ä»» äºº
è°ĥæŁ¥ çłĶç©¶
è½¦è¾Ĩ çļĦ
è¾ĥ éĩı
ä½įäºİ åĮĹäº¬å¸Ĥ
éĹŃ å¹ķ
ä¼Ĭä¸½èİİ çĻ½
åıĺ æĢ§
å½ķ åħ¥
èį£ å¹¸
çļĦé«ĺ çŃī
èĩ³ä»Ĭ å·²
æ°ĳæĶ¿ å±Ģ
åİ» å¤Ħ
åıĹå®³ èĢħ
ä¸ĭ æľī
å¥¹ åĴĮ
æ¼« å¨ģ
æĴ¤ ç¦»
èĤ¾ä¸Ĭ èħº
åĴĮ ç»Ħç»ĩ
è¥¿ åİ¿
æĪĸ ä»¥
åĪº ç»£
ä»ªå¼ı ä¸Ĭ
For ce
èĩªéĹŃ çĹĩ
çŃī åįģ
éĶĻ å¤±
ĠG oogle
å¾Ĳ å·ŀå¸Ĥ
åĴĮ çĿ¦
è®º èĳĹ
å½ĵåľ° äºº
æĪĳä»¬ çİ°åľ¨
ä»· ä½į
éļĶ ç»Ŀ
åĽ´ç»ķ çĿĢ
åħĪå¤© æĢ§
æľī åĪ«
éĢĢ ä¼į
åĢŁ çĶ¨
çĶŁ åŃĲ
é«ĺ å¯Ĩåº¦
ä¹ł è¿ĳå¹³
èĭı è½¼
æ³° å·ŀ
è¿Ŀæ³ķ è¿Ŀè§Ħ
è°ĥåĳ³ åĵģ
çĽ®åīį åĽ½åĨħ
åįłæį® äºĨ
éŁ¶ åħ³
æħ· æħ¨
ç»ıæµİ çļĦåıĳå±ķ
å¤ļ å¤«
æĽ´ æ·±
è¯´ è¯´
æĪ¿ åľ°
ç¬¬ä¸ĥ æĿ¡
èĨĿ çĽĸ
äºĨ ä¸ĭæĿ¥
è¢« ç§°ä½ľ
ãĥ Ĺ
æľĪ åĪ°
éĢļ è´§
æµ· æ£ł
æ±Ĥ çĶŁåŃĺ
é¢Ħ çĥŃ
il le
æĬ½ çŃ¾
yth on
å¯¹ èº«ä½ĵ
æģ ¬
å¹¿ ä¸º
å¤į æŁ¥
æĭ¿ çł´
LED æĺ¾ç¤ºå±ı
è¿Ļ ä¸ī
ç§ĳ ç»´å¥ĩ
åħ·æľī ä¸°å¯ĮçļĦ
æĬ¥åĳĬ æĺ¾ç¤º
æĥł å·ŀå¸Ĥ
æĮĸæİĺ æľº
é«ĺ ç¥ĸ
èµ· åĬ¨
ãģ ĳ
èģĬ åŁİ
éķ¿ çŁŃ
è½¦ æīĭ
Ġ åħ¨
åĪĨ éĥ¨
åįĹ å²¸
å¾Īå¤ļ æĤ£èĢħ
æİ§åĪ¶ ä¸Ńå¿ĥ
è°Ĳ æ³¢
åĪ¶åĨ· åīĤ
ä¸Ģ éĥİ
æŀģ å¼ºçļĦ
èŀ Ĥ
å·¦ èĦļ
æī§æ³ķ äººåĳĺ
æ³¸ å·ŀ
ä¸ºäºĨ ä¿Ŀè¯ģ
åĬ¨è½¦ ç»Ħ
æĬĢæľ¯ æİ¨å¹¿
æŀ£ åºĦ
æľ±åħĥ çĴĭ
ä¼ļ è¯ķ
éĴ¢çŃĭ æ··åĩĿåľŁ
æĹ¶ çļĦäººåı£æķ°éĩı
åŀ ©
èģĶåĲĪåĽ½ æķĻç§ĳæĸĩ
ãĤ Ī
åħĪåĲİ èİ·å¾Ĺ
çĲĨè§£ åĴĮ
åĽ½åĬ¡éĻ¢ æī¹åĩĨ
çī¹ å¤§
æĢ» éķ¿
æŃ» åİ»
çĸ¾çĹħ é¢Ħéĺ²
ä¸§ çĶŁ
çĶŁäº§ è½¦éĹ´
éĩĩçĶ¨ çļĦæĺ¯
ä¸¤ åıª
æ¦ Ī
æµĵ æµĵ
è®¤çľŁ åŃ¦ä¹ł
æĤ² è§Ĥ
åĽ´ å¢Ļ
åĸ· åĺ´
æ°´ ç³»
åįĥ éĩĳ
çıłæµ· å¸Ĥ
éħª æ°¨éħ¸
é¦Ĵ å¤´
é¾Ļ ç§ĳ
éģĹ å¤±
è°Ī è°Ī
å« ī
æ¯ ¡
å¾ģ åľ°
éĵĿ æĿ¿
ĠI s
æĪĳ æ²¡æľī
è¿ĳ çİ°ä»£
åŁºç¡Ģ çłĶç©¶
æĮģç»Ń åıĳå±ķ
æĪĲéķ¿ ä¸º
æĬĳåĪ¶ åīĤ
y c
æĹł æ¯Ľ
éĹ¨ ç¦ģ
çİĭ ä½į
çŁ¥éģĵ äºĨ
æĸĩåĮĸä¼łæĴŃ æľīéĻĲåħ¬åı¸
åĳ¨ äºĮ
å·¾ å¸¼
çľĭ ä¸į
ç§» éĻ¤
Ph ot
æīĢ åŃ¦æł¡
åįĹ æİ¥
æīĭæľ¯ æ²»çĸĹ
æľŁ æľ«
çº¢ å¤ĸçº¿
æľ¨ ç»ĵæŀĦ
æ´² éĻħ
é½Ĳ èģļ
ç¬¬åħ« æĿ¡
é¾Ļå²© åİ¿
é©¿ ç«Ļ
ä¹³èħº çĻĮ
æ¥¹ èģĶ
âĭ ¯
åĴĮ ä¸ĢäºĽ
ä¹ĭ è¯´
åŁŁ ç½ĳ
åĬłå·¥ çļĦ
çķĮ å®ļ
æİĴ æĸ¥
çĮª ç¬¼
é¢ĩ å¤ļ
MP a
æ½įåĿĬ å¸Ĥ
Ġ ä¼Ĭ
åĪ° æľĢåĲİ
æĽ² éĺľ
çĸı éĢļ
å°± ä»¥
çĥ Ļ
åĨħ ä¾§
ä¸ľ æ¹ĸ
åĳ¨ æľŁçļĦ
[...]
