{"<pad>":0,"<s>":1,"</s>":2,"!":3,"\"":4,"#":5,"$":6,"%":7,"&":8,"'":9,"(":10,")":11,"*":12,"+":13,",":14,"-":15,".":16,"/":17,"0":18,"1":19,"2":20,"3":21,"4":22,"5":23,"6":24,"7":25,"8":26,"9":27,":":28,";":29,"<":30,"=":31,">":32,"?":33,"@":34,"A":35,"B":36,"C":37,"D":38,"E":39,"F":40,"G":41,"H":42,"I":43,"J":44,"K":45,"L":46,"M":47,"N":48,"O":49,"P":50,"Q":51,"R":52,"S":53,"T":54,"U":55,"V":56,"W":57,"X":58,"Y":59,"Z":60,"[":61,"\\":62,"]":63,"^":64,"_":65,"`":66,"a":67,"b":68,"c":69,"d":70,"e":71,"f":72,"g":73,"h":74,"i":75,"j":76,"k":77,"l":78,"m":79,"n":80,"o":81,"p":82,"q":83,"r":84,"s":85,"t":86,"u":87,"v":88,"w":89,"x":90,"y":91,"z":92,"{":93,"|":94,"}":95,"~":96,"¡":97,"¢":98,"£":99,"¤":100,"¥":101,"¦":102,"§":103,"¨":104,"©":105,"ª":106,"«":107,"¬":108,"®":109,"¯":110,"°":111,"±":112,"²":113,"³":114,"´":115,"µ":116,"¶":117,"·":118,"¸":119,"¹":120,"º":121,"»":122,"¼":123,"½":124,"¾":125,"¿":126,"À":127,"Á":128,"Â":129,"Ã":130,"Ä":131,"Å":132,"Æ":133,"Ç":134,"È":135,"É":136,"Ê":137,"Ë":138,"Ì":139,"Í":140,"Î":141,"Ï":142,"Ð":143,"Ñ":144,"Ò":145,"Ó":146,"Ô":147,"Õ":148,"Ö":149,"×":150,"Ø":151,"Ù":152,"Ú":153,"Û":154,"Ü":155,"Ý":156,"Þ":157,"ß":158,"à":159,"á":160,"â":161,"ã":162,"ä":163,"å":164,"æ":165,"ç":166,"è":167,"é":168,"ê":169,"ë":170,"ì":171,"í":172,"î":173,"ï":174,"ð":175,"ñ":176,"ò":177,"ó":178,"ô":179,"õ":180,"ö":181,"÷":182,"ø":183,"ù":184,"ú":185,"û":186,"ü":187,"ý":188,"þ":189,"ÿ":190,"Ā":191,"ā":192,"Ă":193,"ă":194,"Ą":195,"ą":196,"Ć":197,"ć":198,"Ĉ":199,"ĉ":200,"Ċ":201,"ċ":202,"Č":203,"č":204,"Ď":205,"ď":206,"Đ":207,"đ":208,"Ē":209,"ē":210,"Ĕ":211,"ĕ":212,"Ė":213,"ė":214,"Ę":215,"ę":216,"Ě":217,"ě":218,"Ĝ":219,"ĝ":220,"Ğ":221,"ğ":222,"Ġ":223,"ġ":224,"Ģ":225,"ģ":226,"Ĥ":227,"ĥ":228,"Ħ":229,"ħ":230,"Ĩ":231,"ĩ":232,"Ī":233,"ī":234,"Ĭ":235,"ĭ":236,"Į":237,"į":238,"İ":239,"ı":240,"Ĳ":241,"ĳ":242,"Ĵ":243,"ĵ":244,"Ķ":245,"ķ":246,"ĸ":247,"Ĺ":248,"ĺ":249,"Ļ":250,"ļ":251,"Ľ":252,"ľ":253,"Ŀ":254,"ŀ":255,"Ł":256,"ł":257,"Ń":258,"ä¸":259,"ï¼":260,"ãĢ":261,"ï¼Į":262,"çļ":263,"çļĦ":264,"äº":265,"æľ":266,"ãĢĤ":267,"åı":268,"åħ":269,"ä»":270,"å¤":271,"å®":272,"ãĢģ":273,"åĪ":274,"çĶ":275,"ä½":276,"åľ":277,"åĲ":278,"è¿":279,"å¹":280,"åĬ":281,"æĺ":282,"åĽ":283,"ç»":284,"æĸ":285,"æĪ":286,"ä¹":287,"åŃ":288,"åį":289,"ä¼":290,"æĹ":291,"è®":292,"å°":293,"ä¸Ģ":294,"è¯":295,"åĮ":296,"å¸":297,"å·":298,"æĿ":299,"æĺ¯":300,"âĢ":301,"åľ¨":302,"æľī":303,"åº":304,"ä¸Ń":305,"éĩ":306,"å¹´":307,"åĨ":308,"äºº":309,"å¼":310,"æī":311,"ç§":312,"å±":313,"éĢ":314,"æķ":315,"ä¸º":316,"è¡":317,"åĴ":318,"åĩ":319,"å¾":320,"å¤§":321,"èĢ":322,"çĽ":323,"çī":324,"åĴĮ":325,"åĽ½":326,"åŃ¦":327,"æł":328,"å¯":329,"éĻ":330,"æĬ":331,"è´":332,"ä¸į":333,"çİ":334,"æ°":335,"è§":336,"èµ":337,"åİ":338,"ä¸ļ":339,"çº":340,"äºĨ":341,"ĥ½":342,"æĢ":343,"æĶ":344,"ä»¥":345,"çĶŁ":346,"å¥":347,"æµ":348,"çĲ":349,"æ³":350,"å½":351,"äºİ":352,"ä¼ļ":353,"åĳ":354,"çŃ":355,"çĶ¨":356,"èĩ":357,"æŃ":358,"éĿ":359,"éĹ":360,"å¿":361,"ä¿":362,"å·¥":363,"åıĳ":364,"ä½ľ":365,"æŀ":366,"ä¸Ĭ":367,"æ²":368,"æİ":369,"ä¸ª":370,"æĪĲ":371,"æĹ¶":372,"åĵ":373,"åħ¬":374,"¦ģ":375,"éĺ":376,"åŁ":377,"è¾":378,"è¦ģ":379,"æĭ":380,"è¡Į":381,"èĥ½":382,"âĢľ":383,"âĢĿ":384,"è½":385,"åľ°":386,"åī":387,"æ±":388,"å®¶":389,"åĩº":390,"æ¯":391,"ç«":392,"é¢":393,"çĲĨ":394,"åı¯":395,"çľ":396,"éķ":397,"æ¸":398,"åĪĨ":399,"éĥ":400,"æĮ":401,"çŃī":402,"äº§":403,"å¸Ĥ":404,"é«":405,"è¿Ļ":406,"åĪ°":407,"ç®":408,"é«ĺ":409,"æĸ¹":410,"å¤ļ":411,"æĿ¥":412,"ç½":413,"å¯¹":414,"æ´":415,"ä¸İ":416,"åĲİ":417,"ä¾":418,"èĤ":419,"åĮĸ":420,"æľĪ":421,"åĬ¨":422,"æĸ°":423,"å»":424,"ä¸»":425,"æĪĳ":426,"æľº":427,"è¿Ľ":428,"åħ¨":429,"æĥ":430,"éĥ¨":431,"æĹ¥":432,"æĽ":433,"èĩª":434,"ç»ı":435,"ä½ĵ":436,"çİ°":437,"åĵģ":438,"ç¨":439,"ç¬":440,"åĲĪ":441,"ï¼ī":442,"ï¼Ī":443,"ä¹ĭ":444,"æľ¬":445,"éģ":446,"æ¬":447,"é¡":448,"æĦ":449,"ä¸ĭ":450,"çĶµ":451,"è®¾":452,"éĽ":453,"è¿ĩ":454,"åĬĽ":455,"èī":456,"åĮº":457,"èģ":458,"æ³ķ":459,"å¼Ģ":460,"åıĬ":461,"æĸĩ":462,"å»º":463,"éĿ¢":464,"éķ¿":465,"åħ¶":466,"ï¼ļ":467,"ä»¬":468,"åĲĮ":469,"å¦":470,"ãĢĭ":471,"ãĢĬ":472,"æı":473,"è·":474,"æĢ§":475,"ä»ĸ":476,"å®ŀ":477,"çł":478,"åĬł":479,"é£":480,"ä¹Ł":481,"å®ļ":482,"çŁ":483,"çĻ":484,"åı¸":485,"æĻ":486,"æķĻ":487,"åŃĲ":488,"ç©":489,"å§":490,"çĤ":491,"ç¾":492,"ç³":493,"åĬ¡":494,"åĲį":495,"çī©":496,"å±ķ":497,"åĨħ":498,"åĳĺ":499,"æ°´":500,"åº¦":501,"ç§ĳ":502,"èĢĮ":503,"æīĢ":504,"éĢļ":505,"ç¤":506,"åĪ¶":507,"åĿ":508,"ç¬¬":509,"è¶":510,"å¿ĥ":511,"èĬ":512,"åģ":513,"ä½į":514,"ç±":515,"æį":516,"èĢħ":517,"è°":518,"éĩį":519,"å°ı":520,"åľº":521,"å¾Ĺ":522,"åħ¬åı¸":523,"å°±":524,"äºĭ":525,"åīį":526,"ç®¡":527,"å¢":528,"æľ¯":529,"åħ³":530,"æĬĢ":531,"ç³»":532,"ç§į":533,"éĩı":534,"æıĲ":535,"ç¨ĭ":536,"æľĢ":537,"éĹ´":538,"åºĶ":539,"éļ":540,"èĲ":541,"éħ":542,"å¹¶":543,"å°Ĩ":544,"èµĦ":545,"ä¸ī":546,"åħ¥":547,"æ¶":548,"è®¡":549,"çķ":550,"èĭ":551,"å¦Ĥ":552,"çĽ®":553,"ä¿Ŀ":554,"æķ°":555,"å¥½":556,"å¤ĸ":557,"å¹³":558,"ä»»":559,"é¦":560,"è¥":561,"éĶ":562,"å¤©":563,"çī¹":564,"å®ī":565,"éĥ½":566,"è¥¿":567,"æľŁ":568,"éĻ¢":569,"éĩĳ":570,"çĸ":571,"æŁ":572,"ä¸ĵ":573,"ä»£":574,"ä¸ŃåĽ½":575,"åįĹ":576,"è¡¨":577,"åĢ":578,"æģ":579,"å£":580,"çĽ¸":581,"çłĶ":582,"åĽł":583,"éĵ":584,"éģĵ":585,"éľ":586,"æ°ĳ":587,"è¢":588,"åĪ©":589,"ç¾İ":590,"æĶ¿":591,"çĥ":592,"ä¸ľ":593,"çĤ¹":594,"çĿ":595,"ä½¿":596,"çĦ":597,"çĹ":598,"ç²":599,"ç¼":600,"å¼ı":601,"æ¯Ķ":602,"èį":603,"éĩĮ":604,"åŁº":605,"å±±":606,"å½ĵ":607,"çľģ":608,"æĪĸ":609,"æ¡":610,"æµ·":611,"ä¿¡":612,"èİ":613,"ç¡":614,"çĶ±":615,"åŀ":616,"ç¥":617,"ç½ĳ":618,"è´¨":619,"ä»İ":620,"æĽ´":621,"åĮĹ":622,"èĥ":623,"å·¥ä½ľ":624,"æĺİ":625,"èĪ":626,"æĥħ":627,"å¸¸":628,"éĴ":629,"æ¬¡":630,"åķ":631,"è½¦":632,"æ·":633,"äºĮ":634,"ç´":635,"è¢«":636,"éĤ":637,"ä¼ģ":638,"ä¸Ģä¸ª":639,"æŃ¤":640,"ï¼Ľ":641,"æľį":642,"æº":643,"æĹł":644,"è·¯":645,"æĦı":646,"ç»Ł":647,"çĲĥ":648,"æ´»":649,"è£":650,"çģ":651,"åı¯ä»¥":652,"åħĥ":653,"æŀľ":654,"ç«ĭ":655,"è¿ĺ":656,"å¸Ī":657,"åįģ":658,"çº§":659,"é©":660,"é£İ":661,"ç»Ħ":662,"èµ·":663,"çĦ¶":664,"è¯´":665,"éª":666,"ä¹¦":667,"æł¡":668,"ä¼ģä¸ļ":669,"é¡¹":670,"åĲĦ":671,"æłĩ":672,"æĸ¯":673,"çĪ":674,"å²":675,"ä»¶":676,"è¿Ĳ":677,"åķĨ":678,"åŀĭ":679,"åİŁ":680,"æŃ£":681,"åĪĽ":682,"å¤Ħ":683,"ä½Ĩ":684,"åĮ»":685,"æĤ":686,"æį®":687,"çº¿":688,"éĽĨ":689,"ç»ĵ":690,"æµģ":691,"åıĳå±ķ":692,"åŁİ":693,"ç¦":694,"èµĽ":695,"è§Ħ":696,"å¹¿":697,"äº¤":698,"æĬĢæľ¯":699,"æİ¥":700,"æĪĳä»¬":701,"å¾Ī":702,"èī²":703,"è§£":704,"åħ·":705,"èĮ":706,"èĩ³":707,"éĹ¨":708,"éĺŁ":709,"èģĶ":710,"ä¸ĸ":711,"éĢł":712,"æīĭ":713,"å¯¼":714,"åı°":715,"æ²»":716,"ä¼ł":717,"åįķ":718,"æ°Ķ":719,"æł¼":720,"åĻ":721,"æĢ»":722,"çĿĢ":723,"ç¤¾":724,"ç©¶":725,"æ»":726,"èĤ²":727,"æĮģ":728,"å·ŀ":729,"å¤ĩ":730,"æ¼":731,"æ£":732,"ä¸ĩ":733,"åħ±":734,"é»":735,"ç®¡çĲĨ":736,"éľĢ":737,"äºĽ":738,"å°Ķ":739,"å¼º":740,"æĸĻ":741,"åİ¿":742,"ä¸¤":743,"åĻ¨":744,"å½±":745,"åı£":746,"ç±»":747,"æĿĳ":748,"çłĶç©¶":749,"éĻĲ":750,"èº":751,"è¾¾":752,"åħĪ":753,"åĲĳ":754,"æĬ¥":755,"æľįåĬ¡":756,"èĦ":757,"å·²":758,"é¢ĺ":759,"åĸ":760,"åıĤ":761,"å½¢":762,"ä¾Ľ":763,"çĻ½":764,"éĢī":765,"å§Ķ":766,"çĹħ":767,"æĶ¶":768,"çİ¯":769,"ä½ł":770,"æ±Ĥ":771,"åĽ¢":772,"æķĪ":773,"èº«":774,"åĽĽ":775,"æĪĺ":776,"ä¼ĺ":777,"éŁ":778,"æºĲ":779,"åıĹ":780,"ç§°":781,"çŁ¥":782,"åĶ":783,"æ¹":784,"å¾·":785,"è£ħ":786,"äº§åĵģ":787,"æ¢":788,"è¿Ľè¡Į":789,"æ®":790,"åıĺ":791,"Â·":792,"åĨĽ":793,"åı·":794,"åħī":795,"æĪ·":796,"èĲ¥":797,"å¸ĥ":798,"æĦŁ":799,"çľĭ":800,"æĮĩ":801,"åĬŀ":802,"åįİ":803,"æŀĦ":804,"çķĮ":805,"è¯¥":806,"é¢Ĩ":807,"èİ·":808,"æ±Ł":809,"éĹ®":810,"æł·":811,"ç±³":812,"èĬĤ":813,"åĮħ":814,"æ¨":815,"è°ĥ":816,"æ¸¸":817,"ç«Ļ":818,"è§Ĩ":819,"æĶ¹":820,"å±Ģ":821,"å¢ŀ":822,"å¤§åŃ¦":823,"è¯ģ":824,"ä¹Ĳ":825,"å°ĳ":826,"åĩĨ":827,"åİ»":828,"åģļ":829,"åħĭ":830,"çĽ´":831,"ç²¾":832,"èĻ":833,"å£«":834,"å®Į":835,"åĪ«":836,"èĢĥ":837,"æģ¯":838,"æĿ¡":839,"å¡":840,"é¥":841,"ç©º":842,"éĻħ":843,"è®º":844,"ä»·":845,"ä½¿çĶ¨":846,"èģĮ":847,"ç¤º":848,"å¸¦":849,"åĽ½å®¶":850,"æ²¡":851,"æĥ³":852,"é©¬":853,"è¾ĥ":854,"éªĮ":855,"å®¹":856,"æ¸ħ":857,"åıĸ":858,"æĬķ":859,"èĳ":860,"äºļ":861,"éĺ²":862,"è®°":863,"çĥŃ":864,"ä¹Ī":865,"è±":866,"æĶ¾":867,"å¥³":868,"ç§¯":869,"æĸ½":870,"è®¤":871,"å·±":872,"åĬŁ":873,"è®©":874,"æ³¨":875,"å®¢":876,"æĶ¯":877,"å¤´":878,"åĽŀ":879,"åİĨ":880,"æİ¨":881,"è½¬":882,"å±ŀ":883,"åıª":884,"çħ":885,"è´¹":886,"è§Ĥ":887,"çĬ":888,"å®ĥ":889,"å¢ĥ":890,"æķ´":891,"æīĵ":892,"é¦ĸ":893,"èĬ±":894,"æµİ":895,"éĿŀ":896,"æ·±":897,"èĩªå·±":898,"è®¾è®¡":899,"è¿ĳ":900,"èīº":901,"æ¯ı":902,"çĶŁäº§":903,"æĿĲ":904,"æŀĹ":905,"è¯ķ":906,"äºĶ":907,"çº¦":908,"äº¬":909,"ä¸ĵä¸ļ":910,"é¾":911,"æľīéĻĲ":912,"ç»´":913,"ä¸»è¦ģ":914,"ç³»ç»Ł":915,"åĨľ":916,"çİĭ":917,"ç¥ŀ":918,"èĢģ":919,"éĢŁ":920,"é£Ł":921,"ä»Ĭ":922,"æ¼Ķ":923,"æĬ¤":924,"æĺĵ":925,"è¯Ń":926,"åħļ":927,"çĸĹ":928,"æ¨¡":929,"éĤ£":930,"æĭī":931,"æµĭ":932,"å¤į":933,"åĽ¾":934,"æ²³":935,"åĬ©":936,"çĭ":937,"æķĻèĤ²":938,"åŃĹ":939,"åĨ³":940,"çŁ³":941,"çİĩ":942,"å·¥ç¨ĭ":943,"éĢļè¿ĩ":944,"åįı":945,"åĪĹ":946,"ç¡®":947,"æŃ¥":948,"æīį":949,"ç»Ļ":950,"èĭ±":951,"æĿĥ":952,"åĽŃ":953,"çı":954,"çīĩ":955,"é¡¹çĽ®":956,"åºľ":957,"è®®":958,"æİ§":959,"å§ĭ":960,"ç»Ń":961,"èı":962,"éŁ³":963,"ä½İ":964,"æł¹":965,"æıĲä¾Ľ":966,"åĪĴ":967,"ï¼Ł":968,"æ¶Ī":969,"æ¸©":970,"âĢĶ":971,"æĴ":972,"éħį":973,"å¸Ĥåľº":974,"çĪ±":975,"æľīéĻĲåħ¬åı¸":976,"æĳ":977,"æĹ¶éĹ´":978,"çľŁ":979,"éĩĩ":980,"å®¤":981,"å¥ĸ":982,"è¶³":983,"è¶ħ":984,"ç»ıæµİ":985,"å¼ķ":986,"åįĩ":987,"èĮĥ":988,"èħ":989,"å¿«":990,"è§ģ":991,"éĺ³":992,"åĳ¨":993,"åı²":994,"ä¸Ńå¿ĥ":995,"åĪĻ":996,"ç´ł":997,"æŁ¥":998,"åĨį":999,"æ¡Ī":1000,"è¯Ħ":1001,"è¿ŀ":1002,"å»ºè®¾":1003,"åŁŁ":1004,"åħ»":1005,"ç½®":1006,"åŃĺ":1007,"ä¿¡æģ¯":1008,"æĪ¿":1009,"åıį":1010,"åıĪ":1011,"éķĩ":1012,"æ²¡æľī":1013,"æĢģ":1014,"åĭ":1015,"ä¹ī":1016,"ä½ķ":1017,"åİĭ":1018,"éĿĴ":1019,"æľª":1020,"å¨":1021,"ä¸ĸçķĮ":1022,"éľĢè¦ģ":1023,"æ£Ģ":1024,"åī¯":1025,"è¯·":1026,"å¤ª":1027,"éĹ®é¢ĺ":1028,"æĺ¯ä¸Ģ":1029,"èį¯":1030,"èĩ´":1031,"ä»¥åıĬ":1032,"é¾Ļ":1033,"æĻ¯":1034,"åĳĬ":1035,"å¼ł":1036,"æŀģ":1037,"ç½Ĺ":1038,"è¶Ĭ":1039,"ç¼ĸ":1040,"æ²¹":1041,"è¯Ĩ":1042,"è´£":1043,"éĶĢ":1044,"ç¢":1045,"ä¸Ķ":1046,"æİĴ":1047,"åı¤":1048,"ç¦»":1049,"er":1050,"åĦ":1051,"æĸĩåĮĸ":1052,"ä¹ł":1053,"åĳ½":1054,"çīĪ":1055,"æĺŁ":1056,"ç¤¾ä¼ļ":1057,"åĵį":1058,"åĽ½éĻħ":1059,"åŃ¦éĻ¢":1060,"çª":1061,"åĢ¼":1062,"åį³":1063,"ä»ĸä»¬":1064,"éĻ¤":1065,"å¹²":1066,"è®¾å¤ĩ":1067,"çļĦä¸Ģ":1068,"æī¿":1069,"åĨµ":1070,"åľŁ":1071,"éĢĤ":1072,"ä¿®":1073,"çĶ»":1074,"çīĮ":1075,"çº¢":1076,"æĸŃ":1077,"æĺ¾":1078,"åŃ¦æł¡":1079,"çĬ¶":1080,"çĮ":1081,"åĦ¿":1082,"ä¾¿":1083,"ä¼Ĺ":1084,"åł":1085,"çĻ¾":1086,"å±Ĥ":1087,"ç»ĩ":1088,"ç§ĳæĬĢ":1089,"çĶŁæ´»":1090,"æĶ¿åºľ":1091,"é¦Ļ":1092,"ç¬¬ä¸Ģ":1093,"æĿ¿":1094,"åº·":1095,"é¢Ħ":1096,"éļı":1097,"èŀ":1098,"ï¼ģ":1099,"å®īåħ¨":1100,"ç»Ĩ":1101,"æ®µ":1102,"åĲĮæĹ¶":1103,"æĢĿ":1104,"ä¹¡":1105,"çİ¯å¢ĥ":1106,"æħ":1107,"åģ¥":1108,"æĪĲä¸º":1109,"é»Ħ":1110,"ä¾ĭ":1111,"æĬĬ":1112,"æĽ¾":1113,"å°±æĺ¯":1114,"çħ§":1115,"å¿ħ":1116,"in":1117,"æĻº":1118,"åĥ":1119,"è¡Įä¸ļ":1120,"çĽĳ":1121,"ç¦ı":1122,"éħĴ":1123,"ç®Ĺ":1124,"æļ":1125,"è®¸":1126,"æ´»åĬ¨":1127,"åī§":1128,"äººæ°ĳ":1129,"çŃĳ":1130,"åįļ":1131,"èĤ¡":1132,"ĠĠ":1133,"åħ°":1134,"æ»¡":1135,"è¯Ŀ":1136,"éĩįè¦ģ":1137,"æ¹ĸ":1138,"è§Ĵ":1139,"åĿĩ":1140,"åħ·æľī":1141,"è±¡":1142,"éļ¾":1143,"åĩł":1144,"ç®Ģ":1145,"çģ«":1146,"é²":1147,"æ¸¯":1148,"åŁ¹":1149,"æł¸":1150,"åİĤ":1151,"éĵģ":1152,"åĬ¿":1153,"çļ®":1154,"çĵ":1155,"æ¥":1156,"å¥¹":1157,"å¦Ĥæŀľ":1158,"åºĹ":1159,"åį¡":1160,"ä¸įåĲĮ":1161,"ä¸ŃçļĦ":1162,"åı¯èĥ½":1163,"èĲ½":1164,"æĸ¹éĿ¢":1165,"åıĮ":1166,"æķ°æį®":1167,"an":1168,"æĻ®":1169,"åĽ´":1170,"äººåĳĺ":1171,"ä»½":1172,"æĹı":1173,"å½±åĵį":1174,"å¿Ĺ":1175,"åŃ¦çĶŁ":1176,"éĺ¿":1177,"èĴ":1178,"è´Ł":1179,"åŃ£":1180,"on":1181,"åĪĿ":1182,"çºª":1183,"å±ħ":1184,"æķħ":1185,"å·´":1186,"åĶ®":1187,"åĽłä¸º":1188,"äºī":1189,"ä»Ģ":1190,"æĭ¬":1191,"æľĽ":1192,"ä½ľä¸º":1193,"å»ºçŃĳ":1194,"ä»ħ":1195,"èĳĹ":1196,"çĶ·":1197,"è¿Ļä¸ª":1198,"è¨":1199,"æĲ":1200,"äºĳ":1201,"è¨Ģ":1202,"èĭı":1203,"å¯Į":1204,"ä¾Ŀ":1205,"åħ´":1206,"åĮĹäº¬":1207,"å¯Ĩ":1208,"è´¨éĩı":1209,"åį«":1210,"åħ¶ä»ĸ":1211,"åħ¶ä¸Ń":1212,"åĥı":1213,"åºĶçĶ¨":1214,"åħ¨åĽ½":1215,"ç¿":1216,"æ¤":1217,"è¾¹":1218,"å¾Ģ":1219,"åıĭ":1220,"ä¸¾":1221,"ç»Ī":1222,"æĥħåĨµ":1223,"ç»Ħç»ĩ":1224,"åĮħæĭ¬":1225,"éĻį":1226,"æĪı":1227,"å½ķ":1228,"åĢĻ":1229,"è¦ģæ±Ĥ":1230,"ä½ı":1231,"éĥ¨åĪĨ":1232,"ç¾İåĽ½":1233,"çĽ¸åħ³":1234,"æĤ£":1235,"æ²»çĸĹ":1236,"æĹħ":1237,"å°¼":1238,"æ±ī":1239,"ä½Ļ":1240,"æĮī":1241,"åĪĩ":1242,"å¼Ģå§ĭ":1243,"é¸":1244,"å£°":1245,"ç§ĳåŃ¦":1246,"éĻ©":1247,"äº§ä¸ļ":1248,"åįķä½į":1249,"çĽĬ":1250,"æİĪ":1251,"è¯¾":1252,"å¼Ģåıĳ":1253,"èŀį":1254,"ç¯":1255,"æĬķèµĦ":1256,"æĹ©":1257,"éĵ¶":1258,"æŃ¦":1259,"çŃĸ":1260,"ä½įäºİ":1261,"äº¿":1262,"æł¹æį®":1263,"æ¬¾":1264,"æĵ":1265,"çļĦäºº":1266,"èĥ½åĬĽ":1267,"å¤±":1268,"æĿİ":1269,"èİ·å¾Ĺ":1270,"åħŃ":1271,"å¾®":1272,"åŁİå¸Ĥ":1273,"ç¾¤":1274,"æĤ¨":1275,"æ³¢":1276,"å®ĺ":1277,"å¿µ":1278,"åľ°åĮº":1279,"å¾ĭ":1280,"çº³":1281,"âĢĿãĢĤ":1282,"å¤§çļĦ":1283,"âĢĿï¼Į":1284,"åħħ":1285,"ä»Ģä¹Ī":1286,"åĩ»":1287,"å¥½çļĦ":1288,"ãĢĤâĢĿ":1289,"åħį":1290,"åĨĻ":1291,"æ½":1292,"é¦Ĩ":1293,"è¿ľ":1294,"éĽĨåĽ¢":1295,"çĭ¬":1296,"è®Ń":1297,"æĿĲæĸĻ":1298,"å¤ĦçĲĨ":1299,"ãĢģãĢĬ":1300,"åį°":1301,"å¤Ł":1302,"èī¯":1303,"æłĩåĩĨ":1304,"çıŃ":1305,"èĹ":1306,"è´¢":1307,"éĴ¢":1308,"æľ¨":1309,"ä¸´":1310,"ç»ľ":1311,"äºĴ":1312,"ä»ĭ":1313,"åĩı":1314,"åĸĦ":1315,"ç§Ģ":1316,"ï¼īï¼Į":1317,"å®Ŀ":1318,"çĽ®åīį":1319,"æĭ©":1320,"è¾ĵ":1321,"æĽ²":1322,"ä¸¥":1323,"èµ°":1324,"å·¥ä¸ļ":1325,"è¿ĻäºĽ":1326,"åĲ«":1327,"æĸ¹å¼ı":1328,"è¯»":1329,"æī¹":1330,"æ¯ķ":1331,"å§Ķåĳĺ":1332,"åįĬ":1333,"æĭħ":1334,"æĺ¥":1335,"äº²":1336,"åŃ¦ä¹ł":1337,"æīĢä»¥":1338,"åº§":1339,"è´Ń":1340,"ãĦ":1341,"æĴŃ":1342,"åıĤåĬł":1343,"åħ«":1344,"è¡Ģ":1345,"å®ģ":1346,"åĲĪä½ľ":1347,"å·²ç»ı":1348,"çĨ":1349,"èīºæľ¯":1350,"è¿ĩç¨ĭ":1351,"éĢīæĭ©":1352,"åįł":1353,"ä¹Łæĺ¯":1354,"äººçļĦ":1355,"é»ĳ":1356,"éĿ¢ç§¯":1357,"æ¦":1358,"åĩºçİ°":1359,"åĪĽæĸ°":1360,"å®¡":1361,"è½»":1362,"ãĥ":1363,"æ´²":1364,"ä¸Ĭæµ·":1365,"ç£":1366,"ãģ":1367,"ç¬¬äºĮ":1368,"æĸ¹æ³ķ":1369,"åºķ":1370,"éĿ©":1371,"è§ī":1372,"æ±½":1373,"ar":1374,"åŁºç¡":1375,"å¯¹äºİ":1376,"èĪ¬":1377,"éĿŀå¸¸":1378,"æ¬§":1379,"è®²":1380,"åŁºç¡Ģ":1381,"æī§":1382,"ç½ĳç»ľ":1383,"ä¸°":1384,"å¸Į":1385,"æıĲé«ĺ":1386,"æŃ¢":1387,"å¥¥":1388,"å¤«":1389,"è½½":1390,"å®ŀçİ°":1391,"åĽłæŃ¤":1392,"å¾Īå¤ļ":1393,"ãĢĭãĢģãĢĬ":1394,"æŃĮ":1395,"ä¹ĭä¸Ģ":1396,"æľºæŀĦ":1397,"æ¿":1398,"å²Ľ":1399,"en":1400,"åĤ":1401,"å·Ŀ":1402,"åĨħå®¹":1403,"åİĨåı²":1404,"å®£":1405,"åħ¸":1406,"èĪª":1407,"åĵģçīĮ":1408,"åĮ»éĻ¢":1409,"ç«¯":1410,"æķĻåŃ¦":1411,"åĳ³":1412,"æŀĲ":1413,"çķĻ":1414,"æĭ¥":1415,"å±Ĭ":1416,"åĬŁèĥ½":1417,"çĶ³":1418,"åı¦":1419,"ä»¥ä¸Ĭ":1420,"åĿļ":1421,"åįĥ":1422,"çĶ±äºİ":1423,"ä¸ĢäºĽ":1424,"éº":1425,"é¡»":1426,"éĢģ":1427,"å¹³åı°":1428,"é¢ĳ":1429,"èµĦæºĲ":1430,"ç«ł":1431,"åŃ©":1432,"ä»£è¡¨":1433,"åĸľ":1434,"ä¹Ŀ":1435,"ç»¼":1436,"å®¢æĪ·":1437,"çĳ":1438,"ä¸ªäºº":1439,"è½¯":1440,"æīĢæľī":1441,"ç»§":1442,"åĲ¸":1443,"ç»¿":1444,"æİ§åĪ¶":1445,"è´§":1446,"çĶ°":1447,"é¥°":1448,"å©":1449,"åģ¥åº·":1450,"éĥ¨éĹ¨":1451,"å¥ĩ":1452,"åĨł":1453,"ç»ĵæŀĦ":1454,"çķ¥":1455,"è¡Ĺ":1456,"æ¥¼":1457,"éĻĪ":1458,"èĥľ":1459,"å³":1460,"ä»¤":1461,"çł´":1462,"åīĤ":1463,"éħ¸":1464,"æĪĲç«ĭ":1465,"æį¢":1466,"å²ģ":1467,"äº«":1468,"æĤ£èĢħ":1469,"çľ¼":1470,"çĩ":1471,"åį´":1472,"èĥ½å¤Ł":1473,"åıĳçĶŁ":1474,"æĬĹ":1475,"ä¸ĥ":1476,"or":1477,"è¿Ļæł·":1478,"å®ĮæĪĲ":1479,"èĩªå·±çļĦ":1480,"å°½":1481,"åºı":1482,"ä½ľåĵģ":1483,"é¼":1484,"çĶµåŃĲ":1485,"æ¬¢":1486,"ç§»":1487,"æ¯ķä¸ļ":1488,"çªģ":1489,"è¡¥":1490,"æŁĵ":1491,"åĽ½åĨħ":1492,"æ¸¸æĪı":1493,"çĻ»":1494,"å¼Ĥ":1495,"é£ŀ":1496,"å¾ģ":1497,"æĹ¶åĢĻ":1498,"é¢ĨåŁŁ":1499,"éŃ":1500,"æĭĽ":1501,"ä½ľçĶ¨":1502,"åºĵ":1503,"å¹´çļĦ":1504,"æłĳ":1505,"çļĦæĺ¯":1506,"å®³":1507,"å°Ħ":1508,"éĩĩçĶ¨":1509,"åı¶":1510,"çİ°åľ¨":1511,"ä¿ĿæĬ¤":1512,"æ¤į":1513,"è¿°":1514,"æ¿Ģ":1515,"èģļ":1516,"å¤§å®¶":1517,"ç¨³":1518,"æ²Ļ":1519,"ç´¢":1520,"åħ¬éĩĮ":1521,"æĭ¥æľī":1522,"åĪ°äºĨ":1523,"æīĺ":1524,"ä¸Ģå®ļ":1525,"æ¶²":1526,"ä½Ĩæĺ¯":1527,"èĩªçĦ¶":1528,"æ¯į":1529,"åıĳçİ°":1530,"ä»ª":1531,"èĨ":1532,"å¸®":1533,"èį£":1534,"ä¸ĢèĪ¬":1535,"ç³»åĪĹ":1536,"èĽ":1537,"çĸ«":1538,"æĹ¥æľ¬":1539,"ç«ŀ":1540,"è½®":1541,"çĶ¨æĪ·":1542,"åĪĨæŀĲ":1543,"å·®":1544,"ä¸įæĺ¯":1545,"ä¸ļåĬ¡":1546,"ä¼¤":1547,"æľĿ":1548,"åĺ":1549,"è®¡åĪĴ":1550,"al":1551,"ä¸įæĸŃ":1552,"çĶ¨äºİ":1553,"åĪ¶éĢł":1554,"é¢Ŀ":1555,"è§Ħå®ļ":1556,"è¡¨ç¤º":1557,"ç»¼åĲĪ":1558,"å¯Ł":1559,"çĶ²":1560,"ãĢĢ":1561,"at":1562,"åĲĦç§į":1563,"æ¡¥":1564,"åĨ·":1565,"çŁŃ":1566,"åºĨ":1567,"ç»ıèĲ¥":1568,"åĽº":1569,"æĪĸèĢħ":1570,"å¨ģ":1571,"ä¹ĭåĲİ":1572,"ç»ĥ":1573,"ãĤ":1574,"ä½³":1575,"åĬ³":1576,"ç¨İ":1577,"åĲī":1578,"è¯į":1579,"çĻ½çĻ":1580,"çīĽ":1581,"ľé£İ":1582,"éĴŁ":1583,"å¥Ĺ":1584,"éļľ":1585,"èĮ¶":1586,"é½":1587,"çĻ½çĻľé£İ":1588,"è¿ĲåĬ¨":1589,"ä¸»ä»»":1590,"æĶ»":1591,"æ±½è½¦":1592,"æĿĤ":1593,"è¿Ļç§į":1594,"çĹĩ":1595,"èĵ":1596,"éĥ½æĺ¯":1597,"å®Ĺ":1598,"æĿ¾":1599,"èįī":1600,"æĶ¯æĮģ":1601,"èıľ":1602,"çģµ":1603,"åĲĥ":1604,"è¯Ĺ":1605,"éľĢæ±Ĥ":1606,"ä¸ºäºĨ":1607,"ä¸ĬçļĦ":1608,"åª":1609,"èĹı":1610,"ç»©":1611,"é±":1612,"åŁºæľ¬":1613,"æľīåħ³":1614,"çłģ":1615,"è§£åĨ³":1616,"åįıä¼ļ":1617,"æ¢°":1618,"ĠS":1619,"åĨĮ":1620,"æ¯Ķè¾ĥ":1621,"è´Łè´£":1622,"ç»Ŀ":1623,"ä¸½":1624,"æ±¡":1625,"åĪ©çĶ¨":1626,"æŃ»":1627,"è®¤ä¸º":1628,"æĵį":1629,"äºĨè§£":1630,"å½©":1631,"é±¼":1632,"å¡Ķ":1633,"çİ°ä»£":1634,"æ¯Ĵ":1635,"æ¹¾":1636,"é¹":1637,"æī¾":1638,"æĻºèĥ½":1639,"ä½Ľ":1640,"åĪĺ":1641,"æ°¸":1642,"éĶĢåĶ®":1643,"ç½ĳç«Ļ":1644,"åĪ»":1645,"éĻĦ":1646,"å¹³æĸ¹":1647,"æįŁ":1648,"æķĻå¸Ī":1649,"åİħ":1650,"åłĤ":1651,"æİ¢":1652,"é¡º":1653,"æ¯ĶèµĽ":1654,"âĢĶâĢĶ":1655,"å½¢æĪĲ":1656,"äº¤éĢļ":1657,"åºŃ":1658,"è´µ":1659,"æ¶Īè´¹":1660,"es":1661,"å·¦":1662,"ä¹°":1663,"è·Ŀ":1664,"æıĲåįĩ":1665,"åħ³ç³»":1666,"ç»į":1667,"çŁ¥è¯Ĩ":1668,"æĿ¥çļĦ":1669,"çĶµå½±":1670,"åŃ©åŃĲ":1671,"äº§çĶŁ":1672,"ä¸įèĥ½":1673,"ä¼ĺç§Ģ":1674,"ä¹ĭéĹ´":1675,"è¿ĺæĺ¯":1676,"å¢ŀéķ¿":1677,"åħ¨çĲĥ":1678,"ç²ī":1679,"ä»į":1680,"èĻ½":1681,"åĲ¦":1682,"ĠC":1683,"èģĮä¸ļ":1684,"ç¬¬ä¸ī":1685,"ä¼łç»Ł":1686,"çĪ¶":1687,"ãĢį":1688,"å¼Ģå±ķ":1689,"ãĢĮ":1690,"åľ£":1691,"åĵĪ":1692,"é¦Ļæ¸¯":1693,"çĶµè§Ĩ":1694,"ï¼ļâĢľ":1695,"å¾ħ":1696,"çĽĸ":1697,"å¤ı":1698,"åı³":1699,"äºĪ":1700,"éĽ·":1701,"å¸Ń":1702,"çĿ£":1703,"éĩįçĤ¹":1704,"æķ£":1705,"å§Ķåĳĺä¼ļ":1706,"ä¿ĥ":1707,"ç¥¨":1708,"çĶŁçī©":1709,"éĹ»":1710,"è¡ĮæĶ¿":1711,"å®Ī":1712,"åģľ":1713,"å°ģ":1714,"æĸ°çļĦ":1715,"ä¹ħ":1716,"éĴĪ":1717,"é¡µ":1718,"åªĴ":1719,"åħµ":1720,"åĿĹ":1721,"ç´§":1722,"åºĬ":1723,"å¢ŀåĬł":1724,"æľºæ¢°":1725,"æ°´å¹³":1726,"éĨ":1727,"èĤī":1728,"éŁ³ä¹Ĳ":1729,"åĲ¬":1730,"ä¸įä¼ļ":1731,"æľīæķĪ":1732,"å¿ħé¡»":1733,"),":1734,"çŁ¿":1735,"çĸ¾":1736,"æĸĹ":1737,"¤Ĳ":1738,"çĽĺ":1739,"æĹħæ¸¸":1740,"ic":1741,"éĻĨ":1742,"åĨ²":1743,"ç¯ĩ":1744,"å»ºç«ĭ":1745,"ï¼īãĢĤ":1746,"äºĨä¸Ģ":1747,"è¿Ľåħ¥":1748,"é¥®":1749,"è§ĦåĪĴ":1750,"æ´¾":1751,"æŁĲ":1752,"èĸ":1753,"åľ°æĸ¹":1754,"ç²¾ç¥ŀ":1755,"çī¹åĪ«":1756,"è¿Ļä¸Ģ":1757,"ä¼Ĭ":1758,"éĢı":1759,"åºĦ":1760,"è®¡ç®Ĺ":1761,"ä¸ĩåħĥ":1762,"æĦ¿":1763,"çİ©":1764,"ç§¯æŀģ":1765,"æĶ¿çŃĸ":1766,"æ³°":1767,"èĩªåĬ¨":1768,"çĮ®":1769,"æĪĲåĬŁ":1770,"åģĩ":1771,"è¯¢":1772,"ä»·æł¼":1773,"æĸ¹æ¡Ī":1774,"è¿½":1775,"å»¶":1776,"ä¸ĢæŃ¥":1777,"åħĪè¿Ľ":1778,"åĲ¯":1779,"åĩĢ":1780,"è¿ĺæľī":1781,"èŃ":1782,"è®¯":1783,"ä¼ļè®®":1784,"æ¾":1785,"æŀ¶":1786,"åıĤä¸İ":1787,"èĥĮ":1788,"åŃĺåľ¨":1789,"æ£®":1790,"å±ŀäºİ":1791,"å¦Ĥä½ķ":1792,"æĽ´å¤ļ":1793,"ä¼¼":1794,"å¤®":1795,"éĿł":1796,"å®ŀéªĮ":1797,"æķĻæİĪ":1798,"æĳĦ":1799,"çĶ³è¯·":1800,"æĪĳåĽ½":1801,"åħ³äºİ":1802,"èĢĮä¸Ķ":1803,"éĢĢ":1804,"è´£ä»»":1805,"ä»İäºĭ":1806,"ä»»ä½ķ":1807,"çĽŁ":1808,"ç»ĵåĲĪ":1809,"éĢĲ":1810,"æĮ¥":1811,"æĿ¡ä»¶":1812,"æ±ł":1813,"èŃ¦":1814,"è¾¾åĪ°":1815,"ç¼º":1816,"æ´ĭ":1817,"el":1818,"éģĩ":1819,"ä»ĸçļĦ":1820,"èĦĳ":1821,"æĮģç»Ń":1822,"Ġ(":1823,"åĨľä¸ļ":1824,"å¡ĳ":1825,"çĽ®æłĩ":1826,"å¸®åĬ©":1827,"å´":1828,"éĺ¶":1829,"ä¸Ŀ":1830,"èĭ¥":1831,"éģĹ":1832,"å¸ĮæľĽ":1833,"éĴ±":1834,"å°ļ":1835,"å®ŀæĸ½":1836,"æī©":1837,"çİī":1838,"èĥ¶":1839,"å¸Ŀ":1840,"æľĢåĲİ":1841,"æĭ¿":1842,"ä¸Ģèµ·":1843,"è·Ł":1844,"åŁ¹è®Ń":1845,"éª¨":1846,"ä¸ĵå®¶":1847,"äººæīį":1848,"æĿ¯":1849,"åĪ¶ä½ľ":1850,"é¡¶":1851,"çĽ´æİ¥":1852,"ä½ĵçļĦ":1853,"è¿İ":1854,"äº¿åħĥ":1855,"è®¸å¤ļ":1856,"æĻļ":1857,"ä»ĭç»į":1858,"æ´Ľ":1859,"ä»ĺ":1860,"èª":1861,"åıĳå¸ĥ":1862,"æľŁéĹ´":1863,"é¡¾":1864,"æ¨¡å¼ı":1865,"å¯¼èĩ´":1866,"è¯º":1867,"é¢Ĩå¯¼":1868,"ç«¥":1869,"æ°§":1870,"æ³¨æĦı":1871,"é£Łåĵģ":1872,"ç»ıéªĮ":1873,"ä½ĵç³»":1874,"ä»¥ä¸ĭ":1875,"åıĸå¾Ĺ":1876,"èľ":1877,"é¤Ĳ":1878,"çŃ¾":1879,"èĲ¨":1880,"ä»·åĢ¼":1881,"ç¬Ķ":1882,"æ¯Ľ":1883,"å½Ĵ":1884,"èĢĲ":1885,"åĬłå·¥":1886,"å®ŀéĻħ":1887,"it":1888,"åĵª":1889,"éĶĻ":1890,"ç¤¼":1891,"èĮĥåĽ´":1892,"æķĪæŀľ":1893,"çļĩ":1894,"éĵ¾":1895,"å±±ä¸ľ":1896,"çŁ¥éģĵ":1897,"å¡ŀ":1898,"ç©ºéĹ´":1899,"è¶ħè¿ĩ":1900,"æ´Ĺ":1901,"äº¦":1902,"éĤ£ä¹Ī":1903,"çłĶåıĳ":1904,"çĶļ":1905,"ç»ĦæĪĲ":1906,"æ³Ľ":1907,"ä¼¦":1908,"é²ģ":1909,"åĤ¨":1910,"æĿĢ":1911,"æ±ĩ":1912,"åĩºçīĪ":1913,"çĵ¦":1914,"æ´¥":1915,"è½´":1916,"is":1917,"èĻ½çĦ¶":1918,"ä¸¤ä¸ª":1919,"åĬŀåħ¬":1920,"è¿Ļæĺ¯":1921,"åĩºçĶŁ":1922,"é²ľ":1923,"å·ŀå¸Ĥ":1924,"éĽ¶":1925,"ç¤¾åĮº":1926,"çļĦå¤§":1927,"è¯ī":1928,"ä¸ĢçĽ´":1929,"ä½ĵèĤ²":1930,"éĶ®":1931,"éļıçĿĢ":1932,"ç¬¦":1933,"èģĶåĲĪ":1934,"æ³ķå¾ĭ":1935,"åİļ":1936,"æ£Ģæµĭ":1937,"ç»ĵæŀľ":1938,"éģ¿":1939,"éĢłæĪĲ":1940,"æĵįä½ľ":1941,"..":1942,"æĶ¶åħ¥":1943,"æĹ¶ä»£":1944,"æĢ¥":1945,"ç»ıè¿ĩ":1946,"éĩİ":1947,"è¯Ĭ":1948,"ä¸°å¯Į":1949,"åħ¼":1950,"æĿ¨":1951,"äº¤æĺĵ":1952,"èĪŀ":1953,"è´¸":1954,"åĮ»çĸĹ":1955,"çļĦæĹ¶åĢĻ":1956,"æ··":1957,"äº®":1958,"ä¸Ńåįİ":1959,"æĢ§èĥ½":1960,"ç¡¬":1961,"è°¢":1962,"é½Ĳ":1963,"è®¿":1964,"ä¾§":1965,"èªī":1966,"æıĲåĩº":1967,"éĽĦ":1968,"æľªæĿ¥":1969,"åľĨ":1970,"ä¸įä»ħ":1971,"çĲĨè®º":1972,"ĠM":1973,"æĬ¥åĳĬ":1974,"è½¯ä»¶":1975,"çīĻ":1976,"èĶ":1977,"è¾ĳ":1978,"ĠA":1979,"å³°":1980,"åį±":1981,"èĴĻ":1982,"æĢ§çļĦ":1983,"æĿ¥è¯´":1984,"çĽĽ":1985,"çĨŁ":1986,"çĳŀ":1987,"è§Ħæ¨¡":1988,"åħ¨éĿ¢":1989,"å®ľ":1990,"ä¼ĳ":1991,"æĺ¾ç¤º":1992,"åĶĲ":1993,"æµĻ":1994,"å¾ĹåĪ°":1995,"åĪļ":1996,"æķ°åŃĹ":1997,"åĢŁ":1998,"åĪ¤":1999,"âĢĿãĢģ":2000,"éĿĻ":2001,"ä¸Ńå¤®":2002,"åĪĨåĪ«":2003,"åºŁ":2004,"æĭį":2005,"è§Ī":2006,"äº¤æµģ":2007,"åĽ¢éĺŁ":2008,"ç®±":2009,"çĸ¾çĹħ":2010,"æģ©":2011,"å®½":2012,"ç»§ç»Ń":2013,"éĩĳèŀį":2014,"éħĴåºĹ":2015,"èĤ¤":2016,"æ¢ħ":2017,"åĬª":2018,"èĥ½æºĲ":2019,"è®¢":2020,"èĦ±":2021,"çº¸":2022,"è¡Įä¸º":2023,"le":2024,"ç¨³å®ļ":2025,"æĢİ":2026,"ro":2027,"æ¢¦":2028,"å·¥èīº":2029,"æ¦Ĥ":2030,"éĽħ":2031,"æĺ¯ä¸Ģç§į":2032,"ä¸Ģç§į":2033,"éĵ¶è¡Į":2034,"åĪĨéĴŁ":2035,"è¿Ľä¸ĢæŃ¥":2036,"å®«":2037,"è°Ī":2038,"äººä»¬":2039,"åĳ¢":2040,"æķħäºĭ":2041,"èĪ¹":2042,"æĽ´åĬł":2043,"éŁ©":2044,"åºĶè¯¥":2045,"è®¾æĸ½":2046,"ï¼ĮâĢľ":2047,"åŁºéĩĳ":2048,"åį«çĶŁ":2049,"çĶŁæĢģ":2050,"è¿ĩç¨ĭä¸Ń":2051,"ä¸ĸçºª":2052,"æ¶¦":2053,"éĽ¨":2054,"å±ĭ":2055,"è¿ª":2056,"ä»¥æĿ¥":2057,"æ°ı":2058,"å¹´æĿ¥":2059,"åķĨä¸ļ":2060,"æľĭ":2061,"åŃ¦ä¼ļ":2062,"èİ±":2063,"æī§è¡Į":2064,"ä¿ĿæĮģ":2065,"åį·":2066,"åĪĬ":2067,"%ï¼Į":2068,"åĽ°":2069,"åĿĢ":2070,"å°¤":2071,"è®¨":2072,"ä¼ĺåĬ¿":2073,"æĸ½å·¥":2074,"å·¨":2075,"æķĳ":2076,"èıĮ":2077,"èĥŀ":2078,"åħ±åĲĮ":2079,"åİŁåĽł":2080,"æĮĩå¯¼":2081,"æĶ¿æ²»":2082,"è´Ŀ":2083,"éĩĬ":2084,"ĠP":2085,"ä¹¦è®°":2086,"ä¼¯":2087,"äºĭä¸ļ":2088,"åıĹåĪ°":2089,"åĺī":2090,"åĮºåŁŁ":2091,"æĹłæ³ķ":2092,"åıĺåĮĸ":2093,"ç§ĺ":2094,"æ³¨åĨĮ":2095,"å¹¶ä¸Ķ":2096,"è¡¨çİ°":2097,"åĬłåħ¥":2098,"æĽ¼":2099,"ä¸ŃåŃ¦":2100,"èģĶç½ĳ":2101,"æĮīçħ§":2102,"åĮĸåŃ¦":2103,"å¹¿ä¸ľ":2104,"å¤ľ":2105,"åıªæľī":2106,"æĪĳä»¬çļĦ":2107,"æľ«":2108,"èĨľ":2109,"èļ":2110,"åŁ¹åħ»":2111,"æĪĲæľ¬":2112,"åĶ±":2113,"æŃ£å¼ı":2114,"æĺ¯åľ¨":2115,"è¯ļ":2116,"å©ļ":2117,"å®¹æĺĵ":2118,"äººåı£":2119,"å®¶åºŃ":2120,"ç§°ä¸º":2121,"åĨ³å®ļ":2122,"%ãĢĤ":2123,"å¸ģ":2124,"è°·":2125,"éľ²":2126,"å®īè£ħ":2127,"ä¸ºä¸»":2128,"éĽª":2129,"çģ¯":2130,"âĢ¦":2131,"æħ¢":2132,"çĩĥ":2133,"èĽĭ":2134,"çĥĪ":2135,"ä¹İ":2136,"ç§Ł":2137,"æł¸å¿ĥ":2138,"åĬłå¼º":2139,"åĿĲ":2140,"è§¦":2141,"ch":2142,"çļĦé«ĺ":2143,"ä¸Ģæ¬¡":2144,"è¯¾ç¨ĭ":2145,"æĺ¯ä¸Ģä¸ª":2146,"åĵ¥":2147,"åĳĺå·¥":2148,"ç¥ĸ":2149,"è®ºæĸĩ":2150,"æ¶ī":2151,"éļĶ":2152,"æĹ§":2153,"æµĻæ±Ł":2154,"çĴ":2155,"æ»ĳ":2156,"å¿«éĢŁ":2157,"±ä¹Ĳ":2158,"è´¥":2159,"ä¸įè¿ĩ":2160,"ç¼©":2161,"æ¸Ĳ":2162,"æĥł":2163,"çĶļèĩ³":2164,"ä¿ĥè¿Ľ":2165,"ä¿Ŀéļľ":2166,"å¹¿æ³Ľ":2167,"çĤİ":2168,"æ´ģ":2169,"åĭĴ":2170,"æľĢç»Ī":2171,"æľĭåıĭ":2172,"æĭŁ":2173,"ä¸Ģæł·":2174,"è¸":2175,"æİª":2176,"et":2177,"åıĳè¡¨":2178,"as":2179,"ç©¿":2180,"èµĦæĸĻ":2181,"çļĦåıĳå±ķ":2182,"ä¸ģ":2183,"ä¿Ŀè¯ģ":2184,"åĲ´":2185,"æĶ¹éĿ©":2186,"å²©":2187,"è·µ":2188,"èĵĿ":2189,"å½¢å¼ı":2190,"åĩıå°ĳ":2191,"çĥŁ":2192,"å¾Ħ":2193,"ç³ĸ":2194,"äº©":2195,"åªĴä½ĵ":2196,"æ£ĢæŁ¥":2197,"çĲĥéĺŁ":2198,"åĴ¨":2199,"æĢĢ":2200,"éĢĶ":2201,"æĿ°":2202,"æ¡£":2203,"ĠãĦ":2204,"æĹĹ":2205,"å§Ĩ":2206,"ç§ĭ":2207,"æĿ¥èĩª":2208,"ä»Ĭå¹´":2209,"æ³ī":2210,"åĿļæĮģ":2211,"åıĬæĹ¶":2212,"æĸ¹åĲĳ":2213,"æİ¨åĬ¨":2214,"å¹ķ":2215,"å¼¹":2216,"èĻĳ":2217,"åĬªåĬĽ":2218,"æĪĲæŀľ":2219,"æ¢ģ":2220,"è¿ĻéĩĮ":2221,"çļĦæĸ°":2222,"å¹ħ":2223,"èĭ¦":2224,"èĦļ":2225,"åįĸ":2226,"åĪº":2227,"ç§ĳçłĶ":2228,"ä¸¹":2229,"å²Ĺ":2230,"çĹĽ":2231,"åĪ¶åº¦":2232,"è¿Ĳè¡Į":2233,"çŃĶ":2234,"éķ¿æľŁ":2235,"ä¹Į":2236,"åĬ±":2237,"æĺł":2238,"åĴ¨è¯¢":2239,"åįĹçľģ":2240,"åįļå£«":2241,"è¶£":2242,"çĺ":2243,"çİ°åľº":2244,"ç»Ĩèĥŀ":2245,"çī¹èī²":2246,"ãĢĳ":2247,"ä¼´":2248,"æĪĺçķ¥":2249,"éĤ®":2250,"èģĺ":2251,"å¹¼":2252,"éĻ¤äºĨ":2253,"ãĢĲ":2254,"å¹³æĸ¹ç±³":2255,"ç®Ģåįķ":2256,"çº¯":2257,"âĢĿãĢģâĢľ":2258,"ç¯®":2259,"æľīçļĦ":2260,"èĤ¥":2261,"é¡¿":2262,"é«ĺçº§":2263,"åįĪ":2264,"è¾ĸ":2265,"ç´¯":2266,"æ¾³":2267,"çĪĨ":2268,"å®Įåħ¨":2269,"åĳĪ":2270,"å»ºè®®":2271,"æĺ¯åĲ¦":2272,"æĪĲç»©":2273,"è¡£":2274,"é£İéĻ©":2275,"æĺĮ":2276,"å°ıåŃ¦":2277,"åľ³":2278,"åı«":2279,"èº«ä½ĵ":2280,"èµĦéĩĳ":2281,"am":2282,"çĸĳ":2283,"éĺ¶æ®µ":2284,"åĨ°":2285,"éĩĳå±ŀ":2286,"æĸĩä»¶":2287,"èĢĥè¯ķ":2288,"ç¢³":2289,"èĭ±åĽ½":2290,"åĽĽå·Ŀ":2291,"åŃĻ":2292,"æ¸©åº¦":2293,"çī¹çĤ¹":2294,"æī¬":2295,"åŃĶ":2296,")ãĢĤ":2297,"åĲ§":2298,"åħļåĳĺ":2299,"æİĮ":2300,"ç§ģ":2301,"æĿŁ":2302,"è´¡":2303,"re":2304,"å®ĭ":2305,"ĠB":2306,"ï¼īãĢģ":2307,"æ·±åľ³":2308,"--":2309,"çļ®èĤ¤":2310,"æ²¿":2311,"æİ¥åıĹ":2312,"çĥ§":2313,"èĳĹåĲį":2314,"ç¼ĺ":2315,"å½ĵæĹ¶":2316,"å®£ä¼ł":2317,"ç«ŀäºī":2318,"è±Ĩ":2319,"éĺµ":2320,"ãĢĭï¼Į":2321,"åŁºåľ°":2322,"èµ·æĿ¥":2323,"æ¹¿":2324,"å¯»":2325,"ä»ģ":2326,"åİĭåĬĽ":2327,"çħ¤":2328,"éķľ":2329,"ä¸įåĲĮçļĦ":2330,"ç¨ĭåºı":2331,"å¯¿":2332,"çĽĲ":2333,"éĥĳ":2334,"å¯º":2335,"æĳ©":2336,"å°ıæĹ¶":2337,"ä¸»ä¹ī":2338,"æ»¡è¶³":2339,"å¹¸":2340,"ä¼°":2341,"å®ĩ":2342,"çİ¯ä¿Ŀ":2343,"åŃ¦æľ¯":2344,"éº¦":2345,"ä¿Ħ":2346,"çĦ¶åĲİ":2347,"æ±Łèĭı":2348,"æ¶Ĥ":2349,"æĭħä»»":2350,"éļĨ":2351,"ç¦ģ":2352,"å¹´åº¦":2353,"æħ§":2354,"ĠT":2355,"åĨ¬":2356,"å¿ĥçĲĨ":2357,"é«ĺçļĦ":2358,"åĲĹ":2359,"åı¥":2360,"åĬ³åĬ¨":2361,"åĩºäºĨ":2362,"è¯ĳ":2363,"åħ¬å¼Ģ":2364,"è´´":2365,"æ²Ł":2366,"å®ŀè·µ":2367,"ç£¨":2368,"åı°æ¹¾":2369,"åħĪåĲİ":2370,"ol":2371,"åħ³éĶ®":2372,"è¾Ĩ":2373,"ion":2374,"æĮ¯":2375,"ä¸¥éĩį":2376,"åĮĸçļĦ":2377,"ç¡ķ":2378,"éĩıçļĦ":2379,"æ½®":2380,"æīĵéĢł":2381,"åħ³æ³¨":2382,"ä¹Łæľī":2383,"è·¨":2384,"æĹ¶æľŁ":2385,"æĪĳçļĦ":2386,"ç±»åŀĭ":2387,"äºĮåįģ":2388,"ä½łçļĦ":2389,"è¶³çĲĥ":2390,"èĥ¡":2391,"ä»»åĬ¡":2392,"æ¼«":2393,"éĵģè·¯":2394,"åºĶå½ĵ":2395,"il":2396,"èĢ³":2397,"æİ¨è¿Ľ":2398,"é¼ĵ":2399,"éĺ»":2400,"ç½²":2401,"è¿Ŀ":2402,"çĬ¶æĢģ":2403,"us":2404,"ä¸įè¦ģ":2405,"æĸĩåŃ¦":2406,"æīįèĥ½":2407,"æĹ¢":2408,"è¯Ńè¨Ģ":2409,"è§ĦèĮĥ":2410,"è¿ĲèĲ¥":2411,"ä¹ĭåīį":2412,"åĩºçļĦ":2413,"æĸ°éĹ»":2414,"çĸ«æĥħ":2415,"ä½įç½®":2416,"è°ĥæķ´":2417,"æ®Ĭ":2418,"è¯¯":2419,"æ±¤":2420,"ä¼ļåĳĺ":2421,"çľĭåĪ°":2422,"æĮĳ":2423,"éĻįä½İ":2424,"åħ¬åħ±":2425,"é¸¡":2426,"å¾½":2427,"ä»İèĢĮ":2428,"çıł":2429,"å¢Ļ":2430,"åħħåĪĨ":2431,"èĢģå¸Ī":2432,"è¾ħ":2433,"ç¿»":2434,"åĨłåĨĽ":2435,"èµĦäº§":2436,"èĻļ":2437,"éĺħ":2438,"èħĲ":2439,"æ³½":2440,"åľĪ":2441,"åįģåĪĨ":2442,"è®°èĢħ":2443,"èģĶç³»":2444,"åĽłç´ł":2445,"éī":2446,"æ¤įçī©":2447,"èĳ£":2448,"è¿·":2449,"ä½ĵéªĮ":2450,"æµĭè¯ķ":2451,"å¼Ł":2452,"èİ«":2453,"åĸľæ¬¢":2454,"çĽ®çļĦ":2455,"åĮ»åŃ¦":2456,"åĪĽéĢł":2457,"çŃīå¥ĸ":2458,"ä¹ĺ":2459,"éī´":2460,"éĢļå¸¸":2461,"æľºä¼ļ":2462,"æĸĳ":2463,"è¿Ĳè¾ĵ":2464,"æ²ī":2465,"åĿı":2466,"éļĲ":2467,"om":2468,"æıı":2469,"åıĳå±ķçļĦ":2470,"ä¸įåı¯":2471,"éĿĴå¹´":2472,"ç¡®å®ļ":2473,"å²¸":2474,"æķ´ä¸ª":2475,"ç»¿èī²":2476,"æ³¥":2477,"ac":2478,"æŃ¤å¤ĸ":2479,"å®¾":2480,"éģ¿åħį":2481,"å¤§åŀĭ":2482,"ç¬¦åĲĪ":2483,"æŃ£åľ¨":2484,"åĳ¼":2485,"æĻ®éĢļ":2486,"å¹´ä»£":2487,"æĢĿæĥ³":2488,"äºĴèģĶç½ĳ":2489,"å±ı":2490,"åħ¶å®ŀ":2491,"åĦ¿ç«¥":2492,"è¡¨éĿ¢":2493,"èĦĤ":2494,"ä¹Ļ":2495,"ç¡®ä¿Ŀ":2496,"æ½ľ":2497,"é¢ľ":2498,"åĪ¸":2499,"å½ĵåľ°":2500,"æ±¡æŁĵ":2501,"åıĳæĮ¥":2502,"çĶĺ":2503,"è¡¡":2504,"æĢİä¹Ī":2505,"å°¾":2506,"åħ¬è·¯":2507,"éĢŁåº¦":2508,"è¯¦":2509,"åľŁåľ°":2510,"æĪĲåĳĺ":2511,"å·¦åı³":2512,"æ°ĳæĹı":2513,"æīĭæľº":2514,"ä¿ĿéĻ©":2515,"ç±į":2516,"å¸¦æĿ¥":2517,"æİªæĸ½":2518,"ç¹":2519,"æĻĭ":2520,"å¦ĩ":2521,"åŁĥ":2522,"æļĸ":2523,"äºķ":2524,"çī©è´¨":2525,"èĤ¡ä»½":2526,"åĢĴ":2527,"èµµ":2528,"ĠL":2529,"ä¸įå¾Ĺ":2530,"çĲĨå¿µ":2531,"æľ±":2532,"è´¯":2533,"çļĦä¸Ģä¸ª":2534,"æ³ķåĽ½":2535,"ç¾İåħĥ":2536,"è§Ĩé¢ĳ":2537,"çĽĳçĿ£":2538,"ç¨ĭåº¦":2539,"åĲ¨":2540,"åĬ¨çī©":2541,"ĠG":2542,"ĠD":2543,"éº»":2544,"ä¸Ńåħ±":2545,"çĶŁåĳ½":2546,"ç¹ģ":2547,"çĬ¯":2548,"è°ĥæŁ¥":2549,"ç¼ĵ":2550,"ä¸¾åĬŀ":2551,"æºª":2552,"åĪĽä½ľ":2553,"éľĩ":2554,"æģ¶":2555,"å®ĮåĸĦ":2556,"åħ·ä½ĵ":2557,"åĭĩ":2558,"è·Ŀç¦»":2559,"ä¾ĽåºĶ":2560,"åĩĿ":2561,"æ©":2562,"åĲİçļĦ":2563,"éĴĪå¯¹":2564,"åĪĨä¸º":2565,"å¢¨":2566,"è¯¸":2567,"æ¶Īè´¹èĢħ":2568,"æĪª":2569,"ä»Ĭå¤©":2570,"æµª":2571,"èµĦæł¼":2572,"ç½ª":2573,"æı¡":2574,"åĶ¯":2575,"Ġ*":2576,"ç©ºæ°Ķ":2577,"éĥ½æľī":2578,"æĭĵ":2579,"æĲŃ":2580,"å¦Ī":2581,"å¾·åĽ½":2582,"æķı":2583,"æµĵ":2584,"å¼ķèµ·":2585,"æŃ£å¸¸":2586,"æľĹ":2587,"æľºåħ³":2588,"éĩįè¦ģçļĦ":2589,"çĦ¦":2590,"æ´ŀ":2591,"å¾Ĳ":2592,"ä¸¾è¡Į":2593,"èį·":2594,"èĻ«":2595,"ãĢĤ[":2596,"ĠR":2597,"è£ģ":2598,"éĺ´":2599,"æĸ¹ä¾¿":2600,"å¹¿å·ŀ":2601,"åıįåºĶ":2602,"åģļå¥½":2603,"åĬŀæ³ķ":2604,"åı¦å¤ĸ":2605,"ç²Ĵ":2606,"éĿ©åĳ½":2607,"æ³¡":2608,"èµĽåŃ£":2609,"ãĢĤâĢľ":2610,"å¼ĢæĶ¾":2611,"æľīä¸Ģ":2612,"å§ĵ":2613,"èĢĥèĻĳ":2614,"ä¼Ł":2615,"åŃ¦ç§ĳ":2616,"å°º":2617,"ç¬ĳ":2618,"æľĢä½³":2619,"ä¼į":2620,"ing":2621,"æĬĺ":2622,"åģı":2623,"ä¾ĭå¦Ĥ":2624,"æ¯ķä¸ļäºİ":2625,"æķ´ä½ĵ":2626,"æĶ¹åıĺ":2627,"éĵľ":2628,"å¤ļç§į":2629,"åĲĪåĲĮ":2630,"ç»´æĬ¤":2631,"è¿ŀç»Ń":2632,"åĿ¡":2633,"è¦":2634,"çī©æµģ":2635,"çĭ¬ç«ĭ":2636,"èģĶèµĽ":2637,"æĺİæĺ¾":2638,"åħ¬åĽŃ":2639,"ä¸´åºĬ":2640,"æģĴ":2641,"åĲįç§°":2642,"å¤ļä¸ª":2643,"æķĪçİĩ":2644,"å§Ķä¼ļ":2645,"æ¬§æ´²":2646,"æĺ¯æĮĩ":2647,"çļĦéĩįè¦ģ":2648,"å¤§åĪ©":2649,"çİ»":2650,"éĹŃ":2651,"è·ĳ":2652,"éŃĶ":2653,"æį·":2654,"çĲĨäºĭ":2655,"éĤ»":2656,"æ¨ª":2657,"å¾ª":2658,"æ¯«":2659,"é«ĺéĢŁ":2660,"ç¬¬åĽĽ":2661,"åķĨåĬ¡":2662,"ç¾İæľ¯":2663,"çļĦæĥħåĨµ":2664,"ç£ģ":2665,"éĵĿ":2666,"çī¹æ®Ĭ":2667,"Ġ-":2668,"éĢĤåĲĪ":2669,"æľĢå¤§":2670,"äººçī©":2671,"å·¥åħ·":2672,"äººç±»":2673,"çļĦå·¥ä½ľ":2674,"å°±ä¼ļ":2675,"èĢĹ":2676,"åĬĽéĩı":2677,"è¿¹":2678,"è¡ĮåĬ¨":2679,"å®ĥä»¬":2680,"èĭ±è¯Ń":2681,"åĵģè´¨":2682,"è¿ģ":2683,"åĲĪçĲĨ":2684,"å¹³åĿĩ":2685,"çļĦäºĭ":2686,"åħ¨éĥ¨":2687,"äººæ°ĳæĶ¿åºľ":2688,"çĲĥåĳĺ":2689,"ç«¹":2690,"ç»ıå¸¸":2691,"èĦī":2692,"åĿ¦":2693,"ç»ıçĲĨ":2694,"æĬĵ":2695,"æĻ¶":2696,"ç´«":2697,"éĩįåºĨ":2698,"çĴĥ":2699,"è¦Ĩ":2700,"åĩºåı£":2701,"éĶ¦":2702,"è¿ŀæİ¥":2703,"çļĦéĹ®é¢ĺ":2704,"èµ¢":2705,"å¹¶ä¸į":2706,"å«":2707,"çº¹":2708,"åĨľæĿĳ":2709,"__":2710,"å°¤åħ¶":2711,"ä¸»é¢ĺ":2712,"è´¡çĮ®":2713,"å¹¿åĳĬ":2714,"æĩ":2715,"ä¼ĺè´¨":2716,"è¶ĬæĿ¥":2717,"åĴĮåĽ½":2718,"æļ´":2719,"åĲįä¸º":2720,"åĢį":2721,"æĹĭ":2722,"ç»ķ":2723,"åĨħçļĦ":2724,"âĢĿ,":2725,"åŃ¦ä½į":2726,"è¶ĬæĿ¥è¶Ĭ":2727,"èĩªçĶ±":2728,"ãĢĭãĢĤ":2729,"åķĨåĵģ":2730,"çģ¾":2731,"äº¡":2732,"ç¦ıå»º":2733,"éĻ¶":2734,"åĢº":2735,"åı¬":2736,"éģį":2737,"èī¯å¥½çļĦ":2738,"æĺ¯çĶ±":2739,"æĭĶ":2740,"è®¡ç®Ĺæľº":2741,"è±ª":2742,"æĽ¿":2743,"æľºåĻ¨":2744,"èµı":2745,"ä¸ŃåĮ»":2746,"ä¸ĭçļĦ":2747,"åĬĽçļĦ":2748,"çº·":2749,"åĲĦç±»":2750,"è®¾ç½®":2751,"ãĢĭï¼Ī":2752,"æ¥ļ":2753,"å¤º":2754,"æº¶":2755,"æľĢé«ĺ":2756,"æ¯ıä¸ª":2757,"ou":2758,"æı´":2759,"è¿ĩåİ»":2760,"ç¬¬åįģ":2761,"åł¡":2762,"èī¾":2763,"é©»":2764,"ç»ĺ":2765,"å°ĺ":2766,"èĲ¥éĶĢ":2767,"åĿĽ":2768,"æ¬¢è¿İ":2769,"éĢļçŁ¥":2770,"åĪ·":2771,"å®īå¾½":2772,"ä¸īä¸ª":2773,"åĲĽ":2774,"çļĦå°ı":2775,"ä¸»æĮģ":2776,"åĩ¯":2777,"è®Ńç»ĥ":2778,"èµŀ":2779,"èĪªç©º":2780,"åĩĨå¤ĩ":2781,"ç¡ķå£«":2782,"çªĹ":2783,"æĿľ":2784,"åĬŀåħ¬å®¤":2785,"å¼±":2786,"æ´ª":2787,"ĠH":2788,"è¥¿çľģ":2789,"èĤ¯":2790,"è¾½":2791,"ä¹±":2792,"åĮħè£ħ":2793,"æĿ¥æºĲ":2794,"ç»Łè®¡":2795,"ç§»åĬ¨":2796,"åıªæĺ¯":2797,"æİ¨å¹¿":2798,"åĪĨå¸ĥ":2799,"è®¤è¯ģ":2800,"ä¸ľè¥¿":2801,"ä¿Ĺ":2802,"ä¾µ":2803,"åĮĸå·¥":2804,"é¾Ħ":2805,"é£İæł¼":2806,"æľºåĪ¶":2807,"he":2808,"çİ»çĴĥ":2809,"éĥ½ä¼ļ":2810,"ä¸įå°ĳ":2811,"æĦıä¹ī":2812,"æĪ´":2813,"å¤ļæ¬¡":2814,"æĦıè§ģ":2815,"å¤©æ´¥":2816,"é¸Ł":2817,"æ¯Ķå¦Ĥ":2818,"èĭĹ":2819,"çĶµæ±ł":2820,"è¯Ħä¸º":2821,"åĸ·":2822,"ĠF":2823,"åĪĽä¸ļ":2824,"èĬĤçĽ®":2825,"çĤī":2826,"æ°§åĮĸ":2827,"æ®ĸ":2828,"èĩªèº«":2829,"æĺİç¡®":2830,"çĶ¨çļĦ":2831,"å£ģ":2832,"æĭľ":2833,"åĪ¶å®ļ":2834,"ad":2835,"åĬ¨åĬĽ":2836,"é©¾":2837,"ç½ļ":2838,"åĨħéĥ¨":2839,"å¤§ä¼ļ":2840,"çļĦä¸Ģç§į":2841,"è¶ĭ":2842,"è´¸æĺĵ":2843,"æ¹ĸåĮĹ":2844,"ĠI":2845,"å·§":2846,"ä»Ļ":2847,"å®ĥçļĦ":2848,"èĪĴ":2849,"ä¸Ģå¹´":2850,"éĢĴ":2851,"æĳĺ":2852,"è°±":2853,"æ²³åĮĹ":2854,"éĶħ":2855,"å¡«":2856,"èĴĤ":2857,"åıĬåħ¶":2858,"é¥Ń":2859,"ä¼Ļ":2860,"çĦ¶èĢĮ":2861,"è¯ķéªĮ":2862,"ä½ľèĢħ":2863,"çĶµè¯Ŀ":2864,"å°Ĭ":2865,"æĸĩæĺİ":2866,"çģ°":2867,"åĩ¡":2868,"è½¨":2869,"å½»":2870,"éŀ":2871,"åħĪçĶŁ":2872,"éĩįå¤§":2873,"éģĵè·¯":2874,"åĩŃ":2875,"çĽ¸å¯¹":2876,"æİī":2877,"è°ĵ":2878,"å¯¸":2879,"èı²":2880,"åįĹäº¬":2881,"æ¼Ķåĳĺ":2882,"ç®Ģç§°":2883,"å¥ĭ":2884,"èĲ½å®ŀ":2885,"ä¸Ĭå¸Ĥ":2886,"åĬĽäºİ":2887,"åĪĽå»º":2888,"ç»Łä¸Ģ":2889,"æģ¢":2890,"çŀ":2891,"æ·±åħ¥":2892,"æĥĬ":2893,"å±ħæ°ĳ":2894,"é©±":2895,"è½¦ç«Ļ":2896,"æľīäºĽ":2897,"æ»¤":2898,"æ»¨":2899,"æĻºæħ§":2900,"èĩªæ²»":2901,"å¤ļçļĦ":2902,"åħ·å¤ĩ":2903,"éĻķ":2904,"æŁ±":2905,"åħ±åĴĮåĽ½":2906,"çłĶç©¶çĶŁ":2907,"æ¡ĥ":2908,"éĤ¦":2909,"èķ":2910,"æķ°éĩı":2911,"è´«":2912,"é¦ĸåħĪ":2913,"st":2914,"åľ°äº§":2915,"çº¤":2916,"çĮª":2917,"æĮĤ":2918,"éĶĭ":2919,"è¿Ķ":2920,"æĪĲéķ¿":2921,"ä¹³":2922,"æĬĢèĥ½":2923,"ä¸Ģä¸ĭ":2924,"è´¹çĶ¨":2925,"ä¸Ńæĸĩ":2926,"çĶµåĬĽ":2927,"åıĳè¡Į":2928,"è½´æī¿":2929,"å¼Ĺ":2930,"åĪĢ":2931,"çŃ¹":2932,"æĸĩç«ł":2933,"çļĦè¯Ŀ":2934,"ä¸¥æł¼":2935,"è¯Ħä»·":2936,"ä¸»å¸Ń":2937,"èģĮå·¥":2938,"ç½Ĺæĸ¯":2939,"æĦŁè§ī":2940,"éģŃ":2941,"çŁ¥åĲį":2942,"çľŁæŃ£":2943,"æĪĺäºī":2944,"æľĢå¤§çļĦ":2945,"éĤĢ":2946,"å¼ĥ":2947,"åĭ¤":2948,"è¿ħ":2949,"çĲĨè§£":2950,"ç¾¤ä¼Ĺ":2951,"æĪĲç«ĭäºİ":2952,"çĽ¸å½ĵ":2953,"ç»ĵæĿŁ":2954,"çģŃ":2955,"åĩ¤":2956,"è§Ĵèī²":2957,"ed":2958,"çıį":2959,"çī©çĲĨ":2960,"çĹĩçĬ¶":2961,"å±ķç¤º":2962,"çļĦäº§åĵģ":2963,"çİ°ä»»":2964,"å£®":2965,"èĲ¥åħ»":2966,"æ®ĭ":2967,"ĠE":2968,"ä¸ĭéĻį":2969,"æĦıè¯Ĩ":2970,"è¾Ľ":2971,"éĽĨä¸Ń":2972,")ãĢģ":2973,"å®ŀéªĮå®¤":2974,"æģ¢å¤į":2975,"æĤī":2976,"ä¹Łä¸į":2977,"ä»ĵ":2978,"éĩįæĸ°":2979,"éĿ¢å¯¹":2980,"åħļå§Ķ":2981,"æ¦ľ":2982,"å®¿":2983,"è£ħç½®":2984,"çİ°æľī":2985,"æĹ¨":2986,"äº§åĵģçļĦ":2987,"æĪĲéĥ½":2988,"è£Ĥ":2989,"æľ¬æĸĩ":2990,"ä»ĸä»¬çļĦ":2991,"å¤ªéĺ³":2992,"å½¹":2993,"é£Łçī©":2994,"æĿŃ":2995,"çİ°è±¡":2996,"äºĭä»¶":2997,"è¯´æĺİ":2998,"åİŁåĪĻ":2999,"æķĮ":3000,"èĻİ":3001,"éĽķ":3002,"åĪĨåŃĲ":3003,"é¢ĨåħĪ":3004,"èĬ¯":3005,"æ¶īåıĬ":3006,"éĻµ":3007,"ä¹ĭéĹ´çļĦ":3008,"èį¯çī©":3009,"çłĶç©¶æīĢ":3010,"æŃ¦æ±ī":3011,"å¥¶":3012,"éĥ¡":3013,"é¢Ĺ":3014,"id":3015,"âĢĻ":3016,"ä¹Łä¼ļ":3017,"é«ĺçŃī":3018,"çº½":3019,"æī¹åĩĨ":3020,"æĹ¥å¸¸":3021,"é³":3022,"éĥİ":3023,"å¸¸è§ģ":3024,"æ²Ī":3025,"å¦ĤæŃ¤":3026,"æķ¬":3027,"åľ¨çº¿":3028,"å¤§å¤ļ":3029,"æ§":3030,"æ·»":3031,"å¤§éĩı":3032,"è§īå¾Ĺ":3033,"å®īæİĴ":3034,"å°±ä¸ļ":3035,"è¿Ľè¡ĮäºĨ":3036,"ï½":3037,"æīİ":3038,"éĶģ":3039,"æĿ¥çľĭ":3040,"åħ¬åı¸çļĦ":3041,"çĻĮ":3042,"å°ıç»Ħ":3043,"åĲİæĿ¥":3044,"èĪį":3045,"ç¾Ĭ":3046,"å¿ł":3047,"ä¹¦æ³ķ":3048,"è´Ńä¹°":3049,"åĨįæ¬¡":3050,"å¯Ĵ":3051,"æĿĨ":3052,"ç§¦":3053,"æ³µ":3054,"å°ĳå¹´":3055,"èĢ¶":3056,"æĬµ":3057,"å±ķå¼Ģ":3058,"å¢ŀå¼º":3059,"å®ı":3060,")ï¼Į":3061,"æĮĩåĩº":3062,"é»ĺ":3063,"ç»ª":3064,"çİĽ":3065,"æľºåľº":3066,"çĹħæ¯Ĵ":3067,"è´·":3068,"èĩ³ä»Ĭ":3069,"ç²®":3070,"è¯ģæĺİ":3071,"èĳ£äºĭ":3072,"éļ¶":3073,"åı¦ä¸Ģ":3074,"åĮ»çĶŁ":3075,"æĬķåħ¥":3076,"åįıè®®":3077,"è¿Ļæł·çļĦ":3078,"å¥ı":3079,"åįģäºĮ":3080,"é»İ":3081,"oo":3082,"èµĦæľ¬":3083,"æĲľ":3084,"åĩºæĿ¥":3085,"æĤ¨çļĦ":3086,"mm":3087,"å¹¿å¤§":3088,"èĴ¸":3089,"æĶ¹åĸĦ":3090,"å¸ĪèĮĥ":3091,"æľīæľº":3092,"å¹²éĥ¨":3093,"æļĹ":3094,"åŁºäºİ":3095,"åįłåľ°":3096,"åħ¬å¸ĥ":3097,"è®°å½ķ":3098,"åıªè¦ģ":3099,"çĲ´":3100,"å¤įæĿĤ":3101,"åĽ¾ä¹¦":3102,"æ¶¨":3103,"åİ¦":3104,"ç»ıåİĨ":3105,"è¿ĽæŃ¥":3106,"æĹłè®º":3107,"åĪĳ":3108,"è¾ī":3109,"åĪĨäº«":3110,"èĸĦ":3111,"èĿ":3112,"èįĲ":3113,"çĵľ":3114,"ä¸ªæľĪ":3115,"å¥ī":3116,"åįĩçº§":3117,"ï¼į":3118,"åĲĮæ¯Ķ":3119,"é©¶":3120,"èĢķ":3121,"æĺĨ":3122,"ĠãĢĬ":3123,"éĹ²":3124,"ä¹Łåı¯ä»¥":3125,"è´¢æĶ¿":3126,"ä¸»ç®¡":3127,"æī¿æĭħ":3128,"ä¸īå¹´":3129,"åĲĦåľ°":3130,"ĠçļĦ":3131,"æµ®":3132,"ä¼ı":3133,"æ·¡":3134,"æĮĳæĪĺ":3135,"æµ¦":3136,"éĿ¢çļĦ":3137,"çĻ»è®°":3138,"è¾ŀ":3139,"ç¥Ŀ":3140,"èĪ°":3141,"å¥³æĢ§":3142,"åħ±äº§":3143,"æĬ½":3144,"åī¯ä¸»ä»»":3145,"åīĳ":3146,"åıĮæĸ¹":3147,"å¹´è½»":3148,"éĺĢ":3149,"æļĤ":3150,"èŀįåĲĪ":3151,":ãĢĬ":3152,"éŁ©åĽ½":3153,"èĳ¡":3154,"èŀº":3155,"è£ħé¥°":3156,"åĲĮåŃ¦":3157,"æĭ¼":3158,"çļĦå½±åĵį":3159,"ä¼ĺåĮĸ":3160,"çļĨ":3161,"æĥ¯":3162,"ä¿±ä¹Ĳ":3163,"åŃ¦åİĨ":3164,"å°ıè¯´":3165,"çļĦä¸»è¦ģ":3166,"çĤ¼":3167,"ä¿±ä¹Ĳéĥ¨":3168,"æĻĵ":3169,"å½¢è±¡":3170,"ä¼ļè®¡":3171,"æĦŁæŁĵ":3172,"éĢĲæ¸Ĳ":3173,"è¿ĲçĶ¨":3174,"ent":3175,"of":3176,"ä¸ľåĮĹ":3177,"ç«Ł":3178,"ä¼łæĴŃ":3179,"èĤ¿":3180,"ç¤ºèĮĥ":3181,"èµ«":3182,"å·¥ä½ľçļĦ":3183,"åĵ²":3184,"è´¦":3185,"å¦»":3186,"å¹´åľ¨":3187,"é¦ĸæ¬¡":3188,"èģĶçĽŁ":3189,"æ³ķéĻ¢":3190,"æľ¬ç§ĳ":3191,"åº¦çļĦ":3192,"ĠW":3193,"çİ©å®¶":3194,"åķĨæłĩ":3195,"ä»įçĦ¶":3196,"èµĸ":3197,"è·³":3198,"æ²ĥ":3199,"è°ĭ":3200,"èĤł":3201,"åĵªäºĽ":3202,"è½¦è¾Ĩ":3203,"æİ¥è§¦":3204,"åĬŀçĲĨ":3205,"å®ħ":3206,"åį¢":3207,"è®¤è¯Ĩ":3208,"ĠN":3209,"æľīæīĢ":3210,"æİĴåĲį":3211,"æĥ³è¦ģ":3212,"èĢħçļĦ":3213,"é«ĺæł¡":3214,"åıĤæķ°":3215,"éĩĩåıĸ":3216,"çĻ£":3217,"ä½©":3218,"çĶµèĦĳ":3219,"æµĭéĩı":3220,"çĶµæľº":3221,"ä¼ģä¸ļçļĦ":3222,"è¯Ħä¼°":3223,"æĺ¯ä¸Ģå®¶":3224,"æł·çļĦ":3225,"è¡Ĺéģĵ":3226,"å¹¶åľ¨":3227,"çĿ¡":3228,"æĬ¥åĲį":3229,"åĶ¯ä¸Ģ":3230,"æİ¢ç´¢":3231,"ä»¥åĲİ":3232,"ä¸ºä¸Ģ":3233,"é½¿":3234,"æ¯ıå¹´":3235,"çĭ¬çī¹":3236,"ä¸ĵåĪ©":3237,"æĸ¹éĿ¢çļĦ":3238,"æľ¬æ¬¡":3239,"å½ĵçĦ¶":3240,"å¾¡":3241,"èº«ä»½":3242,"åĽ°éļ¾":3243,"ç§įæ¤į":3244,"åįļçī©":3245,"ap":3246,"è®¾ç«ĭ":3247,"æıĴ":3248,"ä¹¦çĶ»":3249,"è¯ģä¹¦":3250,"è§Ĥä¼Ĺ":3251,"åģ¿":3252,"è°ģ":3253,"è¥¿åįĹ":3254,"å±ĳ":3255,"ä¸°å¯ĮçļĦ":3256,"å·¥ç¨ĭå¸Ī":3257,"å¤©çĦ¶":3258,"çī¹å¾ģ":3259,"éĨĴ":3260,"un":3261,"éģµ":3262,"å¤ļå¹´":3263,"çĵ·":3264,"åĮħåĲ«":3265,"æĿĤå¿Ĺ":3266,"å·¡":3267,"äººå·¥":3268,"ur":3269,"åĨ³èµĽ":3270,"èļĢ":3271,"æĹ¦":3272,"æ¶µ":3273,"å¤Ħäºİ":3274,"çļĦæĹ¶éĹ´":3275,"åĲ¸å¼ķ":3276,"çĽ¸åĲĮ":3277,"æŃ¤æ¬¡":3278,"æī¶":3279,"ç§°åı·":3280,"ç²ĺ":3281,"å²Ń":3282,"ĠĠĠĠ":3283,"å¾Ĵ":3284,"è¹":3285,"éĻ·":3286,"æ²³åįĹ":3287,"åıĤèĢĥ":3288,"èĽĭçĻ½":3289,"æĢ§åĴĮ":3290,"æ¯ıå¤©":3291,"éªĳ":3292,"and":3293,"èĲĦ":3294,"çļĦæĸ¹å¼ı":3295,"çīĽçļ®":3296,"æ¸ł":3297,"åĽºå®ļ":3298,"äººå£«":3299,"åĵģç§į":3300,"åħįè´¹":3301,"èħ¾":3302,"ä¸ľåįĹ":3303,"âĢĺ":3304,"äºĨä¸Ģä¸ª":3305,"æŁĶ":3306,"ä¸ĭæĿ¥":3307,"æķ°åŃ¦":3308,"çĬ¶åĨµ":3309,"ä¼¸":3310,"å¹³æĸ¹åħ¬éĩĮ":3311,"æŀĦæĪĲ":3312,"å°ĸ":3313,"èĳ¡èĲĦ":3314,"ot":3315,"éĺħè¯»":3316,"æł¡åĽŃ":3317,"éĩįè§Ĩ":3318,"çªģçł´":3319,"åºĻ":3320,"çľģçº§":3321,"çŃīçŃī":3322,"ig":3323,"çī§":3324,"åı¯èĥ½ä¼ļ":3325,"åħĥç´ł":3326,"æŃ£ç¡®":3327,"å¹¿è¥¿":3328,"è´¢åĬ¡":3329,"æĢķ":3330,"æīĢåľ¨":3331,"åģļåĪ°":3332,"è¦ĨçĽĸ":3333,"æİ¨åĩº":3334,"IS":3335,"å¿ħè¦ģ":3336,"ä¿Ħç½Ĺæĸ¯":3337,"çĽ¸ä¿¡":3338,"æľīçĿĢ":3339,"åĨľæ°ĳ":3340,"æ¡Ĥ":3341,"ä»£çĲĨ":3342,"çĽĳç®¡":3343,"æ¶Īæģ¯":3344,"ç¥¥":3345,"è¯ģåĪ¸":3346,"èĩ´åĬĽäºİ":3347,"çļĦåŁºç¡Ģ":3348,"å®ŀåĬĽ":3349,"äºļæ´²":3350,"è§£åĨ³æĸ¹æ¡Ī":3351,"åįĵ":3352,"ï½ŀ":3353,"ter":3354,"ç¢ĳ":3355,"æ¼ı":3356,"åĮºçļĦ":3357,"éĶ¡":3358,"å»ī":3359,"å¡ĳæĸĻ":3360,"æī¾åĪ°":3361,"å¹¼åĦ¿":3362,"ä»ªåĻ¨":3363,"ä¹ĥ":3364,"é«ĺæķĪ":3365,"ãĢĭ(":3366,"çĶľ":3367,"ay":3368,"é«ĺåº¦":3369,"å¿Ĩ":3370,"çĺ¤":3371,"ç»ıåħ¸":3372,"æĬ¢":3373,"ç»ĦåĲĪ":3374,"ä¹Ķ":3375,"éĺŁä¼į":3376,"éĶĪ":3377,"èĤĿ":3378,"åľ°çĲĨ":3379,"ãĢĤãĢĬ":3380,"çľŁå®ŀ":3381,"å¾ªçİ¯":3382,"éĢĤåºĶ":3383,"èĤĮ":3384,"os":3385,"çĽ¸åºĶ":3386,"éħįåĲĪ":3387,"éĥŃ":3388,"çĽĳæµĭ":3389,"å£¤":3390,"èħ¹":3391,"ï¼İ":3392,"å®ĺæĸ¹":3393,"çīĽçļ®çĻ£":3394,"çĦĬ":3395,"å®Įæķ´":3396,"èĥĮæĻ¯":3397,"éĤ£äºĽ":3398,"å¨±ä¹Ĳ":3399,"çĶµåĬ¨":3400,"ow":3401,"æ¦Ĥå¿µ":3402,"çķħ":3403,"æ¯Ķä¾ĭ":3404,"éĢļä¿¡":3405,"ä¸įåĪ°":3406,"âĦ":3407,"èĢĮæĺ¯":3408,"ä¿¡åı·":3409,"æī©å¤§":3410,"è´Łè´£äºº":3411,"ag":3412,"ç¥ŀç»ı":3413,"è²":3414,"æİ¨èįĲ":3415,"åİŁæĸĻ":3416,"çĶŁéķ¿":3417,"å²Ĺä½į":3418,"åĲĦé¡¹":3419,"åįļçī©é¦Ĩ":3420,"éĵº":3421,"äººæ°ĳåħ±åĴĮåĽ½":3422,"å¹»":3423,"é¢ģ":3424,"è·ĥ":3425,"èĥĥ":3426,"èĤº":3427,"æŀĦå»º":3428,"çłĤ":3429,"è¡¨è¾¾":3430,"æµģç¨ĭ":3431,"çļĦçłĶç©¶":3432,"å¹´è¢«":3433,"åĪĨç±»":3434,"å®¤åĨħ":3435,"è¥¿åĮĹ":3436,"æłı":3437,"èĥİ":3438,"åĳĬè¯ī":3439,"äººçĶŁ":3440,"è¶ĭåĬ¿":3441,"èĤĥ":3442,"å®£å¸ĥ":3443,"ç¬¬äºĶ":3444,"å±ķè§Ī":3445,"å¿ĺ":3446,"çĽ¸æ¯Ķ":3447,"åĬłå¿«":3448,"è®¾æľī":3449,"æĭĴ":3450,"ä¸Ģå®ļçļĦ":3451,"ä¸įè¶³":3452,"ä¸ĵä¸ļçļĦ":3453,"æģĲ":3454,"æľºçļĦ":3455,"åħĦ":3456,"æĶ¯ä»ĺ":3457,"ç»´ä¿®":3458,"æĢª":3459,"çºªå¿µ":3460,"æŀª":3461,"çĸĨ":3462,"å¯¹è±¡":3463,"èĬĤèĥ½":3464,"é¢Ħè®¡":3465,"æ¡ĳ":3466,"æİĮæı¡":3467,"ç´łè´¨":3468,"å¸ķ":3469,"ä¹ĭå¤ĸ":3470,"æ²»çĲĨ":3471,"åı¯éĿł":3472,"äº«åıĹ":3473,"ç¼´":3474,"å±±ä¸ľçľģ":3475,"èĦ¸":3476,"å¼ºåº¦":3477,"ä¸ºä»Ģä¹Ī":3478,"åİĤå®¶":3479,"èĩ£":3480,"Ġé¥°":3481,"æĸ°æĬĢæľ¯":3482,"åģ¶":3483,"ç§ĳæĬĢæľīéĻĲåħ¬åı¸":3484,"åľ¨ä¸ŃåĽ½":3485,"å£³":3486,"æĲº":3487,"èİ²":3488,"æ¹ĸåįĹ":3489,"æģĭ":3490,"åĩłä¹İ":3491,"æĦĪ":3492,"ç¨¿":3493,"æľĪçĶŁ":3494,"ä¸Ńåįİäººæ°ĳåħ±åĴĮåĽ½":3495,"èį£èªī":3496,"çŁ³æ²¹":3497,"é¢ľèī²":3498,"å¢ĵ":3499,"çĵ¶":3500,"ä»ĸåľ¨":3501,"çºµ":3502,"æ°¨":3503,"éĻ¢éķ¿":3504,"åĽ½åĬ¡":3505,"ç¼ĸè¾ĳ":3506,"æĺ¯ä¸ŃåĽ½":3507,"iv":3508,"å¹¿ä¸ľçľģ":3509,"é¢Ħéĺ²":3510,"å´ĩ":3511,"ä¾Ŀæ³ķ":3512,"èĭ±æĸĩ":3513,"çģĮ":3514,"æĸ¯çī¹":3515,"ãĢĭ,":3516,"åĩĨç¡®":3517,"æĪ¿å±ĭ":3518,"è£ħå¤ĩ":3519,"çİ°å®ŀ":3520,"äºİæĺ¯":3521,"æĬ¥éģĵ":3522,"åĮĹäº¬å¸Ĥ":3523,"åĲ¯åĬ¨":3524,"éŃı":3525,"éĩĩè´Ń":3526,"è¿ħéĢŁ":3527,"åİ»å¹´":3528,"éĺ²æŃ¢":3529,"è¯¦ç»Ĩ":3530,":âĢľ":3531,"åıªèĥ½":3532,"æ³ķè§Ħ":3533,"å°Ŀ":3534,"ç§Ĵ":3535,"éĵ¸":3536,"âĢ¦âĢ¦":3537,"Â°":3538,"åĿĬ":3539,"ä¸Ģå®ļè¦ģ":3540,"çļĦåľ°æĸ¹":3541,"èĦı":3542,"æĪ¿åľ°äº§":3543,"éĻĲåĪ¶":3544,"åĪ¶åĵģ":3545,"å§Ĳ":3546,"ä¸»åĬ¨":3547,"è¿«":3548,"æľĢæĸ°":3549,"çĪ¶äº²":3550,"å¯¼æ¼Ķ":3551,"å¦Ĥä»Ĭ":3552,"çĤ¸":3553,"å¼ºåĮĸ":3554,"å»·":3555,"ä¾Ŀæį®":3556,"æľīäºº":3557,"åŀĥ":3558,"æ¨¡åŀĭ":3559,"åį°åº¦":3560,"ç¢į":3561,"åĢ¼å¾Ĺ":3562,"âĦĥ":3563,"ãĢĭãĢĬ":3564,"åľ¾":3565,"éĩĮçļĦ":3566,"æĮĩæłĩ":3567,"åŀĥåľ¾":3568,"èĤ¡ä»½æľīéĻĲåħ¬åı¸":3569,"èĩªä¸»":3570,"å½ĵä»£":3571,"åľ°åĿĢ":3572,"çłĶç©¶éĻ¢":3573,"åĩī":3574,"æĳĦå½±":3575,"èĴĻåı¤":3576,"çĪ¶æ¯į":3577,"æŁ³":3578,"åĩ½":3579,"è¿ĳå¹´æĿ¥":3580,"å¤§éĥ¨åĪĨ":3581,"ä»¿":3582,"å¹¸ç¦ı":3583,"çļĦä¼ģä¸ļ":3584,"è§Ĥå¯Ł":3585,"å½¼":3586,"ir":3587,"æ¬²":3588,"æ²ŁéĢļ":3589,"éĺ³å¸Ĥ":3590,"åĢ¾":3591,"ä¹łæĥ¯":3592,"æī£":3593,"åĸĿ":3594,"im":3595,"ation":3596,"éħįå¥Ĺ":3597,"èĢĮè¨Ģ":3598,"è®¤çľŁ":3599,"ç¢İ":3600,"åĽ½åĬ¡éĻ¢":3601,"ç³»ç»ŁçļĦ":3602,"å¨ľ":3603,"é¥®é£Ł":3604,"ng":3605,"çĤŃ":3606,"æĳĺè¦ģ":3607,"æī«":3608,"çĮ«":3609,"åŃķ":3610,"é«ĺä¸Ń":3611,"åĮ»å¸Ī":3612,"è¢ĭ":3613,"ä¼Ĺå¤ļ":3614,"å·¥åİĤ":3615,"åľ¨æŃ¤":3616,"å®ļçļĦ":3617,"æĸ°åŀĭ":3618,"å°±åı¯ä»¥":3619,"åħ¹":3620,"åħ±æľī":3621,"ä½¿å¾Ĺ":3622,"å¾Ģå¾Ģ":3623,"åħ½":3624,"æľ¬èº«":3625,"ç¾½":3626,"æŀĿ":3627,"æĭįæĳĦ":3628,"æłĩå¿Ĺ":3629,"åīįå¾Ģ":3630,"ä¸ĢåĪĩ":3631,"æķ¦":3632,"å°¿":3633,"æ£®æŀĹ":3634,"ç®Ģä»ĭ":3635,"ä¸Ģå®¶":3636,"æ®¿":3637,"å±ķçİ°":3638,"æıĲä¾ĽäºĨ":3639,"ä¸Ģä½ĵ":3640,"åľ°ä½į":3641,"æľŁçļĦ":3642,"æ¸¡":3643,"å§ĭç»Ī":3644,"Ġå¹´":3645,"åįıåĬ©":3646,"çļĦæĬĢæľ¯":3647,"äºĭåĬ¡":3648,"ä½ĵçİ°":3649,"æĽ¾ç»ı":3650,"å®¶éķ¿":3651,"åŃĲçļĦ":3652,"è·Į":3653,"åħħæ»¡":3654,"æĶ¹éĢł":3655,"éľį":3656,"Ġåľ¨":3657,"çĩ¥":3658,"è²Į":3659,"èħĶ":3660,"çĲĨæĥ³":3661,"å¦Ĥä¸ĭ":3662,"åĽ½åĨħå¤ĸ":3663,"éĢĥ":3664,"æĽ´æĸ°":3665,"åİŁçĲĨ":3666,"æ¬£":3667,"åĬ²":3668,"Ġt":3669,"çº¿ä¸Ĭ":3670,"ï¼ĮãĢĬ":3671,"æŁı":3672,"å°½ç®¡":3673,"çº¤ç»´":3674,"åĪ©äºļ":3675,"å¹¿åľº":3676,"Ġd":3677,"ä¹¡æĿĳ":3678,"åĲįåŃĹ":3679,"çļĦæľįåĬ¡":3680,"æľīäºĨ":3681,"åħ±äº§åħļ":3682,"æĽ´å¥½":3683,"ä»¤äºº":3684,"é«ĺè´¨éĩı":3685,"çªģåĩº":3686,"ä¸¤ç§į":3687,"åľ°ä¸ĭ":3688,"æĹ¥èµ·":3689,"æĴĳ":3690,"ç¡ħ":3691,"æ¢¯":3692,"é¡ºåĪ©":3693,"å¡ĺ":3694,"å¼ºçļĦ":3695,"åĪ©æ¶¦":3696,"å»ºæĪĲ":3697,"æĹģ":3698,"å¦¹":3699,"å®ŀè¡Į":3700,"ä¸ĵéĹ¨":3701,"å°¼äºļ":3702,"æ±¡æ°´":3703,"ä¸Ģä½į":3704,"èį£èİ·":3705,"æĻ¯åĮº":3706,"ä¹ı":3707,"æľĢè¿ĳ":3708,"è¿Ī":3709,"em":3710,"æĽ¹":3711,"éĻĦè¿ĳ":3712,"BA":3713,"æ··åĲĪ":3714,"è¾½å®ģ":3715,"ia":3716,"åĲĮæł·":3717,"è¥¿å®ī":3718,"ec":3719,"è¿ĲåĬ¨åĳĺ":3720,"åħģ":3721,"è§Ĵåº¦":3722,"åħ´è¶£":3723,"æīĭæľ¯":3724,"çĩķ":3725,"å¥¹çļĦ":3726,"åĳĪçİ°":3727,"åĩłä¸ª":3728,"è¿½æ±Ĥ":3729,"é¬":3730,"å±¥":3731,"æĹ¶çļĦ":3732,"ĠK":3733,"ç§ĺä¹¦":3734,"ç»ĻäºĪ":3735,"èµĭ":3736,"æµģè¡Į":3737,"çīĪæľ¬":3738,"æ£ĢéªĮ":3739,"ç¾İä¸½":3740,"åįıè°ĥ":3741,"ç±»ä¼¼":3742,"åıĳåĬ¨":3743,"è®¨è®º":3744,"æ¶Īéĺ²":3745,"æĦıå¤§åĪ©":3746,"è¿Ľåı£":3747,"ãĢĤï¼Ī":3748,"å¤§èµĽ":3749,"éĴ»":3750,"æ±īæĹı":3751,"æĭĨ":3752,"åĬ¨çĶ»":3753,"åľ°åĽ¾":3754,"å½ĵåīį":3755,"æĺ¯ä»Ģä¹Ī":3756,"éĢĤçĶ¨äºİ":3757,"åĲĦä¸ª":3758,"éĿĴå²Ľ":3759,"æ°Ķä½ĵ":3760,"èµĽäºĭ":3761,"æ¶¯":3762,"åľºæīĢ":3763,"åĹ":3764,"è¡¨æ¼Ķ":3765,"éĻ¢æł¡":3766,"âĢĿâĢľ":3767,"æĽ´å¤ļçļĦ":3768,"æįķ":3769,"åħįçĸ«":3770,"å¦Ļ":3771,"åľ°çĲĥ":3772,"åľ¨è¿Ļ":3773,"çļĦä¸»":3774,"çĥ¯":3775,"ä½ľä¸ļ":3776,"å¯Ħ":3777,"æĪĺæĸĹ":3778,"çļĦæĸ¹æ³ķ":3779,"è§£éĩĬ":3780,"åĩºçīĪç¤¾":3781,"ä¾¯":3782,"ä¸ĺ":3783,"åıĺå¾Ĺ":3784,"åħ¶å®ĥ":3785,"çļĦåīį":3786,"å®¶åįıä¼ļ":3787,"çºº":3788,"æĳĨ":3789,"ä»Ķ":3790,"è®©äºº":3791,"åī²":3792,"å¤ļå°ĳ":3793,"æĸĩåŃĹ":3794,"èĩªåĬ¨åĮĸ":3795,"æŃĮæĽ²":3796,"åİĺ":3797,"è§£æĶ¾":3798,"æµ·æ´ĭ":3799,"å¹¿æĴŃ":3800,"ç®¡éģĵ":3801,"å¸ĥå±Ģ":3802,"ul":3803,"èī²çļĦ":3804,"å·¥åķĨ":3805,"æħĪ":3806,"å°Ĩåľ¨":3807,"çľŁçļĦ":3808,"ç«ŀèµĽ":3809,"ä¸Ńå°ı":3810,"ä¸Ĭè¿°":3811,"æī°":3812,"Ġ[":3813,"æ¼Ķåĩº":3814,"åĨĴ":3815,"ä¸ĢçĤ¹":3816,"èĬ³":3817,"çłĸ":3818,"æĤ¬":3819,"éħįç½®":3820,"èµ¤":3821,"å¿«ä¹Ĳ":3822,"ä¸ľæĸ¹":3823,"åĮ»èį¯":3824,"æľĪåĩºçĶŁ":3825,"åĽ½æ°ĳ":3826,"èĩªæĪĳ":3827,"æĻ¨":3828,"æĿĳæ°ĳ":3829,"äººåľ¨":3830,"äºĭæķħ":3831,"éĿ¢ä¸´":3832,"è½¬åŀĭ":3833,"èī¯å¥½":3834,"äº§æĿĥ":3835,"æİĪäºĪ":3836,"åįģå¹´":3837,"èĶ¬":3838,"um":3839,"æĮĩæĮ¥":3840,"æķĻç»ĥ":3841,"çĤĴ":3842,"è§ĦåĪĻ":3843,"æµħ":3844,"åĲĪæł¼":3845,"åıįæĺł":3846,"åĽŃåĮº":3847,"çī¹åĪ«æĺ¯":3848,"åħ¬åĳĬ":3849,"ç¦»å¼Ģ":3850,"çĻ½æĸĳ":3851,"èĢĮæĪĲ":3852,"éĥ¨éķ¿":3853,"æ±Łèĭıçľģ":3854,"çİ¯èĬĤ":3855,"å®ļä½į":3856,"ä¼Ļä¼´":3857,"ç¼Ŀ":3858,"åį³åı¯":3859,"ä¿Ĭ":3860,"æ©¡":3861,"åį³ä½¿":3862,"åľºæĻ¯":3863,"æł¡éķ¿":3864,"å¤§éĻĨ":3865,"æ£Ĵ":3866,"ç©Ĩ":3867,"å¤§å¤ļæķ°":3868,"è®¸åı¯":3869,"äººä½ĵ":3870,"åĬłä¸Ĭ":3871,"op":3872,"çļĦçĶŁæ´»":3873,"æĶ¶éĽĨ":3874,"åĪĽæĦı":3875,"éļıåĲİ":3876,"æķ¢":3877,"ut":3878,"èµĦè®¯":3879,"çīµ":3880,"æľĪä»½":3881,"æķĻæĿĲ":3882,"ç¿°":3883,"æĪĲçĨŁ":3884,"è¡¨æĺİ":3885,"æĺ¾èĳĹ":3886,"å°¤åħ¶æĺ¯":3887,"å»ºäºİ":3888,"çĶŁçļĦ":3889,"æııè¿°":3890,"av":3891,"å°Ĩä¼ļ":3892,"åľ¨äºİ":3893,"æ¼Ĩ":3894,"çĪ±æĥħ":3895,"Ġof":3896,"è´µå·ŀ":3897,"éĵ¶å±ĳ":3898,"ä¸Ĭåįĩ":3899,"æĬĳ":3900,"çļĦä¸ĵä¸ļ":3901,"é¼ĵåĬ±":3902,"éĢĨ":3903,"åĲ¸æĶ¶":3904,"è´¤":3905,"åı¯ä»¥åľ¨":3906,"è°Ĳ":3907,"åŃ¦èĢħ":3908,"ç½ĳä¸Ĭ":3909,"åĨ»":3910,"åĮ¹":3911,"æ°Ľ":3912,"æīĭæ®µ":3913,"çĽ¸äºĴ":3914,"äººæķ°":3915,"ç¾İçļĦ":3916,"èĩªæ²»åĮº":3917,"åŁİåĮº":3918,"èµł":3919,"è¥¿éĥ¨":3920,"éĵ¶å±ĳçĹħ":3921,"åľ°è´¨":3922,"åŃ¦å®¶":3923,"æĽ´æĺ¯":3924,"èĥĨ":3925,"æĿŃå·ŀ":3926,"ĠV":3927,"æĪĲäºĨ":3928,"æķĪçĽĬ":3929,"æĭĽèģĺ":3930,"Ġs":3931,"æĢ»ç»ıçĲĨ":3932,"NA":3933,"èĬĿ":3934,"å±Ģéķ¿":3935,"ä¸Ńåħ±åħļåĳĺ":3936,"åı¬å¼Ģ":3937,"åŁºåĽł":3938,"æĩĤ":3939,"åľ°çļĦ":3940,"ä¼ļéķ¿":3941,"å¼ºè°ĥ":3942,"å¹´é¾Ħ":3943,"æĪĲåĪĨ":3944,"é©¾é©¶":3945,"åĽ½å®¶çº§":3946,"åįµ":3947,"è¯ĬæĸŃ":3948,"ä¸ĢæĿ¡":3949,"åĻ¨çļĦ":3950,"ä¸ĸçķĮæĿ¯":3951,"èĤ¡ç¥¨":3952,"èĩªè¡Į":3953,"æĹ¶å°ļ":3954,"ä¸ĩäºº":3955,"æµĨ":3956,"éĨĩ":3957,"èµ´":3958,"å¼ķå¯¼":3959,"è¿Ļä¹Ī":3960,"ä¿¡çĶ¨":3961,"ä¸Ģçº§":3962,"ĠO":3963,"ä¸ĭéĿ¢":3964,"æĥħç»ª":3965,"æ¸ħæ´ģ":3966,"åĲĪéĩĳ":3967,"çļĦæ²»çĸĹ":3968,"åħ±äº«":3969,"çķª":3970,"æ£ĭ":3971,"åį±éĻ©":3972,"åºĶçĶ¨äºİ":3973,"æľ¬æĸĩæĳĺè¦ģ":3974,"çĸı":3975,"éĽ¾":3976,"å±±åĮº":3977,"çļĦå¥½":3978,"èİ·åıĸ":3979,"åĪ©çĽĬ":3980,"è¥¿äºļ":3981,"å®ŀçĶ¨":3982,"ä¾¿åĪ©":3983,"å¤§å°ı":3984,"æ¸łéģĵ":3985,"è®ºåĿĽ":3986,"å¯¿åĳ½":3987,"æµģéĩı":3988,"ä½łä»¬":3989,"çº¿è·¯":3990,"çļĦè®¾è®¡":3991,"éĺĶ":3992,"çļĦåĲĮæĹ¶":3993,"å¹´æ¯ķä¸ļäºİ":3994,"èĲ¥ä¸ļ":3995,"å½ĵä¸Ń":3996,"ä½Ĳ":3997,"ä¿Ŀæ¸©":3998,"é¡µç¬¬":3999,"è¿Ļæ¬¡":4000,"å¯¹å¤ĸ":4001,"äºŃ":4002,"æĽ¾ä»»":4003,"åĽ¢ä½ĵ":4004,"åĪ°çļĦ":4005,"æ»ļ":4006,"æİĺ":4007,"è°ĥèĬĤ":4008,"ç¬¬ä¸Ģæ¬¡":4009,"æįŁå¤±":4010,"æĮĸ":4011,"åĽ´ç»ķ":4012,"æľ¬ä¹¦":4013,"äºĭå®ŀ":4014,"æ¯ģ":4015,"èĢģå¹´":4016,"æĢ»ç»ĵ":4017,"äºĭæĥħ":4018,"çŃīæĸ¹éĿ¢":4019,"ä¸ļç»©":4020,"æĴ°":4021,"**":4022,"æĬ±":4023,"æµĻæ±Łçľģ":4024,"æ°ĶåĢĻ":4025,"çĽĪ":4026,"èİī":4027,"åħ¬ä¼Ĺ":4028,"éĢıè¿ĩ":4029,"å§ľ":4030,"æ·»åĬł":4031,"åĽĽå·Ŀçľģ":4032,"å¯¼å¸Ī":4033,"éĤĢè¯·":4034,"æĭĴç»Ŀ":4035,"å°ºå¯¸":4036,"æĬ¤çĲĨ":4037,"éī´å®ļ":4038,"é«ĺæ¸©":4039,"ç²Ĺ":4040,"ä½¿çĶ¨çļĦ":4041,"èĬ¬":4042,":ãĢĲ":4043,"éĿ¢åĲĳ":4044,"ç¿¼":4045,"ä¸Ĭæµ·å¸Ĥ":4046,"éĽĨæĪĲ":4047,"æĶ¯æĴĳ":4048,"çĭĤ":4049,"å·¥ä½ľèĢħ":4050,"åĽĬ":4051,"ä¼ļæľī":4052,"æµ·å¤ĸ":4053,"å¾Īå¤§":4054,"æİĪæĿĥ":4055,"æĺ¯ä»¥":4056,"æĸĩçī©":4057,"é¬¼":4058,"çĪ¸":4059,"çĶµæºĲ":4060,"çĤ®":4061,"åĬ¨ä½ľ":4062,"æł¹æľ¬":4063,"çĻ¾åº¦":4064,"éĽĨä½ĵ":4065,"åĲĮå¹´":4066,"åĬłæĭ¿":4067,"ä¸ĭåįĪ":4068,"èĢĥçĶŁ":4069,"æĹ©æľŁ":4070,"å±ħä½ı":4071,"çĹħæĥħ":4072,"å¹²çĩ¥":4073,"ç¡«":4074,"Ġï¼Į":4075,"éĢļè®¯":4076,"çºªå½ķ":4077,"æĶ¯éĥ¨":4078,"å¤įåĲĪ":4079,"æ¯įäº²":4080,"ä¿Ŀåģ¥":4081,"é¼»":4082,"å¿½":4083,"çĶµæ°Ķ":4084,"æ²³åįĹçľģ":4085,"çļĦæ°´":4086,"å¿ĹæĦ¿":4087,"è¾¨":4088,"PP":4089,"éŁ¦":4090,"å¹³è¡¡":4091,"æķ´åĲĪ":4092,"åĪºæ¿Ģ":4093,"æĮĩæķ°":4094,"è¢Ń":4095,"ä¸ĢåĲį":4096,"ĠâĢľ":4097,"éĺ²æİ§":4098,"çļĦæĥħåĨµä¸ĭ":4099,"æĦŁåıĹ":4100,"å¾ĭå¸Ī":4101,"oc":4102,"åĲ«æľī":4103,"å©´":4104,"åħĭæĸ¯":4105,"çĽ´æĴŃ":4106,"è¿ĳæĹ¥":4107,"éĢĲæŃ¥":4108,"å½±çīĩ":4109,"ç¡®è®¤":4110,"çĶŁäºİ":4111,"æıŃ":4112,"çļĦä½ľçĶ¨":4113,"ä»¥åīį":4114,"é¼ł":4115,"è¾£":4116,"è®¿éĹ®":4117,"èĤ¯å®ļ":4118,"è®¤åı¯":4119,"åį°åĪ·":4120,"od":4121,"æĦıåĳ³":4122,"ä¸īåįģ":4123,"å¿Ļ":4124,"æĦıæĢĿ":4125,"æ·±åº¦":4126,"æ¸ħæ´Ĺ":4127,"æ¡Ĩ":4128,"å¸¸åĬ¡":4129,"æ¯«ç±³":4130,"ä¼ļä¸Ĭ":4131,"é£İæľº":4132,"éļ¾ä»¥":4133,"GB":4134,"è¶ħçº§":4135,"çļĦå¿ĥ":4136,"èĳĹä½ľ":4137,"çº¢èī²":4138,"åŃĿ":4139,"ED":4140,"çĶµè§Ĩåī§":4141,"ä¸»è¦ģæĺ¯":4142,"åĽŀåºĶ":4143,"æŁľ":4144,"éĥģ":4145,"åĬŀåŃ¦":4146,"çĶŁæ¶¯":4147,"åĩĮ":4148,"äºĳåįĹ":4149,"æĹłçº¿":4150,"æľīä¸Ģä¸ª":4151,"ä¸»ä½ĵ":4152,"å®ļä¹ī":4153,"å³¡":4154,"ä¸ĩåĲ¨":4155,"æİĴæĶ¾":4156,"è´º":4157,"ä¸ŃåĽ½åħ±äº§åħļ":4158,"çĶŁæ´»ä¸Ń":4159,"å¯ĵ":4160,"åłĨ":4161,"è¥¿çıŃ":4162,"è¯ŀ":4163,"çī©çļĦ":4164,"å®¶æĹı":4165,"åĬłçĽŁ":4166,"éĺ³åħī":4167,"é»ĳèī²":4168,"åģļåĩº":4169,"Ëĭ":4170,"å¤¹":4171,"è¥¿çıŃçīĻ":4172,"äºĶå¹´":4173,"çŃĸçķ¥":4174,"èħĲèļĢ":4175,"æĪªèĩ³":4176,"æĪĲå°±":4177,"ä¸ĵè¾ĳ":4178,"å¥³åŃĲ":4179,"æŁ´":4180,"æ°¢":4181,"ä¹ĭä¸Ń":4182,"ÃĹ":4183,"ç¿»è¯ĳ":4184,"äº¿ç¾İåħĥ":4185,"è¯¾é¢ĺ":4186,"åİ¨":4187,"éĺģ":4188,"æįĲ":4189,"çĨĬ":4190,"é»Ħéĩĳ":4191,"äºĭé¡¹":4192,"äººå¤§":4193,"ä¸įåĨį":4194,"å¥Ī":4195,"æµ©":4196,"è´·æ¬¾":4197,"çĭĹ":4198,"åı¤ä»£":4199,"æ£ī":4200,"çī¹æĢ§":4201,"æĹ¥åľ¨":4202,"åħ¬å®ī":4203,"æĦŁåĪ°":4204,"è¿ĺè¦ģ":4205,"åĽ¾çīĩ":4206,"èµ¢å¾Ĺ":4207,"çļĦçĥŃ":4208,"åĿª":4209,"è¸ª":4210,"âĳ":4211,"æĭĽçĶŁ":4212,"æ¸Ĺ":4213,"çĶº":4214,"é©±åĬ¨":4215,"æĢ»éĥ¨":4216,"æĪĪ":4217,"ä¹Łå°±æĺ¯":4218,"æĶ¾åľ¨":4219,"ab":4220,"çĪµ":4221,"çİ°ä»£åĮĸ":4222,"æĻ¯è§Ĥ":4223,"å¿§":4224,"èŁ":4225,"è´¯å½»":4226,"æ¿Ģåħī":4227,"ç¼Ĩ":4228,"åŀĤ":4229,"æĿĥåĪ©":4230,"åħļçļĦ":4231,"æŃ»äº¡":4232,"èĤ¾":4233,"åĽ½å¤ĸ":4234,"æ°ĳéĹ´":4235,"æĢĿèĢĥ":4236,"æĸ°èĥ½æºĲ":4237,"è¡°":4238,"åĬ¨æĢģ":4239,"å½°":4240,"æĽ´å¥½çļĦ":4241,"å¼ķè¿Ľ":4242,"å°ĨåĨĽ":4243,"ä½ıæĪ¿":4244,"éĥ½åľ¨":4245,"åĲĪå¹¶":4246,"æµģåĬ¨":4247,"æĥħåĨµä¸ĭ":4248,"èŀįèµĦ":4249,"åıĳçļĦ":4250,"æĿ¡ä¾ĭ":4251,"æ·®":4252,"æĹħè¡Į":4253,"å¯¹æĸ¹":4254,"å¯¨":4255,"åıĳçĶµ":4256,"åİĺç±³":4257,"æĸ°çĸĨ":4258,"æ»´":4259,"æ¡Īä»¶":4260,"IP":4261,"èĮ¨":4262,"å¸ĤåľºçļĦ":4263,"ä¸Ģèĩ´":4264,"å£°éŁ³":4265,"äºĴåĬ¨":4266,"è¡Įä¸ļçļĦ":4267,"åĲ«éĩı":4268,"çĽ´åĪ°":4269,"éŀĭ":4270,"èĹ¤":4271,"å»ºçŃĳéĿ¢ç§¯":4272,"å¿ĥçļĦ":4273,"èħĬ":4274,"ä¼ĳéĹ²":4275,"åĪĨç¦»":4276,"èħº":4277,"ç¦»åŃĲ":4278,"åĬłçĥŃ":4279,"éħ¯":4280,"åĲīæŀĹ":4281,"å¢ĥåĨħ":4282,"ç½Ĺé©¬":4283,"ä¸įéĶĪ":4284,"åĲĬ":4285,"åĲįåįķ":4286,"æ»¡æĦı":4287,"èµ¶":4288,"èī²å½©":4289,"åŃŁ":4290,"æĶ¶èĹı":4291,"åĨĽäºĭ":4292,"ç¬¬ä¸Ģä¸ª":4293,"é¡¾éĹ®":4294,"èĸª":4295,"æ¸¸å®¢":4296,"æ´»æĢ§":4297,"çļĦè¦ģæ±Ĥ":4298,"å¥ĳ":4299,"ç¢±":4300,"å¤§çº¦":4301,"åĦ¿åŃĲ":4302,"åĨ¶":4303,"æķĻèĤ²éĥ¨":4304,"åĲĮæĦı":4305,"å¤§åĬĽ":4306,"åĳ¨è¾¹":4307,"èĢĢ":4308,"ç¨Ģ":4309,"èĬ¯çīĩ":4310,"æĵħ":4311,"ä½ıå®ħ":4312,"....":4313,"çļĦå¤ĸ":4314,"åıĪç§°":4315,"èľľ":4316,"èĥ½éĩı":4317,"çĶµè§Ĩåı°":4318,"çĻ½èī²":4319,"ä¸»åĬŀ":4320,"ĠJ":4321,"åĪĽåĬŀ":4322,"ç¦ıå»ºçľģ":4323,"èİ·å¾ĹäºĨ":4324,"æľįè£ħ":4325,"çĶ³æĬ¥":4326,"ie":4327,"å¤§å¤§":4328,"å·®å¼Ĥ":4329,"æīĢè°ĵ":4330,"ä»²":4331,"æ¸ħæ¥ļ":4332,"å¸¦é¢Ĩ":4333,"åĴĸ":4334,"éķ¿çļĦ":4335,"æ·±åľ³å¸Ĥ":4336,"é¸£":4337,"ä¸įéĶĪéĴ¢":4338,"é£ŁçĶ¨":4339,"åĮĢ":4340,"æ³¨éĩį":4341,"åħ¨ä½ĵ":4342,"æĹº":4343,"éĹª":4344,"è¾ĥä¸º":4345,"å²³":4346,"ç¬¬åħŃ":4347,"å¤ļåħĥ":4348,"åĳ¨æľŁ":4349,"åĬŁçİĩ":4350,"æĤ²":4351,"å¸ħ":4352,"é¢ĨåŁŁçļĦ":4353,"èĩ³å°ĳ":4354,"éĥ¨ä»¶":4355,"å±±è¥¿":4356,"çĽĳæİ§":4357,"åĪ©äºİ":4358,"åŃĺåĤ¨":4359,"å®Ļ":4360,"åĽŀåĪ°":4361,"è§Ĩè§ī":4362,"æĺĤ":4363,"th":4364,"é¤Ĳé¥®":4365,"çĶ¨æĿ¥":4366,"äººåĬĽ":4367,"åĩºçĶŁäºİ":4368,"åĽ¾ä¹¦é¦Ĩ":4369,"èį¯åĵģ":4370,"å¼ĺ":4371,"æĻ®éģį":4372,"éŃĤ":4373,"å¼¯":4374,"åĬłæĭ¿å¤§":4375,"ä¸Ļ":4376,"åıĳçĹħ":4377,"ip":4378,"åıĳæĺİ":4379,"åįĬå¹´":4380,"å¯»æī¾":4381,"ce":4382,"æ¡Į":4383,"æĢĿç»´":4384,"æ·ĺ":4385,"ä¸ĭè½½":4386,"æĶ»åĩ»":4387,"éĺ¿å°Ķ":4388,"ç©ºè°ĥ":4389,"og":4390,"èĶ¬èıľ":4391,"éĺŁçļĦ":4392,"çħ§çīĩ":4393,"ç§ĳåŃ¦éĻ¢":4394,"åħ¨çľģ":4395,"è£ħä¿®":4396,"æ¹ĺ":4397,"åĲķ":4398,"èĥ¸":4399,"é¥¼":4400,"æĹ©å·²":4401,"åĿĿ":4402,"ä»£çłģ":4403,"PC":4404,"è¡Ģç®¡":4405,"æ·Ģ":4406,"ä¸ŃéĹ´":4407,"çī¢":4408,"æĽ´ä¸º":4409,"å¦Ĥæŀľä½ł":4410,"æ±Łè¥¿":4411,"æĿ¥åĪ°":4412,"åĲĪæĪĲ":4413,"çº²":4414,"åľºæ¯ĶèµĽ":4415,"æĢģåº¦":4416,"æĲ¬":4417,"å®¶åħ·":4418,"çł´åĿı":4419,"eb":4420,"Ġm":4421,"åįłåľ°éĿ¢ç§¯":4422,"è½¬åĮĸ":4423,"åĨ³çŃĸ":4424,"å®ļæľŁ":4425,"è¯ĨåĪ«":4426,"æł¼åħ°":4427,"æĽ°":4428,"å±±å¸Ĥ":4429,"çĬ¯ç½ª":4430,"åĪĨéħį":4431,"èĮĤ":4432,"å®¶çļĦ":4433,"æĦŁè°¢":4434,"æĵ¦":4435,"ä¸ĵç§ĳ":4436,"ç»´æĮģ":4437,"èģĬ":4438,"å°ıçļĦ":4439,"åĽĽä¸ª":4440,"æ¡£æ¡Ī":4441,"åīª":4442,"ä¸įéĶĻ":4443,"æĴ¤":4444,"ç®Ń":4445,"åĨĪ":4446,"é¼İ":4447,"å½±è§Ĩ":4448,"åĬŀäºĭ":4449,"å¥¥è¿Ĳ":4450,"ï¼ħ":4451,"é¹¿":4452,"åĲįçļĦ":4453,"æĪĸæĺ¯":4454,"èĤ¿çĺ¤":4455,"å·¥ä½ľäººåĳĺ":4456,"ãĦ§":4457,"ä¸Ĭä¸ĭ":4458,"å°±èĥ½":4459,"å¥Ķ":4460,"çºł":4461,"è¿ĺåı¯ä»¥":4462,"æĭ³":4463,"äººæ°ĳå¸ģ":4464,"æľºåĻ¨äºº":4465,"éĻķè¥¿":4466,"èĳ£äºĭéķ¿":4467,"çŃīçº§":4468,"èĢĥæł¸":4469,"å»ºéĢł":4470,"ç´¯è®¡":4471,"ä¼łæĦŁ":4472,"æĦıåĳ³çĿĢ":4473,"æīĵå¼Ģ":4474,"çĥ¦":4475,"èĤ¡ä¸ľ":4476,"åħ¥éĢī":4477,"æĸ¤":4478,"çľł":4479,"è®²è¿°":4480,"æĶ¶çĽĬ":4481,"ç§ī":4482,"åī©":4483,"å¦Īå¦Ī":4484,"æľĢæĹ©":4485,"åŃ¤":4486,"åķĬ":4487,"åħģè®¸":4488,"æ°¯":4489,"æłª":4490,"ä¹Łåľ¨":4491,"æľīå¾Īå¤ļ":4492,"èĭ±éĽĦ":4493,"åıĤåĬłäºĨ":4494,"ä¸Ģä»£":4495,"æ§½":4496,"æĤ¦":4497,"ä¸Ģæµģ":4498,"å¯¹æīĭ":4499,"æ¤Ĵ":4500,"éĺ²æ²»":4501,"éĥ¨ç½²":4502,"çĬ¹":4503,"åºĶæĢ¥":4504,"åĪĻæĺ¯":4505,"âĢĵ":4506,"çĽĴ":4507,"å¹´èĩ³":4508,"æĳĩ":4509,"çĶµåĻ¨":4510,"åĺ´":4511,"åľ°çĤ¹":4512,"è¾ĵåĩº":4513,"ä¼ļåľ¨":4514,"è¿ĩæ»¤":4515,"æ¡Īä¾ĭ":4516,"èĶ¡":4517,"å°Ĩåħ¶":4518,"åĳ¨åĽ´":4519,"åħ¸åŀĭ":4520,"çĶŁç´ł":4521,"æĹ¥æĬ¥":4522,"ä¸ĵçĶ¨":4523,"åŃ£åº¦":4524,"æĴŀ":4525,"ä¸²":4526,"æ±Ĺ":4527,"ä¾ĿçĦ¶":4528,"é¾Ļæ±Ł":4529,"å¾®ä¿¡":4530,"PS":4531,"å¹´éĹ´":4532,"ä¼Ĳ":4533,"æ¯ķä¸ļçĶŁ":4534,"åİĨä»»":4535,"è¡¥åħħ":4536,"çĽ¾":4537,"åĽ½æľī":4538,"éħ·":4539,"æ³³":4540,"ä¸īåĪĨ":4541,"è¸ı":4542,"ç½ĳåıĭ":4543,"åħ»æ®ĸ":4544,"æĬĢæľ¯çļĦ":4545,"åħ¬çĽĬ":4546,"å²ģçļĦ":4547,"å¸ĪèĮĥå¤§åŃ¦":4548,"CA":4549,"éģ¥":4550,"å±Ĥæ¬¡":4551,"åĻª":4552,"èħ¿":4553,"éģĩåĪ°":4554,"æıĲäº¤":4555,"è¾ĵåħ¥":4556,"åį±å®³":4557,"æī§æ³ķ":4558,"åµ":4559,"æŁĲäºĽ":4560,"ä¸Ģæ®µ":4561,"è½»æĿ¾":4562,"ä¸ªæĢ§":4563,"ä¸»æ¼Ķ":4564,"åİ¿åŁİ":4565,"èĥľåĪ©":4566,"åŁ¹èĤ²":4567,"é£İæĻ¯":4568,"çĶĺèĤĥ":4569,"åıī":4570,"çĽ¸åħ³çļĦ":4571,"æµ¸":4572,"èĢķåľ°":4573,"æĹ¶åĪ»":4574,"è¯±":4575,"é«ĺç«¯":4576,"åı¸æ³ķ":4577,"åĩĢåĮĸ":4578,"èľĤ":4579,"åħ¨å¸Ĥ":4580,"é¢Ī":4581,"æµ·æĭĶ":4582,"ä»ªå¼ı":4583,"éĥ¨çļĦ":4584,"tr":4585,"æĤł":4586,"ä¿¡æģ¯åĮĸ":4587,"è¾Ĳ":4588,"è®¾å¤ĩçļĦ":4589,"åľ¨ä¸Ģèµ·":4590,"è¯ļä¿¡":4591,"æ»©":4592,"éļľç¢į":4593,"éĢļéģĵ":4594,"åĴĮåħ¶ä»ĸ":4595,"åĩŃåĢŁ":4596,"ä¸Ľ":4597,"çļĦä¸į":4598,"åĤ¬":4599,"ä½ľåĩº":4600,"åľ°åĮºçļĦ":4601,"èĬ±åĽŃ":4602,"Ġï¼Ī":4603,"åĲ¹":4604,"åŁºå±Ĥ":4605,"æıĲåīį":4606,"åľ°éĵģ":4607,"çĪ±çļĦ":4608,"çĶ¨éĢĶ":4609,"é¸¿":4610,"åĴĮç¤¾ä¼ļ":4611,"å®¡æŁ¥":4612,"æľĢå¥½":4613,"æĲľç´¢":4614,"åĪ«äºº":4615,"åĬłéĢŁ":4616,"å®ĩå®Ļ":4617,"æ¸Ķ":4618,"èĪĴéĢĤ":4619,"éĢĤå½ĵ":4620,"çĽĨ":4621,"æĸĹäºī":4622,"ä»¥ä¸º":4623,"è´§å¸ģ":4624,"åıĺæĪĲ":4625,"éĤĵ":4626,"ç¨»":4627,"è¯´éģĵ":4628,"åĿĳ":4629,"åĿĲèĲ½":4630,"åı¯æĺ¯":4631,"è´¾":4632,"éĽ¶åĶ®":4633,"ä¸ĵé¡¹":4634,"éĥ¨éĺŁ":4635,"ä¼¼ä¹İ":4636,"åľŁå£¤":4637,"å¤§ä¼Ĺ":4638,"è¾ĥå¤§":4639,"åĵ²åŃ¦":4640,"éĢĬ":4641,"èħ°":4642,"å¤©ä¸ĭ":4643,"æ°´åĪ©":4644,"å®¹éĩı":4645,"èĤĸ":4646,"ä¼ļçļĦ":4647,"æľŁå¾ħ":4648,"åįģåĽĽ":4649,"å¹½":4650,"ä¸ĵæ³¨":4651,"åĽŀæĶ¶":4652,"éģĵå¾·":4653,"æĸľ":4654,"è§ĤçĤ¹":4655,"å¸Ĥæ°ĳ":4656,"èµģ":4657,"çº¿çļĦ":4658,"åĪĹè½¦":4659,"ä½ľå®¶":4660,"ç²¾å½©":4661,"ç¼ºä¹ı":4662,"å¿į":4663,"å¹¶æ²¡æľī":4664,"æľīæĹ¶":4665,"ç§Łèµģ":4666,"éħ±":4667,"å¾Īéļ¾":4668,"æĬķèµĦèĢħ":4669,"çļĦåİŁåĽł":4670,"çĶµè·¯":4671,"åĨ²åĩ»":4672,"åŁİéķĩ":4673,"æľ´":4674,"å¤©æ°Ķ":4675,"æµ´":4676,"äºĮçº§":4677,"åıĤèµĽ":4678,"è½¨éģĵ":4679,"æĢ§è´¨":4680,"æĺ¯ä¸į":4681,"å¹´åīį":4682,"èĪŀåı°":4683,"èī°":4684,"é£ŀæľº":4685,"æĢ»ä½ĵ":4686,"åī¯ä¹¦è®°":4687,"ç¨į":4688,"ä¸Ģå¤©":4689,"è½¬ç§»":4690,"ä¸¤äºº":4691,"éĥ½ä¸į":4692,"ä¸ĢæĹ¦":4693,"æĭĽæłĩ":4694,"ä½İäºİ":4695,"åľ°å¤Ħ":4696,"Ġc":4697,"æ¨¡æĭŁ":4698,"æ±ģ":4699,"æķ°åŃĹåĮĸ":4700,"å®īå¾½çľģ":4701,"çħ®":4702,"æĪĴ":4703,"æľīåı¯èĥ½":4704,"è§Ħæł¼":4705,"ä¿®æĶ¹":4706,"è¾ħåĬ©":4707,"é¢Ħæµĭ":4708,"æīĢæľīçļĦ":4709,"äº§éĩı":4710,"å¤§å¸Ī":4711,"èĢĮåľ¨":4712,"éľ¸":4713,"ä¸»ç®¡éĥ¨éĹ¨":4714,"éĶĻè¯¯":4715,"é¡¹çĽ®çļĦ":4716,"å¦Ĩ":4717,"ä¿ĿåŃĺ":4718,"æ¯ıä¸Ģä¸ª":4719,"ä»°":4720,"èĭıå·ŀ":4721,"åıĸå¾ĹäºĨ":4722,"æĺŃ":4723,"è¿Ł":4724,"ä¸ĬåįĪ":4725,"åħ¬åħĥ":4726,"äº§çĶŁçļĦ":4727,"æĬķæłĩ":4728,"è¯Ħè®º":4729,"ers":4730,"çļĦäºĭæĥħ":4731,"åĽ½çļĦ":4732,"éļ¶å±ŀäºİ":4733,"Ch":4734,"åı¯æĮģç»Ń":4735,"èµĦè´¨":4736,"è¢«ç§°ä¸º":4737,"ä¾ł":4738,"ç®¡çĲĨå±Ģ":4739,"çļĦçĶŁäº§":4740,"çłĶç©¶åĳĺ":4741,"å°±åĥı":4742,"çŃīåľ°":4743,"çļĦæķħäºĭ":4744,"éĹ½":4745,"å®ļåĪ¶":4746,"æĻ°":4747,"å¾Īå¤§çļĦ":4748,"CO":4749,"é¹ı":4750,"ä½Ĩåľ¨":4751,"æ¶ĤæĸĻ":4752,"CP":4753,"åĬłåĿ¡":4754,"æ¹ĸåĮĹçľģ":4755,"å¯Ĩå°ģ":4756,"å¨ĺ":4757,"çłĶåĪ¶":4758,"æľįåĬ¡çļĦ":4759,"éĥ¨ä½į":4760,"æľĪåıĤåĬł":4761,"æĢ»æĺ¯":4762,"ell":4763,"æĭĵå±ķ":4764,"åĳ¼åĲ¸":4765,"æī¿åĮħ":4766,"å¾ĹåĪ°äºĨ":4767,"ä¸īè§Ĵ":4768,"ç¥Ń":4769,"æ¹ĸåįĹçľģ":4770,"çĽĹ":4771,"å°Ĩäºİ":4772,"ob":4773,"ä¸ľäº¬":4774,"é¥°æ¼Ķ":4775,"çŃĸåĪĴ":4776,"æ··åĩĿ":4777,"è½¬æį¢":4778,"æħİ":4779,"è¡Ķ":4780,"å¥ĸåĬ±":4781,"è¿Ŀæ³ķ":4782,"äººä¸º":4783,"ä¸ĸçķĮä¸Ĭ":4784,"åħĦå¼Ł":4785,"åĪ°è¾¾":4786,"éĿĴå°ĳå¹´":4787,"ä¼ĺçĤ¹":4788,"èĳĹåĲįçļĦ":4789,"æŃ£æĺ¯":4790,"é»ĳé¾Ļæ±Ł":4791,"çŁ¥è¯Ĩäº§æĿĥ":4792,"è¢«è¯Ħä¸º":4793,"æĭ¨":4794,"åıł":4795,"å»Ĭ":4796,"èģĮè´£":4797,"æİ¥åı£":4798,"éĩĮéĿ¢":4799,"èĢĥå¯Ł":4800,"å¼¥":4801,"ä»ĸäºº":4802,"æķ´çĲĨ":4803,"æĿĥçĽĬ":4804,"åķ¡":4805,"èİİ":4806,"åģľæŃ¢":4807,"éĢĿ":4808,"é¢ĸ":4809,"åī§æĥħ":4810,"ä¸ĬäºĨ":4811,"å¤§éģĵ":4812,"ç¼ĸåĪ¶":4813,"éĢłåŀĭ":4814,"éĥ½èĥ½":4815,"äºİä¸Ģ":4816,"æľīéĻĲè´£ä»»":4817,"IT":4818,"æľĢä½İ":4819,"é¢Ħç®Ĺ":4820,"åľ°éľĩ":4821,"å®ĹæĹ¨":4822,"æĭĮ":4823,"èĵĦ":4824,"æĹ¥èĩ³":4825,"å°Ŀè¯ķ":4826,"æ¢¦æĥ³":4827,"åĬłå¤§":4828,"åĴ¸":4829,"èĻļæĭŁ":4830,"åĨ¯":4831,"éĺ²æĬ¤":4832,"è®©æĪĳä»¬":4833,"å¤ªå¹³":4834,"æĸ°åĬłåĿ¡":4835,"ä¿ĿçķĻ":4836,"é£ŀè¡Į":4837,"è°¨":4838,"å¤ļé¡¹":4839,"èĢĮä¸į":4840,"ç§įç±»":4841,"æĬļ":4842,"å®¡æł¸":4843,"èĭ¹":4844,"å¤§éĩıçļĦ":4845,"å¥³åĦ¿":4846,"æ©¡èĥ¶":4847,"çļĦä¸Ń":4848,"åı¯è§ģ":4849,"é«ĺåİĭ":4850,"äºĮçŃīå¥ĸ":4851,"å¹¶ä¸įæĺ¯":4852,"åĪ¤æĸŃ":4853,"ãĥ»":4854,"ç¢§":4855,"æĹĹä¸ĭ":4856,"åĲĪæ³ķ":4857,"èįĴ":4858,"çĻ½çĻľé£İçļĦ":4859,"æµ·åĨĽ":4860,"æĸ¹ä½į":4861,"å¤§åŃ¦çĶŁ":4862,"æķħéļľ":4863,"____":4864,"éĶĲ":4865,"Ġp":4866,"In":4867,"å¤§å¹ħ":4868,"åĵĪå°Ķ":4869,"éĹ®é¢ĺçļĦ":4870,"æ»ĭ":4871,"ç«ĭåį³":4872,"å·´é»İ":4873,"å¼ķåıĳ":4874,"MA":4875,"éĻª":4876,"çļĦåĨħå®¹":4877,"ä¼łè¾ĵ":4878,"éĢĤçĶ¨":4879,"èĮĥåĽ´åĨħ":4880,"èī³":4881,"å¼ķé¢Ĩ":4882,"æĺİæĺŁ":4883,"çĻ¾åĪĨ":4884,"éħ¶":4885,"çłĶç©¶ä¸Ńå¿ĥ":4886,"æłĭ":4887,"é¢ĩ":4888,"å¹´åºķ":4889,"èĻ¹":4890,"éĦ":4891,"å¤±åİ»":4892,"æĶ¹è¿Ľ":4893,"è¾ĵéĢģ":4894,"æ¾³å¤§åĪ©":4895,"ä¼¤å®³":4896,"åİ¿äºº":4897,"ç¨İåĬ¡":4898,"æ³Ħ":4899,"Ġf":4900,"æ¾³å¤§åĪ©äºļ":4901,"è®¤å®ļ":4902,"å¯Ĩåº¦":4903,"æ°ĳä¸»":4904,"ä¸Ńæľī":4905,"å§Ķæīĺ":4906,"æĥľ":4907,"ç½Ĳ":4908,"åĭĥ":4909,"è¿ĳæľŁ":4910,"èĥĢ":4911,"éĢīæīĭ":4912,"åĴĮè°Ĳ":4913,"æīĢéľĢ":4914,"ä½ľçī©":4915,"æľĢå¥½çļĦ":4916,"åĴĸåķ¡":4917,"æĸĩèīº":4918,"å¸Ĥå§Ķ":4919,"ç¢°":4920,"æ·±åĪ»":4921,"é¢Ĺç²Ĵ":4922,"æµı":4923,"æĤ£èĢħçļĦ":4924,"åĪĽç«ĭ":4925,"åĪ¶éĢłä¸ļ":4926,"å¾Īå¿«":4927,"äºĭä¸ļåįķä½į":4928,"åħ»èĢģ":4929,"ĠU":4930,"è£ķ":4931,"çİĦ":4932,"æľŁæľĽ":4933,"å½Ń":4934,"é¡¾å®¢":4935,"çļĦéľĢæ±Ĥ":4936,"ç»µ":4937,"å¤ļå®¶":4938,"éķ¿æ²Ļ":4939,"éŁµ":4940,"II":4941,"æĥħæĦŁ":4942,"çĶ·åŃĲ":4943,"éķ¿æ±Ł":4944,"æĭĸ":4945,"ãĦ¨":4946,"ä¸Ģåľº":4947,"æ¼ĶåĶ±":4948,"å¼ĢåıĳåĮº":4949,"æŁ¥è¯¢":4950,"ä¸īå¤§":4951,"éĶ»":4952,"æľīéĻĲè´£ä»»åħ¬åı¸":4953,"åľ°éĿ¢":4954,"çĶŁåŃĺ":4955,"æ²³åĮĹçľģ":4956,"å¹¼åĦ¿åĽŃ":4957,"æĸ°åĮº":4958,"æ·ĭ":4959,"æĦŁæĥħ":4960,"è´Ńçī©":4961,"éĿĴæĺ¥":4962,"æ¼Ĥ":4963,"åĢ¡":4964,"æİ¥è¿ĳ":4965,"å¸ĤæĶ¿åºľ":4966,"éĿĸ":4967,"å¾Īå¤ļäºº":4968,"éķĢ":4969,"ä¸ĩå¹³æĸ¹ç±³":4970,"å¾Īå¥½çļĦ":4971,"å¸¸è§ģçļĦ":4972,"ä¹īåĬ¡":4973,"åįľ":4974,"çķľ":4975,"çººç»ĩ":4976,"ER":4977,"ID":4978,"çīĪæĿĥ":4979,"åľ¨è¿ĻéĩĮ":4980,"èĽĩ":4981,"èĲ§":4982,"çĥ¤":4983,"çĨĻ":4984,"åı·çº¿":4985,"èĭ¯":4986,"æľ¬äºº":4987,"æ½ĺ":4988,"IN":4989,"è®°å¿Ĩ":4990,"é«ĺéĢŁåħ¬è·¯":4991,"çĭ®":4992,"ä¾ĽåºĶåķĨ":4993,"èĭ¹æŀľ":4994,"æĬ«":4995,"å¤©çļĦ":4996,"åİĭç¼©":4997,"åĮºåĪ«":4998,"é¥±":4999,"åĨħå¤ĸ":5000,"åĨ·åį´":5001,"æķĪåºĶ":5002,"æµİåįĹ":5003,"å¤ļæł·":5004,"ä¸¸":5005,"ç»Īäºİ":5006,"åĲĪéĢĤ":5007,"ãĥ¼":5008,"ËĬ":5009,"è®¼":5010,"ä¼ĺæĥł":5011,"å¼Ĥå¸¸":5012,"åĲĲ":5013,"å®ĥæĺ¯":5014,"ä¸ĢçŃīå¥ĸ":5015,"æ°´æ³¥":5016,"åįģä¸ī":5017,"%ï¼Ľ":5018,"æĶ¿åįı":5019,"ç»Ŀå¯¹":5020,"ä¼łç»ŁçļĦ":5021,"è§Ħå®ļçļĦ":5022,"ä»¬çļĦ":5023,"å¤ĸåĽ½":5024,"åĩłå¹´":5025,"ä¿¡å¿ĥ":5026,"çĨŁæĤī":5027,"åĽŃæŀĹ":5028,"æ··åĩĿåľŁ":5029,"è´§çī©":5030,"ine":5031,"ä½Ļäºº":5032,"ov":5033,"è¯»èĢħ":5034,"å°ıåĮº":5035,"te":5036,"OS":5037,"ç¡®å®ŀ":5038,"ä¹Łèĥ½":5039,"ä¹Łåı¯":5040,"ä¼ĺèī¯":5041,"å£°æĺİ":5042,"ï¼īï¼ļ":5043,"çº½çº¦":5044,"æī®":5045,"èĪŁ":5046,"éģĹåĿĢ":5047,"æĬĢå·§":5048,"åĮĹéĥ¨":5049,"è¯Ħå®¡":5050,"ä¼łæĦŁåĻ¨":5051,"æİ§èĤ¡":5052,"ç²¤":5053,"æħķ":5054,"ä¼ĺåħĪ":5055,"åĨħèĴĻåı¤":5056,"æľīæķĪçļĦ":5057,"å¼ĢåĲ¯":5058,"ç§¯ç´¯":5059,"ãģ®":5060,"åĲĮä¸Ģ":5061,"è®°è½½":5062,"åĭĺ":5063,"æĹ¥åīį":5064,"ä¸įèī¯":5065,"è¾Ĳå°Ħ":5066,"åįģä¸Ģ":5067,"æ³Į":5068,"ub":5069,"ak":5070,"å©Ĩ":5071,"çĶµåķĨ":5072,"ard":5073,"æĺŁæľŁ":5074,"èĻ¾":5075,"ä¸»è§Ĵ":5076,"é¤Ĳåİħ":5077,"è½¬åıĺ":5078,"çŁ©":5079,"æĪĸè®¸":5080,"èµĶ":5081,"ç»ĨèĬĤ":5082,"å®¡è®¡":5083,"çĭ¬çī¹çļĦ":5084,"æĨ":5085,"çļĦä½¿çĶ¨":5086,"æľīåĵªäºĽ":5087,"æ°¸è¿ľ":5088,"ä¿®å¤į":5089,"æľ¬ç«Ļ":5090,"çĶŁäº§çļĦ":5091,"å®¶äºº":5092,"å¸¦æĿ¥çļĦ":5093,"ä¸§":5094,"è¹Ī":5095,"ä¸¤å¹´":5096,"é¢ĳçİĩ":5097,"çĶ¨åĵģ":5098,"åºĶå¯¹":5099,"èĳĽ":5100,"å¾Īå¥½":5101,"æĮ¤":5102,"ind":5103,"éĻ¶çĵ·":5104,"è¶ĬåįĹ":5105,"æĤŁ":5106,"åĲĮæ¯Ķå¢ŀéķ¿":5107,"æł½":5108,"æľĢåĪĿ":5109,"èİ·å¥ĸ":5110,"åŁĭ":5111,"éĤ£ä¸ª":5112,"çļĦåŁºç¡Ģä¸Ĭ":5113,"äº¤æį¢":5114,"âĢĿï¼Ī":5115,"æ¸ħæĻ°":5116,"åŃ¦çĶŁçļĦ":5117,"éĢ»":5118,"éĥ½å¸Ĥ":5119,"çªģçĦ¶":5120,"åĽ¾åĥı":5121,"æ¼«çĶ»":5122,"å¼Ģæĭĵ":5123,"çĮĽ":5124,"å®ŀéĻħä¸Ĭ":5125,"ä¸Ģæĺ¯":5126,"çĶµç¼Ĩ":5127,"åħĨ":5128,"è¾©":5129,"å±¥è¡Į":5130,"éĶĮ":5131,"è¾Ī":5132,"ä¸įä¹ħ":5133,"éĥĳå·ŀ":5134,"å®ĹæķĻ":5135,"çĮİ":5136,"èĩŃ":5137,"æŁ¯":5138,"ç»´çĶŁç´ł":5139,"å¤§è¿ŀ":5140,"çī©ä¸ļ":5141,"åĲĦçº§":5142,"æľŁåĪĬ":5143,"åıĳåĬ¨æľº":5144,"æĽ¾åľ¨":5145,"å·²æľī":5146,"çļĦç¾İ":5147,"ç£·":5148,"åĬ©åĬĽ":5149,"ç½©":5150,"è°ĥçłĶ":5151,"éħįå¤ĩ":5152,"æ¯ıä¸Ģ":5153,"ç³ķ":5154,"æĴĴ":5155,"åİ¦éĹ¨":5156,"éĩįéĩı":5157,"æĮ¡":5158,"çŃĴ":5159,"ç»Ħå»º":5160,"æŃĮæīĭ":5161,"å½¢æĢģ":5162,"å§¿":5163,"åŁİä¹¡":5164,"éĥ½åı¯ä»¥":5165,"å·¥èµĦ":5166,"è¶³å¤Ł":5167,"çĿĽ":5168,"æĶ¾å¼ĥ":5169,"æīĵåį°":5170,"CD":5171,"æī©å±ķ":5172,"åłª":5173,"çĶµåİĭ":5174,"æļ¨":5175,"äººå·¥æĻºèĥ½":5176,"åŁºç¡Ģè®¾æĸ½":5177,"ä¸įçŁ¥éģĵ":5178,"ä¸įç®¡":5179,"ä½ĽæķĻ":5180,"ä¸ºæĤ¨":5181,"åħĪè¿ĽçļĦ":5182,"éĩĮæĸ¯":5183,"èĭĳ":5184,"å®ģæ³¢":5185,"ä¸Ģè·¯":5186,"éĿ¢è¯ķ":5187,"éģĹä¼ł":5188,"è¯īè®¼":5189,"æĪĲçļĦ":5190,"ess":5191,"æĸ°å¢ŀ":5192,"ä¸ĭäºĨ":5193,"æĸ°åĨł":5194,"ä»¥ä¸ĬçļĦ":5195,"æĶ¶è´¹":5196,"çĦĬæİ¥":5197,"çĹħäºº":5198,"æŀļ":5199,"ç²¾åĵģ":5200,"è¾ħå¯¼":5201,"å½¢æĪĲäºĨ":5202,"æľ¬åľ°":5203,"è¾ĥé«ĺ":5204,"åıĻ":5205,"å¤ļå¹´çļĦ":5206,"çļĦæķ°æį®":5207,"åįģåħ«":5208,"åĭŁ":5209,"è¾°":5210,"åĩºåıĳ":5211,"åĩºå¸Ń":5212,"æĺ¯ä¸ª":5213,"åĳ¨å¹´":5214,"ç¬¬ä¸ĥ":5215,"çĭ±":5216,"å°ĳæķ°":5217,"æ³Ĭ":5218,"èİŀ":5219,"åįĹåĮĹ":5220,"çĶµæµģ":5221,"èį¡":5222,"ç°":5223,"ĠãĢĤ":5224,"æĹłäºº":5225,"ç²®é£Ł":5226,"çłĶç©¶ä¼ļ":5227,"ç²¾åº¦":5228,"éľŀ":5229,"åŀ«":5230,"ä»ĬæĹ¥":5231,"ang":5232,"å®ª":5233,"ä»¥ä¸ĭç®Ģç§°":5234,"çĲĥåľº":5235,"çļĦåħ¨":5236,"æ½Ń":5237,"åįĹéĥ¨":5238,"ä¹Łè¦ģ":5239,"é«ĺè¾¾":5240,"æĦ¿æĦı":5241,"å¤§æķ°æį®":5242,"ä¸Ģç³»åĪĹ":5243,"å°½éĩı":5244,"åįķåħĥ":5245,"å¤ĸçļĦ":5246,"èīºæľ¯å®¶":5247,"åı¥è¯Ŀ":5248,"ç¿ł":5249,"æŀ¢":5250,"åŁºçĿ£":5251,"å§»":5252,"è§Ĥçľĭ":5253,"ç¿Ķ":5254,"çĪ·":5255,"èĪªå¤©":5256,"çī©åĵģ":5257,"åĪ°åºķ":5258,"éĢĢä¼ĳ":5259,"AT":5260,"èĳ¬":5261,"æ°ĽåĽ´":5262,"è´¢äº§":5263,"åĲĮæŃ¥":5264,"åįģäºĶ":5265,"æĶ¹ä¸º":5266,"æĬ¼":5267,"æµıè§Ī":5268,"åį°è±¡":5269,"èĢģäºº":5270,"çŃ¾è®¢":5271,"å¹¶éĿŀ":5272,"å®ŀçİ°äºĨ":5273,"æĲŀ":5274,"èµ°åĲĳ":5275,"ä¼łéĢĴ":5276,"åĲĪçī©":5277,"çĲĨå·¥":5278,"ä¸ľéĥ¨":5279,"åıĤè§Ĥ":5280,"æľµ":5281,"æľĪä»»":5282,"æıĲéĨĴ":5283,"AC":5284,"ç²¾åĩĨ":5285,"ill":5286,"ç¤¾äº¤":5287,"åĽłèĢĮ":5288,"åĿĩåĮĢ":5289,"èĪŀè¹Ī":5290,"if":5291,"å¹´èİ·":5292,"ä¸»ç¼ĸ":5293,"å¤ļå¹´æĿ¥":5294,"åĤħ":5295,"å¼ºçĥĪ":5296,"åį³å°Ĩ":5297,"åĩºæĿ¥çļĦ":5298,"çĲ³":5299,"ç¤¾ä¼ļä¸»ä¹ī":5300,"åĭĭ":5301,"è·¯çº¿":5302,"ç¯®æĿ¿":5303,"äººåĿĩ":5304,"åīįçļĦ":5305,"æĿ¥äºĨ":5306,"æľĪèĩ³":5307,"è§Ħå¾ĭ":5308,"èĮħ":5309,"èµ·åĪ°":5310,"æĵİ":5311,"AR":5312,"ï¼ŁâĢĿ":5313,"å¸¦çĿĢ":5314,"Ġb":5315,"æĢ»ç»Ł":5316,"æ°´çļĦ":5317,"æŃ¤æĹ¶":5318,"æĶ¶åĪ°":5319,"çŃĽ":5320,"Ã©":5321,"åħ¨æĿĳ":5322,"æ¨¡åĿĹ":5323,"åĲĮå¿Ĺ":5324,"å®¶å±ħ":5325,"æĭīæĸ¯":5326,"æĳ¸":5327,"åħ¥åı£":5328,"ä¸ŃåĽ½äººæ°ĳ":5329,"çļĦåŁºæľ¬":5330,"nd":5331,"èº«ä¸Ĭ":5332,"ãĢįï¼Į":5333,"ï¼ģâĢĿ":5334,"ç¡¬ä»¶":5335,"åİŁæľ¬":5336,"AI":5337,"éļıæĹ¶":5338,"æī¿è¯º":5339,"äººæ°ĳæ³ķéĻ¢":5340,"å¤§ä¸ĵ":5341,"éķ¿æĹ¶éĹ´":5342,"åĽĽå¹´":5343,"é¦¨":5344,"éŃħ":5345,"åĴĮå¹³":5346,"æģ°":5347,"éĹ´çļĦ":5348,"æĺ¥èĬĤ":5349,"éģĤ":5350,"çŃĭ":5351,"ä¸Ĭæ¶¨":5352,"æĪıåī§":5353,"äº§ä¸ļéĵ¾":5354,"ä¾Ŀæīĺ":5355,"ä¸ºå®¢æĪ·":5356,"ä¾į":5357,"å°ıç¼ĸ":5358,"çĨĶ":5359,"èĤ©":5360,"çİ°ä¸º":5361,"äºĳåįĹçľģ":5362,"æ¶²ä½ĵ":5363,"æĸ¯åĿ¦":5364,"äººæĸĩ":5365,"çĸ¼":5366,"åįıåĲĮ":5367,"çº¦ç¿°":5368,"çħ§æĺİ":5369,"ç©·":5370,"åīĬ":5371,"åŃ¦å£«":5372,"ä¸Ńå±±":5373,"åĬłåħ¥ä¸ŃåĽ½åħ±äº§åħļ":5374,"åı¯èĥ½æĺ¯":5375,"çĸ«æĥħéĺ²æİ§":5376,"å·¥äºº":5377,"é«ĺæĸ°æĬĢæľ¯":5378,"äºĮå¹´":5379,"æĽ´æį¢":5380,"æ°´æŀľ":5381,"éĢıæĺİ":5382,"LED":5383,"éĴ¢éĵģ":5384,"å¸¦åĬ¨":5385,"é¸Ń":5386,"ä¹ĭè·¯":5387,"å®ŀæĹ¶":5388,"Ġ,":5389,"æľīä»Ģä¹Ī":5390,"æĬĽ":5391,"çļĦä¸ĢäºĽ":5392,"çĶµç«Ļ":5393,"ä¼ª":5394,"ç¦ħ":5395,"ä¼łåªĴ":5396,"ä¹¾":5397,"åĽ½çİĭ":5398,"æĶ¶è´Ń":5399,"å±ıå¹ķ":5400,"ç§ĺä¹¦éķ¿":5401,"èĩªçĦ¶æĿĳ":5402,"å¤ĸè§Ĥ":5403,"ç§ĳåŃ¦æĬĢæľ¯":5404,"çļĦä¿¡æģ¯":5405,"éĴĻ":5406,"ä½ľæĪĺ":5407,"åį«æĺŁ":5408,"åĬ©æĶ»":5409,"çļĦåİĨåı²":5410,"äººåĬĽèµĦæºĲ":5411,"å°±è¦ģ":5412,"ä¸Ńèį¯":5413,"æ¾³éĹ¨":5414,"è¿ĺä¼ļ":5415,"çģµæ´»":5416,"å¤§æ°Ķ":5417,"ES":5418,"äºĮæĺ¯":5419,"ä¼łè¯´":5420,"åįģåħŃ":5421,"é½Ĳåħ¨":5422,"å¹´å¼Ģå§ĭ":5423,"å½¢çĬ¶":5424,"âĹ":5425,"æ£Ģå¯Ł":5426,"çļĦç®¡çĲĨ":5427,"ç¾¤ä½ĵ":5428,"å·¥ä½ľä¸Ń":5429,"ä¾¨":5430,"æĪĲä¸ºäºĨ":5431,"åĲįäºº":5432,"æĿĲè´¨":5433,"åħ¬åĬ¡":5434,"ä¸Ī":5435,"å®Įç¾İ":5436,"æ°Ķè±¡":5437,"ä¸ľèİŀ":5438,"è¡ĮçļĦ":5439,"éĵŃ":5440,"æĥ³åĪ°":5441,"è®¾è®¡å¸Ī":5442,"AS":5443,"æĹ¥æľŁ":5444,"å¼ºå¤§çļĦ":5445,"æ¯Ķäºļ":5446,"é¹¤":5447,"æĻļä¸Ĭ":5448,"é¥²":5449,"äºĪä»¥":5450,"åį±æľº":5451,"çĥĺ":5452,"åĲ¦åĪĻ":5453,"é¦Ī":5454,"è¿Ĳä½ľ":5455,"æĺ¨":5456,"åĴĮæľįåĬ¡":5457,"ç»§æī¿":5458,"çī¹å®ļ":5459,"å¹´èµ·":5460,"åıĳåĩº":5461,"å½ķåıĸ":5462,"åĬĽåº¦":5463,"éªĹ":5464,"éĩĬæĶ¾":5465,"è´Ŀå°Ķ":5466,"è®¾è®¡çļĦ":5467,"å»ºç«ĭäºĨ":5468,"è°Ĭ":5469,"çĶ»éĿ¢":5470,"åĩºçİ°äºĨ":5471,"ç»ıæµİåıĳå±ķ":5472,"å¯¹æŃ¤":5473,"å®ŀä½ĵ":5474,"å¤ļäºº":5475,"è¥¿æĸ¹":5476,"æĢ»éĿ¢ç§¯":5477,"çĽ¸ä¼¼":5478,"æĿī":5479,"çļĦèĥ½åĬĽ":5480,"ä¸ĵé¢ĺ":5481,"å°ıåŀĭ":5482,"åĶ®åĲİ":5483,"åıĸæ¶Ī":5484,"IC":5485,"å·´è¥¿":5486,"éĩĳé¢Ŀ":5487,"å·¨å¤§":5488,"ç»¼åĲĪæĢ§":5489,"åħ³å¿ĥ":5490,"æµĵåº¦":5491,"ä¸»åľº":5492,"éĢļçĶ¨":5493,"ä¸īçŃīå¥ĸ":5494,"è¢ģ":5495,"åº·å¤į":5496,"æª":5497,"åıįå¯¹":5498,"æīĢå¾Ĺ":5499,"ĠĠĠ":5500,"ä¼¦æķ¦":5501,"åħ¨åĬĽ":5502,"åģľè½¦":5503,"åı°åĮĹ":5504,"è¿ĽçĲĥ":5505,"æĢĴ":5506,"ä¼łæī¿":5507,"ä¸įçĶ¨":5508,"åľ¨è¿Ļä¸ª":5509,"æľĪåľ¨":5510,"ä¹ĭä¸ĭ":5511,"çĶ±æŃ¤":5512,"åĬŁæķĪ":5513,"æĶ¯åĩº":5514,"è¯ķçĤ¹":5515,"ä¸ºä¸Ģä½ĵçļĦ":5516,"çļĦé¦ĸ":5517,"æĲŃéħį":5518,"æ°Ķæ¸©":5519,"æıĲåĩºäºĨ":5520,"å¤Ħç½ļ":5521,"æľīåĬ©":5522,"é©¬åħĭ":5523,"èĩ³äºİ":5524,"å¯ĨåĪĩ":5525,"å¹¶äºİ":5526,"ä¸»æķĻ":5527,"åī¯æķĻæİĪ":5528,"åĽ¢ç»ĵ":5529,"ç«ŀäºīåĬĽ":5530,"è®²è§£":5531,"è¿ĺèĥ½":5532,"å®Ŀå®Ŀ":5533,"é©¬æĿ¥":5534,"è©":5535,"åĮ»åŃ¦éĻ¢":5536,"èĳ±":5537,"ä¸Ģå¸¦":5538,"ä½¿åĳ½":5539,"è¡Ģæ¶²":5540,"çĶŁæ´»çļĦ":5541,"æĴ°åĨĻ":5542,"æłĩåĩĨåĮĸ":5543,"éĽĨåĽ¢æľīéĻĲåħ¬åı¸":5544,"å¤Ħç½®":5545,"èĬ½":5546,"TV":5547,"è®©æĪĳ":5548,"èģĮç§°":5549,"æĥ³æ³ķ":5550,"å¸ĿåĽ½":5551,"å¸½":5552,"èĲ¥éĢł":5553,"å±±è¥¿çľģ":5554,"æŀĹä¸ļ":5555,"æ²¦":5556,"è¿ĩçļĦ":5557,"å¹³æĹ¶":5558,"å¤§åİ¦":5559,"è¯·æ±Ĥ":5560,"æįŁå®³":5561,"ISO":5562,"åĲĪèĤ¥":5563,"æ¶µçĽĸ":5564,"æĹħå®¢":5565,"çĤ¹åĩ»":5566,"ï¼īï¼Ľ":5567,"Ġl":5568,"æıĲç¤º":5569,"ç»¿åĮĸ":5570,"å®ĺç½ĳ":5571,"æĮĩå®ļ":5572,"å½¢åĬ¿":5573,"èĦĬ":5574,"åİ¿å§Ķ":5575,"ä¸ļæľīéĻĲåħ¬åı¸":5576,"åİļçļĦ":5577,"çĸ«èĭĹ":5578,"èĲĿ":5579,"æłĳèĦĤ":5580,"æ·±åĮĸ":5581,"ç¼ĸçłģ":5582,"çļĦç¬¬ä¸Ģ":5583,"çĶŁå¹³":5584,"èĤ¡æĿĥ":5585,"åıĶ":5586,"çĳŁ":5587,"è¯Ĺäºº":5588,"åħļæĶ¯éĥ¨":5589,"ex":5590,"å¦ĩå¥³":5591,"ä¸Ĭæľī":5592,"åĪł":5593,"å½ĵå¹´":5594,"å©ļå§»":5595,"TC":5596,"å°Ķæĸ¯":5597,"èµļ":5598,"çľ¼çĿĽ":5599,"æİ¢è®¨":5600,"èģª":5601,"åºŀ":5602,"æĺ¯æľī":5603,"è¯¾åłĤ":5604,"åĲĦèĩª":5605,"æĻĴ":5606,"çĶµåŃĲåķĨåĬ¡":5607,"åį§":5608,"ãĢķ":5609,"ãĢįãĢĤ":5610,"å¼Ģè®¾":5611,"å®īåħ¨çĶŁäº§":5612,"ä¸Ģæī¹":5613,"æĢ»è£ģ":5614,"art":5615,"éĢīçĶ¨":5616,"pp":5617,"è©¹":5618,"å¤ĸç§ĳ":5619,"çĽ¸åºĶçļĦ":5620,"ç»ıæµİåŃ¦":5621,"æĸĩçĮ®":5622,"ãĢĶ":5623,"èĤª":5624,"åįģå¤§":5625,"å¥³äºº":5626,"éĩįå¤į":5627,"é¢ĳéģĵ":5628,"è½¦éĹ´":5629,"å§ļ":5630,"èĥº":5631,"æĬ¥èĢĥ":5632,"å»¶éķ¿":5633,"æŃ¤åīį":5634,"ra":5635,"æ¶Į":5636,"çĭ¼":5637,"ä¸ŃåĽ½çļĦ":5638,"å¹´åĪĿ":5639,"æĶ¶å½ķ":5640,"çħ¤çĤŃ":5641,"çĢ":5642,"åİĤåķĨ":5643,"é¹°":5644,"èĦĤèĤª":5645,"éĥĬ":5646,"åŀĭåı·":5647,"é¢ĦæľŁ":5648,"æŃ£è§Ħ":5649,"ä¸Ģä¸ªäºº":5650,"ä¸¤æ¬¡":5651,"èį·åħ°":5652,"éĻķè¥¿çľģ":5653,"ç§įåŃĲ":5654,"å¦®":5655,"è§Ĩä¸º":5656,"å¯¹æ¯Ķ":5657,"æµ·åįĹ":5658,"çļĩå¸Ŀ":5659,"é«ĺäºİ":5660,"æīĩ":5661,"è¡į":5662,"æĢİæł·":5663,"åħ³èĬĤ":5664,"æ±Łè¥¿çľģ":5665,"æĽ´æľī":5666,"èº«è¾¹":5667,"ook":5668,"æ¨¡åħ·":5669,"å¼ķæĵİ":5670,"å±Ī":5671,"ä¹ĭä¸º":5672,"ä¸ĬéĿ¢":5673,"çļĦå¸Ĥåľº":5674,"æĹ¨åľ¨":5675,"èģĶéĤ¦":5676,"éĥ½è¦ģ":5677,"å·¨å¤§çļĦ":5678,"äº¨":5679,"åıĪåĲį":5680,"è¯»ä¹¦":5681,"éĩĩè®¿":5682,"å¸¸è§Ħ":5683,"å¤§æĪĺ":5684,"ity":5685,"ç»ĵå©ļ":5686,"å¾Īå®¹æĺĵ":5687,"çľī":5688,"çłĶè®¨":5689,"æ°®":5690,"æĪĳä»¬åľ¨":5691,"ãĢī":5692,"ãĢĪ":5693,"æ³ķäºº":5694,"éħ¿":5695,"æ²Īéĺ³":5696,"åİŁå§ĭ":5697,"æĢ§æł¼":5698,"åħĶ":5699,"èīĩ":5700,"çĽ²":5701,"çļĦçİ¯å¢ĥ":5702,"çİīç±³":5703,"åįĹæĸ¹":5704,"èģĮåĬ¡":5705,"èĭıèģĶ":5706,"éĻĦå±ŀ":5707,"å·¥ä¼ļ":5708,"æĹłè®ºæĺ¯":5709,"æ¶ĪåĮĸ":5710,"çī²":5711,"æ¡¶":5712,"æ¶Ľ":5713,"æĮº":5714,"æĮĩåįĹ":5715,"è´¢ç»ı":5716,"èĥģ":5717,"ĠCh":5718,"æ¢¨":5719,"çħĮ":5720,"åĨĻä½ľ":5721,"ian":5722,"ĠSt":5723,"å·²æĪĲä¸º":5724,"æķ°æį®åºĵ":5725,"æĴŃæĶ¾":5726,"åĪĿæľŁ":5727,"åĪĩå®ŀ":5728,"çľŁç©º":5729,"éĹ¹":5730,"çĻ¾å§ĵ":5731,"èĨı":5732,"å¼ıçļĦ":5733,"ç»Īç«¯":5734,"æĿĳå§Ķä¼ļ":5735,"éģĹäº§":5736,"US":5737,"ä¸įå¥½":5738,"å¸ĤåĮº":5739,"æīŃ":5740,"æīįæĺ¯":5741,"Ãł":5742,"----":5743,"éĺ²æ°´":5744,"åĵįåºĶ":5745,"åĬ©çĲĨ":5746,"äºı":5747,"ç²īä¸Ŀ":5748,"å»¶ä¼¸":5749,"éĺ¿æĭī":5750,"éĢ»è¾ĳ":5751,"å©´åĦ¿":5752,"å®ł":5753,"å®ĮæĪĲäºĨ":5754,"ä¹¡éķĩ":5755,"çĶ·æĢ§":5756,"\\/":5757,"å¸ĮèħĬ":5758,"å°±åľ¨":5759,"è¿Ļä¹Łæĺ¯":5760,"å¼Ħ":5761,"åģļäºĨ":5762,"å¤±è´¥":5763,"ç¦ģæŃ¢":5764,"è¿Ľç¨ĭ":5765,"è¿Ļå°±æĺ¯":5766,"è¿ĺåľ¨":5767,"åħħçĶµ":5768,"æ°ĳåĽ½":5769,"åĨĽéĺŁ":5770,"ne":5771,"éħįä»¶":5772,"å±¯":5773,"åĪĽå§ĭ":5774,"å¨ĥ":5775,"è¿ĽæĶ»":5776,"ä¹Łè®¸":5777,"éĻĢ":5778,"æīĢå±ŀ":5779,"å¼Ģåħ³":5780,"MP":5781,"åı¦ä¸Ģä¸ª":5782,"éĤ®ä»¶":5783,"åı¯ä»¥éĢļè¿ĩ":5784,"åŃ¦åĳĺ":5785,"ĠIn":5786,"æĬĬæı¡":5787,"å¸¸å¸¸":5788,"æĬĳåĪ¶":5789,"æ¯ıæ¬¡":5790,"éĤ£éĩĮ":5791,"<\\/":5792,"åĲĮæľŁ":5793,"è¾ĥä½İ":5794,"çĽ¸ç»ĵåĲĪ":5795,"ç¼ĸåĨĻ":5796,"æľªæĿ¥çļĦ":5797,"all":5798,"ä¾¦":5799,"ãĥ³":5800,"åĬ£":5801,"ä¸įçŁ¥":5802,"çĪ½":5803,"Ã¡":5804,"æĺ¯åĽłä¸º":5805,"å¸ĪçĶŁ":5806,"æĭħå¿ĥ":5807,"è½¬è½½":5808,"çĥĤ":5809,"è®¾å®ļ":5810,"å¼ķåħ¥":5811,"ç¬¬åħ«":5812,"ä¸Ģä»½":5813,"çĶŁæĪĲ":5814,"æĵħéķ¿":5815,"å®´":5816,"ä»ĭç»įäºĨ":5817,"åĬŀäºĭå¤Ħ":5818,"åĨ¬åŃ£":5819,"æłĸ":5820,"å¥³åŃ©":5821,"éģ£":5822,"å¯¹åħ¶":5823,"ç®¡çĲĨçļĦ":5824,"å½ĵäºĭ":5825,"âĨ":5826,"çĪ±å¥½":5827,"çĸ²":5828,"äº§åĵģè´¨éĩı":5829,"è¿Ľå±ķ":5830,"çĥŃæĥħ":5831,"æĴŃåĩº":5832,"åħ¨æĸ°":5833,"éĩįåºĨå¸Ĥ":5834,"éĶĢéĩı":5835,"æĽ¿ä»£":5836,"æ¯ĶèµĽä¸Ń":5837,"æĥĳ":5838,"æĿ¥æºĲäºİ":5839,"åģ¥èº«":5840,"çľĭçľĭ":5841,"æ¯ħ":5842,"æĻºèĥ½åĮĸ":5843,"ç²¾å¯Ĩ":5844,"ä½ĵåĪ¶":5845,"æ´»åĬ¨çļĦ":5846,"è¾¾æĪĲ":5847,"åģ·":5848,"å¸Ĥéķĩ":5849,"æ¤ħ":5850,"åĥ§":5851,"æĶ¹ç¼ĸ":5852,"ï¼ı":5853,"æĹ¥åŃĲ":5854,"éĳ":5855,"åĨįçĶŁ":5856,"çİ°åľ¨çļĦ":5857,"è¿Ŀåıį":5858,"éĢ¸":5859,"åıĺå½¢":5860,"æ°´åºĵ":5861,"ä¸Ģä½ĵåĮĸ":5862,"çĶŁäº§çº¿":5863,"æ°Ł":5864,"æ¸¸åĩ»":5865,"åĪĿä¸Ń":5866,"åĩ»è´¥":5867,"æĦıå¤ĸ":5868,"åİŁæĿ¥":5869,"äººç¾¤":5870,"åįĵè¶Ĭ":5871,"èĽĭçĻ½è´¨":5872,"æľºçĶµ":5873,"èįĨ":5874,"åħħåĪĨåıĳæĮ¥":5875,"å¯¹åºĶ":5876,"æĹ¥çļĦ":5877,"çªĳ":5878,"èģĮèĥ½":5879,"å·¢":5880,"å§ĭå»ºäºİ":5881,"åĪĨæķ°":5882,"æĪĳæł¡":5883,"ä¸ºåĩĨ":5884,"åħ¬äº¤":5885,"æºĲäºİ":5886,"å¦»åŃĲ":5887,"éĢīä¸¾":5888,"éĿŀæ´²":5889,"çĶ³è¯·äºº":5890,"èĬ¦":5891,"æł¡åĮº":5892,"æĿĥå¨ģ":5893,"éĢ¾":5894,"æ¯ıä¸ªäºº":5895,"The":5896,"åĲİæľŁ":5897,"éĶĤ":5898,"æıĲä¾ĽçļĦ":5899,"éĹ¸":5900,"åľĨå½¢":5901,"é¦ĸå¸Ń":5902,"åģļæ³ķ":5903,"ä¸¢":5904,"å¾Īæľī":5905,"éĳ«":5906,"æ°ĳä¼Ĺ":5907,"ç§ĳæĬĢè¿ĽæŃ¥":5908,"æľĢä¸º":5909,"âĶ":5910,"åıĳå°Ħ":5911,"çĩĥçĥ§":5912,"com":5913,"åĲĮæĹ¶ä¹Ł":5914,"èĩĤ":5915,"æĬĢæľ¯äººåĳĺ":5916,"æľºéģĩ":5917,"çľĭè§ģ":5918,"è´¢å¯Į":5919,"æķĻçłĶ":5920,"æľŁéĻĲ":5921,"åłµ":5922,"é©°":5923,"ik":5924,"ç»ĻäºĨ":5925,"çļĦå®īåħ¨":5926,"å¹¿å·ŀå¸Ĥ":5927,"èĢĮä¸įæĺ¯":5928,"æ³ª":5929,"çĲĥè¿·":5930,"ç®ĢåįķçļĦ":5931,"æĥħå½¢":5932,"é¾Ļå¤´":5933,"åį¸":5934,"çĹķ":5935,"å¸Ĥçº§":5936,"åħ¶æ¬¡":5937,"è¦ģæ³¨æĦı":5938,"åĮĹæĸ¹":5939,"æľĪåıĤåĬłå·¥ä½ľ":5940,"è¿ŀéĶģ":5941,"æ±¡æ°´å¤ĦçĲĨ":5942,"è¯ģæį®":5943,"æĺİçĻ½":5944,"ç®¡çĲĨä½ĵç³»":5945,"æ¡Ĩæŀ¶":5946,"ä¸´æĹ¶":5947,"åľºçļĦ":5948,"Äģ":5949,"åĩºçİ°åľ¨":5950,"çº·çº·":5951,"å¤ļæķ°":5952,"çī©èģĶç½ĳ":5953,"ä¸ĭåĪĹ":5954,"æĮ¯åħ´":5955,"è®©ä½ł":5956,"åĦĴ":5957,"å´Ķ":5958,"æĿĲæĸĻçļĦ":5959,"æľºè½¦":5960,"ç§ĺå¯Ĩ":5961,"up":5962,"çļĦä¸Ģéĥ¨åĪĨ":5963,"åĵĪå°Ķæ»¨":5964,"è¿Ļéĥ¨":5965,"éª¤":5966,"ä»ĭè´¨":5967,"åº¦åģĩ":5968,"å¤ıåŃ£":5969,"ä¾¿æį·":5970,"åįļè§Ī":5971,"å¤ķ":5972,"äº«æľī":5973,"å¼¦":5974,"äººåĴĮ":5975,"é«ĺèĢĥ":5976,"åĸľçĪ±":5977,"æ¸ħåįİ":5978,"è§Ĥå¿µ":5979,"è¾ĸåĮº":5980,"ç¾İé£Ł":5981,"çŁĽ":5982,"ĠåĴĮ":5983,"ç¯®çĲĥ":5984,"èµĦåĬ©":5985,"å¥ĭæĸĹ":5986,"å¥ł":5987,"å¿Į":5988,"å®¡æī¹":5989,"éļ§":5990,"Ð°":5991,"åıĳè¾¾":5992,"éĢļé£İ":5993,"èĭį":5994,"æķĻç¨ĭ":5995,"æĪĳä»¬å°Ĩ":5996,"éģµå®Ī":5997,"éħµ":5998,"åī¯ä¸»å¸Ń":5999,"å··":6000,"å¹³éĿ¢":6001,"ä¿Ŀåħ»":6002,"ä¸Ĭæĺł":6003,"åŁĶ":6004,"éª¨å¹²":6005,"åı¦ä¸Ģæĸ¹éĿ¢":6006,"æĺ¯å¯¹":6007,"ä¼ĳæģ¯":6008,"åĽ½å®¶çļĦ":6009,"å°±æľī":6010,"çĹħä¾ĭ":6011,"æ³°åĽ½":6012,"æĢĿè·¯":6013,"æļĳ":6014,"æķ°æİ§":6015,"ä¿¡ä»»":6016,"éĺŁåĳĺ":6017,"å¤ĦçļĦ":6018,"å¡ŀå°Ķ":6019,"åħļå§Ķä¹¦è®°":6020,"æ¸©æļĸ":6021,"åıįå¤į":6022,"åºŁæ°´":6023,"æľįåĬ¡åĻ¨":6024,"æ¶¦æ»ĳ":6025,"éĴ¢ç®¡":6026,"æ±ª":6027,"ç½ĳé¡µ":6028,"èĿ¶":6029,"åĵªéĩĮ":6030,"è¯´çļĦ":6031,"éĨī":6032,"èŀįåħ¥":6033,"åľ¨ç¾İåĽ½":6034,"PE":6035,"å»ºæĿĲ":6036,"èĦĨ":6037,"åĲĪä½ľä¼Ļä¼´":6038,"åĪĨæ³Į":6039,"æĽĿ":6040,"çļĦè§Ħå®ļ":6041,"è¿ĶåĽŀ":6042,"éĢĶå¾Ħ":6043,"å§Ĩæĸ¯":6044,"å¤ªéĺ³èĥ½":6045,"åľ¨åħ¨åĽ½":6046,"ä¸ŃåĮ»èį¯":6047,"çī©æĸĻ":6048,"æĽ´å¥½åľ°":6049,"est":6050,"åįĴ":6051,"äºīè®®":6052,"å¹´ä»»":6053,"çĥŃæ°´":6054,"ç¿ħ":6055,"ç»³":6056,"è½¬è®©":6057,"è¯Ńæĸĩ":6058,"èµĲ":6059,"æ¯ķä¸ļåĲİ":6060,"æŁ¥çľĭ":6061,"æħ¢æħ¢":6062,"åģļçļĦ":6063,"æ¼ł":6064,"åĽ½åľŁ":6065,"æĻ¯çĤ¹":6066,"çĬ¬":6067,"æľ¬ç½ĳç«Ļ":6068,"æ´»åĬĽ":6069,"åıĳèĤ²":6070,"æīĭåĨĮ":6071,"æĹĭè½¬":6072,"æĺ¯éĿŀå¸¸":6073,"éķ¿åº¦":6074,"ç§ĳåŃ¦å®¶":6075,"æ¡¥æ¢ģ":6076,"è½¦åŀĭ":6077,"èĬĤçº¦":6078,"åľºåľ°":6079,"èıĩ":6080,"ä½¿åħ¶":6081,"ç¾İå®¹":6082,"å«Į":6083,"èĵ¬":6084,"åĮĸå¦Ĩ":6085,"å¸ĤæĶ¿":6086,"åĲ¾":6087,"åĲĦå¤§":6088,"æĲħ":6089,"æ£ļ":6090,"çĻ¾å¹´":6091,"å®¢æĪ·çļĦ":6092,"ä¸įéľĢè¦ģ":6093,"çĪĨåıĳ":6094,"çļĦåŃ¦çĶŁ":6095,"éĺŁéķ¿":6096,"æ¶ĪéĻ¤":6097,"ç½ķ":6098,"åħĥå¹´":6099,"äººäºĭ":6100,"çĶµç£ģ":6101,"è¿ľç¨ĭ":6102,"è¶ħè¶Ĭ":6103,"ç»ĨèıĮ":6104,"ç§»æ°ĳ":6105,"io":6106,"åīįè¿Ľ":6107,"æ°´éĩı":6108,"éĶħçĤī":6109,"åĪĨä¼ļ":6110,"åĲĦä½į":6111,"åĨ¶éĩĳ":6112,"åİŁåĲį":6113,"çļĦåºĶçĶ¨":6114,"åŃ©åŃĲçļĦ":6115,"ä¼łå¥ĩ":6116,"çļĦè´¨éĩı":6117,"è¾¹ç¼ĺ":6118,"è¦ģç´ł":6119,"æħ¢æĢ§":6120,"çĸ¾çĹħçļĦ":6121,"ist":6122,"ä¿±":6123,"):":6124,"éĩĩéĽĨ":6125,"èĤ¢":6126,"å½¦":6127,"æĻ®åıĬ":6128,"æŃ¦åĻ¨":6129,"ä»ªè¡¨":6130,"åİĮ":6131,"åŃĲåħ¬åı¸":6132,"åı¯ä»¥è¯´":6133,"åį¿":6134,"æĶĢ":6135,"æ·±åıĹ":6136,",ãĢĬ":6137,"åİĨåı²ä¸Ĭ":6138,"èĮ¶åı¶":6139,"æ¶Īæ¯Ĵ":6140,"æĸĩåĮĸçļĦ":6141,"åĿİ":6142,"æľĢå¤ļ":6143,"çĻ½çĻľé£İæĤ£èĢħ":6144,"AM":6145,"ä¸Ĭå¸Ĥåħ¬åı¸":6146,"æ¶ĪèĢĹ":6147,"åĽŀå½Ĵ":6148,"çĩĥæĸĻ":6149,"ate":6150,"åıĳèµ·":6151,"ç´§å¼ł":6152,"åħ³éĹŃ":6153,"å¤Ħéķ¿":6154,"ç®Ĺæ³ķ":6155,"ä¹Ļçĥ¯":6156,"èģļçĦ¦":6157,"å¥½è¯Ħ":6158,"ä¹Łæ²¡æľī":6159,"è¿Ľå£«":6160,"æĸ°åħ´":6161,"è®¤çŁ¥":6162,"å§ĳ":6163,"æĺĨæĺİ":6164,"ä»£è°¢":6165,"ä¸įä½Ĩ":6166,"èĲ½åľ°":6167,"é«ĺè´¨éĩıåıĳå±ķ":6168,"åı¯è¾¾":6169,"äºĴçĽ¸":6170,"ç»ĺçĶ»":6171,"åħ¬ä¸»":6172,"å¥ĸé¡¹":6173,"å¾®çĶŁçī©":6174,"éĩįçļĦ":6175,"æĸ¯ç§ĳ":6176,"å¹²åĩĢ":6177,"sh":6178,"æĹłéĻĲ":6179,"ä¸īæĺŁ":6180,"åĽĽå¤§":6181,"å½»åºķ":6182,"åīįèº«":6183,"åİŁåĪĽ":6184,"åĽ½å®¶åĴĮ":6185,"æıĲé«ĺäºĨ":6186,"å¾·éĩĮ":6187,"æĮĸæİĺ":6188,"å¸¦æľī":6189,"ä¾Ŀèµĸ":6190,"æĶ¶èİ·":6191,"æŀ£":6192,"çļĦåħ³éĶ®":6193,"ä¹Łå°Ĩ":6194,"åĳ³éģĵ":6195,"ç©´":6196,"ãĢģâĢľ":6197,"åĪĨåĪ«ä¸º":6198,"éļ¾åº¦":6199,"æľīåĪ©äºİ":6200,"ä»¥ä¾¿":6201,"åħ¼ä»»":6202,"å§Ķåĳĺä¼ļå§Ķåĳĺ":6203,"é¥®æĸĻ":6204,"èĴĭ":6205,"æĪĺå½¹":6206,"ç§°ä¹ĭä¸º":6207,"èı©":6208,"åĪĨåħ¬åı¸":6209,"åħ¬å¯ĵ":6210,"éĢ¢":6211,"ç±»çļĦ":6212,"å¯¹è¯Ŀ":6213,"æº¢":6214,"åİ»ä¸ĸ":6215,"åįıä½ľ":6216,"åħīä¼ı":6217,"æĪĺå£«":6218,"ç¢Ĺ":6219,"çº³åħ¥":6220,"èıĬ":6221,"æ°ĳèĲ¥":6222,"CE":6223,"æĽ´é«ĺ":6224,"è´ŀ":6225,"çŃ¾çº¦":6226,"è¿Ļä½į":6227,"æľºåºĬ":6228,"æ¶²åİĭ":6229,"ä¸Ģçº¿":6230,"åĽŀçŃĶ":6231,"ç§īæī¿":6232,"åħ¨å¹´":6233,"ä¹Łå°±":6234,"çļĦè¿ĩç¨ĭ":6235,"å¾Ĺä»¥":6236,"å«©":6237,"åİ¿çº§":6238,"è±«":6239,"åı¹":6240,"å®¶åºĦ":6241,"ä¸ĭåİ»":6242,"åĩ½æķ°":6243,"ä»ĸæĺ¯":6244,"çļĦçī¹çĤ¹":6245,"å®ŀåľ¨":6246,"æĸ°å»º":6247,"ev":6248,"èŁ¹":6249,"ud":6250,"ĠX":6251,"ç³Ĭ":6252,"ä¸¥éĩįçļĦ":6253,"ä¾ĽåºĶéĵ¾":6254,"ç¨³å®ļæĢ§":6255,"è¾ĥé«ĺçļĦ":6256,"ä¾¿æĺ¯":6257,"AN":6258,"çļĦåħ³ç³»":6259,"éļĶç¦»":6260,"çĲ¼":6261,"qu":6262,"æİ¥ä¸ĭæĿ¥":6263,"æľīåĬ©äºİ":6264,"ï¼ļãĢĬ":6265,"è¯¥åħ¬åı¸":6266,"one":6267,"å¤§æ¡¥":6268,"åĢºåĬ¡":6269,"çīº":6270,"è¯´æ³ķ":6271,"å¯¼ä½ĵ":6272,"æĪ·å¤ĸ":6273,"æķĻå®¤":6274,"ç¼ĸåı·":6275,"éĵĥ":6276,"è¿Ļæ¬¾":6277,"ä»İä¸ļ":6278,"éĤ®æĶ¿":6279,"æŁĲç§į":6280,"æĢ»å±Ģ":6281,"ä¸įäºĨ":6282,"çļĦæķĪæŀľ":6283,"çļĦä»·æł¼":6284,"æİ¥æĶ¶":6285,"åħ¬æĸ¤":6286,"å®¹åĻ¨":6287,"çİ°å·²":6288,"åı¯åľ¨":6289,"UR":6290,"æ´»è·ĥ":6291,"ä¹ĭå¤Ħ":6292,"CC":6293,"åľ¨æł¡":6294,"ç¾İå¥½":6295,"ä¹Łå¾Ī":6296,"äºĮæ¬¡":6297,"çĶŁæĢģçİ¯å¢ĥ":6298,"çº³ç¨İ":6299,"ph":6300,"æ¬ł":6301,"çĲĨçĶ±":6302,"å¹¶å°Ĩ":6303,"è½©":6304,"å½¼æŃ¤":6305,"åįĥä¸ĩ":6306,"å½±åĥı":6307,"å¨ģèĥģ":6308,"ä¸įå¤Ł":6309,"è¯¸å¤ļ":6310,"åħ¬æ°ĳ":6311,"ä½Ļç¯ĩ":6312,"çļĦä½ľåĵģ":6313,"æĪ¿éĹ´":6314,"Hz":6315,"éĴł":6316,"æīĵåĩ»":6317,"æľĿé²ľ":6318,"åŁºéĩĳä¼ļ":6319,"çŀ¬":6320,"åŃ£èĬĤ":6321,"èķ´":6322,"åŃ©åŃĲä»¬":6323,"ç¬¬äºĮæ¬¡":6324,"è¤Ĳ":6325,"å¤§äºİ":6326,"è´«åĽ°":6327,"è¾½å®ģçľģ":6328,"åħ¨æĸ¹ä½į":6329,"åıĳéĢģ":6330,"ãĢĤ(":6331,"ĠãĢģ":6332,"çķĮçļĦ":6333,"ä¸ªä½ĵ":6334,"ç»ĥä¹ł":6335,"åĲĮåŃ¦ä»¬":6336,"å¹³å®ī":6337,"æ¯ķç«Ł":6338,"è§£æĶ¾åĨĽ":6339,"é¦ĸæī¹":6340,"èĭ±æł¼åħ°":6341,"çīºçī²":6342,"çŁŃæľŁ":6343,"è¡¥è´´":6344,"çĶ¨æ°´":6345,"èģĶåĲĪä¼ļ":6346,"æĪĲäºº":6347,"æĸ¹çļĦ":6348,"æł¼å±Ģ":6349,"è£Ķ":6350,"ç¾İæ´²":6351,"ct":6352,"å¦ĤæŀľæĤ¨":6353,"äºĭå®ŀä¸Ĭ":6354,"æŀ¶æŀĦ":6355,"çĻ¾åº¦åľ°åĽ¾":6356,"çº¿ä¸ĭ":6357,"éªĮè¯ģ":6358,"åįļå£«åŃ¦ä½į":6359,"St":6360,"ç¦½":6361,"é»Ħèī²":6362,"æĸ°é²ľ":6363,"æĺ¯æľĢ":6364,"æĪªæŃ¢":6365,"çĶŁå¯¼å¸Ī":6366,"æ¡Ĳ":6367,"æ±°":6368,"å¢ŀåĬłäºĨ":6369,"é³ŀ":6370,"çİ²":6371,"æĶ¿åºľä¿¡æģ¯":6372,"ç¡ķå£«åŃ¦ä½į":6373,"çĽĳå¯Ł":6374,"éĺ²èħĲ":6375,"é©¬æĿ¥è¥¿äºļ":6376,"æħ°":6377,"èĦ¾":6378,"åĪ©çİĩ":6379,"æĹłéĶ¡":6380,"èĬĴ":6381,"éļĻ":6382,"æī®æ¼Ķ":6383,"å°Ĭéĩį":6384,"SK":6385,"åĩºç§Ł":6386,"éĺ²çģ«":6387,"ç»ĦæĪĲçļĦ":6388,"åŃ¦çļĦ":6389,"éŁ§":6390,"æīĵçł´":6391,"é¡·":6392,"åĪĩåī²":6393,"çķĻä¸ĭ":6394,"æľªèĥ½":6395,"æīĳ":6396,"æľįåĬ¡ä¸Ńå¿ĥ":6397,"çģ«ç®Ń":6398,"æĹ¥çĽĬ":6399,"æĢ»é¢Ŀ":6400,"æĲı":6401,"æ¿ĢåĬ±":6402,"éŃħåĬĽ":6403,"éªĮæĶ¶":6404,"çŃīäºº":6405,"ä¸ºæŃ¢":6406,"éĤª":6407,"æī©æķ£":6408,"æĭĽåķĨ":6409,"æĬĹæĹ¥":6410,"èĮĦ":6411,"å»ºè®¾çļĦ":6412,"åīįæĻ¯":6413,"æľĪçļĦ":6414,"éĺ¿éĩĮ":6415,"éĢĤå®ľ":6416,"AA":6417,"åįģä¹Ŀ":6418,"åĽ½å®¶éĺŁ":6419,"ç»Ħç»ĩçļĦ":6420,"éļ§éģĵ":6421,"åĴĮæĬĢæľ¯":6422,"å¤©æ´¥å¸Ĥ":6423,"ä¾ĿéĿł":6424,"SE":6425,"å®ŀä¹ł":6426,"ä¸Ńéĥ¨":6427,"ç´§å¯Ĩ":6428,"çļĦå½¢å¼ı":6429,"æĸ°çĶŁ":6430,"âĢ¢":6431,"è¯ĦéĢī":6432,"ä»»æķĻ":6433,"æ²ª":6434,"æ±ŁåįĹ":6435,"æ¶Īå¤±":6436,"å°¸":6437,"æĬĢæľ¯åĴĮ":6438,"äº²åŃĲ":6439,"éħ¬":6440,"çī©èµĦ":6441,"çĳŀå£«":6442,"åĸ»":6443,"çļĦè¿ĩç¨ĭä¸Ń":6444,"éĶ»çĤ¼":6445,"çī©ç§į":6446,"æĺ¯ä¸ĢåĲį":6447,"åĪ¶èį¯":6448,"æĽ´åĲįä¸º":6449,"åįİä¸º":6450,"è¢ĸ":6451,"ç«Ń":6452,"æ¯ıæĹ¥":6453,"cm":6454,"çļĩå®¶":6455,"é¦ĸéĥ½":6456,"æįŁåĿı":6457,"çľŁæŃ£çļĦ":6458,"åħ¬ç¤º":6459,"ç¥ŀç§ĺ":6460,"åıĸä»£":6461,"è¶ħå£°":6462,"ä½İæ¸©":6463,"çĽ®å½ķ":6464,"ä¸ºæŃ¤":6465,"ĠçĶ·":6466,"æµģéĢļ":6467,"æľīçĤ¹":6468,"åŃĲå¥³":6469,"çŃīå¾ħ":6470,"çļĦç²¾ç¥ŀ":6471,"ä¸ºä¸ŃåĽ½":6472,"çľĭèµ·æĿ¥":6473,"éĶ¦æłĩ":6474,"çļĦçĽ¸åħ³":6475,"éĽĩ":6476,"äºİä¸Ģä½ĵçļĦ":6477,"äº§ä¸ļåıĳå±ķ":6478,"ä¸ĩç¾İåħĥ":6479,"ç²¾å¿ĥ":6480,"çªĿ":6481,"ç¼ĵè§£":6482,"åĨįåº¦":6483,"å¸¸å§Ķ":6484,"æįŁä¼¤":6485,"æĿı":6486,"çĤ¹çļĦ":6487,"éĵ¾æİ¥":6488,"ant":6489,"å¹´åıĤåĬł":6490,"æĥ³è±¡":6491,"âĢ²":6492,"æĹłéľĢ":6493,"åĮĹäº¬æĹ¶éĹ´":6494,"ç§ĳæĬĢåĪĽæĸ°":6495,"èĬĤçľģ":6496,"é£ĺ":6497,"âĸ":6498,"è®¢åįķ":6499,"ç¨İæĶ¶":6500,"çĥŃå¸¦":6501,"ç«£":6502,"çļĦæľºä¼ļ":6503,"åıĺæĽ´":6504,"çļĦä¸ŃåĽ½":6505,"âĶĢ":6506,"è¿ĩäºİ":6507,"èµ·äºĨ":6508,"ç¬¼":6509,"é¦ĸå±Ĭ":6510,"app":6511,"åĩ¸":6512,"Ġæĺ¯":6513,"æ¨¡èĮĥ":6514,"çĶ¸":6515,"ç¬¬ä¹Ŀ":6516,"åµĮ":6517,"åįģä¸ĥ":6518,"æ³ķåħ°":6519,"ç¦Ħ":6520,"åħ±è®¡":6521,"åĳ½åĲį":6522,"å¸Ĩ":6523,"æīĭç»Ń":6524,"åĮł":6525,"å¹´çĶŁ":6526,"å®¶éĩĮ":6527,"åĪĿæŃ¥":6528,"éĿ¢ä¸Ĭ":6529,"ä½ľæĽ²":6530,"è±¡å¾ģ":6531,"åı¸ä»¤":6532,"æĿ¿åĿĹ":6533,"æłĳç«ĭ":6534,"å±±æ°´":6535,"å¥´":6536,"å¤§æ¥¼":6537,"è¤":6538,"æīģ":6539,"çĵ£":6540,"åįİäºº":6541,"çĶ»å®¶":6542,"ç¼¸":6543,"åŀĴ":6544,"çĶµä¿¡":6545,"æľ¬åħ¬åı¸":6546,"ä¸ĢåĲĮ":6547,"é¾Ł":6548,"åħ¬å¹³":6549,"èŃ¦å¯Ł":6550,"å¥īçĮ®":6551,"æĿ¡ä»¶ä¸ĭ":6552,"åĲĪçº¦":6553,"ç»Łæ²»":6554,"æ¸¯åı£":6555,"èĨ¨":6556,"çŃīå¤ļ":6557,"çİ°éĩĳ":6558,"çº±":6559,"éĢ¼":6560,"ä¸įåıĹ":6561,"ä¸Ńå°ıä¼ģä¸ļ":6562,"éĽ¶ä»¶":6563,"æľ¬åľŁ":6564,"æķĻåłĤ":6565,"ç¬¬ä¸īæĸ¹":6566,"æĹ¬":6567,"æ¨±":6568,"å°ļæľª":6569,"æ¿Ģåıĳ":6570,"å¾Īå°ĳ":6571,"èĤºçĤİ":6572,"åĤ¬åĮĸ":6573,"ç¿ģ":6574,"ä½ĵç§¯":6575,"æıĲåıĸ":6576,"åįĬåľº":6577,"å¿«éĢŁå¢ŀéķ¿":6578,"Ð¾":6579,"æŀĦéĢł":6580,"è¶³çĲĥä¿±ä¹Ĳéĥ¨":6581,"å¹´åĲİ":6582,"å°¼æĸ¯":6583,"ä¸İåħ¶ä»ĸ":6584,"Ã¬":6585,"æĺ¾å¾Ĺ":6586,"éĽĨåĽ¢åħ¬åı¸":6587,"éķ¿æĺ¥":6588,"çŃīé¢ĨåŁŁ":6589,"å¤©çĦ¶æ°Ķ":6590,"åĿĩä¸º":6591,"æ²³æµģ":6592,"çĽ´å¾Ħ":6593,"åĬĽåĴĮ":6594,"è¡¥åģ¿":6595,"æ¿ĢçĥĪ":6596,"æ¸ĹéĢı":6597,"ä¸įä¸Ģæł·":6598,"BS":6599,"ä¸ºäºº":6600,"åĪ¶æĪĲ":6601,"æ¬£èµı":6602,"åĪ¶çļĦ":6603,"éľī":6604,"åģ¥åħ¨":6605,"çķĻåŃ¦":6606,"æ¬§åħĥ":6607,"çĶ¨ä½ľ":6608,"å¼ºå¤§":6609,"Al":6610,"çŁĽçĽ¾":6611,"èĢģæĿ¿":6612,"æķ°çłģ":6613,"å¼Ģå·¥":6614,"åºŁæ°Ķ":6615,"èĪ¶":6616,"ä¼ĺå¼Ĥ":6617,"è¾Ł":6618,"ib":6619,"éĻ¢å£«":6620,"çĶ¨åľ°":6621,"ä¸Ĭä¸Ģ":6622,"éĽĢ":6623,"å¸¦æĿ¥äºĨ":6624,"çĶ·äºº":6625,"å°ĳå¥³":6626,"ack":6627,"å¦Ĥæľī":6628,"æ¬§åĨł":6629,"çŃīçļĦ":6630,"ç»ıè´¹":6631,"æĮģæľī":6632,"è¿Ļç±»":6633,"å®īåħ¨æĢ§":6634,"ç¾İè§Ĥ":6635,"ç±³çļĦ":6636,"ä¸Ģæĸ¹éĿ¢":6637,"ä¸ĵæ³¨äºİ":6638,"çº§çļĦ":6639,"åĲİç»Ń":6640,"çľĭæĿ¥":6641,"åıĽ":6642,"æ¯Ĺ":6643,"åĤ¨åŃĺ":6644,"ãĦ§ãĦ":6645,"ç»ĦæĪĲåĳĺ":6646,"ç»Ħéķ¿":6647,"çļĦéĢļçŁ¥":6648,"çº¦ä¸º":6649,"åĽ½éĺ²":6650,"MS":6651,"èĪĮ":6652,"å¤ĩæ¡Ī":6653,"çĿ¡çľł":6654,"è¡Ģåİĭ":6655,"ä¸İæŃ¤":6656,",âĢľ":6657,"æŃ¤åĲİ":6658,"åį°åıĳ":6659,"æĸ¹éĴĪ":6660,"æľ¬èµĽåŃ£":6661,"çĶŁèĤ²":6662,"ä¸Ģé¡¹":6663,"è¿ĽèĢĮ":6664,"æ¤İ":6665,"ç«ĭæĸ¹":6666,"åĪĳäºĭ":6667,"ä»ĩ":6668,"é¹ħ":6669,":[":6670,"æĹŃ":6671,"å¿«æį·":6672,"å±Ģéĥ¨":6673,"æ¸¸æ³³":6674,"çŃĶæ¡Ī":6675,"æ¸©é¦¨":6676,"çİ°çĬ¶":6677,"åĩºåĶ®":6678,"æĬ¥èŃ¦":6679,"éķľå¤´":6680,"æ³ķå®ļ":6681,"ç¦ıåĪ©":6682,"æľīå¤ļ":6683,"åħĭåħ°":6684,"æľĢåħ·":6685,"æĪĳåħ¬åı¸":6686,"å¤ĸéĥ¨":6687,"æĶ¾åħ¥":6688,"çĶŁçĲĨ":6689,"åĪĬçī©":6690,"å¼¹æĢ§":6691,"æľŁè´§":6692,"å¿ĥèĦı":6693,"çļĦéĢīæĭ©":6694,"ä¸ŃçŃī":6695,"èĬĤå¥ı":6696,"ä¸īç§į":6697,"æĸ°åįİ":6698,"éĺĲ":6699,"å¼ķèµ·çļĦ":6700,"Ëĩ":6701,"è¸¢":6702,"èº«ä½ĵåģ¥åº·":6703,"çº¬":6704,"åľ¨å¤§":6705,"Ġå¤§":6706,"èģĶåĲĪåĽ½":6707,"çŃīå¤ļç§į":6708,"ç«ĭè¶³":6709,"æķıæĦŁ":6710,"äººæīįåŁ¹åħ»":6711,"åī¯éĻ¢éķ¿":6712,"åŁºç¡Ģä¸Ĭ":6713,"å¯¼åĲĳ":6714,"é²į":6715,"å°±è¯»":6716,"åĪĨè§£":6717,"çļ®èĤ¤çĹħ":6718,"äºĭåĬ¡æīĢ":6719,"ãĢĭãĢģ":6720,"NBA":6721,"çĸ¯":6722,"çļĦçĽ®æłĩ":6723,"ä¸¤ä½į":6724,"åĨħåŃĺ":6725,"æłĩçŃ¾":6726,"æµ·å²¸":6727,"æĹ¥ä¸ĬåįĪ":6728,"åī¯ä¼ļéķ¿":6729,"ç§ĳéķ¿":6730,"åĿĲèĲ½äºİ":6731,"åĪłéĻ¤":6732,"èµ·éĩį":6733,"ä¾Ŀçħ§":6734,"çļĦçĽ®çļĦ":6735,"åĽºä½ĵ":6736,"å¾Īé«ĺ":6737,"éĴ¦":6738,"åĪĹåħ¥":6739,"æ·ĺæ±°":6740,"åĽ½äº§":6741,"åı¤åħ¸":6742,"å¥¥æĸ¯":6743,"å½ĵå¤©":6744,"æĸĭ":6745,"æł¼å¼ı":6746,"æīĢåľ¨åľ°":6747,"ä»¥å¤ĸ":6748,"åıĳåĶ®":6749,"è¥Ħ":6750,"æľĢéĩįè¦ģ":6751,"è°Ń":6752,"å½ĵäºĭäºº":6753,"ä»ħæľī":6754,"éļ¾é¢ĺ":6755,"æĹ±":6756,"å§ĵåĲį":6757,"ht":6758,"åĽŀå®¶":6759,"ç±»åŀĭçļĦ":6760,"å¿«éĢĴ":6761,"ä»¥æŃ¤":6762,"æĿĳäºº":6763,"æĲŃå»º":6764,"æŃ¥éª¤":6765,"ä»ķ":6766,"äºĶä¸ª":6767,"èģĮä¸ļæķĻèĤ²":6768,"æĬ¥å¯¼":6769,"æĹłçĸĳ":6770,"å¥¹ä»¬":6771,"æıĲåĪ°":6772,"ä¸Ńè¥¿":6773,"æĢ¡":6774,"äº¤æĺĵæīĢ":6775,"æľīåºı":6776,"ON":6777,"åľ¨ä¸Ģ":6778,"åĨ²çªģ":6779,"éĤ£æł·":6780,"æĪĲåŀĭ":6781,"èµ£":6782,"å®¶åįıä¼ļä¼ļåĳĺ":6783,"ä½ĵä¼ļ":6784,"ç§©":6785,"æĹ¥ä¸ĭåįĪ":6786,"èĮİ":6787,"åĪ«çļĦ":6788,"çħ§é¡¾":6789,"éĩįå»º":6790,"åĪĽå§ĭäºº":6791,"è½¦çļĦ":6792,"æĢ¨":6793,"æĪĳæĥ³":6794,"æ¸©æ³ī":6795,"åİī":6796,"å½ĵéĢī":6797,"éĦĤ":6798,"ä¸įå¦Ĥ":6799,"ç»ŁçŃ¹":6800,"èĪ¹èĪ¶":6801,"åıįé¦Ī":6802,"æľīåħ³éĥ¨éĹ¨":6803,"æĹ¶ä»£çļĦ":6804,"åĩºè¡Į":6805,"æİĴæ°´":6806,"å´İ":6807,"å°½å¿«":6808,"èµĶåģ¿":6809,"çĩĥæ°Ķ":6810,"ä¸įæĺĵ":6811,"ä¸»è¦ģæľī":6812,"åįłæ¯Ķ":6813,"éĢłæĪĲçļĦ":6814,"ä»»æĦı":6815,"çº¢åĨĽ":6816,"åĬĽåŃ¦":6817,"çļĦä¸ĸçķĮ":6818,"çļĦåİŁåĪĻ":6819,"æĶ¿åĬ¡":6820,"åħ¨æĸ°çļĦ":6821,"å¤§å¥ĸ":6822,"æī¿åıĹ":6823,"èĹ»":6824,"å¹¿æ³ĽåºĶçĶ¨äºİ":6825,"çļĦå¤§åŀĭ":6826,"ä¸įå¤ļ":6827,"åĴ±":6828,"çĸĹæ³ķ":6829,"åĩıè½»":6830,"å¤ıå¤©":6831,"éļĲæĤ£":6832,"æķ£çĥŃ":6833,"å¸Ĥåľºä¸Ĭ":6834,"æĲħæĭĮ":6835,"æīĭè¡¨":6836,"ä»¥åħį":6837,"æ½ľåĬĽ":6838,"è¥¿èĹı":6839,"ç»´å¥ĩ":6840,"çļĦåĬŁèĥ½":6841,"Ġthe":6842,"å¼ºåĪ¶":6843,"æ¸£":6844,"èĥ½åľ¨":6845,"ä¸įåľ¨":6846,"ä¸ºå¤§å®¶":6847,"å¦ĥ":6848,"æİ¥å¾ħ":6849,"æľīå®³":6850,"âĢĭ":6851,"æī«æıı":6852,"ä½ĵæ£Ģ":6853,"èħ»":6854,"çĪ¬":6855,"åĨħå¿ĥ":6856,"åĲĦåĽ½":6857,"å®¢è¿Ĳ":6858,"æĺ¯ä¸Ģæ¬¾":6859,"è´Łæĭħ":6860,"åĪļåĪļ":6861,"æł·åĵģ":6862,"æľīæķĪåľ°":6863,"åįķä¸Ģ":6864,"çĶ¨æĪ·çļĦ":6865,"çļĦä¸ľè¥¿":6866,"æĿ¡æ¬¾":6867,"çļĦåıĺåĮĸ":6868,"éĺ³åİ¿":6869,"åħŃå¹´":6870,"%ãĢģ":6871,"æľĢåĲİä¸Ģ":6872,"ä¿¡æģ¯æĬĢæľ¯":6873,"æĺ¾çĦ¶":6874,"æĪĳä»¬åı¯ä»¥":6875,"è½°":6876,"ä¸¤å¤§":6877,"åİļåº¦":6878,"åħīåŃ¦":6879,"çİ¯å¢ĥä¿ĿæĬ¤":6880,"åĳ½ä»¤":6881,"ä¼ĺç§ĢçļĦ":6882,"ç®¡çĲĨå·¥ä½ľ":6883,"ect":6884,"è¡£æľį":6885,"æħĪåĸĦ":6886,"æĲºæīĭ":6887,"ä¸ºåŁºç¡Ģ":6888,"æ¹Ľ":6889,"ç²¾ç»Ĩ":6890,"åķ¦":6891,"ä¹¦ç±į":6892,"åľ°æĿ¿":6893,"ark":6894,"åĪ¶éĢłåķĨ":6895,"éĻĨç»Ń":6896,"ge":6897,"æĪĲå¹´":6898,"å¤·":6899,"äº§åĢ¼":6900,"æº¯":6901,"æķĻä¼ļ":6902,"åĪĨæķ£":6903,"éħįéŁ³":6904,"ens":6905,"æķĳæı´":6906,"æĢ»çĽĳ":6907,"ç¼ĸåī§":6908,"æĥħèĬĤ":6909,"è¾ĥå¤§çļĦ":6910,"ive":6911,"åıĳå¸ĥçļĦ":6912,"åıĳæĶ¾":6913,"æ¶ħ":6914,"æŁ´æ²¹":6915,"åı£èħĶ":6916,"æľīè¶£":6917,"åįģåŃĹ":6918,"çĻ»å½ķ":6919,"æĸĮ":6920,"çĭŃ":6921,"çĺ¦":6922,"æ²«":6923,"å±ķä¼ļ":6924,"åľ¨èģĮ":6925,"âĨĴ":6926,"çŃīèģĮ":6927,"çıĬ":6928,"AG":6929,"æłĩåĩĨçļĦ":6930,"...":6931,"è´¦æĪ·":6932,"èĴľ":6933,"å¤§æ¦Ĥ":6934,"åĳĬçŁ¥":6935,"ä¼ĺè¶Ĭ":6936,"ä¸Ģåº¦":6937,"ãĦ¨ãĦ":6938,"æĶ¯æı´":6939,"åĵŃ":6940,"åįĬå¯¼ä½ĵ":6941,"éĢıéľ²":6942,"èµ°è¿Ľ":6943,"çĪĨçĤ¸":6944,"è¿Ľåĩºåı£":6945,"åĨħæ¶µ":6946,"å¸Ĳ":6947,"æº¶æ¶²":6948,"ä¾Ľç»Ļ":6949,"å¸ĤçļĦ":6950,"æķ°åįģ":6951,"éģ®":6952,"åįķçĭ¬":6953,"éĿŀæ³ķ":6954,"ç®¡çĲĨåĬŀæ³ķ":6955,"ä½ĵåĨħ":6956,"æľ¬è´¨":6957,"ä¸ºä¸Ńå¿ĥ":6958,"ich":6959,"å¹´ä»¥æĿ¥":6960,"èĸ¯":6961,"æĪĲäº¤":6962,"ç§ĳæĻ®":6963,"åĳ½è¿Ĳ":6964,"æľĪåºķ":6965,"è´§è¿Ĳ":6966,"ä¸Ģåº§":6967,"åĽŀå¿Ĩ":6968,"åĪ¶åĨ·":6969,"èĭ¥å¹²":6970,"ä¼łæŁĵ":6971,"æ²§":6972,"ç¾İä¸½çļĦ":6973,"åľ°ä¸Ĭ":6974,"å´ĸ":6975,"çķĶ":6976,"é¡µéĿ¢":6977,"å®¾é¦Ĩ":6978,"âĢķ":6979,"åħ»çĶŁ":6980,"åĩºåİ»":6981,"æĹłæķ°":6982,"å¢ħ":6983,"ç³»æķ°":6984,"å¯¹æİ¥":6985,"éĺĢéĹ¨":6986,"å·©":6987,"å¸¸çĶ¨":6988,"æ°´ä¸Ń":6989,"à¸":6990,"æľĢéĩįè¦ģçļĦ":6991,"å¼§":6992,"ran":6993,"åİĤæĪ¿":6994,"æľĪåĬłåħ¥ä¸ŃåĽ½åħ±äº§åħļ":6995,"äº¤åıī":6996,"å·¥ä½ľå®¤":6997,"æī¹è¯Ħ":6998,"å®¢è§Ĥ":6999,"å«ģ":7000,"åī¯å±Ģéķ¿":7001,"ong":7002,"è®¸åı¯è¯ģ":7003,"æīĢéķ¿":7004,"çĳ°":7005,"è¿ĩäºĨ":7006,"æ¸ħçĲĨ":7007,"è¿ĩåº¦":7008,"åĮĸåĲĪçī©":7009,"æĽ´å¤§çļĦ":7010,"çļĦæł¸å¿ĥ":7011,"ä»¥å¾Ģ":7012,"ä¸Ńçº§":7013,"å¹²æī°":7014,"çĥ·":7015,"çĮľ":7016,"åĨĴéĻ©":7017,"è®²åº§":7018,"ç»£":7019,"ort":7020,"åľºä¸Ĭ":7021,"è¡¬":7022,"çī¹ç§į":7023,"åĨľäº§åĵģ":7024,"æ²¦ä¸º":7025,"å¦¥":7026,"æĪĳåľ¨":7027,"ĠY":7028,"èº«å¿ĥ":7029,"åŃ¦åĲį":7030,"çĽĪåĪ©":7031,"æĿ°åĩº":7032,"å¿ĹæĦ¿èĢħ":7033,"åĩºåľº":7034,"äº§èĥ½":7035,"å±±åİ¿":7036,"ç®¡è¾ĸ":7037,"æ½ľåľ¨":7038,"åĨħåľ°":7039,"èĸĽ":7040,"å¿ĥéĩĮ":7041,"èĩªåŃ¦":7042,"çģ«çģ¾":7043,"åŃ¦æł¡çļĦ":7044,"TO":7045,"æŃĩ":7046,"å±ĤçļĦ":7047,"æĥ§":7048,"åĻ¨ä»¶":7049,"è¿Ļé¡¹":7050,"ç»ĵæĿŁåĲİ":7051,"ä¸įåĬ¨":7052,"ä¸»è¦ģä»İäºĭ":7053,"ç»ıéĶĢ":7054,"ç¼ºéĻ·":7055,"åŀĤçĽ´":7056,"ä¸įå¾Ĺä¸į":7057,"ä»Ķç»Ĩ":7058,"æĪ¿åŃĲ":7059,"çĸ¹":7060,"é»Ħæ²³":7061,"æ´Ĵ":7062,"åıĳè¡¨è®ºæĸĩ":7063,"åħļå»º":7064,"çªĹåı£":7065,"å¹¶æľª":7066,"åĲĦçķĮ":7067,"å¥¥è¿Ĳä¼ļ":7068,"åħ¬é¡·":7069,"æĪĲæķĪ":7070,"éģŃéģĩ":7071,"ä¸ĸçķĮçļĦ":7072,"ç¨£":7073,"åħ¶åĲİ":7074,"éĤµ":7075,"ä»ĸè¯´":7076,"å¼Ģå¿ĥ":7077,"åĲĮäºĭ":7078,"åľ¨ä¸Ģä¸ª":7079,"æ³ķåŃ¦":7080,"å±¡":7081,"ç¦ģåĮº":7082,"çªĦ":7083,"åħ¬åĬ¡åĳĺ":7084,"ä»£è¡¨å¤§ä¼ļ":7085,"åĪĨè¾¨":7086,"éºŁ":7087,"åĪĹä¸º":7088,"ows":7089,"è£ģåĪ¤":7090,"çºłçº·":7091,"Ð¸":7092,"ç´§æĢ¥":7093,"é³į":7094,"å¥³å£«":7095,"çĶŁåĬ¨":7096,"å½±åĵįåĬĽ":7097,"çķĮéĿ¢":7098,"æµĭå®ļ":7099,"æĺ¯ä¸įæĺ¯":7100,"èĢ¶ç¨£":7101,"ä¸īçº§":7102,"åĸī":7103,"åħ¨ç¨ĭ":7104,"å¤ªå¤ļ":7105,"è®¡éĩı":7106,"å¯¹éĺµ":7107,"å¨ģå°Ķ":7108,"èģļéĽĨ":7109,"åķ¤":7110,"èªīä¸º":7111,"çļĦå¤©":7112,"æĹ¶åħī":7113,"åī¿":7114,"çŃ¾ç½²":7115,"ä½łåı¯ä»¥":7116,"éģµå¾ª":7117,"å¤ĸçº¿":7118,"ry":7119,"çĹħçļĦ":7120,"ä¸İåħ¶":7121,"éĽķå¡ĳ":7122,"æ´½":7123,"åľ¨æĸ°":7124,"ç§ĳå¤§åŃ¦":7125,"é»ĳé¾Ļæ±Łçľģ":7126,"å£¶":7127,"æĤłä¹ħ":7128,"éĢļæĬ¥":7129,"å¤ªç©º":7130,"ç¼´çº³":7131,"åĪĿçº§":7132,"éĺ²å¾¡":7133,"ä¿®è®¢":7134,"ç³ĸå°¿":7135,"ä¸ĢæĶ¯":7136,"éĤĳ":7137,"èĴ¸æ±½":7138,"åĤ²":7139,"éľľ":7140,"å·®è·Ŀ":7141,"ç«ĭä½ĵ":7142,"åī§éĻ¢":7143,"å¤§è§Ħæ¨¡":7144,"åĲ¸éĻĦ":7145,"èµ·çĤ¹":7146,"å¼ĢéĢļ":7147,"å¸Ĥéķ¿":7148,"æľ¨æĿĲ":7149,"éªĳå£«":7150,"åĶ®åĲİæľįåĬ¡":7151,"èģĮä½į":7152,"ä¸ºä¼ģä¸ļ":7153,"çļĦç»ıèĲ¥":7154,"åŁºæľ¬ä¸Ĭ":7155,"åĴĮåıĳå±ķ":7156,"éĺ²çĸ«":7157,"ç¥Ŀç¦ı":7158,"åİ»éĻ¤":7159,"å¾ĹåĪĨ":7160,"å¢ŀåĢ¼":7161,"zh":7162,"å¦ĸ":7163,"ä¹¾éļĨ":7164,"DR":7165,"æ¸Ĭ":7166,"æĪĺèĥľ":7167,"çĮ´":7168,"ä¹ĲåĽ¢":7169,"åľ¨ä½¿çĶ¨":7170,"çľĭçĿĢ":7171,"çĸ¼çĹĽ":7172,"æľ¬å±Ĭ":7173,"å¾®åįļ":7174,"çļĦæĦŁè§ī":7175,"ä¹¦éĿ¢":7176,"åĲŀ":7177,"è¿Ĳè½¬":7178,"åĪĨå¸ĥäºİ":7179,"èħ¾è®¯":7180,"ç±³åħ°":7181,"éĿ¢åīį":7182,"åĬłéĩį":7183,"åħ¬åı¸åľ¨":7184,"çĻ¾ä¸ĩ":7185,"è¢«è®¤ä¸º":7186,"åıĹçĲĨ":7187,"ä¸ļåĨħ":7188,"å»ºçŃĳçī©":7189,"åħ¨åİ¿":7190,"ç«ŀæĬĢ":7191,"å¤ºå¾Ĺ":7192,"ä¹Łä¸įä¼ļ":7193,"ä¾ĽçĶµ":7194,"æ¸´":7195,"ä½¿çĶ¨å¯¿åĳ½":7196,"ç«£å·¥":7197,"çĶ¨äºº":7198,"éĶ¦æłĩèµĽ":7199,"åħļæł¡":7200,"ç¡®è¯Ĭ":7201,"æŃ£ç¡®çļĦ":7202,"ä¼łåĬ¨":7203,"éĵħ":7204,"è§Ĩéĩİ":7205,"ç©¶ç«Ł":7206,"å®ŀçļĦ":7207,"Ġand":7208,"åĨĽåĮº":7209,"æ°´åĪĨ":7210,"ET":7211,"ri":7212,"ç«Ļåľ¨":7213,"çĹĽèĭ¦":7214,"èĤĮèĤī":7215,"åĽ¾æ¡Ī":7216,"åĲİèĢħ":7217,"åıĹæ¬¢è¿İ":7218,"ç»Ŀç¼ĺ":7219,"æĿ¡ä»¶çļĦ":7220,"çİĩåħĪ":7221,"åĢŁåĬ©":7222,"æģ¼":7223,"åİŁåŃĲ":7224,"å°Ķçī¹":7225,"ä¼°è®¡":7226,"è¯ĹæŃĮ":7227,"æ»ŀ":7228,"çļĦè¡Įä¸º":7229,"å°Ķå¾·":7230,"åĶ¤":7231,"ĠæľĪ":7232,"çļĦäººçĶŁ":7233,"çģ¾å®³":7234,"åħ¶ä½Ļ":7235,"çĪ¸çĪ¸":7236,"Ġg":7237,"å¼ºåĬ²":7238,"Ġw":7239,"è¿ĺåĮħæĭ¬":7240,"æĦŁåıĹåĪ°":7241,"æĻ´":7242,"äºĮæ°§åĮĸ":7243,"è¡¥åĬ©":7244,"æĺİæĺ¾çļĦ":7245,"è¿Ļä¸ªéĹ®é¢ĺ":7246,"èģĮä¸ļæĬĢæľ¯":7247,"å®ĺåĳĺ":7248,"å¹³ç¨³":7249,"ç¦ıå·ŀ":7250,"IM":7251,"å¯»æ±Ĥ":7252,"ç§¯åĪĨ":7253,"å®Įæķ´çļĦ":7254,"äºīåıĸ":7255,"ç§ĳæĬĢå¤§åŃ¦":7256,"æł½åŁ¹":7257,"è¿Ľä¿®":7258,"å·¾":7259,"æĪĲåĬŁçļĦ":7260,"è¯ķç®¡":7261,"æ³ķå¾ĭæ³ķè§Ħ":7262,"è¯ĬçĸĹ":7263,"å¤ļåĲį":7264,"æīįä¼ļ":7265,"æĢ»æĬķèµĦ":7266,"ee":7267,"å¯Įæľī":7268,"åĴĮç®¡çĲĨ":7269,"ä»ħä»ħ":7270,"å¸¦ç»Ļ":7271,"ä¹Ĵ":7272,"éĵģéģĵ":7273,"éĻĨåĨĽ":7274,"æ°´è´¨":7275,"çĥ¹":7276,"éĻĦä»¶":7277,"åıĬåħ¶ä»ĸ":7278,"åıĳè¨Ģ":7279,"åĽ½éģĵ":7280,"åŃĺåľ¨çļĦ":7281,"æ¹¿åº¦":7282,"å¸¦å¤´":7283,"ä¹¦ä¸Ń":7284,"è¿Ļä¹Ł":7285,"åºĶçĶ¨ç¨ĭåºı":7286,"è°¦":7287,"åĬ¨æ¼«":7288,"ä¸įè¶ħè¿ĩ":7289,"æķ²":7290,"åľ°åŁŁ":7291,"æĪĳæĺ¯":7292,"ä¿¡ä»°":7293,"Ġæľ¬":7294,"ain":7295,"æİ¥çĿĢ":7296,"æŀģå¤§":7297,"Ġç¬¬":7298,"æłħ":7299,"èĪ±":7300,"çĶµç½ĳ":7301,"EN":7302,"èĬĤæĹ¥":7303,"Ph":7304,"åħħè¶³":7305,"å»¶ç»Ń":7306,"ä¸Īå¤«":7307,"æİ¥å£¤":7308,"åıĳçĶµæľº":7309,"å®¶ä¸Ń":7310,"æī¹åıĳ":7311,"æĦī":7312,"ç§©åºı":7313,"çº³ç±³":7314,"éĴ¢çĲ´":7315,"å¿ħçĦ¶":7316,"éĺµå®¹":7317,"èĲĿåįľ":7318,"å½¢æĪĲçļĦ":7319,"Ġh":7320,"å¤ªå¹³æ´ĭ":7321,"æľĪåĪĿ":7322,"å¼Ģå¹ķ":7323,"æģ¨":7324,"èĢĥåı¤":7325,"åįĬå²Ľ":7326,"æĹ¥åĨħ":7327,"åħĥä»¶":7328,"our":7329,"æ¾Ħ":7330,"âĢĿ(":7331,"æ²Ĥ":7332,"çĶ¨èį¯":7333,"çĿĢåĬĽ":7334,"çĻ¾åĪĨçĤ¹":7335,"ä¸ºæł¸å¿ĥ":7336,"åīįåĲİ":7337,"ä¾µæĿĥ":7338,"åĢºåĪ¸":7339,"åĩ°":7340,"æĮ¯åĬ¨":7341,"è¯ŃéŁ³":7342,"ä¹ĥèĩ³":7343,"å±¿":7344,"çļĦç¤¾ä¼ļ":7345,"åľ¨åĮĹäº¬":7346,"çĶ·å¥³":7347,"åİ¨æĪ¿":7348,"å¿ĥçĲĨåŃ¦":7349,"æĲºå¸¦":7350,"è¡¨å½°":7351,"å¤§æī¹":7352,"éĩįè¦ģåıĤæķ°":7353,"æĬ¹":7354,"åıĹä¼¤":7355,"è·¯ä¸Ĭ":7356,"ç»ĦæĪĲéĥ¨åĪĨ":7357,"æī¿è®¤":7358,"å»ºçŃĳå·¥ç¨ĭ":7359,"èķ¾":7360,"ä»»èģĮ":7361,"é¡½":7362,"æĽ¼èģĶ":7363,"èīĺ":7364,"æĺ¯ä¸Ģä½į":7365,"åı¤èĢģ":7366,"åĩ¶":7367,"ç§ģäºº":7368,"åĬĿ":7369,"èĭ±å¯¸":7370,"è¿Ļä¸¤":7371,"çļĦç»ĵæŀľ":7372,"ç¨ĭåº¦ä¸Ĭ":7373,"å°ģéĹŃ":7374,"æĬķç¥¨":7375,"éĿĴæµ·":7376,"é»ı":7377,"çļĦæľī":7378,"è¿ĺæ²¡æľī":7379,"çĶµåı°":7380,"ä¸ĢçĶŁ":7381,"å¿ħè¦ģçļĦ":7382,"åĭ¾":7383,"CS":7384,"æĥŁ":7385,"å¤«å¦»":7386,"åĿļå®ļ":7387,"èĵĿèī²":7388,"ä¼ĺç¾İ":7389,"ç¾¤å²Ľ":7390,"è®²å¸Ī":7391,"è´µçļĦ":7392,"è¾ŀåħ¸":7393,"åĿ¤":7394,"åľ¨åĽ½åĨħ":7395,"è§£è¯»":7396,"æĪĸåħ¶ä»ĸ":7397,"èĩªèº«çļĦ":7398,"AP":7399,"æŀģä¸º":7400,"å¹´è½»äºº":7401,"ç¼ĸç¨ĭ":7402,"ord":7403,"æľªç»ı":7404,"ä¸¤ä¾§":7405,"è®°å¾Ĺ":7406,"åıĺéĿ©":7407,"æ¼Ķå¥ı":7408,"æŁĦ":7409,"æ¼Ķè®²":7410,"çĲĨäºĭéķ¿":7411,"ä¸»æµģ":7412,"ĠÐ":7413,"æµªæ¼«":7414,"èĩªçĦ¶ç§ĳåŃ¦":7415,"çİĭæľĿ":7416,"åįłæį®":7417,"ç²¾èĭ±":7418,"å¡«åĨĻ":7419,"ass":7420,"åľ¨åħ¶":7421,"é©¬å°Ķ":7422,"åĩĢåĪ©æ¶¦":7423,"æĭħä¿Ŀ":7424,"åİŁæĿĲæĸĻ":7425,"ä¸Ģè¾¹":7426,"è·¯å¾Ħ":7427,"çĻ½éħĴ":7428,"ä¸īæĺ¯":7429,"èľĢ":7430,"ÃŃ":7431,"åĨĢ":7432,"èģĶç»ľ":7433,"å¨ģå»ī":7434,"çĪ±åĽ½":7435,"çİĩä¸º":7436,"éħįéĢģ":7437,"æĮĩç¤º":7438,"çļĦåħī":7439,"æµĩ":7440,"èĳ¡èĲĦéħĴ":7441,"æ±īè¯Ń":7442,"å¿ĥæĥħ":7443,"äººä¸İ":7444,"çĽĳçĿ£ç®¡çĲĨ":7445,"ä¸īåĽ½":7446,"åħ°å·ŀ":7447,"è·Łè¸ª":7448,"æľºç»Ħ":7449,"è¯Ī":7450,"ä¸ĬåįĬå¹´":7451,"è§Ĥæµĭ":7452,"ä»¶äºĭ":7453,"å¥İ":7454,"ä¸ºå®¢æĪ·æıĲä¾Ľ":7455,"åĪĽå»ºäºİ":7456,"èĲĮ":7457,"è¿Ļä¸ĢçĤ¹":7458,"ä»ĸä»¬åľ¨":7459,"æ¿Ģç´ł":7460,"ä¸ļä¸»":7461,"ä¿®å»º":7462,"æ¬§çĽŁ":7463,"éĻĦåĬł":7464,"æİ¢æµĭ":7465,"indows":7466,"éĻĲäºİ":7467,"ä»ĬåĲİ":7468,"ä¸ªçĻ¾åĪĨçĤ¹":7469,"æµªè´¹":7470,"æĺİçļĦ":7471,"èı©èĲ¨":7472,"èĢĥèĻĳåĪ°":7473,"ä¸ĭè¾ĸ":7474,"ç»©æķĪ":7475,"æĭįåįĸ":7476,"ç»Ļå¤§å®¶":7477,"ä»¥åħ¶":7478,"æĽ´å¤§":7479,"äº¤ä»ĺ":7480,"ä¾ĿæĹ§":7481,"åĲīæŀĹçľģ":7482,"ä¸İæŃ¤åĲĮæĹ¶":7483,"è½¬åħ¥":7484,"ä¸Ĭå¹´":7485,"ä¸ºä¸»é¢ĺ":7486,"åįĥç±³":7487,"çķĻåľ¨":7488,"åı¦æľī":7489,"æķĪåĬĽ":7490,"è¡ĮæĶ¿åĮº":7491,"çĲĨå·¥å¤§åŃ¦":7492,"Ġy":7493,"åıĳéħµ":7494,"éĿĻçĶµ":7495,"è¡·":7496,"é¥¶":7497,"åİĨç¨ĭ":7498,"éĴ¢ç»ĵæŀĦ":7499,"æķ´æ²»":7500,"çļĦæīĢæľī":7501,"åĺīå®¾":7502,"æĺ¯æĪĳ":7503,"åīĸ":7504,"æĪĳä»¬è¦ģ":7505,"MB":7506,"æĢ»æķ°":7507,"ä¸ªæĿĳæ°ĳ":7508,"è±ªåįİ":7509,"åįĹæĺĮ":7510,"ä¸Ĭçº¿":7511,"å¥½åĥı":7512,"æ¶¡":7513,"æĬĵä½ı":7514,"æłĩè¯Ĩ":7515,"äººåĳĺçļĦ":7516,"è¯ķåĽ¾":7517,"ä¸įåıĺ":7518,"æ°ĳçĶŁ":7519,"åĪĹè¡¨":7520,"ç¦»å¿ĥ":7521,"ert":7522,"æºĥ":7523,"éĺľ":7524,"æľºåĬ¨":7525,"æįī":7526,"çļĦæĪĲç»©":7527,"å±ĤéĿ¢":7528,"å¼ĢåıĳçļĦ":7529,"æĺ¯ä¸ºäºĨ":7530,"èĢĲç£¨":7531,"ä»½é¢Ŀ":7532,"ç±»åĪ«":7533,"éĢĢå½¹":7534,"æİ©":7535,"åĮĸçŁ³":7536,"è¡ĮæĺŁ":7537,"åĽ½ç«ĭ":7538,"eg":7539,"éļ¶å±ŀ":7540,"æīĵç®Ĺ":7541,"è§Ĥèµı":7542,"ä¸ºä½ķ":7543,"CH":7544,"ç¤¾ä¼ļç§ĳåŃ¦":7545,"å¤©åľ°":7546,"çŁ¿å±±":7547,"æĸ©":7548,"åĲİåį«":7549,"åįİä¸ľ":7550,"æĭħå½ĵ":7551,"ä¹ĭåľ°":7552,"åĪĨåĪ«æĺ¯":7553,"Ġä¸Ń":7554,"ç½¢":7555,"ä¹ĲéĺŁ":7556,"åĸĢ":7557,"éģŃåĪ°":7558,"çłģå¤´":7559,"åıįèĢĮ":7560,"åĻ¨æ¢°":7561,"ä¸»äºº":7562,"åĩºåı°":7563,"å¤ªåİŁ":7564,"é«ĺçŃīåŃ¦æł¡":7565,"ä¸»è¦ģçĶ¨äºİ":7566,"å¸ĤåľºéľĢæ±Ĥ":7567,"åĪĨæĶ¯":7568,"éĤ±":7569,"åħ³èģĶ":7570,"é¥ŃåºĹ":7571,"è¿İæĿ¥":7572,"çŃīéĹ®é¢ĺ":7573,"ä¸ĭä¸Ģ":7574,"ä¸»åĬĽ":7575,"é«ĺçŃīæķĻèĤ²":7576,"è¾¹çķĮ":7577,"çļĦæķĻåŃ¦":7578,"åīįæ²¿":7579,"èĥ½åĬĽåĴĮ":7580,"ç¬Ķè®°":7581,"ç®¡çĲĨåĴĮ":7582,"çļĦéķ¿":7583,"ç¥ł":7584,"çļĦå¤ļ":7585,"é«ĺå³°":7586,"æł¸éħ¸":7587,"æĺ¯ä¸Ģéĥ¨":7588,"çİĭåĽ½":7589,"ff":7590,"çľģä»½":7591,"å¹¶ä¸İ":7592,"åıĳçĶŁçļĦ":7593,"åĲ¬åĪ°":7594,"çĪ±å¿ĥ":7595,"éĩįç»Ħ":7596,"æĸ°åŁİ":7597,"åĲĪçĲĨçļĦ":7598,"äº²èĩª":7599,"ST":7600,"åĤ¨å¤ĩ":7601,"ä½İç¢³":7602,"è®¤åĲĮ":7603,"æĸ¯åŁº":7604,"å¸¸åĬ¡çĲĨäºĭ":7605,"æĸ¯çļĦ":7606,"å°¹":7607,"å±Ĭåħ¨åĽ½":7608,"åĨľä½ľçī©":7609,"è¾īçħĮ":7610,"URL":7611,"ç²¥":7612,"ãģĦ":7613,"çĳŀåħ¸":7614,"APP":7615,"åĪ©çļĦ":7616,"åł¤":7617,"åħ´å»º":7618,"æĹ¶éĹ´åĨħ":7619,"çĭĲ":7620,"å¤ĸäº¤":7621,"éĩĩçĶ¨äºĨ":7622,"ä¸įè®º":7623,"ç¼ºçĤ¹":7624,"åĮ»ç§ĳå¤§åŃ¦":7625,"çİ«":7626,"çŃīçĽ¸åħ³":7627,"è±ĨèħĲ":7628,"æĸ¯æĭī":7629,"ä¸įä»ħä»ħ":7630,"çĽ¸è¿ŀ":7631,"åĵģçīĮçļĦ":7632,"åıĳçĶŁäºĨ":7633,"æ³¢åĬ¨":7634,"ey":7635,"é«ĵ":7636,"å¹´åĩºçĶŁ":7637,"æ´»åĬ¨ä¸Ń":7638,"ä¸įåºĶ":7639,"åĩ¤åĩ°":7640,"å¤§éĺŁ":7641,"ä¸»å¯¼":7642,"æŃ¥è¡Į":7643,"åıĳçĶŁåľ¨":7644,"åĶ±çīĩ":7645,"åĩºèº«":7646,"åĨħç§ĳ":7647,"åİĦ":7648,"è¯Ĺè¯į":7649,"æĺİæľĿ":7650,"åĩºä¸Ģ":7651,"ç¤¾ä¼ļçļĦ":7652,"è¶ħå¸Ĥ":7653,"å®°":7654,"ä¾¿äºİ":7655,"çĽ´å±ŀ":7656,"èĥĮåĲİ":7657,"å¢¨è¥¿":7658,"è§Ĥåħī":7659,"æĭ¼éŁ³":7660,"æ¸Ĳæ¸Ĳ":7661,"åĮ¹éħį":7662,"åķĨå®¶":7663,"åĮĹäº¬å¤§åŃ¦":7664,"çĶĺèĤĥçľģ":7665,"æĥ¨":7666,"å¼łå®¶":7667,"åĽ¾å½¢":7668,"çº¦å®ļ":7669,"ä¸ĳ":7670,"ä¸»æĮģäºº":7671,"ç³ĸå°¿çĹħ":7672,"è´ª":7673,"åı²ä¸Ĭ":7674,"åķ¤éħĴ":7675,"çĶ¨çĶµ":7676,"é«ĺåĵģè´¨":7677,"æ¸ħæ°´":7678,"åįıåķĨ":7679,"å¢ŀéĢŁ":7680,"æ¯ĶåĪĨ":7681,"åĮºåĿĹ":7682,"è½¬åĲĳ":7683,"çļĦä½įç½®":7684,"åįłæľī":7685,"æī§å¯¼":7686,"æµ·ä¸Ĭ":7687,"å¸ĸ":7688,"ax":7689,"åķĨåľº":7690,"åı«åģļ":7691,"èĩªä¿¡":7692,"ç©ºä¸Ń":7693,"ä¸Ĭçº§":7694,"è¦ģæľī":7695,"å®¶ä¹¡":7696,"å¾ĹåĲį":7697,"é¦ĸä¸ª":7698,"ä¹ĲåĽŃ":7699,"æĺ¯ä¸º":7700,"åĮĸå¦Ĩåĵģ":7701,"è¶ĬæĿ¥è¶Ĭå¤ļ":7702,"åı¯æĮģç»Ńåıĳå±ķ":7703,"çļĦé¡¹çĽ®":7704,"æĬµè¾¾":7705,"é¢ģå¥ĸ":7706,"çĥŃéĹ¨":7707,"å¿ĥä¸Ń":7708,"éĥ½æ²¡æľī":7709,"åı¯èĥ½æĢ§":7710,"æĬķè¯ī":7711,"å®ŀåľ°":7712,"åıĪæľī":7713,"çļĦä¸ī":7714,"çĽ¸å½ĵäºİ":7715,"é¡¶çº§":7716,"å¯Ĩçłģ":7717,"å¥¢":7718,"å¸Ĥäººæ°ĳæĶ¿åºľ":7719,"å¹³åİŁ":7720,"æĪĲåĵģ":7721,"çĽ´èĩ³":7722,"é«ĺç§ĳæĬĢ":7723,"ox":7724,"DP":7725,"å¤įåĪ¶":7726,"æĬĸ":7727,"æĸ°æĹ¶ä»£":7728,"ä¸Ńå¤ĸ":7729,"çĿĲ":7730,"è¿ĺå°Ĩ":7731,"éľĢè¦ģçļĦ":7732,"çĻĮçĹĩ":7733,"åħĪè¿Ľå·¥ä½ľèĢħ":7734,"ä¼ģä¸ļå®¶":7735,"åĩºæ¼Ķ":7736,"çŁ³å®¶åºĦ":7737,"RO":7738,"åŁİå¸ĤçļĦ":7739,"æŀ«":7740,"å±ķçİ°åĩº":7741,"æ¬º":7742,"æ±Ŀ":7743,"åľ°å¸¦":7744,"æ±¡æ³¥":7745,"æŃ¦è£ħ":7746,"å¥½å¥½":7747,"æĳ©æĵ¦":7748,"éĺ²èĮĥ":7749,"ç©ºåĨĽ":7750,"ä»ĳ":7751,"æİ¥ç§į":7752,"ä¸¾åĬŀçļĦ":7753,"éĽ¶éĥ¨ä»¶":7754,"æĺ¯ç¾İåĽ½":7755,"æ£ķ":7756,"å®¶çĶµ":7757,"é¢ĺæĿĲ":7758,"æ°´çĶµ":7759,"æ°´å¹³çļĦ":7760,"ĠPro":7761,"æĪĲç«ĭçļĦ":7762,"ä¸įå¼Ģ":7763,"æĹ¶éĹ´çļĦ":7764,"ä¸Ģäºº":7765,"è®©ä»ĸ":7766,"åįķæĽ²":7767,"ãĢĤ<\\/":7768,"æ¾³æ´²":7769,"å®ĮåĸĦçļĦ":7770,"ä¸Ĭå¸Ŀ":7771,"èĳ¡èĲĦçīĻ":7772,"çĥŃçĪ±":7773,"oh":7774,"ä¹Įåħĭåħ°":7775,"å¢¨è¥¿åĵ¥":7776,"åŁİåİ¿":7777,"æŀ¢çº½":7778,"ure":7779,"ä¸ºåħ¶":7780,"å¹´è¢«è¯Ħä¸º":7781,"Ä«":7782,"äº¤éĢļè¿Ĳè¾ĵ":7783,"åºĵåŃĺ":7784,"é¥²æĸĻ":7785,"ï¿":7786,"ä¸ĢçĽ´åľ¨":7787,"éĿ©åĳ½æĸĹäºī":7788,"ice":7789,"åĽŀæĬ¥":7790,"åĪ°æĿ¥":7791,"çŃīå·¥ä½ľ":7792,"å§¬":7793,"åĩĿèģļ":7794,"æĺ¯ä»İ":7795,"ç²¹":7796,"å°ī":7797,"çĽ®çļĦæĺ¯":7798,"ç»´å°Ķ":7799,"åīįæľŁ":7800,"æ¡©":7801,"åħĭæĭī":7802,"ãĢı":7803,"æ³¨åħ¥":7804,"å¼Ģä¸ļ":7805,"ãĢİ":7806,"æķĻèģĮå·¥":7807,"éķ¿å®ī":7808,"åı¯çĶ¨":7809,"æĳĦåĥı":7810,"ä¸»å¼ł":7811,"åħ¨ä¸ĸçķĮ":7812,"è´µå·ŀçľģ":7813,"æľ¬æĿ¥":7814,"æģŃ":7815,"ä¹ĭéĻħ":7816,"å¹¶å¯¹":7817,"æį®æĤī":7818,"åĩłåįģ":7819,"è¦ģæ±ĤçļĦ":7820,"å³»":7821,"åĬłä»¥":7822,"é¢ģåıĳ":7823,"åĴ±ä»¬":7824,"ue":7825,"çļĦé£Łçī©":7826,"ux":7827,"å¹¿éĺĶ":7828,"é¡ºåºı":7829,"æķ°æį®æĺ¾ç¤º":7830,"èĥ½åĲ¦":7831,"é©¬æĭī":7832,"éĹ¯":7833,"%,":7834,"è¯ģå®ŀ":7835,"å¤įæĿĤçļĦ":7836,"åıªéľĢ":7837,"ä»ĵåºĵ":7838,"èĭ±è¶ħ":7839,"é«ĺçº§å·¥ç¨ĭå¸Ī":7840,"ç§ĳåŃ¦ä¸İ":7841,"çĶµéĺ»":7842,"æ®ĭçĸ¾":7843,"å¥½äºĨ":7844,"ä¼ļå±ķ":7845,"åĬłå¯Ĩ":7846,"åıĬçĽ¸åħ³":7847,"è´¯å½»èĲ½å®ŀ":7848,"æ¬¡æķ°":7849,"å°ıäºİ":7850,"éĿĴçĿĲ":7851,"çħ¤çŁ¿":7852,"å®¢åľº":7853,"èµ¢å¾ĹäºĨ":7854,"PV":7855,"æĶ¾æĿ¾":7856,"ç¡ķå£«çłĶç©¶çĶŁ":7857,"è°ľ":7858,"çģµéŃĤ":7859,"æīĭæ³ķ":7860,"å°ĳçļĦ":7861,"çĹħåĽł":7862,"ä¿¡èªī":7863,"Ġv":7864,"æłĹ":7865,"ä¼Ĭæĸ¯":7866,"åķĨè´¸":7867,"å¸ĥç½®":7868,"ä¹Łè¢«":7869,"æĪĲç«ĭäºĨ":7870,"æ¸Ŀ":7871,"å¸ĥé²ģ":7872,"æļĤæĹ¶":7873,"æĬ¥åĪĬ":7874,"å¸ĪèµĦ":7875,"æĬ«éľ²":7876,"ãĤ¹":7877,"èį£èªīç§°åı·":7878,"æĢ»äººåı£":7879,"çķı":7880,"ä¼ļå¯¼èĩ´":7881,"é»ĳèī²ç´ł":7882,"ä»İæŃ¤":7883,"æĺ¯æĪĳåĽ½":7884,"å®¡åĪ¤":7885,"ä¼ģä¸ļç®¡çĲĨ":7886,"éĥ½å¾Ī":7887,"åķĨä¼ļ":7888,"è¡ĮæĶ¿æĿĳ":7889,"éĨĭ":7890,"Ðµ":7891,"å¤§åŃ¦çļĦ":7892,"çŃīè¡Įä¸ļ":7893,"éļĲç§ģ":7894,"é¢Ħçº¦":7895,"åĵªä¸ª":7896,"èĵī":7897,"å·¥ç¨ĭåŃ¦éĻ¢":7898,"é¸¡èĽĭ":7899,"ok":7900,"ç¦»å©ļ":7901,"åıĳä½ľ":7902,"æĥ©":7903,"åĪ«å¢ħ":7904,"éĻ·åħ¥":7905,"ä¾ĭåŃĲ":7906,"ä¸ľåįĹäºļ":7907,"ä¸ĢæľŁ":7908,"man":7909,"è¿Ļå°±":7910,"èĳĹæľī":7911,"åį¡å°Ķ":7912,"è´Łèį·":7913,"çĽ¸åıį":7914,"è®¾å¤ĩæľīéĻĲåħ¬åı¸":7915,"èĥĸ":7916,"å§Ķä¹¦è®°":7917,"éĽĦåİļ":7918,"æĺ¥ç§ĭ":7919,"åŃ¦å£«åŃ¦ä½į":7920,"å¿ĥçģµ":7921,"åıĬä»¥ä¸Ĭ":7922,"é½¿è½®":7923,"æĩĪ":7924,"æĺ¯æĪĳä»¬":7925,"åħ¥åŃ¦":7926,"äººæ°ĳåĮ»éĻ¢":7927,"è¿ĻæĹ¶":7928,"çŁ³åĮĸ":7929,"èĥ½åĬĽçļĦ":7930,"æĮĳéĢī":7931,"ä¸ºä¸»è¦ģ":7932,"ä¿¡æģ¯çļĦ":7933,"ä¸ŃåĽ½ç§ĳåŃ¦éĻ¢":7934,"å±ŀæĢ§":7935,"åĬ«":7936,"æĶ¹åĪ¶":7937,"âĢĿï¼ī":7938,"å¤§è¡Ĺ":7939,"å¾ĹçŁ¥":7940,"åįĳ":7941,"å¤´éĥ¨":7942,"åı·çłģ":7943,"ç¡Ŀ":7944,"ä¿Ŀç½Ĺ":7945,"end":7946,"CI":7947,"æĹ¥åĪ¶":7948,"éĢĿä¸ĸ":7949,"ç¨³å®ļçļĦ":7950,"åħīæĺİ":7951,"æĳĬ":7952,"èĢģå¹´äºº":7953,"ä¼ģä¸ļåĴĮ":7954,"ç»ıçºª":7955,"åħ¨èº«":7956,"åīįæĿ¥":7957,"äº®çĽ¸":7958,"ast":7959,"ç²¾ç¡®":7960,"çļĦæľĭåıĭ":7961,"æķĻèĤ²æķĻåŃ¦":7962,"ä»£æĽ¿":7963,"æľīåħ³è§Ħå®ļ":7964,"åĴ½":7965,"åįĹå®ģ":7966,"æĭ¿åĪ°":7967,"ç¼©çŁŃ":7968,"æłĵ":7969,"äºĶéĩĳ":7970,"éĨĽ":7971,"è¾¾åĪ°äºĨ":7972,"çĶŁæĦı":7973,"å®ŀè®Ń":7974,"åĨľèį¯":7975,"èĬĤçĤ¹":7976,"éĩĳçīĮ":7977,"ä¸Ģéĥ¨":7978,"äºĶåįģ":7979,"åºĨç¥Ŀ":7980,"ä¼ļåĩºçİ°":7981,"ä¸ĭè·Į":7982,"ç»Ħä»¶":7983,"è¾ĥå¤ļ":7984,"è¡Įé©¶":7985,"åĻ¨æĿĲ":7986,"åĬ³åĬ¨åĬĽ":7987,"éĢĢåĩº":7988,"éĵĿåĲĪéĩĳ":7989,"å±ĢéĿ¢":7990,"çİ¯å¢ĥçļĦ":7991,"æ°Ķæ°Ľ":7992,"æĸ½è¡Į":7993,"åĻªéŁ³":7994,"éķ¿åŁİ":7995,"æľĢé«ĺçļĦ":7996,"ina":7997,"ä¸ĵä¸ļä»İäºĭ":7998,"æİĴè¡Į":7999,"å¿«çļĦ":8000,"çĶ«":8001,"ä¹Ŀå¹´":8002,"åıĳæĢ§":8003,"å¤ļåªĴä½ĵ":8004,"æĹıèĩªæ²»":8005,"åħĪè¿Ľåįķä½į":8006,"è¯ŀçĶŁ":8007,"å¤«äºº":8008,"uc":8009,"æ¯ıåĳ¨":8010,"åŃĹæ¯į":8011,"ew":8012,"å¤§èĩ´":8013,"çİ©åħ·":8014,"äººä»¬çļĦ":8015,"æŀ¯":8016,"åº¦åĴĮ":8017,"è¯´è¯Ŀ":8018,"æķĪåĬĽäºİ":8019,"æĭ±":8020,"ä»ĵåĤ¨":8021,"åĩºèī²":8022,"æ³¨æĺİ":8023,"è¿Ļæĺ¯ä¸Ģä¸ª":8024,"åĨľæĪ·":8025,"åĽŀæĿ¥":8026,"åľŁèĢ³":8027,"é«ĺæ¸ħ":8028,"äº§çĶŁäºĨ":8029,"Ġx":8030,"è½½ä½ĵ":8031,"æĸĩçī©ä¿ĿæĬ¤":8032,"çľģå¸Ĥ":8033,"ç®¡çĲĨç³»ç»Ł":8034,"ç¥¨æĪ¿":8035,"åľ¨æľ¬":8036,"åħ¨éķ¿":8037,"åĪĩå°Ķ":8038,"åı£ç½©":8039,"åĨľåľº":8040,"ä¼½":8041,"èĢĮæĿ¥":8042,"æķĻèĤ²å±Ģ":8043,"èĲį":8044,"çļĦæµ·":8045,"é¢Ĥ":8046,"ä¸įå¤ª":8047,"å°½åı¯èĥ½":8048,"ç¤¾åĽ¢":8049,"èīºäºº":8050,"æ³¢åħ°":8051,"éĻ¤æŃ¤":8052,"èº«ä»½è¯ģ":8053,"åī¥":8054,"å®ģå¤ı":8055,"åı¸é©¬":8056,"ç¼ħ":8057,"è¿Ľè¡ĮçļĦ":8058,"å¹´ç¬¬":8059,"ah":8060,"éħ®":8061,"äº§ä¸ļåĮĸ":8062,"å½ķéŁ³":8063,"çģ«å±±":8064,"æµĳ":8065,"çİĭåŃĲ":8066,"é«ĺå±Ĥ":8067,"åĩºçİ°çļĦ":8068,"åľŁèĢ³åħ¶":8069,"æī¶è´«":8070,"ä½ĵéĩį":8071,"ä¸Ģå¼ł":8072,"åħ¨ä¹¦":8073,"æĥħæĬ¥":8074,"èĸĩ":8075,"ç»Ĵ":8076,"ç»ıæµİç¤¾ä¼ļ":8077,"ç²¾éĢī":8078,"åĭĩå£«":8079,"èģĮä¸ļçĶŁæ¶¯":8080,"ç§ĳçĽ®":8081,"å·²å®ĮæĪĲ":8082,"åı¯åĪĨä¸º":8083,"è¾ĥå¥½çļĦ":8084,"ai":8085,"åŃ¦éĩĳ":8086,"å¤§ä½¿":8087,"å¯Ĥ":8088,"ä¸¤èĢħ":8089,"è¿Ļåº§":8090,"æĬĦ":8091,"çĽ¸åĲĮçļĦ":8092,"åĸľåī§":8093,"åıĳå±ķåĴĮ":8094,"ç¾½æ¯Ľ":8095,"éħ°":8096,"éĺ¿æĭīä¼¯":8097,"æī©å¼ł":8098,"æĽ²çº¿":8099,"æ¯ĶåĪ©":8100,"äººéĥ½":8101,"ç¥ŀè¯Ŀ":8102,"åħļç»Ħ":8103,"æĬ¥ä»·":8104,"äºĨå¾Īå¤ļ":8105,"æ°ĳæĶ¿":8106,"å´©":8107,"æĻĭåįĩ":8108,"ä½ľæĸĩ":8109,"èģļæ°¨":8110,"Ġde":8111,"ç»¼èīº":8112,"çŀ¬éĹ´":8113,"ï¼ĳ":8114,"åĿļåĨ³":8115,"æ²¿æµ·":8116,"æ¢³":8117,"å¤ĸçķĮ":8118,"åĲįåĪĹ":8119,"çļĦé«ĺåº¦":8120,"ä¸ĭæ¸¸":8121,"ä½ıå®¿":8122,"EM":8123,"ä¸Ģçīĩ":8124,"ä¿¡èµĸ":8125,"æĭīä¸ģ":8126,"åİ¢":8127,"éĻĮ":8128,"ä¾£":8129,"ä¿Ŀå®ī":8130,"èĴ²":8131,"çļĦåĽ½éĻħ":8132,"æľīåĬĽ":8133,"ä¸ļçķĮ":8134,"å¤ªåŃĲ":8135,"ont":8136,"èµĦæ·±":8137,"æĻĭçº§":8138,"æĹ©åľ¨":8139,"æĺ¯ä¸ĢæīĢ":8140,"æ±ķ":8141,"å¾ħéģĩ":8142,"çķľçī§":8143,"è©¹å§Ĩæĸ¯":8144,"ä¹ĭæīĢä»¥":8145,"gle":8146,"æ¯ĹéĤ»":8147,"åħĳ":8148,"æ±¡æŁĵçī©":8149,"Ġin":8150,"åıĸåĨ³":8151,"ä¾¿å®ľ":8152,"æĢĸ":8153,"æĶ¾ç½®":8154,"çļĦåĽ½å®¶":8155,"ç¬¦åı·":8156,"ore":8157,"çĥĺå¹²":8158,"è®®åĳĺ":8159,"æ²īæ·Ģ":8160,"é©¬ä¸Ĭ":8161,"èįīåİŁ":8162,"æĶ¾å°Ħ":8163,");":8164,"å°ļä¹¦":8165,"ä¼ļè®¡å¸Ī":8166,"è¿ĩæĿ¥":8167,"é«ĺéĵģ":8168,"æº¶åīĤ":8169,"ä¸¾æİª":8170,"æľįé¥°":8171,"å¥łå®ļ":8172,"æ´Ľéĺ³":8173,"èĩªè¡Įè½¦":8174,"ç¥¸":8175,"åķĨåºĹ":8176,"åİ»äºĨ":8177,"å¿ĥæĢģ":8178,"LC":8179,"è§ĴéĢĲ":8180,"åī§æľ¬":8181,"è¿Ļé¦ĸ":8182,"åıĤå±ķ":8183,"åħĭæľį":8184,"åıĭå¥½":8185,"è¶³çĲĥè¿ĲåĬ¨åĳĺ":8186,"ç«ĭæ³ķ":8187,"å¤ĸè¯Ń":8188,"ä»İå°ı":8189,"æ¸ħä»£":8190,"çļĦåħ¬åı¸":8191,"çļĦåŃ¦ä¹ł":8192,"è¿ĺéľĢè¦ģ":8193,"çĽ¸æľº":8194,"éĩĳå±±":8195,"èŀºæĹĭ":8196,"éĴī":8197,"æĪ¿äº§":8198,"ç»ıæµİæķĪçĽĬ":8199,"åŁĥåıĬ":8200,"çī¹èī²çļĦ":8201,"æ©Ļ":8202,"è§£çŃĶ":8203,"åĿĩæľī":8204,"ä¹ĭæĹħ":8205,"æķ´æĶ¹":8206,"çĿ¿":8207,"ä¸»æľº":8208,"å»ºè®¾é¡¹çĽ®":8209,"éĴ©":8210,"ä¸ĥå¹´":8211,"å¯¹å¾ħ":8212,"çĶŁæĹ¥":8213,"æµ·åħ³":8214,"è¯¥é¡¹çĽ®":8215,"Ã¹":8216,"éĵ¸éĢł":8217,"éļĭ":8218,"éģĵçļĦ":8219,"çİ«çĳ°":8220,"è¦ģåľ¨":8221,"å½ĵä¸ĭ":8222,"éĽģ":8223,"å±ķåĩº":8224,"è¿Ŀè§Ħ":8225,"åĪĴåĪĨ":8226,"åĩıéĢŁ":8227,"åįļè§Īä¼ļ":8228,"EC":8229,"æĺ¯çĽ®åīį":8230,"å¤¸":8231,"å·ŀçļĦ":8232,"åĲĪéĢĤçļĦ":8233,"è§£éĻ¤":8234,"éĺ¿æł¹":8235,"äºĶå¤§":8236,"åĩ¹":8237,"å¢ŀå¤§":8238,"é¢ł":8239,"ä½Ĩä¸į":8240,"Ã¨":8241,"åıĸåĨ³äºİ":8242,"åĩĳ":8243,"ç¼ł":8244,"çģ«è½¦ç«Ļ":8245,"çī©ä½ĵ":8246,"é£İåħī":8247,"è§£åĨ³äºĨ":8248,"æŃ§":8249,"å·´èĲ¨":8250,"æĮª":8251,"Çİ":8252,"ç»ıæµİçļĦ":8253,"æĶ¾å¿ĥ":8254,"èł":8255,"æĺ¯å¾Ī":8256,"ç»İ":8257,"çŁ¶":8258,"èĨ¨èĥĢ":8259,"çļĦä¸įåĲĮ":8260,"åıĳå¸ĥäºĨ":8261,"æĦŁåĬ¨":8262,"çļĦåĲİ":8263,"çļĦéĥ¨åĪĨ":8264,"å®īå¸Ĥ":8265,"èľ¡":8266,"æĹłç¼Ŀ":8267,"è£ħéħį":8268,"ç½ļæ¬¾":8269,"iz":8270,"ç§ĳæĬĢæĪĲæŀľ":8271,"åħ«å¹´":8272,"æĪĸèĢħæĺ¯":8273,"åĳ½åĲįä¸º":8274,"çłĶè®¨ä¼ļ":8275,"åĵĢ":8276,"ä¹ĭæĪĺ":8277,"ä»»åĳ½":8278,"çĲĨè®ºä¸İ":8279,"æī¿åĬŀ":8280,"ç®¡æİ§":8281,"æĽ´é«ĺçļĦ":8282,"å¤ļç¯ĩ":8283,"ç»´äºļ":8284,"è®®ä¼ļ":8285,"å¿ħéľĢ":8286,"çĲĨåŃ¦":8287,"å®ĪæĬ¤":8288,"éĺ¿æł¹å»·":8289,"é©¬åħĭæĢĿ":8290,"ä¹ĭæĹ¥èµ·":8291,"åįĥçĵ¦":8292,"åľ°çĲĨä½įç½®":8293,"å½¼å¾Ĺ":8294,"è¿ĩæķı":8295,"å°ıå¿ĥ":8296,"éĺ²çĪĨ":8297,"æİ§åĪ¶ç³»ç»Ł":8298,"æ¸ħåįķ":8299,"åľ¨åĨħçļĦ":8300,"å¯¹æĬĹ":8301,"çĥŃçĤ¹":8302,"èĶ½":8303,"æ±Łå¸Ĥ":8304,"æ¼Ĥäº®":8305,"æµģä¼ł":8306,"éĹ¨æĪ·":8307,"ç»Ļä½ł":8308,"ä»Ģä¹Īæĺ¯":8309,"Ð½":8310,"å¼ĺæī¬":8311,"å¹¶ä»¥":8312,"éĹ¨çªĹ":8313,"ĊĠ":8314,"èħķ":8315,"GP":8316,"åº¸":8317,"äººæ°Ķ":8318,"æł·æľ¬":8319,"æĿĥçļĦ":8320,"ä¸įæĥ³":8321,"éĴ®":8322,"èģļæ°¨éħ¯":8323,"......":8324,"å¹´çĶ±":8325,"åį´æĺ¯":8326,"åĽĽåŃ£":8327,"åģļåĩºäºĨ":8328,"æīĭå·¥":8329,"åįī":8330,"è®²è¯Ŀ":8331,"åĮºåĪĨ":8332,"çĪ±å°Ķ":8333,"å®¢æĪ¿":8334,"çº§åĪ«":8335,"å¹´å¹³åĿĩ":8336,"ãĢįï¼Ī":8337,"æ´¾åĩº":8338,"çĹĴ":8339,"ä»·åĢ¼è§Ĥ":8340,"éĩĳåĪļ":8341,"è¿Ľåº¦":8342,"çĻ½çĻľé£İåĮ»éĻ¢":8343,"ä¸»è¦ģçļĦ":8344,"é«ĺæĸ°æĬĢæľ¯ä¼ģä¸ļ":8345,"è·¨è¶Ĭ":8346,"çļĦçİ°è±¡":8347,"oogle":8348,"BC":8349,"çĶŁçī©åŃ¦":8350,"å¥¥æŀĹ":8351,"è¿Ľåıĸ":8352,"äº§çī©":8353,"çĲª":8354,"åĩºæĪĺ":8355,"çħİ":8356,"è¿ĺåİŁ":8357,"çĻ»éĻĨ":8358,"åı¯éĿłæĢ§":8359,"ç»ĵè®º":8360,"åĪ®":8361,"åıĭè°Ĭ":8362,"æİĴéĻ¤":8363,"èĤļ":8364,"åĭ¿":8365,"æįĲèµł":8366,"è§Ĩè§Ĵ":8367,"æ¸ħåįİå¤§åŃ¦":8368,"éĹ»åĲį":8369,"äº¤äºĴ":8370,"è¾ĥå¼ºçļĦ":8371,"ä¸ĭå±ŀ":8372,"å½ĵä»Ĭ":8373,"çļĦæĶ¯æĮģ":8374,"å¾ģæĶ¶":8375,"ä¸Ģè¡Į":8376,"ä¸Ģéĥ¨åĪĨ":8377,"ä¸Ģä¸ĸ":8378,"åĩłå¤©":8379,"æ¬§ç¾İ":8380,"çĻ»åľº":8381,"ä¼¯çī¹":8382,"åıĪæĺ¯":8383,"ä¸½çļĦ":8384,"æľįåĬ¡ä¸ļ":8385,"æīİå®ŀ":8386,"æĪĲéĥ½å¸Ĥ":8387,"åħ¸ç¤¼":8388,"çĳ¶":8389,"è¥¿åħ°":8390,"æĢ»çĲĨ":8391,"çĶµæ¢¯":8392,"æ¸¯æ¾³":8393,"è·¯æĺĵ":8394,"æ²¸":8395,"æĸ°èĥ½æºĲæ±½è½¦":8396,"çī¹æ®ĬçļĦ":8397,"ç¹ģèį£":8398,"æ¸©å·ŀ":8399,"å¯¼èĪª":8400,"ĠæĿİ":8401,"ä¸»èĲ¥":8402,"ock":8403,"Ġj":8404,"åĲ»":8405,"ĠĠĠĠĠĠĠĠ":8406,"åĩıèĤ¥":8407,"ä¸ĩäº©":8408,"æ°ĳäºĭ":8409,"æĸĩæľ¬":8410,"ies":8411,"oy":8412,"åı¶çīĩ":8413,"åľºåĲĪ":8414,"æ¯ıæľĪ":8415,"ä¸ºæľ¬":8416,"å·²è¢«":8417,"ä¸ĸçķĮåĲĦåľ°":8418,"åŁŁåĲį":8419,"æģĲæĢĸ":8420,"è§ģè¯ģ":8421,"äººå¿ĥ":8422,"åĬŀåħ¬åİħ":8423,"å¸¸çĶ¨çļĦ":8424,"æ³¡æ²«":8425,"æĪĳéĻ¢":8426,"åħ¬å¼Ģåıĳ":8427,"ç¡¬åº¦":8428,"çĶŁäº§åĴĮ":8429,"æĽ´å®¹æĺĵ":8430,"ç¥ĸåĽ½":8431,"çľĭåĩº":8432,"ä¼ĺéĽħ":8433,"æ¬¡äºİ":8434,"åı£ç¢ĳ":8435,"çļĦä¸¤":8436,"ä¸įèµ·":8437,"å®£åĳĬ":8438,"çļĦç»Ħç»ĩ":8439,"äºĮåįģå¤§":8440,"ä¸¥è°¨":8441,"æ°¸ä¹ħ":8442,"éĽĮ":8443,"çĳľ":8444,"å®īå¾·":8445,"é£Łåĵģå®īåħ¨":8446,"èļģ":8447,"æł¡åıĭ":8448,"è¿Ļåľº":8449,"å²©çŁ³":8450,"DS":8451,"åħĪéĶĭ":8452,"å°Ķå¤«":8453,"æļĤåģľ":8454,"å¡ĳéĢł":8455,"çļĩåĲİ":8456,"å¹´ä¸ŃåĽ½":8457,"å±±èĦī":8458,"ç«ĭæĸ¹ç±³":8459,"åĩºä»»":8460,"çļĦåŁİå¸Ĥ":8461,"æĤ¨åı¯ä»¥":8462,"å¤įåħ´":8463,"å®ıè§Ĥ":8464,"è¯µ":8465,"ï¿½":8466,"å¹¿æ³ĽçļĦ":8467,"å¤ĦçĲĨåĻ¨":8468,"çĥŃéĩı":8469,"ç§ĳéĻ¢":8470,"Ġä¸ŃåĽ½":8471,"èī²åĪĹ":8472,"ä¸Ńä¸ĵ":8473,"äºĮäºº":8474,"å¤ļåĬŁèĥ½":8475,"ach":8476,"éĤ£ç§į":8477,"è¯Ŀé¢ĺ":8478,"æ¸ħæľĿ":8479,"å·®åĪ«":8480,"åĻªå£°":8481,"åĽłåħ¶":8482,"åįİåįĹ":8483,"çļĦè¡¨çİ°":8484,"çī¡":8485,"å·²ç»ıæĪĲä¸º":8486,"å½ĵä½ł":8487,"åĲĮè¡Į":8488,"çīĽèĤī":8489,"çļĩé©¬":8490,"è´¼":8491,"æĢ»ä¼ļ":8492,"çĽ¸ç»§":8493,"åıĹåĪ°äºĨ":8494,"çļĦä¸ĢåĪĩ":8495,"ä¸ĵä¸ļæĬĢæľ¯":8496,"è¢«åĳĬ":8497,"æ¹ĸäºº":8498,"çľŁè¯ļ":8499,"åı£æĦŁ":8500,"å¥½å¤Ħ":8501,"ãĥ«":8502,"åĲı":8503,"æĤĶ":8504,"æıĲåĲį":8505,"æĦ¤":8506,"ä¸įæĸŃçļĦ":8507,"å¸ĺ":8508,"son":8509,"èĥļ":8510,"åĨħæľī":8511,"ç¥Ī":8512,"çĶ·ç¯®":8513,"å®Įç»ĵ":8514,"ç»ĳ":8515,"åĨįè¡Į":8516,"çŃīäºİ":8517,"è§ģçļĦ":8518,"è·¨å¢ĥ":8519,"å·«":8520,"ä¹ĭåŃĲ":8521,"èĹ©":8522,"ç§¯æŀģå¼Ģå±ķ":8523,"åľ¨è¯¥":8524,"çĥŁåı°":8525,"åħīç»ª":8526,"æĬµæĬĹ":8527,"åı¤åŁİ":8528,"ä¸Ĭæ¸¸":8529,"èĩªè§ī":8530,"ä¿®æŃ£":8531,")ãĢģãĢĬ":8532,"å¤©ä¸»æķĻ":8533,"æİ¨è¡Į":8534,"å¤´çļĦ":8535,"æĢ§å¼º":8536,"åıįå°Ħ":8537,"ix":8538,"æ³¨åĨĮèµĦæľ¬":8539,"å®¿èĪį":8540,"è£¹":8541,"æİ¨åĩºçļĦ":8542,"DNA":8543,"åĩºèµĦ":8544,"ä¾Ľæ°´":8545,"åį«è§Ĩ":8546,"ä¹ĭä¸ĢçļĦ":8547,"æĺĶ":8548,"çĦ¦çĤ¹":8549,"ä¼ģä¸ļåľ¨":8550,"å®ŀè´¨":8551,"åģ¥åº·çļĦ":8552,"ä¸ŃæľĢ":8553,"çıłæµ·":8554,"åĳ¨æľ«":8555,"åĲĮåĲį":8556,"æĪĳå¸Ĥ":8557,"æĽĿåħī":8558,"èĲ¥è¿Ĳ":8559,"ä¸įåĲ«":8560,"ä¸ºä¾ĭ":8561,"æ²»æĦĪ":8562,"æĶ¿åºľä¿¡æģ¯åħ¬å¼Ģ":8563,"æ¶¤":8564,"ä¹ĭä¸Ĭ":8565,"å¤§èĩ£":8566,"èĢģåĮĸ":8567,"åľ¨ä¸Ń":8568,"çļĦæłĩåĩĨ":8569,"åħ¶ä¸ŃçļĦ":8570,"ÑĢ":8571,"åľĨæ»¡":8572,"åħ³æĢĢ":8573,"å¤§èĦĳ":8574,"DA":8575,"æį®äºĨè§£":8576,"äº¤éĢļä¾¿åĪ©":8577,"æĸ°äº§åĵģ":8578,"æĦģ":8579,"å¿½è§Ĩ":8580,"åħ±å»º":8581,"åİĭåĻ¨":8582,"æĵįä½ľç³»ç»Ł":8583,"å¸ĥæĭī":8584,"åĢ¡å¯¼":8585,"åĽĽåįģ":8586,"å¤©ä½¿":8587,"æ·ĳ":8588,"ight":8589,"æŁĲä¸ª":8590,"Sh":8591,"åħ·ä½ĵçļĦ":8592,"è¶ħå£°æ³¢":8593,"æ°¨åŁº":8594,"æķĮäºº":8595,"æĹ¥æĻļ":8596,"ä½łä¼ļ":8597,"æ¹¿åľ°":8598,"ink":8599,"éķ¿è¾¾":8600,"ç²¾èĩ´":8601,"åı¯çĶ¨äºİ":8602,"è´®":8603,"å°±ä¸į":8604,"è°ĥè¯ķ":8605,"ç¾İå¥½çļĦ":8606,"æķĻèĤ²çļĦ":8607,"æ°´ç¨»":8608,"æĺ¯åĽ½åĨħ":8609,"å»ĸ":8610,"æ®·":8611,"åľ¨åħ¨çĲĥ":8612,"çºªå¾ĭ":8613,"ä¼ŀ":8614,"å¦ĤåĲĮ":8615,"æ´ģåĩĢ":8616,"å½ĵæĹ¶çļĦ":8617,"ä¸ĢèĪ¬æĿ¥è¯´":8618,"æ²¥":8619,"Ġn":8620,"åıĤè°ĭ":8621,"æİĴåĪĹ":8622,"çĢĳ":8623,"å¤©åłĤ":8624,"æıĲåĩºçļĦ":8625,"Ġ:":8626,"å¦¨":8627,"ä¹ĺå®¢":8628,"å¼ĢåĪĽ":8629,"çĶ·åŃ©":8630,"çĽ´æµģ":8631,"éĹ¨åºĹ":8632,"è½§":8633,"æĿĳåºĦ":8634,"ãĤ¤":8635,"çŃīæĸ¹éĿ¢çļĦ":8636,"åĬłå·ŀ":8637,"çĲĨè´¢":8638,"æĺı":8639,"æī§ä¸ļ":8640,"æľīè®¸å¤ļ":8641,"èĲ¥æĶ¶":8642,"æ·Ħ":8643,"æĳ©æīĺ":8644,"å©·":8645,"èĲ½åĲİ":8646,"ä¸Ńå¿ĥçļĦ":8647,"ä¸Ĭåıĳè¡¨":8648,"ä½Ĩä»ĸ":8649,"ç§įç§į":8650,"åłªç§°":8651,"ç»ıéĶĢåķĨ":8652,"ä¸ªäººä¿¡æģ¯":8653,"å½©èī²":8654,"èµĭäºĪ":8655,"éĴ¢æĿ¿":8656,"LO":8657,"åİ¿æĶ¿åºľ":8658,"ä¹Łå°±æĺ¯è¯´":8659,"äºĨè§£åĪ°":8660,"æĦŁåħ´è¶£":8661,"æĢ§åĪ«":8662,"åīįéĶĭ":8663,"ç©¿è¶Ĭ":8664,"æĺ¯æĹ¥æľ¬":8665,"éŃĶæ³ķ":8666,"åħļå§Ķåī¯ä¹¦è®°":8667,"å¤ļè¾¾":8668,"åİĨç»ı":8669,"å¤©æĸĩ":8670,"éļıæĦı":8671,"ä½įçļĦ":8672,"åĢĻéĢī":8673,"ç®¡çĲĨäººåĳĺ":8674,"Ñģ":8675,"çİĩé¢Ĩ":8676,"ä¸Ĭä¼ł":8677,"Ar":8678,"èĪªçıŃ":8679,"åĮĻ":8680,"å¤įåį°":8681,"å®¶çĶ¨":8682,"ä»ĺåĩº":8683,"å±ł":8684,"age":8685,"æĢ¥æĢ§":8686,"åĪ¹":8687,"ç§»æ¤į":8688,"åĮĪ":8689,"çļĦæĸĩåĮĸ":8690,"æĺİå¤©":8691,"å½¢å®¹":8692,"æ¢Ń":8693,"Ġåħ¬åı¸":8694,"ä¸ĭæĿ¥çļĦ":8695,"åŀĭä¼ģä¸ļ":8696,"æµģæ°´":8697,"è¾¹çļĦ":8698,"ick":8699,"åĩºèĩª":8700,"è¿Ļæ®µ":8701,"æ£ĺ":8702,"æķ£æĸĩ":8703,"ä¹Ķæ²»":8704,"ä¸Ĭåİ»":8705,"æĬĢæľ¯åĪĽæĸ°":8706,"éŀį":8707,"åī§åľº":8708,"æ³¨å°Ħ":8709,"çļĦåıĳçĶŁ":8710,"å¢ĥå¤ĸ":8711,"ä¹¡æĿĳæĮ¯åħ´":8712,"å¤ļåħĥåĮĸ":8713,"Th":8714,"éķģ":8715,"åŁł":8716,"ç¹ģæ®ĸ":8717,"éĩĳå¥ĸ":8718,"åĲĪä¼Ļ":8719,"çĪ±å¥½èĢħ":8720,"ï¼Ĳ":8721,"çŃīæĸ¹å¼ı":8722,"è¢«èªīä¸º":8723,"éĻ¤å°ĺ":8724,"åıĳçİ°äºĨ":8725,"éº¦åħĭ":8726,"az":8727,"ä¸»è¦ģä»¥":8728,"è®¾è®¡åĴĮ":8729,"è¯¥æĿĳ":8730,"å»ºè®¾å·¥ç¨ĭ":8731,"éĢļè¿ĩäºĨ":8732,"åº·çĨĻ":8733,"é¢Ĩè¢ĸ":8734,"Ġ/":8735,"æľīæľºä¼ļ":8736,"å®¶åĽŃ":8737,"æĢ§å¥½":8738,"ä»¥èī²åĪĹ":8739,"èĬ±çĶŁ":8740,"ä¹¦éĻ¢":8741,"ug":8742,"å®ŀéĻħæĥħåĨµ":8743,"èĤ¡ä»·":8744,"æĭ¾":8745,"è°ĪåĪ¤":8746,"sp":8747,"Ġä¸º":8748,"ä¹¦åĨĻ":8749,"ä¸ĢçĻ¾":8750,"ç¥ŀå¥ĩ":8751,"çīĽå¥¶":8752,"å¡Ķå°Ķ":8753,"å¸ĥæľĹ":8754,"ä¿Ĺç§°":8755,"åıĺåĬ¨":8756,"çĦ¦èĻĳ":8757,"åĮĹç¾İ":8758,"è£ħæľº":8759,"km":8760,"ä¸ŃåİŁ":8761,"æľºæŀĦçļĦ":8762,"æĸ¥":8763,"ä¼łè¾¾":8764,"ä»·åĢ¼çļĦ":8765,"ä½¿çĶ¨èĢħ":8766,"é©³":8767,"æĦŁåºĶ":8768,"åī¯æł¡éķ¿":8769,"åŀĭçļĦ":8770,"åĮĹæµ·":8771,"çļĦåħ¶ä»ĸ":8772,"èĲĥ":8773,"åıĺé¢ĳ":8774,"èĬľ":8775,"è¿Ļåı¥è¯Ŀ":8776,"æĭľä»ģ":8777,"Ġ)":8778,"æĹ¶æľº":8779,"æ°ĶçļĦ":8780,"æľīä¸ĢäºĽ":8781,"å¢ŀè¿Ľ":8782,"æĪĳä»¬ä¼ļ":8783,"åļ":8784,"çĽĳçĲĨ":8785,"åĴ³":8786,"HD":8787,"ä½ľé£İ":8788,"æ¯Ķçī¹":8789,"äºĮä¸ĸ":8790,"æĿĥåĬĽ":8791,"çĽ¼":8792,"èĬ±åįī":8793,"ä¸ŃæīĢ":8794,"åĽŀå¤į":8795,"çŃīçī¹çĤ¹":8796,"æııåĨĻ":8797,"åĸĦäºİ":8798,"çĶŁäº§ä¼ģä¸ļ":8799,"å°ıéº¦":8800,"çĻ¾ç§ĳ":8801,"æĺ¥å¤©":8802,"ç§ĳåŃ¦çłĶç©¶":8803,"å¤§éħĴåºĹ":8804,"ç¥ŀçļĦ":8805,"èī°éļ¾":8806,"æķĻå¯¼":8807,"èĪĨ":8808,"NG":8809,"åĲ¯çĶ¨":8810,"æ±ĩæĬ¥":8811,"åı¯è°ĵ":8812,"æł·åŃĲ":8813,"éĻ¤æŃ¤ä¹ĭå¤ĸ":8814,"ä¸Ģå¥Ĺ":8815,"åĲĪèµĦ":8816,"æĺĨèĻ«":8817,"ä¸įåĩº":8818,"å¹³ç±³":8819,"ç»Ļäºº":8820,"åĬłæ²¹":8821,"åģĩæĹ¥":8822,"æĴ¤éĶĢ":8823,"åħ¨æ°ĳ":8824,"åįļå£«çĶŁå¯¼å¸Ī":8825,"]ãĢĤ":8826,"ç»Ĩèĩ´":8827,"æ½į":8828,"è¤Ĳèī²":8829,"å¤§å¤«":8830,"ä¸Ľä¹¦":8831,"ä¸ŃåĴĮ":8832,"åħīçĶµ":8833,"çŃīå¤ļä¸ª":8834,"æº¶è§£":8835,"çļĦçĬ¶æĢģ":8836,"éļıæľº":8837,"çıŃåŃĲ":8838,"æ¡ĤæŀĹ":8839,"ä¸ļçļĦ":8840,"èı±":8841,"åº§è°Ī":8842,"é¢ĨåħĪçļĦ":8843,"ä¸ªæĿĳæ°ĳå°ıç»Ħ":8844,"åı¯æł¹æį®":8845,"å¤ĸæ±ĩ":8846,"ä¸ĭä¸ĢæŃ¥":8847,"è¾ĥå°ı":8848,"é»ĳæļĹ":8849,"èĢĮåĩº":8850,"æ¢Ĺ":8851,"ep":8852,"åĽºå®ļèµĦäº§":8853,"tern":8854,"åħ´å¥ĭ":8855,"å°Ĩç»§ç»Ń":8856,"åĮºåĿĹéĵ¾":8857,"æľīèī²":8858,"çģ¿":8859,"æĶ¾å¤§":8860,"æłĩé¢ĺ":8861,"ç¬ĭ":8862,"æĦıä¸º":8863,"çļĦæľĢ":8864,"ä¿ĿæĬ¤åĮº":8865,"æľįçĶ¨":8866,"çģ«è½¦":8867,"åĩłç§į":8868,"ä¹Ĳè§Ĥ":8869,"è¾ĥå¥½":8870,"è¿Ļå¯¹":8871,"orm":8872,"æī¿è½½":8873,"å²ģæĹ¶":8874,"å¯ĨéĽĨ":8875,"èªĵ":8876,"å°ĨæĿ¥":8877,"å±Ģå±Ģéķ¿":8878,"ç²īæľ«":8879,"are":8880,"äºĭçī©":8881,"æľīæĹ¶åĢĻ":8882,"æĸ°æĿĲæĸĻ":8883,"âĺ":8884,"æľ¬çĿĢ":8885,"æ¸ħéĻ¤":8886,"MV":8887,"Cl":8888,"ãģĹ":8889,"ä½ĳ":8890,"ä¼ļå¯¹":8891,"ä¸Ģä¹Ŀ":8892,"çļĦæĢ»":8893,"æĬ¬":8894,"ç¥Ģ":8895,"SS":8896,"æŃ¦æľ¯":8897,"åħ¬æŃ£":8898,"æĺ¯åĽ½å®¶":8899,"åŃ¦æľŁ":8900,"åħĪåĲİåľ¨":8901,"éĽį":8902,"å¤ĸå½¢":8903,"å¡ĳèĥ¶":8904,"ï¹":8905,"ç»ĻæĪĳ":8906,"ä¸ĭè®¾":8907,"ä¸Ģä¹¦":8908,"è¯´æĺ¯":8909,"æ³»":8910,"é«ĺèģĮ":8911,"æĹ©ä¸Ĭ":8912,"çļĦé£İ":8913,"åħ¥ä¾µ":8914,"æ±Ģ":8915,"åºĲ":8916,"å¤§çĲĨ":8917,"ï¼īï¼Ī":8918,"çĤĸ":8919,"å®īåİ¿":8920,"å½¬":8921,"ç³»åĪĹäº§åĵģ":8922,"è¿ĳä»£":8923,"è·¯åı£":8924,"ĠZ":8925,"ä¹°åįĸ":8926,"åĢ¾åĲĳ":8927,"èĸĦèĨľ":8928,"å¸¸å§Ķä¼ļ":8929,"èĢķåľ°éĿ¢ç§¯":8930,"ace":8931,"äº¬ä¸ľ":8932,"æĹ¶æľŁçļĦ":8933,"æ£Ģå¯ŁéĻ¢":8934,"ä¸ªæĢ§åĮĸ":8935,"æ³¼":8936,"éĶ¥":8937,"ire":8938,"çļĦä¼ĺåĬ¿":8939,"ç¦¾":8940,"ial":8941,"æĪĳè§īå¾Ĺ":8942,"CPU":8943,"å®ŀä¸ļ":8944,"èĨĢ":8945,"æĢĢåŃķ":8946,"åĲįå®¶":8947,"çĶŁäº§ç»ıèĲ¥":8948,"åĴı":8949,"åħ¨æĹ¥åĪ¶":8950,"éĺ²å®Ī":8951,"æīĭåĬ¨":8952,"è±¹":8953,"åħļç»Ħç»ĩ":8954,"å·¥ä¸ļå¤§åŃ¦":8955,"çĥĪå£«":8956,"ç£ħ":8957,"èĴ¸åıĳ":8958,"æĦıå¿Ĺ":8959,"äºīå¤º":8960,"ç®Ĺæĺ¯":8961,"æľ¬ç½ĳ":8962,"å¦Ĥæŀľæĺ¯":8963,"æ½®æµģ":8964,"erv":8965,"ç¬¬äºĮå±Ĭ":8966,"éº»çĥ¦":8967,"çīµå¤´":8968,"æ¸¸æĪıçļĦ":8969,"åŃ¦ä¼ļä¼ļåĳĺ":8970,"åı¸æľº":8971,"ä»ħæ¬¡äºİ":8972,"åľ¨ä¸Ĭ":8973,"ä¹ĺåĿĲ":8974,"æļ´éľ²":8975,"åĽ½æ°ĳåħļ":8976,"åĲįä¹ī":8977,"å¤§å®¶éĥ½":8978,"æĪĳå°±":8979,"æµģåŁŁ":8980,"ä¸İç®¡çĲĨ":8981,"åĿĩè¡¡":8982,"ä¸ĭæ»ĳ":8983,"åĥµ":8984,"åĴ¬":8985,"éħįæĸ¹":8986,"éĩĮç¨ĭ":8987,"é«ĺåİŁ":8988,"ä¸ŃåĽ½å½ĵä»£":8989,"å°ĶçļĦ":8990,"çļĦé£İéĻ©":8991,"è¿ľç¦»":8992,"åıĹçĽĬ":8993,"è¯ı":8994,"åĽ½éĻħæľºåľº":8995,"å°ıåŃ©":8996,"ash":8997,"åħ¨èĩªåĬ¨":8998,"éħ¸çĽĲ":8999,"æĺ¯åı¯ä»¥":9000,"ä¸ĢæĹ¥":9001,"çĶ¨äººåįķä½į":9002,"ä¸ªç¯®æĿ¿":9003,"äºıæįŁ":9004,"åĶĩ":9005,"åĻ¨å®ĺ":9006,"ç¯Ĩ":9007,"æĺİä»£":9008,"äº¤çķĮ":9009,"æľĿéĺ³":9010,"ä¸ĵèĳĹ":9011,"åĪ¶ä½ľçļĦ":9012,"éĺ»æŃ¢":9013,"æİ§åĪ¶åĻ¨":9014,"«çĹ":9015,"ä¸Ģæ®µæĹ¶éĹ´":9016,"åľ¨åīį":9017,"çļĦæĦıæĢĿ":9018,"éģĵçĲĨ":9019,"ä¸Ģå¼Ģå§ĭ":9020,"ä¾µçĬ¯":9021,"åįĥå¹´":9022,"æī¶æĮģ":9023,"è¯ķåīĤ":9024,"åĶ¯ä¸ĢçļĦ":9025,"çīĻé½¿":9026,"Pro":9027,"è·Łéļı":9028,"ä¸įåıĬ":9029,"æĸ¯åħĭ":9030,"æī³":9031,"çģ¯åħī":9032,"æ´¥è´´":9033,"æīĢè¿°":9034,"æŃ¦æ±īå¸Ĥ":9035,"æ»ķ":9036,"äºļåĨĽ":9037,"çļĦèĢģ":9038,"ä¸ŃåĽ½å¤§éĻĨ":9039,"éĽķåĪ»":9040,"ä½ĨçĶ±äºİ":9041,"ä¸Ģåıª":9042,"é¢ĳç¹ģ":9043,"å·©åĽº":9044,"åħ¬åħĥåīį":9045,"æĶ¶åıĸ":9046,"çĽ´è¾ĸ":9047,"æĶ»åĿļ":9048,"åħ·æľīèī¯å¥½çļĦ":9049,"ä¸įä½ı":9050,"ond":9051,"èģĶåĬ¨":9052,"åºĶèģĺ":9053,"æ·³":9054,"æľīæ²¡æľī":9055,"æĸĩçī©ä¿ĿæĬ¤åįķä½į":9056,"é¢ĦèŃ¦":9057,"çĻ½äºĳ":9058,"å¯¼å¼¹":9059,"è§ĤéŁ³":9060,"èŃ¦åĳĬ":9061,"ä¸¾è¡ĮçļĦ":9062,"çĦ°":9063,"å·¥ç¨ĭæĬĢæľ¯":9064,"æĿ¥è®²":9065,"æŁıæŀĹ":9066,"ï¼ļãĢĮ":9067,"æĺŁçº§":9068,"çĶŁäº§åŁºåľ°":9069,"ä¸Ļçĥ¯":9070,"éªĦ":9071,"æĬķæĶ¾":9072,"åģĩæľŁ":9073,"èģĶæĥ³":9074,"åĲĳä¸Ĭ":9075,"åĸĬ":9076,"æĿ¿çļĦ":9077,"ä¼Łå¤§":9078,"éĤ¹":9079,"åľ£è¯ŀ":9080,"è¶³å¤ŁçļĦ":9081,"åľŃ":9082,"å¤ļå½©":9083,"æ¦Ħ":9084,"åıĳæİĺ":9085,"æľīæľĽ":9086,"çŁ¥çļĦ":9087,"å±ħå§Ķä¼ļ":9088,"å¥¥æŀĹåĮ¹":9089,"å¥³çĶŁ":9090,"ll":9091,"è§£åĨ³éĹ®é¢ĺ":9092,"çģ«éĶħ":9093,"åģ¶åĥı":9094,"åĩºçīĪç¤¾åĩºçīĪ":9095,"æĿĳä½įäºİ":9096,"è½¬ä¼ļ":9097,"ä¸¾æĬ¥":9098,"éĿłè¿ĳ":9099,"äº§åľ°":9100,"ä¸įæĸŃæıĲé«ĺ":9101,"éķ¿å¤§":9102,"å¥½åıĭ":9103,"ä¸Ńå°ıåŃ¦":9104,"è®¾å¤ĩåĴĮ":9105,"å¤§åľ°":9106,"æĻĸ":9107,"åįķçº¯":9108,"ç»ĪæŃ¢":9109,"æĿ¥çľĭçľĭ":9110,"éºĵ":9111,"EL":9112,"åĨ³å¿ĥ":9113,"nt":9114,"ç»įåħ´":9115,"åĪĨè¾¨çİĩ":9116,"çļĦèīºæľ¯":9117,"åĵ¦":9118,"å®¤å¤ĸ":9119,"çĸĹæķĪ":9120,"çĸ¯çĭĤ":9121,"åħ¼èģĮ":9122,"çļĦæķĻèĤ²":9123,"ä¸īæ¬¡":9124,"åĲįèªī":9125,"æ¢ħè¥¿":9126,"åŃµ":9127,"å£«åħµ":9128,"è¿ĩå¤ļ":9129,"åľ¨ä»ĸ":9130,"çļĦäººæīį":9131,"èĥ½èĢĹ":9132,"åĲİæŀľ":9133,"æĮĩä»¤":9134,"åĬŁå¤«":9135,"èĢĮå·²":9136,"æ¨Ĭ":9137,"åĬ³åĬ¡":9138,"éĴ¥":9139,"æľīä¸ª":9140,"å±±çļĦ":9141,"æĢ»éĩı":9142,"çĶ¨è½¦":9143,"âĢĿï¼Ľ":9144,"ç¡¬çĽĺ":9145,"åĳ³çļĦ":9146,"éŁ³é¢ĳ":9147,"æ¼ĶåĶ±ä¼ļ":9148,"OR":9149,"åŀ¢":9150,"æŀģå¤§çļĦ":9151,"ä¸Ńè¶ħ":9152,"åĶĲä»£":9153,"çĽ¸éĤ»":9154,"è¾ĥå°ĳ":9155,"çľģå§Ķ":9156,"åĨħåľ¨":9157,"æ©ĺ":9158,"ç¼ºå°ĳ":9159,"è¿Ń":9160,"çĸĳéĹ®":9161,"æīĢéľĢçļĦ":9162,"å¾®è½¯":9163,"å¤´åıĳ":9164,"å£®å¤§":9165,"èĥĮæĻ¯ä¸ĭ":9166,"è½¨éģĵäº¤éĢļ":9167,"act":9168,"çĶµè§£":9169,"åįļå£«åĲİ":9170,"å¢©":9171,"SP":9172,"çĶ±ä¸ŃåĽ½":9173,"æīĵè¿Ľ":9174,"åĪĨæł¡":9175,"åĩºè¡Ģ":9176,"è¡Įä¸ļåįıä¼ļ":9177,"ç»ĵç®Ĺ":9178,"æīĢä»¥åľ¨":9179,"èı²å¾ĭ":9180,"åħ¨åĮº":9181,"æĹ¶ä»»":9182,"çĸ²åĬ³":9183,"éĩī":9184,"çİ¯å¢ĥä¸Ń":9185,"ber":9186,"æ¼³":9187,"çļĦåı¯":9188,"å¥¹åľ¨":9189,"éķĢéĶĮ":9190,"æ¦Ĩ":9191,"æ´¾éģ£":9192,"ä¸įåı¯èĥ½":9193,"åĴĮä¸ŃåĽ½":9194,"èĢĮè¢«":9195,"ä½Ļå¹´":9196,"èı²å¾ĭå®¾":9197,"æ³ķçļĦ":9198,"ç¦¹":9199,"ss":9200,"éļĲèĹı":9201,"é£İæĻ¯åĮº":9202,"åĿĲèĲ½åľ¨":9203,"äºĨä¸Ģç§į":9204,"åĵģçļĦ":9205,"å¹¶åħ¥":9206,"è¥¿æ´ĭ":9207,"FT":9208,"ä¸ĬçıŃ":9209,"çķ´":9210,"å¿ĺè®°":9211,"ä»İæľª":9212,"åºŁå¼ĥ":9213,"ç£Ĭ":9214,"æ°ĳä¿Ĺ":9215,"éĩıåŃĲ":9216,"èļķ":9217,"æııç»ĺ":9218,"çŁ¿ä¸ļ":9219,"æĪĲç«ĭä»¥æĿ¥":9220,"æĬķäº§":9221,"å·¥ç¨ĭå»ºè®¾":9222,"éĥ¨éĥ¨éķ¿":9223,"äºĴèģĶ":9224,"è¿ĲåĬ¨ä¼ļ":9225,"å®īåħ¨çļĦ":9226,"pr":9227,"æ²Ļæ¼ł":9228,"åĨ·åĨ»":9229,"äººéĹ´":9230,"\"ãĢĤ":9231,"éĩİçĶŁ":9232,"åĴĮé«ĺ":9233,"ä¸Ģä¸ªæľĪ":9234,"çļĦåīįæıĲ":9235,"èĽĭç³ķ":9236,"çĶŁæ®ĸ":9237,"ä¸įå½ĵ":9238,"ä»·æ¯Ķ":9239,"çĦķ":9240,"æĺ¥åŃ£":9241,"ä¸ŃåĽ½äººæ°ĳè§£æĶ¾åĨĽ":9242,"å»ºåĽ½":9243,"è®¾åľ¨":9244,"æĤ£èĢħåľ¨":9245,"ä¸ºä¸»çļĦ":9246,"åı°ä¸Ń":9247,"æĸĩåĮĸéģĹäº§":9248,"èĬ±è´¹":9249,"å¸ĪèĮĥåŃ¦éĻ¢":9250,"åĲĦéĥ¨éĹ¨":9251,"å¤§èĩªçĦ¶":9252,"æĺ¯ä¸Ģå®¶éĽĨ":9253,"SKF":9254,"æĪĳä¼ļ":9255,"æĻ¶ä½ĵ":9256,"çĨŁç»ĥ":9257,"éĩĳèŀįæľºæŀĦ":9258,"å°ıéķĩ":9259,"å®ŀåĬ¡":9260,"è®¾è®¡ä¸İ":9261,"éĤ®ç®±":9262,"ç¬¬äºĮä¸ª":9263,"åĨįåĬłä¸Ĭ":9264,"EE":9265,"åħĪè¿Ľä¸ªäºº":9266,"çī¹åĪ«æĺ¯åľ¨":9267,"IA":9268,"éĴĽ":9269,"ä¸ŃæľŁ":9270,"ä¼ļå½±åĵį":9271,"èĬĻ":9272,"CN":9273,"æĢ»åħ¬åı¸":9274,"Windows":9275,"å¹¿æĴŃçĶµè§Ĩ":9276,"åĩĮæĻ¨":9277,"æĺĵäºİ":9278,"æ°Ķæģ¯":9279,"åħ¸åŀĭçļĦ":9280,"ä¸Ńåľº":9281,"ç³»ç»Łä¸Ń":9282,"ç´łåħ»":9283,"åºĶè¯¥æĺ¯":9284,"èĳµ":9285,"çĨ¬":9286,"ç«ĭåĪ»":9287,"æĤ£æľī":9288,"åĲĪæ³ķæĿĥçĽĬ":9289,"æģĭçĪ±":9290,"ç«ŁçĦ¶":9291,"æŃ£éĿ¢":9292,"åĢ¼å¾Ĺä¸Ģ":9293,"åŃ¦æĬ¥":9294,"æĸ°åĨłèĤºçĤİ":9295,"è®©ä»ĸä»¬":9296,"è·ŁçĿĢ":9297,"æĪ¿åľ°äº§å¼Ģåıĳ":9298,"åĽłåŃĲ":9299,"å¤±ä¸ļ":9300,"åĩĢæ°´":9301,"çļĦæ¸¸æĪı":9302,"å¼ŁåŃĲ":9303,"åĽ½éĻħåĮĸ":9304,"çłĮ":9305,"ç²¾åĬĽ":9306,"äºĨè®¸å¤ļ":9307,"åħ¶ä¸ŃåĮħæĭ¬":9308,"åį³æĹ¶":9309,"ear":9310,"ä¸¹éº¦":9311,"è¿İæİ¥":9312,"ä¸ĵä¸ļåĮĸ":9313,"DV":9314,"åĳ½ä¸Ń":9315,"æĺ¯éĢļè¿ĩ":9316,"çĪ±å°Ķåħ°":9317,"å¹´åĪ°":9318,"æķ°æį®çļĦ":9319,"ç£¨æįŁ":9320,"çĶ¨æĪ·æıĲä¾Ľ":9321,"æķĻçłĶå®¤":9322,"ä»İæĿ¥":9323,"è¾£æ¤Ĵ":9324,"è¿¦":9325,"éľĢè¦ģæ³¨æĦı":9326,"å®łçī©":9327,"åħļç»ĦæĪĲåĳĺ":9328,"éĹ¨è¯Ĭ":9329,"ç©Ĺ":9330,"åħ¬ä¼Ĺåı·":9331,"çıŃçº§":9332,"éĢļè½¦":9333,"èµ°åĩº":9334,"æĢĢçĸĳ":9335,"ä¸ļä½Ļ":9336,"èĶĵ":9337,"èİĵ":9338,"å¥ĸéĩĳ":9339,"è¿ĩæ¸¡":9340,"åİ¿äººæ°ĳæĶ¿åºľ":9341,"ä¼łç»ŁæĸĩåĮĸ":9342,"è§Ħç«ł":9343,"è¯¥æł¡":9344,"éĢĤå½ĵçļĦ":9345,"æĿ¥èĩªäºİ":9346,"Sc":9347,"ç»Īèº«":9348,"çľģæĶ¿åºľ":9349,"æĹ¢æľī":9350,"çłĶç©¶çļĦ":9351,"æĩĤå¾Ĺ":9352,"çļĦåĵģçīĮ":9353,"åĿ¦åħĭ":9354,"æİ¨åĩºäºĨ":9355,"éĴ¾":9356,"æĪĳä»¬å°±":9357,"çļĦå»ºè®¾":9358,"äºĭå®ľ":9359,"æīĵè´¥":9360,"åŁĥå°Ķ":9361,"çļĦåıĮ":9362,"è®²è¿°äºĨ":9363,"å¸¸æĢģ":9364,"èµ·ä¹ī":9365,"ly":9366,"ç¾İæľ¯é¦Ĩ":9367,"åħ¨åĽ½åĲĦåľ°":9368,"è½¬åĮĸä¸º":9369,"æ¬¢ä¹Ĳ":9370,"å¤ĸåĩº":9371,"æĹłæķĪ":9372,"å¼ĵ":9373,"è¯ķç®¡å©´åĦ¿":9374,"ä¹ĲåĻ¨":9375,"æŁĵèī²":9376,"æĸ°ä¸Ģä»£":9377,"æ¢µ":9378,"CR":9379,"ä¿¡å¿µ":9380,"éĢīæĭĶ":9381,"åıĺéĢŁ":9382,"æįŀ":9383,"ç³Ł":9384,"çļĦæ¯ĶèµĽ":9385,"æĺ¯çĶ¨":9386,"æĿĢæŃ»":9387,"éĤ£å°±æĺ¯":9388,"åģĩå¦Ĥ":9389,"æĭĺ":9390,"æľīæĿĥ":9391,"æ¹¾åĮº":9392,"ä¸įåŃĺåľ¨":9393,"åĢºæĿĥ":9394,"çĥ¦æģ¼":9395,"æĲŃè½½":9396,"çĭĦ":9397,"æ°´å¤ĦçĲĨ":9398,"æµıè§ĪåĻ¨":9399,"ä¹ĭç§°":9400,"äºļåİĨ":9401,"è§ģåĪ°":9402,"åĽ°æī°":9403,"çļĦæĮĩå¯¼":9404,"å±ķè§Īä¼ļ":9405,"ä¸Ģæĸ¹":9406,"åıĤçħ§":9407,"å¾®éĩı":9408,"éĽĨåĲĪ":9409,"åĨħå®¹çļĦ":9410,"è´©":9411,"éħ¥":9412,"èĢĥéªĮ":9413,"è¿½æº¯":9414,"åħ»æĬ¤":9415,"åĪ¶å¤ĩ":9416,"åĲĪä½ľåħ³ç³»":9417,"åºŁçī©":9418,"éĥ¨èĲ½":9419,"ç¤¼çī©":9420,"ç¼Ķ":9421,"æŃ¤ç±»":9422,"æĸ¯å¡Ķ":9423,"åģľè½¦åľº":9424,"å°ĨæĪĲä¸º":9425,"éªı":9426,"åħ¥éĹ¨":9427,"åĿł":9428,"ç«¯çļĦ":9429,"ä¸įäºĪ":9430,"èį§":9431,"çļĦä¸Ģé¡¹":9432,"åķĨåŁİ":9433,"åŃĲå®«":9434,"æ°¨éħ¸":9435,"å°Ĩä»¥":9436,"ä¸Ģå¯¹":9437,"ä¸įåĪ©":9438,"ä¸ľé£İ":9439,"é¡¹çĽ®å»ºè®¾":9440,"åĮ»çĸĹåĻ¨æ¢°":9441,"å¹¶ä¸º":9442,"æĤĦ":9443,"==":9444,"åī¯æĢ»ç»ıçĲĨ":9445,"ä¼ļè¢«":9446,"çļĦæĢģåº¦":9447,"è¿Ļä¸¤ä¸ª":9448,"éļıä¹ĭ":9449,"æĮĩçļĦæĺ¯":9450,"Cç½Ĺ":9451,"ĠâĢĵ":9452,"æĹ¶éĹ´ä¸º":9453,"ç¼ĵæħ¢":9454,"åħĭéĩĮæĸ¯":9455,"åĪĨçļĦ":9456,"æĶ¿æ³ķ":9457,"ä¸ŀ":9458,"æĬ¤æłı":9459,"æ´ĽæĿī":9460,"åįłé¢Ĩ":9461,"éĢģåĪ°":9462,"è¿ĩåİ»çļĦ":9463,"çĪª":9464,"å®ŀè·µä¸Ń":9465,"ä¸īç»´":9466,"æķ·":9467,"åĿĩåı¯":9468,"æ°´äº§":9469,"åįİå¤ı":9470,"åĬ¨èĦī":9471,"ä»ĸè¿ĺ":9472,"æķĻèĤ²åİħ":9473,"æ¼Ķç»İ":9474,"æĿ¿æĿĲ":9475,"çıłå®Ŀ":9476,"ä¸įåģľ":9477,"åĽŀåĽ½":9478,"è´¦åı·":9479,"åĪ°ä½į":9480,"æī©å»º":9481,"SA":9482,"Ġæĸ°":9483,"å¼Ģå±ķäºĨ":9484,"èĢĥåħ¥":9485,"è¿Ļæĺ¯ä¸Ģ":9486,"éĽĨç¾¤":9487,"ç²ª":9488,"ä¼ĺç§ĢæķĻå¸Ī":9489,"åĩĨåĪĻ":9490,"è¿Ħ":9491,"åħ¬åı¸æĭ¥æľī":9492,"å¤ļäºĨ":9493,"ä»Ĭå¹´çļĦ":9494,"ç®¡çĲĨéĥ¨éĹ¨":9495,"æŃ¥ä¼Ĳ":9496,"åħļçļĦäºĮåįģå¤§":9497,"éĿ¢åĮħ":9498,"åľ£ç»ı":9499,"è¡Įç¨ĭ":9500,"å¹¶éĢļè¿ĩ":9501,"ç´¢å°¼":9502,"æĬĢæľ¯ä¸İ":9503,"ä¸Ģæ¬¾":9504,"è¦ģæĥ³":9505,"åĪºåı²":9506,"åĲİåĭ¤":9507,"éĢĤéĩı":9508,"èĳ£äºĭä¼ļ":9509,"æ¸¸æĪıä¸Ń":9510,"è´¯ç©¿":9511,"çļĦåĲĦç§į":9512,"ä½ĵçİ°äºĨ":9513,"çļĦç©ºéĹ´":9514,"çĽ¸åħ³éĥ¨éĹ¨":9515,"éĺŁåıĭ":9516,"äººå¤§å¸¸å§Ķä¼ļ":9517,"ç»ıåİĨäºĨ":9518,"è¯¢éĹ®":9519,"App":9520,"æĹłæľº":9521,"åĩłä½ķ":9522,"èĦ±ç¦»":9523,"å»ºæľī":9524,"åĽŀé¡¾":9525,"pe":9526,"å¸Ĥä¸Ńå¿ĥ":9527,"åīįåĪĹ":9528,"ä½ľäºĨ":9529,"æľŁåĨħ":9530,"ä¸ĵä¸ļå§Ķåĳĺä¼ļ":9531,"ath":9532,"èģĮä¸ļæĬĢæľ¯åŃ¦éĻ¢":9533,"Ġçİĭ":9534,"åį³ä¾¿":9535,"kg":9536,"éĺª":9537,"é¢Ĩåıĸ":9538,"åĪĨåĮº":9539,"è°ĥæİ§":9540,"ä¼ĺè´¨çļĦ":9541,"UV":9542,"ä¸ŃåįĹ":9543,"è§£æŀĲ":9544,"åĴĮåĽ½å®¶":9545,"æİ¥åĪ°":9546,"æĬ¥çº¸":9547,"ä¿¡æīĺ":9548,"åºĶåĬĽ":9549,"ä¸¤åĽ½":9550,"æ·»åĬłåīĤ":9551,"åŃ¢":9552,"ç»¸":9553,"åı¯ä»¥å¸®åĬ©":9554,"ä¸įéĶĻçļĦ":9555,"æľĢæľī":9556,"æ´ĽæĿīçŁ¶":9557,"çªģåıĳ":9558,"ĠåĲį":9559,"ä¸įå¤§":9560,"åľ°åĪ©":9561,"Ġr":9562,"æ²īç§¯":9563,"åĮĸåĴĮ":9564,"åŁºæľ¬ä¿¡æģ¯":9565,"å¤ĸè´¸":9566,"çļĦæ´»åĬ¨":9567,"æ³ķæ²»":9568,"çłĶç©¶æĸ¹åĲĳ":9569,"æīĢè°ĵçļĦ":9570,"äºĮæīĭ":9571,"éĴĵ":9572,"å°Ĩæĺ¯":9573,"èĽĽ":9574,"ä¸»è¦ģåĮħæĭ¬":9575,"ç¾İæľ¯åŃ¦éĻ¢":9576,"çľĭæ³ķ":9577,"åľ¨æĪĳ":9578,"æ·±çļĦ":9579,"é«ĺæ¡£":9580,"èī²ç´ł":9581,"éĢłä»·":9582,"å¾¡åı²":9583,"æķŀ":9584,"æ²¼":9585,"è½®èĥİ":9586,"CT":9587,"çļĦç»ıæµİ":9588,"ä¹Ŀé¾Ļ":9589,"å®¢äºº":9590,"çī¡ä¸¹":9591,"ä¸įè§ģ":9592,"çİ¯çĲĥ":9593,"åĮ»åŃ¦ä¼ļ":9594,"ç¬Ķè¯ķ":9595,"å¹¶åıĳ":9596,"å°ıç±³":9597,"åįĹéĢļ":9598,"æĮ½":9599,"èĤĩ":9600,"æ¶Īè´¹èĢħçļĦ":9601,"å¤©ç©º":9602,"éķ¿çº¦":9603,"èĨĿ":9604,"IF":9605,"èĥ¶åĽĬ":9606,"ail":9607,"æĭĨéĻ¤":9608,"åĨħç½®":9609,"çĬ¹å¤ª":9610,"å¤ĩåıĹ":9611,"çľ¼éķľ":9612,"çŀ»":9613,"æľĢæĸ°çļĦ":9614,"å®ĥä»¬çļĦ":9615,"èĢĲèħĲèļĢ":9616,"èĨ³":9617,"ä¸Ĭç½ĳ":9618,"æĢģåĬ¿":9619,"æĸ°äºº":9620,"æµģä½ĵ":9621,"è°¢è°¢":9622,"ä¸Ģæ¬¡æĢ§":9623,"ç¥ĸçĪ¶":9624,"éģŃåıĹ":9625,"çļĦæ¦Ĥå¿µ":9626,"éĶĢåĶ®é¢Ŀ":9627,"aw":9628,"çº¦æĿŁ":9629,"æľĢç»Īç»ĵæŀľ":9630,"éģįå¸ĥ":9631,"åİķ":9632,"åı¯ä¾Ľ":9633,"èİ«æĸ¯ç§ĳ":9634,"ç«ĸ":9635,"æ¯ıä¸Ģä½į":9636,"SO":9637,"æĢ§ä»·æ¯Ķ":9638,"äº®çĤ¹":9639,"æĪĳä¹Ł":9640,"çĿ¡è§ī":9641,"ä¼ĬæľĹ":9642,"æĪĺæľ¯":9643,"çīĩçļĦ":9644,"ä¸İä¸ŃåĽ½":9645,"æŀģåħ¶":9646,"éĶ¤":9647,"åĨľä¸ļå¤§åŃ¦":9648,"ä¸Ńè¥¿åĮ»":9649,"éĽ·æĸ¯":9650,"çĶ¨å¿ĥ":9651,"åĩºäºİ":9652,"æĺ¯è¦ģ":9653,"çĶ¨äºĨ":9654,"æºĲèĩª":9655,"åĩºèī²çļĦ":9656,"çŃ¾è¯ģ":9657,"ä¸Ģå±Ĥ":9658,"éĺŁä»¥":9659,"å¼¯æĽ²":9660,"å¯¹ç§°":9661,"çĸ®":9662,"èĬŃ":9663,"ä»Ĩ":9664,"åįİåĮĹ":9665,"ost":9666,"å®Įæ¯ķ":9667,"ä¸ºæľŁ":9668,"æ²¡æľīä»»ä½ķ":9669,"çŁ¿çī©":9670,"ä¹Ļæĸ¹":9671,"å±±å¤§":9672,"ä»Ĺ":9673,"æĽ¾å¤ļæ¬¡":9674,"ä¸ºP":9675,"ç«Ļå¼ı":9676,"Âł":9677,"åıĳå±ķæľīéĻĲåħ¬åı¸":9678,"æ³¨çĽ®":9679,"å®¢æľį":9680,"åĪ¤åĨ³":9681,"éĹ¨åı£":9682,"åľ°å½¢":9683,"æłĩæľ¬":9684,"èĤ²äºº":9685,"ãĥĪ":9686,"ç¯ĩæĸĩç«ł":9687,"ĠCom":9688,"å®Ľ":9689,"èĻŀ":9690,"çĪµå£«":9691,"lay":9692,"å¹ħåº¦":9693,"å®ĿçŁ³":9694,"éħļ":9695,"æłĩè®°":9696,"åľ¨æĪĳåĽ½":9697,"ment":9698,"åŃĺæ¬¾":9699,"çĶĦ":9700,"ä½ľä¸ºä¸Ģä¸ª":9701,"èķī":9702,"åĪĽéĢłäºĨ":9703,"äººæ°ĳä»£è¡¨å¤§ä¼ļ":9704,"ä½ĵèĤ²åľº":9705,"åĮºåĨħ":9706,"æīĭä¸Ń":9707,"æİ¥åħ¥":9708,"èĥ½å¤Łåľ¨":9709,"åı¯çĪ±":9710,"âī":9711,"çļĦéĩįè¦ģæĢ§":9712,"],":9713,"æ°Ķè´¨":9714,"åħ¬å®īå±Ģ":9715,"éĺĲè¿°":9716,"é£ŁæĿĲ":9717,"åł°":9718,"æľīä¸Ģå®ļçļĦ":9719,"å²ģæľĪ":9720,"çļĦéŁ³ä¹Ĳ":9721,"æ¶Ĥå±Ĥ":9722,"Ġå¼ł":9723,"å®ļä¸º":9724,"æĶ¶ç¼©":9725,"è°ĥåº¦":9726,"åıªä¸įè¿ĩ":9727,"æ»¨æµ·":9728,"æĹ¶ç©º":9729,"å¼ĢäºĨ":9730,"æĻ®æŁ¥":9731,"GA":9732,"ä»¿ä½Ľ":9733,"åįİçĽĽ":9734,"æİĴæŁ¥":9735,"æĶ¹å»º":9736,"å·¥ç¨ĭæľīéĻĲåħ¬åı¸":9737,"æĨ¾":9738,"ä¸ªäººçļĦ":9739,"èģªæĺİ":9740,"èį«":9741,"éĹ´æİ¥":9742,"éĩįè¿Ķ":9743,"èĢħåĴĮ":9744,"ä½ĻåĲį":9745,"åĨ¬å¤©":9746,"è¯ł":9747,"ä¹Ĳè¶£":9748,"è¶³åįı":9749,"æį¢çĥŃ":9750,"çļĦèĬ±":9751,"åı¯ä»¥çĶ¨":9752,"åŃ¦æľ¯è®ºæĸĩ":9753,"å¸¦å¤´äºº":9754,"ä¸Ńè¢«":9755,"æł¸åĩĨ":9756,"æķ°çĻ¾":9757,"Ġ\"":9758,"äº§ä¸ļçļĦ":9759,"çľĭåĪ°äºĨ":9760,"æ¾ľ":9761,"åĭĭç«ł":9762,"æīĢå¾Ĺç¨İ":9763,"å¯¹æĪĳ":9764,"çĥŃçĥĪ":9765,"ps":9766,"éĥ½éľĢè¦ģ":9767,"ä¸įæĸŃåľ°":9768,"BM":9769,"æį§":9770,"å¤ļä¸º":9771,"çĶ²æĸ¹":9772,"æĺ¨å¤©":9773,"æĺ¯å°Ĩ":9774,"æĪĳè¦ģ":9775,"\"ãĢģ":9776,"èĶļ":9777,"çĶ²åŁº":9778,"çģµæĦŁ":9779,"è§ĦèĮĥåĮĸ":9780,"æĮĤçīĮ":9781,"æĭ¿ä¸ĭ":9782,"åľ¨æĹ¥æľ¬":9783,"åĪĿå¿ĥ":9784,"å¯ĮåĲ«":9785,"çŁ«":9786,"ç§°ä½ľ":9787,"çº¿æĢ§":9788,"äººæĢ§":9789,"æĢ»æĶ¶åħ¥":9790,"è¯´è¿ĩ":9791,"åĬ¨åĳĺ":9792,"åĭī":9793,"çī©æµ¦":9794,"æĳĶ":9795,"ork":9796,"ĠæĹ¥":9797,"äººå¤§ä»£è¡¨":9798,"è°£":9799,"ç°§":9800,"ç¡¬åĮĸ":9801,"åĲ«ä¹ī":9802,"ä¸Ģåĳ¨":9803,"å·¥åºı":9804,"int":9805,"å°ıç¨ĭåºı":9806,"æłıçĽ®":9807,"ä»İä¸Ń":9808,"éĻªä¼´":9809,"åĴĮå¤§":9810,"ç©¿çĿĢ":9811,"éĻĦè¿ĳçļĦ":9812,"ä»²è£ģ":9813,"è´µæĹı":9814,"äºĨå¯¹":9815,"æ¯Ķéĩį":9816,"DC":9817,"è¯±åıĳ":9818,"æİĴè¡Įæ¦ľ":9819,"å¹³çŃī":9820,"å±ĭé¡¶":9821,"æĺ¾ç¤ºå±ı":9822,"çļĦå¼Ģ":9823,"å®īä¸ľ":9824,"çģ¶":9825,"åĥıæĺ¯":9826,"æľįåĬ¡å¹³åı°":9827,"å¥ĸåŃ¦éĩĳ":9828,"per":9829,"æľĪç»ı":9830,"å¥¥æŀĹåĮ¹åħĭ":9831,"éĴ¢çŃĭ":9832,"å¤įåıĳ":9833,"åī§åĽ¢":9834,"ä¹Łä¸º":9835,"ç»ĵæŀĦçļĦ":9836,"è¾¾æłĩ":9837,"Ð¾Ð":9838,"æĹ¢çĦ¶":9839,"åĲĳåīį":9840,"åĨĽäºº":9841,"ä¸ľèİŀå¸Ĥ":9842,"ä¹ĭåĨħ":9843,"çİ¯æ°§":9844,"æħ¨":9845,"åī§ä¸Ń":9846,"åħħåĪĨåĪ©çĶ¨":9847,"è¶ĬæĿ¥è¶Ĭå¤ļçļĦ":9848,"æ³ķå®ĺ":9849,"èĽ®":9850,"NT":9851,"åıĳæĶ¹":9852,"çļĦåĬĽéĩı":9853,"ç¢°æĴŀ":9854,"åĪĨå±Ģ":9855,"è½¿":9856,"è¿ĳå¹´":9857,"èģļåĲĪ":9858,"åįķä½įçļĦ":9859,"çŁ®":9860,"æī¬å·ŀ":9861,"æ·Ģç²ī":9862,"FC":9863,"æºī":9864,"ï¼Ĵ":9865,"äº¤æ±ĩ":9866,"æĺŁåº§":9867,"XX":9868,"åĬŁèĥ½çļĦ":9869,"åıĺä¸º":9870,"åıĳçĥŃ":9871,"æĪĺåĽ½":9872,"çłĶç©¶åĴĮ":9873,"ational":9874,"åĪ©çī©æµ¦":9875,"æĦŁæģ©":9876,"æ¸©å®¤":9877,"å®īç½®":9878,"è¿ľè¿ľ":9879,"åĲīç¥¥":9880,"ä¸įä¸Ĭ":9881,"ide":9882,"åĲĮç±»":9883,"èº«ä½ĵçļĦ":9884,"çŁ³å¤´":9885,"Ġsh":9886,"äºĮæľŁ":9887,"âĦĥï¼Į":9888,"çŁ¢":9889,"åĲ¯åıĳ":9890,"PU":9891,"èģĺçĶ¨":9892,"åĲİéĿ¢":9893,"å·²åľ¨":9894,"æĺİå¹´":9895,"åĬ¿åĬĽ":9896,"æľįåĬ¡äºİ":9897,"ç±³å°Ķ":9898,"èĢĲå¿ĥ":9899,"è°¨æħİ":9900,"å®³æĢķ":9901,"çģ«æĺŁ":9902,"éĢīé¡¹":9903,"è¡įçĶŁ":9904,"æĢİä¹ĪåĬŀ":9905,"éĹ·":9906,"åįİä¸Ń":9907,"çģ¸":9908,"åİŁæľī":9909,"åĨľåİĨ":9910,"åįĩé«ĺ":9911,"çļĦå»ºçŃĳ":9912,"å®ļçĤ¹":9913,"æ³°å±±":9914,"ç¬¬ä¸ĢæĹ¶éĹ´":9915,"çłį":9916,"åįĹæµ·":9917,"æĢ»è®¡":9918,"åĲĪä½ľç¤¾":9919,"åħīè°±":9920,"åı£åĳ³":9921,"æŃ£å¦Ĥ":9922,"æŀķ":9923,"æĻķ":9924,"åĿļå®ŀ":9925,"èµļéĴ±":9926,"å°Ĩè¿ĳ":9927,"åİ¿éķ¿":9928,"éĻįæ°´éĩı":9929,"å¼Łå¼Ł":9930,"éŃģ":9931,"çļĦéĤ£":9932,"èĺ":9933,"åĲĮæĹ¶ä¹Łæĺ¯":9934,"åºıåĪĹ":9935,"è¿Ĳæ²³":9936,"æĸ°ä¸Ģ":9937,"èĩ³åħ³":9938,"äºİæŃ¤":9939,"Ľèµ·":9940,"åĪĨæĪĲ":9941,"ãģĭ":9942,"åĪ¶çīĩ":9943,"æłĸæģ¯":9944,"ç¥·":9945,"æĿł":9946,"å¾Īé«ĺçļĦ":9947,"èµĦæºĲçļĦ":9948,"å·¥åĨľ":9949,"æ²Ľ":9950,"ç¤¼åĵģ":9951,"æİĮæİ§":9952,"æī§çħ§":9953,"çĦļ":9954,"äºĨä¸ĢäºĽ":9955,"èĩªæĦ¿":9956,"è®©èĩªå·±":9957,"åĴĮä¸ªäºº":9958,"çŁ¿äº§":9959,"è¯Ĭæ²»":9960,"è¶ģ":9961,"ä½İåİĭ":9962,"çĭ®åŃĲ":9963,"åĮ»æ²»":9964,"éħįçĶµ":9965,"æĽ´æĶ¹":9966,"åĽ´åī¿":9967,"å¹´äº§":9968,"é£İéĽ¨":9969,"TA":9970,"è§¦æĳ¸":9971,"ç¥Ĥ":9972,"ç»´æĸ¯":9973,"äº¤å¾Ģ":9974,"å¹³æĿ¿":9975,"åĥıç´ł":9976,"æŀģåħ·":9977,"inux":9978,"æķ°æį®æĿ¥æºĲäºİ":9979,"æĿŃå·ŀå¸Ĥ":9980,"ç¡«éħ¸":9981,"åľ°è¯´":9982,"ç§¯éĩĳ":9983,"ava":9984,"å·¥ä»¶":9985,"æĢ»æĶ¯":9986,"ç»ıè´¸":9987,"è·¯éĿ¢":9988,"åĸľæ¬¢çļĦ":9989,"èµ·éĩįæľº":9990,"ç²īå°ĺ":9991,"éĩįè¦ģçļĦæĺ¯":9992,"çĶŁäº§èĥ½åĬĽ":9993,"æłĳæľ¨":9994,"çĲĨæĢ§":9995,"å°¼å¥¥":9996,"è°ĥè§£":9997,"çīł":9998,"æ°ĳçĶ¨":9999,"ä¸Ģå®ļä¼ļ":10000,"ä¸ºä½ł":10001,"åħĪè¡Į":10002,"åħ»æĪĲ":10003,"åĴĴ":10004,"çŁ¥è¯ĨåĴĮ":10005,"çİĽä¸½":10006,"åī©ä½Ļ":10007,"ram":10008,"æĺİæ²»":10009,"ãĥ©":10010,"å¹´å¹³åĿĩæ°Ķæ¸©":10011,"ä¹ĭæĹ¶":10012,"è´¢æĶ¿éĥ¨":10013,"åľ¨å¤ĸ":10014,"è¿ĩç¨ĭä¸ŃçļĦ":10015,"æĸĩæ¡£":10016,"æĺ¯å¤§":10017,"æĺ¯åĲ¦æľī":10018,"äº¤éĢļå¤§åŃ¦":10019,"åī¯éĥ¨éķ¿":10020,"çıŃä¸»ä»»":10021,"ite":10022,"ä¸įæķ¢":10023,"çĲĨäºĭä¼ļ":10024,"å»ºè®¾åĴĮ":10025,"å±Ĭä¸ŃåĽ½":10026,"å¹¶è¢«":10027,"çķħéĶĢ":10028,"é¢ģåıĳçļĦ":10029,"çģĮæºī":10030,"è¿Ħä»Ĭ":10031,"ä¸ºå¹¿å¤§":10032,"æı´åĬ©":10033,"åĿļæĮģä»¥":10034,"éĩĳéĴ±":10035,"å¼Ģå§ĭäºĨ":10036,"äºĭè¿¹":10037,"èĩ³ä¸Ĭ":10038,"éħĴç²¾":10039,"èŃ¦æĸ¹":10040,"åŁİåł¡":10041,"äºĮæ°§åĮĸç¢³":10042,"çłĶç©¶äººåĳĺ":10043,"é¦ĸä½į":10044,"ç¢Ł":10045,"ä¸İåıĳå±ķ":10046,"éĿ¢æĿ¿":10047,"æĸĩåĮĸåĴĮ":10048,"æķ°æį®ä¸ºåĩĨ":10049,"çĶµçº¿":10050,"å»ºæŀĦ":10051,"éĵ¸éĵģ":10052,"åŁºçĿ£æķĻ":10053,"äºĨä¸ŃåĽ½":10054,"åĳĨ":10055,"åĲĪåĶ±":10056,"æĹ¥æŃ£å¼ı":10057,"æķĻåŃ¦çıŃ":10058,"ç¨½":10059,"çĶŁæķĪ":10060,"çļĦä¸Ģå¹´":10061,"äºļå¤ª":10062,"åŃĶåŃĲ":10063,"æĽ¾èİ·":10064,"ãģŁ":10065,"ä½Ľå±±":10066,"è·µè¡Į":10067,"äººæ°ĳç¾¤ä¼Ĺ":10068,"ç§ĳå®¤":10069,"æ¥ł":10070,"è¿ĺåı¯":10071,"æµ·åı£":10072,"ä¸ĩåİĨ":10073,"è¿ĩæ»¤åĻ¨":10074,"HP":10075,"å¯Įå£«":10076,"ç´¯ç§¯":10077,"Ġ&":10078,"æ¶²æĻ¶":10079,"æĶ¹éĿ©å¼ĢæĶ¾":10080,"æľĪèµ·":10081,"åħīæ»ĳ":10082,"éĵ¶æ²³":10083,"å¹²äºĭ":10084,"ä¸ļåĬ¡çļĦ":10085,"éļĶçĥŃ":10086,"çİ¯ç»ķ":10087,"èº«é«ĺ":10088,"ä½ĵè´¨":10089,"åĤ¨èĥ½":10090,"tel":10091,"éĢļè¿ĩå¯¹":10092,"ç§ĳåŃ¦åİĨ":10093,"çľŁæĺ¯":10094,"ãģ¨":10095,"ä¸Ģåı·":10096,"çĹħåıĺ":10097,"åĨĽåĽ¢":10098,"è¯įçĽ®":10099,"çº¿æĿ¡":10100,"çĶµåŃĲéĤ®ä»¶":10101,"çļĦåĲįåŃĹ":10102,"è¿ĲèĲ¥åķĨ":10103,"åĳĢ":10104,"éĤ¢":10105,"éĢĶä¸Ń":10106,"åį¡æĭī":10107,"éŁ¶":10108,"å¤ªæŀģ":10109,"å¹´åĴĮ":10110,"åĹ£":10111,"éĺŁåľ¨":10112,"å¡Į":10113,"å¼Ĭ":10114,"åĩºåľŁ":10115,"å¤§éĹ¨":10116,"æĹ¥å¸¸çĶŁæ´»ä¸Ń":10117,"æµ·å³¡":10118,"ä¸ĵä¸ļçĶŁäº§":10119,"æĹ¥è¯Ń":10120,"åĮºå§Ķ":10121,"èº²":10122,"åįİä¾¨":10123,"åĽ½å®¶åĴĮåľ°åĮº":10124,"æ»¥":10125,"ç¤¼ä»ª":10126,"éĩįçĤ¹å®ŀéªĮå®¤":10127,"åı¯ä»¥æł¹æį®":10128,"æŀģéĻĲ":10129,"åı¦ä¸Ģç§į":10130,"çļĦå°±æĺ¯":10131,"æĪĺç»©":10132,"æ¯ĶåĪ©æĹ¶":10133,"è¿½ç©¶":10134,"åĬĽäºī":10135,"å¤§åŃ¦åŃ¦åİĨ":10136,"å½ĵæĹ¥":10137,"æı½":10138,"æĮĩå¼ķ":10139,"é¢Ĩå¯¼å°ıç»Ħ":10140,"è£¤":10141,"æĹ¥å¸¸çĶŁæ´»":10142,"æĢİä¹Īæł·":10143,"VR":10144,"ä¸įç¬¦åĲĪ":10145,"å®¡ç¾İ":10146,"Ġé¥°æ¼Ķ":10147,"åĲĦæĸ¹":10148,"äº§ä¸ļåĽŃ":10149,"å©ļç¤¼":10150,"è¿Ļä»½":10151,"éĥ¨çº§":10152,"å®¹çº³":10153,"ãģª":10154,"ĠSh":10155,"çļĦä¸Ĭ":10156,"éĴ¢æĿĲ":10157,"å¸ĥèİ±":10158,"Açº§":10159,"ä¸ĢåĿĹ":10160,"é»Ķ":10161,"ä¸įä»ħæĺ¯":10162,"æĽ´è¿Ľä¸ĢæŃ¥":10163,"éķĳ":10164,"èİ¹":10165,"åĮºæĶ¿åºľ":10166,"åºµ":10167,"æ°¯åĮĸ":10168,"ä¸ĸçķĮå¤§æĪĺ":10169,"æł¼æŀĹ":10170,"æĿ°åħĭ":10171,"SM":10172,"ä»ĸå¯¹":10173,"è½¬éĢŁ":10174,"å¿½çķ¥":10175,"âĪ":10176,"çº¢å¤ĸ":10177,"éĽ·è¾¾":10178,"åıªéľĢè¦ģ":10179,"ä¼Łå¤§çļĦ":10180,"åĿļå®Ī":10181,"è¿Ľè¡Įæ²»çĸĹ":10182,"è¯¥åī§":10183,"æĪıæĽ²":10184,"ç®ĢåİĨ":10185,"çĵ¦å°Ķ":10186,"åĵ¥ä¼¦":10187,"çŁ³å¢¨":10188,"åĬ³åĬ¨èĢħ":10189,"æĬĬå®ĥ":10190,"åıĳå¸ĥä¼ļ":10191,"èī°èĭ¦":10192,"BO":10193,"æĪĳçľģ":10194,"å¿«éĢŁåıĳå±ķ":10195,"æĸĲ":10196,"çļĦå¥³":10197,"çŃĽéĢī":10198,"åĴª":10199,"éĢļè¡Į":10200,"æľĢç»Īç»ĵæŀľä»¥":10201,"éĶ¦èµĽ":10202,"åĪ¶è®¢":10203,"ç§ĭåŃ£":10204,"æŃ¥åħ¥":10205,"æ°´æĢ§":10206,"æķĻåĮº":10207,"çļĦä¸Ģæ¬¡":10208,"éĴ»çŁ³":10209,"å¹´åĨħ":10210,"æµģæĦŁ":10211,"èģĬå¤©":10212,"æķ°æį®æĿ¥æºĲäºİçĻ¾åº¦åľ°åĽ¾":10213,"æľĢç»Īç»ĵæŀľä»¥çĻ¾åº¦åľ°åĽ¾":10214,"é¥±åĴĮ":10215,"æĸ¹å½¢":10216,"æľĢç»Īç»ĵæŀľä»¥çĻ¾åº¦åľ°åĽ¾æķ°æį®ä¸ºåĩĨ":10217,"æĶ¶è§Ĩ":10218,"ä¹Łä¸įæĺ¯":10219,"çĥ«":10220,"è½¬åŀĭåįĩçº§":10221,"çıĢ":10222,"ĠAr":10223,"ç²¾çģµ":10224,"è¿ĻæĿ¡":10225,"çļĦéĢŁåº¦":10226,"åĬłå¼ºå¯¹":10227,"åıĺåİĭåĻ¨":10228,"çĤİçĹĩ":10229,"åħ±èµ¢":10230,"ann":10231,"å¹¸è¿Ĳ":10232,"åİĨä»£":10233,"åħ¬ç¤¾":10234,"å®½åº¦":10235,"åĲįè¯į":10236,"éĶ¯":10237,"åĴĮæĸ°":10238,"å®ĥåı¯ä»¥":10239,"é£İæĥħ":10240,"æ¯«æĹł":10241,"åľ¨ä¸Ĭæµ·":10242,"çļĦçĲĨå¿µ":10243,"çº¢æĹĹ":10244,"èĭıæł¼åħ°":10245,"è£ħç®±":10246,"èµĮ":10247,"æł¸ç®Ĺ":10248,"é¡¶å°ĸ":10249,"Ġä¸İ":10250,"Ġä¸Ģ":10251,"åĮ»çĸĹæľºæŀĦ":10252,"èĮĥçķ´":10253,"ç¼ĸåħ¥":10254,"çł´ç¢İ":10255,"æ¥·":10256,"å°ĳæķ°æ°ĳæĹı":10257,"ä½©æĪ´":10258,"åĲ¸å¼ķäºĨ":10259,"æĢĿæĥ³æĶ¿æ²»":10260,"èģĮåľº":10261,"è¯įè¯Ń":10262,"æ¿Ģæĥħ":10263,"çīµå¼ķ":10264,"æĶ¿åįıå§Ķåĳĺ":10265,"é¾Ļå²©":10266,"æĮ«":10267,"å¨ĩ":10268,"å®Įå¤ĩ":10269,"å®ªæ³ķ":10270,"ech":10271,"æľĭåıĭä»¬":10272,"ä¸īæľĪ":10273,"ä¿¡æģ¯ç³»ç»Ł":10274,"ä¼ĺç§Ģè®ºæĸĩ":10275,"ä»¥ä¸ĭçļĦ":10276,"Ġé«ĺ":10277,"å®ŀä¾ĭ":10278,"æĸ¹åı¯":10279,"æĪļ":10280,"çł´äº§":10281,"å¤įèĭı":10282,"è¢«è¿«":10283,"åİĨåı²çļĦ":10284,"ä½¿çĶ¨äºĨ":10285,"åĸ·æ¶Ĥ":10286,"èĮ«":10287,"äº¦æľī":10288,"åħįçĸ«åĬĽ":10289,"çĭł":10290,"åĨ°ç®±":10291,"æĦıè¯ĨåĪ°":10292,"åı°åįĹ":10293,"å¼ºçĥĪçļĦ":10294,"è¿½è¸ª":10295,"åĵ¥åĵ¥":10296,"æłĩçļĦ":10297,"çľĭäºĨ":10298,"åºļ":10299,"æĭīåħĭ":10300,"ç¬ĶèĢħ":10301,"å½°æĺ¾":10302,"ä¿Ŀåį«":10303,"æ³ķå¸Ī":10304,"è´¨çĸĳ":10305,"éĩĮäºļ":10306,"åĽºåĮĸ":10307,"æŃ£ä¹ī":10308,"PM":10309,"Ã³":10310,"ä¿Ŀå¯Ĩ":10311,"ier":10312,"çªĥ":10313,";ãĢĬ":10314,"èĢĮéĿŀ":10315,"å¯¹çħ§":10316,"åĿĤ":10317,"Ãº":10318,"éĥĳå·ŀå¸Ĥ":10319,"ä¿ĥä½¿":10320,"ä¸īäºº":10321,"èĳĹä½ľæĿĥ":10322,"æģĲé¾Ļ":10323,"ä¹ĵ":10324,"ä¹ĭå®¶":10325,"éĻįä½İäºĨ":10326,"æĿĢå®³":10327,"åºĶåľ¨":10328,"èįĶ":10329,"åĮºéĹ´":10330,"çļĦåİŁ":10331,"çļĦæĤ£èĢħ":10332,"åĪĨå·¥":10333,"åħ¼å®¹":10334,"æĭĽæĶ¶":10335,"æľīåħ³çļĦ":10336,"ä»įåľ¨":10337,"çĸĳéļ¾":10338,"çĲī":10339,"åĿŀ":10340,"åľ¨åĽ½éĻħ":10341,"åĿĲåľ¨":10342,"åĨ³è®®":10343,"åįİçĽĽé¡¿":10344,"ãĤĵ":10345,"ç´«å¤ĸçº¿":10346,"èºģ":10347,"åģĩè®¾":10348,"ood":10349,"äºĳè®¡ç®Ĺ":10350,"æķĻèĤ²åŃ¦éĻ¢":10351,"äººä¸ºæľ¬":10352,"é£İåĳ³":10353,"æłĪ":10354,"æľ¬æķ°æį®æĿ¥æºĲäºİçĻ¾åº¦åľ°åĽ¾":10355,"çķĻè¨Ģ":10356,"å·¥ç¨ĭä¸ĵä¸ļ":10357,"æľīæīĢä¸įåĲĮ":10358,"ä¸Ńåįİæ°ĳæĹı":10359,"æ©Ħ":10360,"ä¸ºæĤ¨æıĲä¾Ľ":10361,"ä¸Ńæ¯Ĵ":10362,"ä¹ĭæĦı":10363,"èĪ¬çļĦ":10364,"çļĦå¤§å°ı":10365,"çļĦåħ·ä½ĵ":10366,"è´Łè½½":10367,"ç¾İåĽ½çļĦ":10368,"éĢīæĭ©äºĨ":10369,"åĪ¶åĬ¨":10370,"å¹¢":10371,"è¿Ļå®¶":10372,"å¼ķçĶ¨":10373,"æ»ĳéĽª":10374,"ä»ĸä¹Ł":10375,"åħ¥å¢ĥ":10376,"å¹¶æľī":10377,"ä»ħä¾Ľ":10378,"åĽ½åľŁéĿ¢ç§¯":10379,"æĸ°å¹´":10380,"æ£µ":10381,"æľºæ¢°è®¾å¤ĩ":10382,"åĸĤ":10383,"èĤłéģĵ":10384,"æĬ¤å£«":10385,"QQ":10386,"ç¦»ä¸įå¼Ģ":10387,"å¤§åĲĮ":10388,"ç¡®ç«ĭ":10389,"èĽĻ":10390,"ä¼Ĭæĸ¯åħ°":10391,"è°ĥåĳ³":10392,"ä¸»ä»»åĮ»å¸Ī":10393,"åŃµåĮĸ":10394,"çİ»çĴĥéĴ¢":10395,"RS":10396,"ile":10397,"è¢«è®¤ä¸ºæĺ¯":10398,"éķ¶":10399,"ä½įå±ħ":10400,"æ¨¡çī¹":10401,"é£İäºĳ":10402,"é¥ª":10403,"åį¤":10404,"å®ģåİ¿":10405,"ence":10406,"å®¢æĪ·æıĲä¾Ľ":10407,"æĿĢèıĮ":10408,"èµĽä¸Ń":10409,"åĢŁéī´":10410,"å·¥ç¨ĭæĸ½å·¥":10411,"ä¸įæĩĪ":10412,"çļĦç»ĵæŀĦ":10413,"éŁ³ä¹ĲåŃ¦éĻ¢":10414,"åĢ¼å¾Ĺä¸ĢæıĲ":10415,"ãĥª":10416,"åĲĥé¥Ń":10417,"æ±ĩèģļ":10418,"è£¸":10419,"æ¦Ĥçİĩ":10420,"ç¼´è´¹":10421,"æ³¨æĦıäºĭé¡¹":10422,"éĩĮåħĭ":10423,"è¿Ĳä¼ļ":10424,"åľ¨å®¶":10425,"èµŀåĬ©":10426,"ä¸ĢåįĬ":10427,"æĪĳè®¤ä¸º":10428,"åħŃä¸ª":10429,"æľĪåı°":10430,"åĨħåĪĨæ³Į":10431,"æĮīéĴ®":10432,"æİĴåĩº":10433,"çĥ¹é¥ª":10434,"åľ¨è¿Ļç§į":10435,"ç»ĵæĻ¶":10436,"èĲ½åľ¨":10437,"å¢ŀå¤ļ":10438,"å°ĳéĩı":10439,"æ³¨åĨĮèµĦéĩĳ":10440,"çĤ³":10441,"åĩıå°ĳäºĨ":10442,"èĩªä»İ":10443,"éĥ½è¢«":10444,"åĢĴæķ°":10445,"æ°´æĻ¶":10446,"è¯įæ±ĩ":10447,"å°±ç®Ĺ":10448,"ç»Ļä»ĸ":10449,"ä¸īä½į":10450,"åľŁæľ¨":10451,"åŀ¦":10452,"å°ĦéĹ¨":10453,"HK":10454,"AL":10455,"ä¸įå®ľ":10456,"ä¸ºçĽ®æłĩ":10457,"çİ°ä»Ĭ":10458,"ä¸¤å²¸":10459,"éĿĴå±±":10460,"å°¼å°Ķ":10461,"ä¹Ĵä¹ĵ":10462,"é©¬åħĭæĢĿä¸»ä¹ī":10463,"äººäºº":10464,"å®ĥåľ¨":10465,"ä¸ĢæīĢ":10466,"åĳĺå·¥çļĦ":10467,"ä¹ĭéģĵ":10468,"çļĦä¼łç»Ł":10469,"é«ĺçº§æķĻå¸Ī":10470,"åı¯è¡Į":10471,"æ¼Ķèīº":10472,"æ¸ħæĸ°":10473,"è¯łéĩĬ":10474,"åĨķ":10475,"æī¿æİ¥":10476,"ary":10477,"çļ±":10478,"äººæ¬¡":10479,"æĹłåħ³":10480,"çļĦäººåĳĺ":10481,"ä½ıåľ¨":10482,"åºĹéĵº":10483,"åĮª":10484,"æ°´åĩĨ":10485,"çķĻæĦı":10486,"æĹ¶æ®µ":10487,"ç©ºçĻ½":10488,"æ²»å®ī":10489,"çļĸ":10490,"çŃīåĽłç´ł":10491,"é«ĺè¡Ģåİĭ":10492,"åŁİä¹¡å»ºè®¾":10493,"çłĶç©¶å®¤":10494,"xx":10495,"ä¸įå¿ħ":10496,"æŁĲä¸Ģ":10497,":(":10498,"å°§":10499,"ä¸įå®¹æĺĵ":10500,"åħ¬ç§¯éĩĳ":10501,"æĥĬåĸľ":10502,"ç»Ħè£ħ":10503,"è¡Įä¸ļä¸Ń":10504,"åĨłçĬ¶":10505,"æĹ¥è®¯":10506,"é¢Ħå¤ĩ":10507,"ç¨³æŃ¥":10508,"åĲİåĨį":10509,"å¤ļåĲĥ":10510,"ä¸ľæµ·":10511,"æŀĹåľ°":10512,"è¶³ä»¥":10513,"æĺ¯éĽĨ":10514,"åĽ½å®¶æłĩåĩĨ":10515,"ãĤ¢":10516,"æĽ¼åŁİ":10517,"æĹ©å¹´":10518,"æĮīæĳ©":10519,"âĳł":10520,"æ©Ħæ¦Ħ":10521,"çļĦä¸»é¢ĺ":10522,"æľīä¸¤":10523,"æ½įåĿĬ":10524,"æľ¯è¯Ń":10525,"åĩºåħ·":10526,"çľ¼åīį":10527,"éķ¿æľŁä»İäºĭ":10528,"èĩªçĦ¶ç§ĳåŃ¦åŁºéĩĳ":10529,"çĭ¬ç«ĭçļĦ":10530,"æ³ķåĪ¶":10531,"æµ·åįĹçľģ":10532,"ç½ĳçĲĥ":10533,"åĪĩæį¢":10534,"ivers":10535,"ä¹Łæ²¡":10536,"çĽ¸å¤Ħ":10537,"å¢ĥçķĮ":10538,"äººå¯¹":10539,"çĲĥä¼ļ":10540,"æĬķå½±":10541,"å¹»æĥ³":10542,"æĬĴ":10543,"æ±ĤèģĮ":10544,"å®ĺæĸ¹ç½ĳç«Ļ":10545,"ç²ĴåŃĲ":10546,"ä¾Ŀæ¬¡":10547,"è¥¿æ¹ĸ":10548,"ç¾İåŃ¦":10549,"çĽ®åīįå·²":10550,"å¥¥åľ°åĪ©":10551,"æĬĹä½ĵ":10552,"çļĦçĶµå½±":10553,"å¤§èĥĨ":10554,"å¦ĩç§ĳ":10555,"çĲ¦":10556,"æĦŁåĨĴ":10557,"è´ŁéĿ¢":10558,"çĶ²çº§":10559,"çļĦåľ°":10560,"æĢ»åĨ³èµĽ":10561,"æľīçĽĬ":10562,"ust":10563,"èĦīåĨ²":10564,"æł¸æ¡ĥ":10565,"å¤§åħ¨":10566,"è¥¿åĮĹéĥ¨":10567,"éķį":10568,"ç»ĦçļĦ":10569,"æ§Ľ":10570,"åĲĪè®¡":10571,"æĹ¥åĨĽ":10572,"ç«ĻçĤ¹":10573,"æ²ĥå°Ķ":10574,"å¾·åįİ":10575,"ä¹ĭæĺŁ":10576,"ç»Ĩèħ»":10577,"èĵ¬åĭĥ":10578,"åħ¥åħļ":10579,"çļĦè§Ĵåº¦":10580,"è¯¯å·®":10581,"æĬĵå¥½":10582,"åįģåĩł":10583,"åį°å°¼":10584,"åįĩéĻį":10585,"çļĦäººåı£":10586,"å¿ħé¡»è¦ģ":10587,"ä¸ªåĪ«":10588,"çĬ¯è§Ħ":10589,"æĸ¹è¨Ģ":10590,"å·¡åĽŀ":10591,"éĺ®":10592,"é¾Ļå¤´ä¼ģä¸ļ":10593,"ä¿©":10594,"æ®ĸæ°ĳ":10595,"çĽ®åīįçļĦ":10596,"çŃīåĲĦç§į":10597,"çĽ¸ä¼ł":10598,"çĶŁåĮĸ":10599,"ãĤ¯":10600,"åıĳåħī":10601,"ĠĊ":10602,"çĹ´":10603,"æĺ¯ç»ı":10604,"çļĦçĹĩçĬ¶":10605,"å²Ľå±¿":10606,"è¦ģçĤ¹":10607,"æ£±":10608,"èµĭèĥ½":10609,"å¾·å°Ķ":10610,"old":10611,"å®µ":10612,"æĬµæĬ¼":10613,"æıĲèµ·":10614,"æµ·æĬ¥":10615,"çĭ¬å®¶":10616,"ä¸¥èĤĥ":10617,"çİ©æ³ķ":10618,"æ°ĳèĲ¥ä¼ģä¸ļ":10619,"åĪĩå°Ķè¥¿":10620,"æĦŁçŁ¥":10621,"æĬĢæľ¯æľįåĬ¡":10622,"æģĴæĺŁ":10623,"èµĽåĲİ":10624,"åĩºè®©":10625,"æıĲåıĬ":10626,"åľŁå·¥":10627,"åĽĽåĳ¨":10628,"æ´Ĺæ¶¤":10629,"å¤±æľĽ":10630,"åħ¨éĿ¢çļĦ":10631,"åĪĨå¸ĥåľ¨":10632,"çĻ«çĹ":10633,"çŁ£":10634,"åıĮåĲĳ":10635,"æĢ»å»ºçŃĳéĿ¢ç§¯":10636,"æĹ©æĹ¥":10637,"æģĲæĥ§":10638,"åĤ¬åĮĸåīĤ":10639,"åħĭèİ±":10640,"æĶ¿åºľçļĦ":10641,"æ¡ĥèĬ±":10642,"é«ĺåħ´":10643,"æŃ£å½ĵ":10644,"çĻ«çĹ«":10645,"å¼ĢåĬŀ":10646,"å¤ľéĹ´":10647,"æŀľå®ŀ":10648,"åħīçº¤":10649,"åŃ¦ä¼ļçĲĨäºĭ":10650,"è¡Įèµ°":10651,"ĠãĦ§":10652,"åĩ»ä¸Ń":10653,"è¿ĻæĦıåĳ³çĿĢ":10654,"é«ĺæĢ§èĥ½":10655,"éħįæľī":10656,"Google":10657,"äºĮç»´":10658,"çļĦæīĭ":10659,"åĮ»ä¿Ŀ":10660,"Sp":10661,"åĽ°å¢ĥ":10662,"åĲĮæł·çļĦ":10663,"åĽŀåĲĪ":10664,"æķĳåĬ©":10665,"CM":10666,"è£Ļ":10667,"\"ãĢģ\"":10668,"èĲ¥ä¸ļæĶ¶åħ¥":10669,"çļĦæĬķèµĦ":10670,"å·¥å§Ķ":10671,"èĤĮèĤ¤":10672,"å®Įç¾İçļĦ":10673,"æ²»çĸĹçļĦ":10674,"ä¸ºä¸Ģä½ĵ":10675,"çĢĳå¸ĥ":10676,"æĤ£ä¸Ĭ":10677,"çļĦç¬¬":10678,"æĸĩåĮĸèīºæľ¯":10679,"çĨı":10680,"èĬ¹":10681,"æ¨¡æĿ¿":10682,"æİĪè¯¾":10683,"éĿŀå¸¸çļĦ":10684,"åĪĥ":10685,"ä¸įç¡®å®ļ":10686,"çļĦéģĵè·¯":10687,"æľĢå¤ļçļĦ":10688,"Ãłn":10689,"èº«ä¸º":10690,"çĶµåİĤ":10691,"èĮµ":10692,"å®¶å±ŀ":10693,"èĬ¬åħ°":10694,"åħ³çĪ±":10695,"è·¯æ®µ":10696,"TS":10697,"æ¸¸ä¹Ĳ":10698,"ern":10699,"ç»ĪçĤ¹":10700,"åºķéĥ¨":10701,"ï»":10702,"çĶŁäº§åİĤå®¶":10703,"ä¸ĢèĪ¬çļĦ":10704,"å§Ĳå§Ĳ":10705,"å¥³è¶³":10706,"éĺ»çĩĥ":10707,"rom":10708,"åįģè¶³":10709,"ç»ĻæĪĳä»¬":10710,"ä¸ĩä½Ļ":10711,"æīĵåħ¥":10712,"èį£èĢĢ":10713,"çľŁäºº":10714,"ĠUn":10715,"æĹ¥çĶµ":10716,"ld":10717,"AD":10718,"æĹĹèĪ°":10719,"è¿ľçļĦ":10720,"åħ³ç³»çļĦ":10721,"ä¸ĵç§ĳåŃ¦æł¡":10722,"au":10723,"è¡¨çİ°ä¸º":10724,"ith":10725,"æ°´èµĦæºĲ":10726,"Ã¡n":10727,"åħ¥åĽ´":10728,"æ°Ķç®¡":10729,"å´Ľèµ·":10730,"çļĦä¸Ģéĥ¨":10731,"çª¦":10732,"åĳĪçİ°åĩº":10733,"å·ŀåĮº":10734,"Ðº":10735,"çļĦç¡®":10736,"åħ±äº§åħļåĳĺ":10737,"æľĪä¸Ń":10738,"çĽ¸å¯¹äºİ":10739,"çļĦè§Ĵèī²":10740,"çī¹å®ļçļĦ":10741,"ï»¿":10742,"èĭ±æĸĩåĲį":10743,"ä¸ĵèģĮ":10744,"åħ´èµ·":10745,"ç¼ĸå§Ķ":10746,"å¹³è¡Į":10747,"å±ķç¤ºäºĨ":10748,"ish":10749,"ç§ĳåŃ¦çļĦ":10750,"ä¸Ģåı°":10751,"ä¸»å¸ħ":10752,"æŃ»åĲİ":10753,"ä¸»æķĻç»ĥ":10754,"åħ¶ä»ĸçļĦ":10755,"å±ħå®¶":10756,"æľīä¸Ģå®ļ":10757,"æ°´æºĲ":10758,"é£İæļ´":10759,"åĪ«äººçļĦ":10760,"å¾ģæ±Ĥ":10761,"çİ¯æ¯Ķ":10762,"çŁ¥åİ¿":10763,"ä¸ŃåĽ½äºº":10764,"æ°ĳåĬŀ":10765,"ĠCl":10766,"åıĳå±ķæĪĲä¸º":10767,"é«ĺåº¦éĩįè§Ĩ":10768,"å¤§åİħ":10769,"è¶Ĭå¤§":10770,"æĮ£":10771,"æĻ¯èī²":10772,"åĸĺ":10773,"å¾®æ³¢":10774,"ä»¥ä¸Ĭå°±æĺ¯":10775,"çļĦæ¯Ķä¾ĭ":10776,"åī¯ç§ĺä¹¦éķ¿":10777,"æŁĶè½¯":10778,"åĴĮå·¥ä½ľ":10779,"å¹³åĩ¡":10780,"åİŁæĿ¥çļĦ":10781,"åĬ¡å®ŀ":10782,"åŃľ":10783,"çıįçıł":10784,"æ³Ħæ¼ı":10785,"æ¬¡å¹´":10786,"çļĦäººçī©":10787,"ç¯ĩå°ıè¯´":10788,"ÑĤ":10789,"çµ":10790,"æķĪèĥ½":10791,"âĹı":10792,"çī¹å°Ķ":10793,"ç²¾åįİ":10794,"åıĳå±ķæĪĺçķ¥":10795,"å¼Ģéĩĩ":10796,"ç¨ĭåº¦çļĦ":10797,"åĭĩæķ¢":10798,"ä¸İä¼ļ":10799,"åİŁåĽłæĺ¯":10800,"è¿ĩåĲİ":10801,"åĴĮå°ı":10802,"æĬĢèīº":10803,"æĿ¥è¿Ľè¡Į":10804,"å½±åĵįçļĦ":10805,"æĸ°é¢ĸ":10806,"æĺ¯ä¸Ģåº§":10807,"æł¸éħ¸æ£Ģæµĭ":10808,"éĻĩ":10809,"ç§Łè½¦":10810,"æ¸Ń":10811,"åłµå¡ŀ":10812,"åı¯ä»¥è®©":10813,"æ°´ä¸Ĭ":10814,"èµ·æºĲ":10815,"åĩºéģĵ":10816,"ç¤ģ":10817,"åħ¬éĩĮå¤Ħ":10818,"PD":10819,"é¦ĸå®¶":10820,"åİĨåı²æĸĩåĮĸ":10821,"æ²¹èĦĤ":10822,"æĶ¿çŃĸçļĦ":10823,"æĭ¦":10824,"çİ¯å¢ĥä¸ĭ":10825,"åĬŀåħ¬å®¤ä¸»ä»»":10826,"ä¼ļè®®å®¤":10827,"äºĶæľĪ":10828,"å¾ĹäºĨ":10829,"Ġch":10830,"æĺ¯æ¯Ķè¾ĥ":10831,"è¾¾å°Ķ":10832,"æ²¡æĥ³åĪ°":10833,"åĲĪè§Ħ":10834,"çĽĳä¼ļ":10835,"ç»¥":10836,"å®Įå·¥":10837,"éĢīä¸º":10838,"èĢĮæĪĲçļĦ":10839,"âĳ¡":10840,"å¤©å¤©":10841,"å¤«å¦ĩ":10842,"æĭ¼æĲı":10843,"éĻĮçĶŁ":10844,"çĶŁæ´»åľ¨":10845,"________":10846,"ç½ĳç»ľå®īåħ¨":10847,"éľĢæ±ĤçļĦ":10848,"å¿łè¯ļ":10849,"æĸ¯é¡¿":10850,"åĶĲæľĿ":10851,"çĶŁåĳ½çļĦ":10852,"å·ŀåĪºåı²":10853,"Ex":10854,"åıĤä¸İäºĨ":10855,"ãĢĤãĢį":10856,"å·ħ":10857,"åĺīéĿĸ":10858,"æĹ¥åĲİ":10859,"çģŃçģ«":10860,"æķ°åĢ¼":10861,"åĶ®ä»·":10862,"è¿ģç§»":10863,"è¡Ķæİ¥":10864,"å¹³åı°çļĦ":10865,"å¼Ĥè®®":10866,"ä¸Ģä»¶":10867,"åĲįèĥľ":10868,"åīįéĿ¢":10869,"æĿĤè´¨":10870,"æľĶ":10871,"é¢ĦåĳĬ":10872,"å®Ŀè´Ŀ":10873,"GDP":10874,"ç®Ģæ´ģ":10875,"å¤§äºĭ":10876,"å°Ķå¤ļ":10877,"çŃ¹å¤ĩ":10878,"ãģĨ":10879,"è¢Ńåĩ»":10880,"èĬĿéº»":10881,"è½¦éģĵ":10882,"æ±īåŃĹ":10883,"åĢ¼å¾Ĺä¸ĢæıĲçļĦæĺ¯":10884,"yst":10885,"An":10886,"GO":10887,"èµ·æŃ¥":10888,"åħ³éĶ®è¯į":10889,"ä¸ľè·¯":10890,"å½¢å¼ıçļĦ":10891,"åĪĨè£Ĥ":10892,"é²ľæĺİ":10893,"co":10894,"æłĩå¿ĹçĿĢ":10895,"ä½Ĩæĺ¯åľ¨":10896,"åĩºåĽ½":10897,"ä½ıéĻ¢":10898,"åıĳå±ķè§ĦåĪĴ":10899,"æģ¶æĢ§":10900,"æŀĦä»¶":10901,"çļĦæĸ°åŀĭ":10902,"ä¸Ģéģĵ":10903,"çļĦçĪ±":10904,"è¥¿éĹ¨":10905,"å®ŀæĪĺ":10906,"éĿĴå²Ľå¸Ĥ":10907,"éħª":10908,"çŁ¥åĲįåº¦":10909,"ç§¯ç´¯äºĨ":10910,"æ²»çĸĹçĻ½çĻľé£İ":10911,"æľīæ¯Ĵ":10912,"ä¸įå¿ĺ":10913,"æīĭçļĦ":10914,"åħĭå°Ķ":10915,"èĪ°éĺŁ":10916,"åŃ£åĲİ":10917,"ä¸´æ²Ĥ":10918,"ä¸įå¹¸":10919,"å®¢æĪ·ç«¯":10920,"AB":10921,"åĽ¢éķ¿":10922,"æĶ»åħ³":10923,"åĲĦé¡¹å·¥ä½ľ":10924,"åħ±è¯Ĩ":10925,"å±Ģåī¯å±Ģéķ¿":10926,"éŀŃ":10927,"æĦ¿æĻ¯":10928,"æĢ§åľ°":10929,"åħ¬å°º":10930,"Ġå°ı":10931,"ä¸Ńåŀĭ":10932,"å·¥ä¸ļåĴĮ":10933,"æĬĸéŁ³":10934,"èĢĲçĶ¨":10935,"æĿ¡çº¦":10936,"åĲĪä¸Ģ":10937,"æĪĳä¸į":10938,"ç®ĢåĮĸ":10939,"å¿ĥè¡Ģç®¡":10940,"çĻ¾è´§":10941,"è¿ĺæ²¡":10942,"æ±Łæ¹ĸ":10943,"å¦Ĥæŀľæ²¡æľī":10944,"æ²¹çĶ»":10945,"ç¦ıå¾·":10946,"å¹¶è´Ń":10947,"ç¹ģåįİ":10948,"è¾Ľèĭ¦":10949,"æľĢåĲİçļĦ":10950,"æ±Łåİ¿":10951,"é«ĺåĪĨåŃĲ":10952,"åµĮåħ¥":10953,"ä¼ļäº§çĶŁ":10954,"åĩıæİĴ":10955,"ä»ĺæ¬¾":10956,"å½ĵåľ°çļĦ":10957,"ä¸Ńæµ·":10958,"ç®¡çĲĨåĪ¶åº¦":10959,"æ®ĭçĸ¾äºº":10960,"æ¤Ń":10961,"å¹´çº§":10962,"é¢ĨåĨĽ":10963,"æ²³éģĵ":10964,"å¥ĳæľº":10965,"æķĻç§ĳ":10966,"ä¸ĩäººæ¬¡":10967,"æ¸Ķä¸ļ":10968,"ä¸įåĲĮäºİ":10969,"åŃķå¦ĩ":10970,"åİĭç¼©æľº":10971,"é¢Ĩå¯¼çļĦ":10972,"éģĹæĨ¾":10973,"ä½¿çĶ¨æĿĥ":10974,"åĲĪä½ľçļĦ":10975,"ç¾İåĳ³":10976,"åĮĹå¤§":10977,"ä¸Ńè¥¿åĮ»ç»ĵåĲĪ":10978,"æł¼æłħ":10979,"é±¼ç±»":10980,"äºļé©¬":10981,"éĽĨè£ħç®±":10982,"çĽ´è§Ĥ":10983,"éĻ¤å¤ĸ":10984,"ç»ĵå±Ģ":10985,"æ¢ĵ":10986,"å¯¡":10987,"è¾ĵæİī":10988,"æĬĳéĥģ":10989,"ebook":10990,"å¥ĩè¿¹":10991,"ä¸ĭæĸ¹":10992,"ä¼ĹçĶŁ":10993,"åĭĩæ°Ķ":10994,"æł¼éĩĮ":10995,"å°Ĩä¸º":10996,"ç§Łéĩĳ":10997,"åįģæľĪ":10998,"ä¸įéĢĤ":10999,"æµ·é²ľ":11000,"çĶµåĬ¨æľº":11001,"å§ĳå¨ĺ":11002,"ç²¾çĽĬ":11003,"æ³īå·ŀ":11004,"ical":11005,"ç¬Ľ":11006,"ç¼©åĨĻ":11007,"æ´»æĢ§çĤŃ":11008,"åİĨåı²æĤłä¹ħ":11009,"çĲĥçļĦ":11010,"ä¸įæĺİ":11011,"çĶµèĥ½":11012,"åĮ»éĻ¢çļĦ":11013,"å¼ķäºº":11014,"ä¸ľåĮĹéĥ¨":11015,"èĲİ":11016,"è´£ä»¤":11017,"å¦¹å¦¹":11018,"å°¤ä¸º":11019,"èĩªå¾ĭ":11020,"åŀĦ":11021,"ä¸Ģé¢Ĺ":11022,"æ¬¡åĬ©æĶ»":11023,"é©¿":11024,"æĶ¯çĲĥéĺŁ":11025,"ä¸ºåĽ½å®¶":11026,"ä¹Łä¸įèĥ½":11027,"åįģå¹´ä»£":11028,"è¯¦ç»ĨçļĦ":11029,"åħµåĽ¢":11030,"åĬ³åĬ¨åĲĪåĲĮ":11031,"åĮĸçĸĹ":11032,"ä½£":11033,"åıĺæĪĲäºĨ":11034,"èĥ°":11035,"ä½įåĪĹ":11036,"å½ĵä½ľ":11037,"æĺĬ":11038,"åī¯æĢ»è£ģ":11039,"åĪĬçĻ»":11040,"ĠéĻĪ":11041,"åľ¨é¦Ļæ¸¯":11042,"å¸®æī¶":11043,"ç¦ıéŁ³":11044,"ä¸ľåįĹéĥ¨":11045,"é«ĺéĽĦ":11046,"ä¸§å¤±":11047,"çİ°æĹ¶":11048,"ä¼ļä½¿":11049,"éĢīè´Ń":11050,"æĢ»éĥ¨ä½įäºİ":11051,"å¸Ĥäºº":11052,"æ´±":11053,"å½±åĵįåĪ°":11054,"ä¹ĭäºº":11055,"åĭĩäºİ":11056,"âħ":11057,"æ°´æ³µ":11058,"èĳ«":11059,"ç§ĳçłĶæĪĲæŀľ":11060,"åħ¶éĹ´":11061,"æ¸´æľĽ":11062,"å¢ŀæ·»":11063,"åģļäºĭ":11064,"çªŁ":11065,"åľ°åĲį":11066,"å¤ĸèµĦ":11067,"ãģ¾":11068,"æī¾åĪ°äºĨ":11069,"å»ºçŃĳå¸Ī":11070,"æ·ĺå®Ŀ":11071,"åħ¶åľ¨":11072,"éĹ¨å°Ĩ":11073,"èµ°äºĨ":11074,"å©ī":11075,"se":11076,"çļĦå£°éŁ³":11077,"æĸĩæĹħ":11078,"çŁŃä¿¡":11079,"æĭ¯":11080,"åįĹéĿŀ":11081,"ä¸Ńä»ĭ":11082,"ä»£è¡¨ä½ľ":11083,"å½Ŀ":11084,"æĺ¾åį¡":11085,"åıĳçİ°çļĦ":11086,"çİ°åŃĺ":11087,"æŃ¦å¸Ŀ":11088,"æĮªå¨ģ":11089,"å¤ĸå£³":11090,"æ·Ħåįļ":11091,"æ²¾":11092,"å¸ĪåĤħ":11093,"å·´å·´":11094,"æŁł":11095,"æĪĳä»¬éĥ½":11096,"ä¸įåĲĪæł¼":11097,"ç¼Ģ":11098,"ä½Ĩåį´":11099,"æµģçķħ":11100,"å¤ĸåĽ½è¯Ń":11101,"éĢłçº¸":11102,"èĦ±è´«":11103,"åŃ¦ä¹łçļĦ":11104,"è¡ĹéģĵåĬŀäºĭå¤Ħ":11105,"å§Ĳå¦¹":11106,"ä¸İä¹ĭ":11107,"ä¹ĭç¾İ":11108,"åİ¿çļĦ":11109,"èĢĮå¾ĹåĲį":11110,"åıĳè¡¨äºİ":11111,"èĪĴæľį":11112,"çĮªèĤī":11113,"æ³ķåºŃ":11114,"æĢ»æī¿åĮħ":11115,"æĽ´å¿«":11116,"åı¯ä»¥éĢīæĭ©":11117,"åĮĸåŃ¦åĵģ":11118,"ä¼´éļıçĿĢ":11119,"çłĶç©¶æĪĲæŀľ":11120,"ä¸ĢçĽ´æĺ¯":11121,"ç±½":11122,"çīŁ":11123,"Un":11124,"ç»´åº¦":11125,"ç®¡çĲĨåŃ¦éĻ¢":11126,"æ¨¡ç³Ĭ":11127,"ĠãĦĲ":11128,"ãĥĥ":11129,"çī¹çļĦ":11130,"æ±½æ²¹":11131,"æľĿå»·":11132,"æļ´åĬĽ":11133,"å§Ĭ":11134,"å°±å·²ç»ı":11135,"ä¸ĩçī©":11136,"è¡Įæĥħ":11137,"çŁŃæļĤ":11138,"è¹Ħ":11139,"æĳĨèĦ±":11140,"å°±åĮ»":11141,"æĶ¹æŃ£":11142,"èĬĭ":11143,"æĮļ":11144,"ä¸Ńæłĩ":11145,"é£İçĶµ":11146,"åīįæıĲ":11147,"æ®ĭçķĻ":11148,"åĪĨåī²":11149,"æģĴå¤§":11150,"éĢŁçİĩ":11151,"ä¸įæ»¡":11152,"ä¹ĭä¹¡":11153,"æ¢³çĲĨ":11154,"å¾Īå¼ºçļĦ":11155,"ä¸ĸä»£":11156,"åĬłåħ¥äºĨ":11157,"èİ²èĬ±":11158,"ä»Ĭå¤©çļĦ":11159,"FAG":11160,"af":11161,"çĽ®çļĦåľ°":11162,"EX":11163,"è¿ŀèĥľ":11164,"PVC":11165,"ä¹ĭåĲİçļĦ":11166,"å¸¸å·ŀ":11167,"And":11168,"åħ¨åľº":11169,"è§ģéĿ¢":11170,"ç»ĨåĪĨ":11171,"éķ¿ä¹ħ":11172,"æ¦´":11173,"å¤įåį°ä»¶":11174,"ãĤĬ":11175,"åĮħè£¹":11176,"åīįä¸ī":11177,"Äģn":11178,"æ¡ĵ":11179,"æĺİäº®":11180,"æĶ¹èī¯":11181,"è¶Ĭé«ĺ":11182,"å¹´éĻĲ":11183,"äº¨åĪ©":11184,"åįģä½Ļ":11185,"æħĮ":11186,"æĶ¿æĿĥ":11187,"åĲģ":11188,"èĭ±éķĳ":11189,"åĲŁ":11190,"å°ıåĦ¿":11191,"åķĨåŃ¦éĻ¢":11192,"éĿ©åĳ½æł¹æį®":11193,"çī¢åĽº":11194,"Î±":11195,"åı¯è§Ĩ":11196,"åľ¨åľ°":11197,"åĴĮä¼ģä¸ļ":11198,"èĪªç©ºåħ¬åı¸":11199,"è¡¨æł¼":11200,"å¯ĵæĦı":11201,"ä¸ĩè¾Ĩ":11202,"çī©ä¸ļç®¡çĲĨ":11203,"æµ·åĨħå¤ĸ":11204,"èµĽçļĦ":11205,"ç¤¾ä¼ļè´£ä»»":11206,"è¿Ļç§įæĥħåĨµ":11207,"æıĲåįĩäºĨ":11208,"ä»Ģä¹Īæł·çļĦ":11209,"æĻºèĥ½æīĭæľº":11210,"æıĲä¾ĽåķĨ":11211,"é©»åľ°":11212,"ç½ĳç«ĻçļĦ":11213,"ics":11214,"åħļæĶ¯éĥ¨ä¹¦è®°":11215,"åĽŀå¤´":11216,"çĥŃçº¿":11217,"è¡¨çİ°åĩº":11218,"æľīä¸Ģç§į":11219,"æľ¬åĬŀæ³ķ":11220,"Ġä¸Ĭ":11221,"ä½İçļĦ":11222,"IG":11223,"å¯ĴåĨ·":11224,"è¶£åĳ³":11225,"ä¸įç®¡æĺ¯":11226,"ä¸Ģä¸Ģ":11227,"çŃīåĬŁèĥ½":11228,"å°±è¢«":11229,"ä¸¥æł¼çļĦ":11230,"ä½łè¦ģ":11231,"ĠQ":11232,"æĹĹä¸ĭçļĦ":11233,"ç³Ļ":11234,"åĪĨå¼Ģ":11235,"ä¸įæĸŃæī©å¤§":11236,"å¾®ç¬ĳ":11237,"ç¬¬ä¸Ģå±Ĭ":11238,"ä¿Ŀå®ļ":11239,"ç¬¬ä¸Ģä½į":11240,"åĪĽä½ľçļĦ":11241,"ä¸įåĲĥ":11242,"çĶµå·¥":11243,"å¾®éĩıåħĥç´ł":11244,"und":11245,"èīºæľ¯åŃ¦éĻ¢":11246,"é¢Ĩå¯¼ä¸ĭ":11247,"åı¯éĢļè¿ĩ":11248,"å®ļä»·":11249,"TM":11250,"åĲĦæł·çļĦ":11251,"åĵ¥ä¼¦æ¯Ķäºļ":11252,"æĹ¶éĹ´åĴĮ":11253,"èĩªçĦ¶èµĦæºĲ":11254,"å¼ĢèĬ±":11255,"è¡Įä¸ºçļĦ":11256,"ä»ĸä¸İ":11257,"åĩºæ°´":11258,"ä¸ĵå±ŀ":11259,"é¥¿":11260,"å£°èªī":11261,"è¾±":11262,"è¯ĦåĪĨ":11263,"æİ¥åľ°":11264,"éĤ£æĹ¶":11265,"ç¬¬åįģäºĮ":11266,"ä»¿çľŁ":11267,"å±±åľ°":11268,"ä»įæľī":11269,"çļĦæĹł":11270,"åĴ¨è¯¢æľįåĬ¡":11271,"å£®æĹı":11272,"åĮºåĴĮ":11273,"æµĵéĥģ":11274,"çķªèĮĦ":11275,"ç¥ģ":11276,"åĲİåľ¨":11277,"äºĨä¸Ģç³»åĪĹ":11278,"åħļç»Ħä¹¦è®°":11279,"åĪ«åĲį":11280,"æĿĥéĻĲ":11281,"æµ·åŁŁ":11282,"Mar":11283,"å·¥ç¨ĭé¡¹çĽ®":11284,"æŃ£å¸¸çļĦ":11285,"SD":11286,"å®¡çĲĨ":11287,"å¯¼èĩ´çļĦ":11288,"åŃĲéĩĮ":11289,"åħ¬ç«ĭ":11290,"çľģéģĵ":11291,"ä¼ģäºĭä¸ļåįķä½į":11292,"çľĭä¼¼":11293,"æ¶īå«Į":11294,"'s":11295,"ä½łæĺ¯":11296,"é¦ĸåıĳ":11297,"è®°ä½ı":11298,"åĻ¨åĴĮ":11299,"åħĭç½Ĺ":11300,"ç£·éħ¸":11301,"ç²¾æ¹Ľ":11302,"å¹´éĻįæ°´éĩı":11303,"å¥³æİĴ":11304,"æ¯ıä½į":11305,"é©¬æĸ¯":11306,"OC":11307,"éªĤ":11308,"ä¸įæĸŃæıĲåįĩ":11309,"åľ¨åĨħ":11310,"äºĨèĩªå·±çļĦ":11311,"èĳ«èĬ¦":11312,"ä¸Ĭè¯¾":11313,"çıįæĥľ":11314,"æĢİæł·çļĦ":11315,"åĴĮä½¿çĶ¨":11316,"ohn":11317,"æĶ¿æ²»äººçī©":11318,"å·¥ä¸ļåĽŃåĮº":11319,"æ£ł":11320,"åĪĨç®¡":11321,"ä¸ºæĸ°":11322,"éĥ¨éĹ¨çļĦ":11323,"çĽ´çº¿":11324,"æĶ¯æŀ¶":11325,"éĺ»ç¢į":11326,"éĿ¢éĥ¨":11327,"ä¸ºä»£è¡¨":11328,"ãĢĤ\"":11329,"å¤Ħå¤Ħéķ¿":11330,"çĲĨæĥ³çļĦ":11331,"æĲľç´¢å¼ķæĵİ":11332,"âĶĢâĶĢ":11333,"äº¤ç»Ļ":11334,"è°·æŃĮ":11335,"æ¿Ģæ´»":11336,"å¹´èİ·å¾Ĺ":11337,"æ°´ç®±":11338,"åĽłæŃ¤åľ¨":11339,"ç«ĭåľº":11340,"å¤ºåĨł":11341,"é«ĺæĸ°åĮº":11342,"æľºä½ĵ":11343,"æºĲå¤´":11344,"çħ²":11345,"çĻ»ä¸Ĭ":11346,"æ¡ĥåĽŃ":11347,"çĽĳçĭ±":11348,"é©¬éĩĮ":11349,"å®ģå¸Ĥ":11350,"çļĦåĩºçİ°":11351,"åŁºåĩĨ":11352,"èµ·æĿ¥çļĦ":11353,"çĶ²éĨĽ":11354,"åĤį":11355,"æľ¬ç§ĳåŃ¦åİĨ":11356,"ä¹Łè®©":11357,"åī§éĽĨ":11358,"åħĭåĬĽ":11359,"ä¸Ģæł·çļĦ":11360,"æį®è¯´":11361,"çĽ²çĽ®":11362,"ool":11363,"åĪĨè¡Į":11364,"åĪĽæĸ°åĪĽä¸ļ":11365,"ä¸ªå·¥ä½ľ":11366,"åį¦":11367,"ï¼ĮâĢĿ":11368,"é¦Ļåĳ³":11369,"çº¯æĶ¶åħ¥":11370,"åįļä¼ļ":11371,"æľºçŃī":11372,"å±±æĿĳ":11373,"èĻļåģĩ":11374,"çļĦæľĢä½³":11375,"ä¸Ģå¸¦ä¸Ģè·¯":11376,"Äĵ":11377,"èĲ¨æĸ¯":11378,"æł¼å°Ķ":11379,"å¬":11380,"ä¸ĭä¸Ģä¸ª":11381,"åıįåĩ»":11382,"åĨĻçļĦ":11383,"äººæ°ĳæ£Ģå¯ŁéĻ¢":11384,"éĢłå°±":11385,"æ¿ĢåĬ¨":11386,"å¸ĥå°Ķ":11387,"å°¤æĸĩ":11388,"é¾ĻçļĦ":11389,"ç³¯":11390,"æł¼æĭī":11391,"ory":11392,"æ£Ģä¿®":11393,"iss":11394,"ä¸Ģä¸Ń":11395,"Br":11396,"åĩºæľī":11397,"æĪĳåı¸":11398,"åįĹäº¬å¸Ĥ":11399,"çĩĥæ²¹":11400,"å¨Ł":11401,"çļĦæĹ¶":11402,"è®®é¢ĺ":11403,"çļĦä¸Ģåº§":11404,"æµ·å°Ķ":11405,"æĸĩä¹¦":11406,"æĮģä¹ħ":11407,"ãĢĳ:":11408,"å§ĭäºİ":11409,"çļĦå¼Ģåıĳ":11410,"åĪ¶åīĤ":11411,"éĹ¨ç¥¨":11412,"é¦Ļæ°Ķ":11413,"åĮĹå®ĭ":11414,"æİ¨å±ķ":11415,"åı¯æĥľ":11416,"ä¸»åĬŀçļĦ":11417,"çĽ´è¾ĸå¸Ĥ":11418,"åĲįçīĮ":11419,"min":11420,"æ¸¸åĩ»æĪĺäºī":11421,"çĤ«":11422,"æ´½è°Ī":11423,"èĤĨ":11424,"è®ºè¯ģ":11425,"ç³»ç»ŁåĴĮ":11426,"èģĮä¸ļåŃ¦æł¡":11427,"å¿ĥçĲĨåģ¥åº·":11428,"ä¸įåĬ¨äº§":11429,"æĿ¥ä¸´":11430,"åĲĦæľī":11431,"è®¸å¤ļäºº":11432,"å½©èĻ¹":11433,"æīĢç¤º":11434,"è½¬åĬ¨":11435,"å®£ä¼łéĥ¨":11436,"äººä¹ĭ":11437,"ä¸ĬéĹ¨":11438,"å·²äºİ":11439,"acebook":11440,"IV":11441,"æĦ¿æľĽ":11442,"å®īéĿĻ":11443,"å¤Ħåľ¨":11444,"ĠThe":11445,"å±ķæľĽ":11446,"å¦Ĥæŀľä¸į":11447,"é¢Ŀå¤ĸ":11448,"ç»ĨåĪĻ":11449,"å¹´ä»¥ä¸Ĭ":11450,"æĪĺåĲİ":11451,"æĿŀ":11452,"å·¥åŃ¦":11453,"çĶ²çĬ¶":11454,"ä½Ĩè¿Ļ":11455,"çİ°æľīçļĦ":11456,"ä¸ĭåįĬå¹´":11457,"çºªå§Ķ":11458,"åŃ¦è´¹":11459,"æµ·æ°´":11460,"åĲĵ":11461,"è´¨éĩıåĴĮ":11462,"åĵº":11463,"åīįèº«ä¸º":11464,"æĢ»ä¹ĭ":11465,"åīįèĢħ":11466,"å¤´çĹĽ":11467,"ä¸Ŀç»¸":11468,"å¾Ĺåĩº":11469,"æĹħè¡Įç¤¾":11470,"å®¢è½¦":11471,"éĿĻèĦī":11472,"çļĦä»·åĢ¼":11473,"olog":11474,"é¸Łç±»":11475,"Ad":11476,"éĻįè§£":11477,"æ¨ªåĲĳ":11478,"æĻºåĬĽ":11479,"å¹´æľ«":11480,"æ¯¯":11481,"æ¯Ķçī¹å¸ģ":11482,"ç»ĨèĥŀçļĦ":11483,"çĶ¨ä»¥":11484,"Ġæľī":11485,"å½±åĵįåĬĽçļĦ":11486,"å°Ħåĩ»":11487,"å½ĵåĪĿ":11488,"åı¯ä»¥ä½¿çĶ¨":11489,"çĥŃçļĦ":11490,"ä¸»è¦ģçĶ±":11491,"ç²īç¢İ":11492,"æµģå¤±":11493,"åľ¨æĪĳä»¬":11494,"æŁ¿":11495,"æĹĭå¾ĭ":11496,"å¤ĦåĪĨ":11497,"äº¦æĺ¯":11498,"å¤§åį«":11499,"å®ļåĲĳ":11500,"å¥łå®ļäºĨ":11501,"æĬ¥è¡¨":11502,"äº¤æīĢ":11503,"ãĤĭ":11504,"åĸĩ":11505,"æ¯Ķèµ·":11506,"æ´Ĺè¡£":11507,"æĶ¯éĺŁ":11508,"log":11509,"çĿ£å¯¼":11510,"å°±ä¸įä¼ļ":11511,"åŁİçļĦ":11512,"å¾Ĺå¤ļ":11513,"ç»ıèĲ¥ç®¡çĲĨ":11514,"æ¼ıæ´ŀ":11515,"ase":11516,"èļĬ":11517,"ãİ":11518,"åĺīåħ´":11519,"æ²¥éĿĴ":11520,"ä¸İåºĶçĶ¨":11521,"ç¤¾ä¿Ŀ":11522,"æĦıæĦ¿":11523,"å¤§å®¶çļĦ":11524,"æĳĦåħ¥":11525,"éĤ»è¿ĳ":11526,"éĻįæ¸©":11527,"åıĳæī¬":11528,"æµģæµª":11529,"æľįåĬ¡åĴĮ":11530,"æ´Ľåħĭ":11531,"Ġk":11532,"åįĹè·¯":11533,"åıĹæįŁ":11534,"çŃīåĪ°":11535,"æĤ¬æµ®":11536,"ç´§åĩĳ":11537,"è¿ŀç»ĵ":11538,"ä½ľåĩºäºĨ":11539,"æ²¿çº¿":11540,"æ¸¸è§Ī":11541,"ä¼łéĢģ":11542,"ç©¿è¿ĩ":11543,"äº§åĵģåĴĮ":11544,"æĻļæľŁ":11545,"ä¿ĺ":11546,"åĲįå½ķ":11547,"éĩĩæł·":11548,"å§¿æĢģ":11549,"ä¸Ģç«Ļå¼ı":11550,"ç¢Į":11551,"äº¥":11552,"äººç±»çļĦ":11553,"æ¶¦æ»ĳæ²¹":11554,"ä»ĸåĴĮ":11555,"æīĵåĩº":11556,"å¹´çºª":11557,"ĠæĪĳä»¬":11558,"åĳµ":11559,"æĩĴ":11560,"çŃīåĨľä½ľçī©":11561,"icro":11562,"åı£å¾Ħ":11563,"ä¸ªå°ıæĹ¶":11564,"ç¾½æ¯ĽçĲĥ":11565,"ä¸Ńè·¯":11566,"ç¾İèģĶ":11567,"èĩªåĬ©":11568,"å±ĢçļĦ":11569,"æĥħæĻ¯":11570,"Fi":11571,"å¹´åħ¨åĽ½":11572,"PA":11573,"åıĸå¾ĹçļĦ":11574,"éĢłæĪĲäºĨ":11575,"åıĻè¿°":11576,"å·¥ä½ľç»ıéªĮ":11577,"åľ°åĿĹ":11578,"éľĢè¦ģåľ¨":11579,"èµĽè½¦":11580,"èĭĽ":11581,"æľīä¸Ģå¤©":11582,"åıĳæĶ¹å§Ķ":11583,"ä¸įçĦ¶":11584,"è¿ĻéĩĮçļĦ":11585,"USB":11586,"ä»ĭåħ¥":11587,"åºĦæĿĳ":11588,"æµĬ":11589,"æ±ĩæĢ»":11590,"ä¸¤åĲį":11591,"è®©åŃ¦çĶŁ":11592,"åħĥå®ĩå®Ļ":11593,"æĸ¹ç¨ĭ":11594,"ä½ĨæĪĳ":11595,"ç§¯æŀģåıĤä¸İ":11596,"åıªä¼ļ":11597,"å·¨å¤´":11598,"åį¡æĸ¯":11599,"äºĴéĢļ":11600,"ç´§ç´§":11601,"ç§¯æŀģçļĦ":11602,"å¤®è§Ĩ":11603,"æ¦ľåįķ":11604,"ç¬¬ä¸ĢæĿ¡":11605,"Web":11606,"ç®¡çļĦ":11607,"é¥®çĶ¨":11608,"åħ¨çº¿":11609,"æ£Ģç´¢":11610,"åĴĮä¸Ń":11611,"åħ¶ä¸»è¦ģ":11612,"ä½ĵèĤ²é¦Ĩ":11613,"å¾Ĳå·ŀ":11614,"æľ¬ç§ĳçĶŁ":11615,"Ġä¸ī":11616,"æĶ¹åĲįä¸º":11617,"ys":11618,"è¡¡éĩı":11619,"èį§åħī":11620,"åıĳæĺİä¸ĵåĪ©":11621,"ä»¥ç¡®ä¿Ŀ":11622,"è´ŁåĢº":11623,"åī¯ä¸»ä»»åĮ»å¸Ī":11624,"å¼Ģè¾Ł":11625,"å¤±åİ»äºĨ":11626,"çľŁçĽ¸":11627,"ä¸įæķĮ":11628,"ä»¥åĨħ":11629,"å¹¶ä¸Ķåľ¨":11630,"è£ħçĶ²":11631,"çīĪçļĦ":11632,"åĽ½éĻħè´¸æĺĵ":11633,"yn":11634,"éĹ¨æ§Ľ":11635,"ä»İä¸ļäººåĳĺ":11636,"å®īéĺ²":11637,"arl":11638,"è¿Ľåİ»":11639,"æĢ§çĸ¾çĹħ":11640,"æľīéĻĲåħ¬åı¸æĪĲç«ĭäºİ":11641,"ç»ıå¸¸åĩºçİ°":11642,"æļĤè¡Į":11643,"åŃĺæĶ¾":11644,"ä»¥åĮĹ":11645,"çĻ½å¤©":11646,"æ²ģ":11647,"ç§ĳå¹»":11648,"åįłåĪ°":11649,"å¸¸è¯Ĩ":11650,"è®©æĤ¨":11651,"å¥¥æĸ¯åį¡":11652,"çĽ®åħī":11653,"æĪĺåľº":11654,"é«ĺæ°´å¹³":11655,"å¤ļä½į":11656,"ç¬¬ä¸Ģæī¹":11657,"æ±¾":11658,"ÇĲ":11659,"çĶµåĬ¨è½¦":11660,"åĴĮçĶŁæ´»":11661,"ç¬Ķè®°æľ¬":11662,"ä¹Łç§°":11663,"çļĦè½¦":11664,"æīĭæĮĩ":11665,"çŁ³çģ°":11666,"æĿĨèıĮ":11667,"âĢĿ;":11668,"é£ŁåłĤ":11669,"æĪĳåĴĮ":11670,"ç¬¬åįģä¸ī":11671,"åħ¬å¼ı":11672,"èī²æ³½":11673,"éĺ¶çº§":11674,"åĪĨåĴĮ":11675,"ä¸ļæĢģ":11676,"åľ¨ä¸İ":11677,"å³¡è°·":11678,"ä¸Ģæľ¬":11679,"æ³ķè¯Ń":11680,"çºªæ£Ģ":11681,"ä¸Ģåı¥":11682,"ium":11683,"è¢«äºº":11684,"æ¤°":11685,"èµĽéģĵ":11686,"éĵģçŁ¿":11687,"æĸ°è¥¿åħ°":11688,"åħīèį£":11689,"ä¾ĽçĥŃ":11690,"è¿ĽåĮĸ":11691,"èĲ¨åħĭ":11692,"æĪĲå¹´äºº":11693,"è¥¿è·¯":11694,"å¹½é»ĺ":11695,"åįģäºĮå¹´":11696,"å¡«æĸĻ":11697,"æľĪæ¯ķä¸ļäºİ":11698,"éĩıåĮĸ":11699,"éĵ¬":11700,"è¯´åĪ°":11701,"æĴķ":11702,"åŃ¦ç³»":11703,"Ġä¸ª":11704,"åŃ¤çĭ¬":11705,"å®¶ä¼ģä¸ļ":11706,"åĬłåĪ©":11707,"æµĭç»ĺ":11708,"çļĦéĩį":11709,"æĦŁæŁĵèĢħ":11710,"æ¸©åĴĮ":11711,"çŁŃçŁŃ":11712,"å¹¶çĶ±":11713,"å°Ĩè¢«":11714,"æĺ¯å¦Ĥä½ķ":11715,"èİ·å¾ĹçļĦ":11716,"é¸¦":11717,"è¥¿åįĹéĥ¨":11718,"çŁ³æĿĲ":11719,"å®¡å®ļ":11720,"æĪĲåĥı":11721,"èĩªæĿĢ":11722,"éĤ£å°±":11723,"å¯¹èĩªå·±":11724,"éĽĨä¸Ńåľ¨":11725,"å½±éĻ¢":11726,"æĺ¯ä½įäºİ":11727,"å®¡è®®":11728,"æīĢèĩ´":11729,"âĹĭ":11730,"æĳĩæ»ļ":11731,"ä¿ŀ":11732,"èºº":11733,"æ²»çĸĹæĸ¹æ³ķ":11734,"åĪĽæĸ°çļĦ":11735,"æ·¡æ°´":11736,"æĪĲå¥Ĺ":11737,"åį¡å¡Ķå°Ķ":11738,"åĪĨçº§":11739,"æ°¸æģĴ":11740,"èĢĮåıĪ":11741,"æĦļ":11742,"åĢ¾æĸľ":11743,"åįģåĽĽäºĶ":11744,"æĦŁçļĦ":11745,"ï¼īãĢĭ":11746,"è¡Įä½¿":11747,"ä¿Ŀå®Ī":11748,"é£İæł¼çļĦ":11749,"éĻĲåº¦":11750,"æľ¬æ³ķ":11751,"è¡¨æĥħ":11752,"æ¸¤":11753,"æľĢå°ı":11754,"ä¸ĩäº¿åħĥ":11755,"æª¬":11756,"ĠåĪĺ":11757,"æĦŁåĴĮ":11758,"è¾¹å¢ĥ":11759,"çľŁå®ŀçļĦ":11760,"æ¿Ĵ":11761,"èĤ¡å¸Ĥ":11762,"çļĦä¸Ģèĩ´":11763,"éĿ¶":11764,"çĽ¸è¾ĥ":11765,"ãĥ¼ãĥ":11766,"çĶµç«ŀ":11767,"å¤ĦçĲĨçļĦ":11768,"å¸ĮæľĽèĥ½":11769,"ä¹ĭåīįçļĦ":11770,"ĠæĪĸ":11771,"é«ĺå±±":11772,"åĬłæĭī":11773,"æľīäºĽäºº":11774,"è¯¦æĥħ":11775,"éĶ®çĽĺ":11776,"åı·åı¬":11777,"åĨĻåŃĹ":11778,"éĩįè¦ģä½ľçĶ¨":11779,"ĠçŃī":11780,"Ġfor":11781,"è¥¿ä¾§":11782,"æĢ»çĿ£":11783,"åĨĽçļĦ":11784,"è°ĥçĲĨ":11785,"èĮħåı°":11786,"åħ¬å¼Ģåıĳè¡¨":11787,"ä½ľè¯į":11788,"æĥħæĢĢ":11789,"æī§æķĻ":11790,"æľīä¸¤ä¸ª":11791,"è´¬":11792,"çĲĨè®ºåĴĮ":11793,"å¹³å¸¸":11794,"èĦĵ":11795,"çļĦæĸ¹åĲĳ":11796,"èģĺè¯·":11797,"å½Ĵå±ŀäºİ":11798,"å£¹":11799,"ä¿¡è´·":11800,"ç±»ä¼¼äºİ":11801,"èĩªæĿ¥":11802,"å®ļå±ħ":11803,"çłĶç©¶å·¥ä½ľ":11804,"å·¥ç¨ĭç³»":11805,"å·¥åľ°":11806,"æ¸¸åĩ»éĺŁ":11807,"èĢĥçłĶ":11808,"äººå®¶":11809,"å¾Īå¤ļçļĦ":11810,"åĢĻéĢīäºº":11811,"æ°ĳèĪª":11812,"åįĥéĩĮ":11813,"æ··ä¹±":11814,"äºļé©¬éĢĬ":11815,"ĠæĪĳ":11816,"ä¸Ĭæ¼Ķ":11817,"TE":11818,"ä¸ŃæĸĩåĲį":11819,"å®ĭä»£":11820,"æ½®æ¹¿":11821,"æģ¶åĮĸ":11822,"çħ§å°Ħ":11823,"åįĹå®ĭ":11824,"çļĦçī¹":11825,"å¸¸å¹´":11826,"ä½łåľ¨":11827,"æ£īèĬ±":11828,"æľīåĬĽçļĦ":11829,"åı³ä¾§":11830,"å°±å¼Ģå§ĭ":11831,"è¯ķçĶ¨":11832,"ç¤¾ç§ĳ":11833,"çļĦäººä»¬":11834,"Ġéĩĳ":11835,"éĿ¢è²Į":11836,"åĭĺå¯Ł":11837,"çļĦæĿĲæĸĻ":11838,"éĹ´éļĶ":11839,"åĳ¨å²ģ":11840,"éħĴåĲ§":11841,"èĩªä¸»çłĶåıĳ":11842,"çļĦçłĶåıĳ":11843,"åº¦è¿ĩ":11844,"æµ·åºķ":11845,"æģ¶åĬ£":11846,"çĤ¹çĲĥ":11847,"çļĦç»¼åĲĪ":11848,"äººä»¬å¯¹":11849,"Ġä»¥":11850,"æ³¸":11851,"æķ¬ä¸ļ":11852,"æ°¨åŁºéħ¸":11853,"çŃīæľįåĬ¡":11854,"çļĦåīįæıĲä¸ĭ":11855,"åŀĭæĿĲ":11856,"åĨľçĶ°":11857,"åĲĮçĽŁ":11858,"åĲīåĪ©":11859,"ä¿¯":11860,"èĩªå¹¼":11861,"åħ¬å¸ĥçļĦ":11862,"èħ¹éĥ¨":11863,"æľĢæĹ©çļĦ":11864,"åĮºä¸º":11865,"åħļæĶ¿":11866,"æŃĮè¯į":11867,"çĻ¾å¼º":11868,"MO":11869,"ä¼º":11870,"ous":11871,"æĺ¯åħ¨åĽ½":11872,"æĭħå¿§":11873,"çģµæķı":11874,"é²¸":11875,"ç¼©å°ı":11876,"æľ¬åľ°åĮº":11877,"åįļå®¢":11878,"æ¢§":11879,"åį³æĺ¯":11880,"å»ºçŃĳè®¾è®¡":11881,"ç§ĳçłĶé¡¹çĽ®":11882,"æĸŃè£Ĥ":11883,"åĲīä»ĸ":11884,"çŃīäº§åĵģ":11885,"åĺ±":11886,"åĬĽæ±Ĥ":11887,"åĨ·åĩĿ":11888,"å´Ń":11889,"ï¼ħï¼Į":11890,"åĨ¥":11891,"æıĲçĲ´":11892,"èĩ´åĬĽ":11893,"çļĦæľīæķĪ":11894,"æĥħäºº":11895,"æİĴåĲįç¬¬":11896,"KO":11897,"èĭĶ":11898,"è¿ĳåĩłå¹´":11899,"æĺ¾å¾®":11900,"ãĢįãĢģ":11901,"æ±ķå¤´":11902,"âĢĿï¼ĮâĢľ":11903,"åĴĮç¤¾ä¼ļä¿Ŀéļľ":11904,"å¼Ģå°ģ":11905,"æĦıçļĦ":11906,"éĥ¨ä¸»ä»»":11907,"è¸©":11908,"èī²è°±":11909,"ç»ıæµİæĬĢæľ¯":11910,"CEO":11911,"å¥³çİĭ":11912,"ata":11913,"æĶ¹åıĺäºĨ":11914,"æ¸©æŁĶ":11915,"ç«Ļåı°":11916,"ä»įæĺ¯":11917,"å°¼åħĭ":11918,"å²Ĳ":11919,"pt":11920,"å¯ĩ":11921,"ä¸Ģå¤§":11922,"ä»¥åįĹ":11923,"ä¸¾äºº":11924,"æľīåĪ©":11925,"åħīæºĲ":11926,"ä¸¤æĿ¡":11927,"ica":11928,"å¾·èĤ²":11929,"æķ´å½¢":11930,"åı¤èĢģçļĦ":11931,"é«ĺé¢ĳ":11932,"å¾·æĭī":11933,"æĲľéĽĨ":11934,"EV":11935,"çĶ²çĬ¶èħº":11936,"çļĦæĹ¶ä»£":11937,"æ¼ĶåĮĸ":11938,"ä¸İäºº":11939,"æĢ»åĢ¼":11940,"ä¾įéĥİ":11941,"æľīçº¿":11942,"å¾Ĺå¾Ī":11943,"æ¼ĶæĬĢ":11944,"æ²Ĳ":11945,"è¡Įä¸ļåıĳå±ķ":11946,"éŁ³åĵį":11947,"åŃĹä½ĵ":11948,"åĲµ":11949,"éĴ§":11950,"æķ´è½¦":11951,"æĹħç¨ĭ":11952,"å¿ĹæĦ¿æľįåĬ¡":11953,"ä¸Ńæĸĩç³»":11954,"äººç§°":11955,"å¯¹ä¸ŃåĽ½":11956,"äºĮæľĪ":11957,"åĽĽæľĪ":11958,"åĸĦèī¯":11959,"å¸ľ":11960,"ä¸İç¤¾ä¼ļ":11961,"åľ°äºļ":11962,"è¡ĮæĶ¿æľºåħ³":11963,"å·¥ç¨ĭè®¾è®¡":11964,"çº¿ç´¢":11965,"ä¸įå®ī":11966,"æķĻå§Ķ":11967,"ä¸ľäºļ":11968,"æ³¢ç½Ĺ":11969,"åľ¨ä»Ĭ":11970,"æ¶©":11971,"æķ°çļĦ":11972,"è´¨éĩıç®¡çĲĨä½ĵç³»":11973,"åħ¬åħ±åį«çĶŁ":11974,"å¼ĢåŃ¦":11975,"éľĸ":11976,"è®²ç©¶":11977,"å±ķå¼ĢäºĨ":11978,"æ¶¨å¹ħ":11979,"åįĬåĨ³èµĽ":11980,"æ·ĭå·´":11981,"å¹´ä¸Ń":11982,"èĥļèĥİ":11983,"ä¼ĺèī¯çļĦ":11984,"æ®µæĹ¶éĹ´":11985,"é»Ľ":11986,"åİ»åģļ":11987,"åĢª":11988,"æ²¿çĿĢ":11989,"åĲ¬åıĸ":11990,"æķ°æį®ä¸Ńå¿ĥ":11991,"æľºæ¢°åĪ¶éĢł":11992,"ä¸ĢæĹ¶":11993,"è·ĳéģĵ":11994,"çļĦç¥ŀ":11995,"åľ¨ä¸į":11996,"ç«łç¨ĭ":11997,"æ¦Ĥè¿°":11998,"åĭ¤å¥ĭ":11999,"æŃĮåĶ±":12000,"äº²çİĭ":12001,"ä»¥åıĬåħ¶ä»ĸ":12002,"åŃĹç¬¦":12003,"åħĥçļĦ":12004,"ä¸ĵçº¿":12005,"é©¬ä¸ģ":12006,"å¤§åĮº":12007,"çģ°èī²":12008,"æĭ¯æķĳ":12009,"ç½ĳçĤ¹":12010,"ãģ«":12011,"Tr":12012,"åĽ½ä¼ļ":12013,"åĩłçĤ¹":12014,"åĲĥçļĦ":12015,"æĹ¥çħ§":12016,"ign":12017,"çļĤ":12018,"æĻĥ":12019,"æĸĩåºĵ":12020,"é»Ħå±±":12021,"å¹´åı·":12022,"å®ĮæĪĲçļĦ":12023,"ç§įæĹı":12024,"æĿ¡è§Ħå®ļ":12025,"PG":12026,"ä»¥æĿ¥çļĦ":12027,"ç¡«åĮĸ":12028,"å¡«åħħ":12029,"æĬ½è±¡":12030,"éĺ³æĢ§":12031,"çļĦå±±":12032,"åħīæ³½":12033,"çļĦéľĢè¦ģ":12034,"ä¿ĥéĶĢ":12035,"æ±¶":12036,"åı¯ä»¥çľĭåĪ°":12037,"åħ¥ä½ı":12038,"å¹¶åĲĳ":12039,"ä¸įå®¹":12040,"æľºæ¢°æľīéĻĲåħ¬åı¸":12041,"åĩºåĵģ":12042,"èµ°è®¿":12043,"UTC":12044,"åĴĮå¯¹":12045,"ä½Ľç½Ĺ":12046,"èĪªçº¿":12047,"å¹³åı°ä¸Ĭ":12048,"oft":12049,"æ¬¡çļĦ":12050,"ä¸ªè¡ĮæĶ¿æĿĳ":12051,"æ²¡æľīäºº":12052,"èĥİåĦ¿":12053,"æĻ®éĢļçļĦ":12054,"æ°Ķåĳ³":12055,"é¥¥":12056,"äº§äºİ":12057,"å¤§è±Ĩ":12058,"Am":12059,"åľ¨äºĨ":12060,"æĲ¬è¿ģ":12061,"âĺħ":12062,"èĢĲçģ«":12063,"åĨłçĬ¶çĹħæ¯Ĵ":12064,"æĴ¼":12065,"å°±è¯»äºİ":12066,"ae":12067,"æĬĽåħī":12068,"åĪĩåīĬ":12069,"çľŁå®ŀæĢ§":12070,"åŃ¦åŃĲ":12071,"èĥ½åĬĽå¼º":12072,"åħ«æľĪ":12073,"éĹ¨çļĦ":12074,"çĶ°å¾Ħ":12075,"æ´»æ³¼":12076,"è¡ĮæĶ¿å¤Ħç½ļ":12077,"ä¸»æ²»":12078,"Cr":12079,"ä¸īå³¡":12080,"ç¬¬ä¸ĢåĲį":12081,"éĩľ":12082,"çĶµåĬ¨æ±½è½¦":12083,"æĺ¯æĢİä¹Ī":12084,"ä¸īä¸ĸ":12085,"å±±éķĩ":12086,"æŀģç«¯":12087,"åĲįé¢Ŀ":12088,"è·¨åĽ½":12089,"å¤įæĹ¦":12090,"çī©è´¨çļĦ":12091,"åĪĨæŀĲåĴĮ":12092,"å¹¶æıĲä¾Ľ":12093,"çŃīä¼ĺçĤ¹":12094,"çķħéĢļ":12095,"æľīè¿ĩ":12096,"çī¹æĭī":12097,"æ¨¡ä»¿":12098,"å¾ĭå¸ĪäºĭåĬ¡æīĢ":12099,"å¨ħ":12100,"å°±éľĢè¦ģ":12101,"ä»¥äººä¸ºæľ¬":12102,"åĪ©æģ¯":12103,"æĮīè§Ħå®ļ":12104,"æ³½ä¸ľ":12105,"å¥ĸç«ł":12106,"çļĦéĩįçĤ¹":12107,"æľĪè¢«":12108,"å¯¹å¤ĸå¼ĢæĶ¾":12109,"ä¸ŃæĸŃ":12110,"éĿĴéĵľ":12111,"å¹²é¢Ħ":12112,"é«ĺæķĪçļĦ":12113,"å·´å°Ķ":12114,"ä¸¥æł¼æĮīçħ§":12115,"åķĨçĶ¨":12116,"åĨ²æ´Ĺ":12117,"éĶĻè¿ĩ":12118,"åķĨä¸ļéĵ¶è¡Į":12119,"ç¬¬ä¸īå±Ĭ":12120,"æĹ¶è£ħ":12121,"çĭ¬èĩª":12122,"èĢĥè¯ģ":12123,"å¦Ĥæŀľæľī":12124,"pl":12125,"éĶĤçĶµæ±ł":12126,"éĻ¤éĿŀ":12127,"åĴĮçĶŁäº§":12128,"èģĮä¸ļæĬĢèĥ½":12129,"è¡Ģç³ĸ":12130,"åħ¨æł¡":12131,"ä¸įçŃī":12132,"Î¼":12133,"æľĪäº®":12134,"ç»ıæµİå¼ĢåıĳåĮº":12135,"ä¹¦åºĹ":12136,"å¯¼çĥŃ":12137,"ä¸¥å³»":12138,"æİ¥å¤´":12139,"å¹³åİ¿":12140,"è¢«åĬ¨":12141,"åĬ³åĬ¨æ¨¡èĮĥ":12142,"æ²īæµ¸":12143,"å¾Īéĩįè¦ģ":12144,"äºĨè§£æĽ´å¤ļ":12145,"ç¢³éħ¸":12146,"å¥ĩæĢª":12147,"æĻºèĥ½åĪ¶éĢł":12148,"æ°ĶåĬ¨":12149,"çľ¼ç§ĳ":12150,"UN":12151,"æľ¬åĳ¨":12152,"å¹¶èİ·å¾Ĺ":12153,"åŁ¹è®ŃçıŃ":12154,"æŁłæª¬":12155,"ä¸ºå¤§":12156,"çĲħ":12157,"è´µéĺ³":12158,"æĹıèĩªæ²»åİ¿":12159,"ç¨ł":12160,"åıĤä¼ļ":12161,"æĺ¯æł¹æį®":12162,"éģĵåħ·":12163,"æĪĲçĨŁçļĦ":12164,"å®ģéĿĻ":12165,"ä¸ºå¯¼åĲĳ":12166,"æ¢ħèĬ±":12167,"åīįè¡Į":12168,"å²ļ":12169,"é«ĺå°Ķå¤«":12170,"éĴ¢ä¸Ŀ":12171,"yl":12172,"å¥ķ":12173,"ä¿®çĲĨ":12174,"æī¾åĩº":12175,"èĥ¡èĲĿåįľ":12176,"å½ķåĪ¶":12177,"éģĩè§ģ":12178,"é£Łè°±":12179,"IR":12180,"åħħæ»¡äºĨ":12181,"ä¸Ģç¾¤":12182,"å·®ä¸įå¤ļ":12183,"å¤ĸè¡¨":12184,"åİŁæ²¹":12185,"çģ¾éļ¾":12186,"æ°´åĴĮ":12187,"ä¿Ŀè¯ģéĩĳ":12188,"æ¹ĸæ³Ĭ":12189,"åĮħåĽ´":12190,"çŁ³èĭ±":12191,"åı¯ä»¥å°Ĩ":12192,"éĨļ":12193,"éªļ":12194,"ä¸ºæĪĳä»¬":12195,"è°ĥåĬ¨":12196,"è¿Ľåħ¥äºĨ":12197,"æº¶äºİ":12198,"èĢ¿":12199,"æŃī":12200,"å¯¹è¯¥":12201,"SH":12202,"çļĦåŃ©åŃĲ":12203,"ä¸ŃåįĪ":12204,"äº²åŃĲéī´å®ļ":12205,"æĹ¥è®°":12206,"çĥĥ":12207,"äººéĢł":12208,"å¯®":12209,"è¡ĮæĿİ":12210,"ç¨İåĬ¡å±Ģ":12211,"è£´":12212,"ä¹ĭåĪĿ":12213,"æŁ¬":12214,"åĩ½æİĪ":12215,"æĭĴç»Ŀæİ¥åıĹ":12216,"å¼ķèµ·äºĨ":12217,"è®¾ç«ĭçļĦ":12218,"åı¯éĿłçļĦ":12219,"èĩªèĢĥ":12220,"äº¤åĵį":12221,"éĽĨåĽ¢çļĦ":12222,"ĠãĦķ":12223,"ä¸ªäººèµĦæĸĻ":12224,"éĥ¨ä»½":12225,"ä»ĸè¢«":12226,"æ¦ĤåĨµ":12227,"ä¸ľä¾§":12228,"çĶ¨éĩı":12229,"åħ¬åĪĨ":12230,"ç®¡åĪ¶":12231,"æĹłæīĢ":12232,"çªģåĩºè´¡çĮ®":12233,"ç«ĭé¡¹":12234,"å·²ç»ıåľ¨":12235,"åĬłåī§":12236,"åĨ¬å¥¥":12237,"èĲ¨å°Ķ":12238,"ç¼ħçĶ¸":12239,"Â®":12240,"ä¸Ńä¸ľ":12241,"ç´Ĭ":12242,"çļĦåŃĺåľ¨":12243,"åħŃæľĪ":12244,"é¥²åħ»":12245,"ä»£ä»·":12246,"è®®éĻ¢":12247,"çļĦåĨ³å®ļ":12248,"æĭįçħ§":12249,"å®ŀæĸ½æĸ¹æ¡Ī":12250,"æ¯Ľæ³½ä¸ľ":12251,"è¯Ħå®ļ":12252,"ä¸Ĭåľº":12253,"åĲĪåĬĽ":12254,"ç¥Ľ":12255,"åĢļ":12256,"å·¦ä¾§":12257,"èµ°åĬ¿":12258,"ãİ¡":12259,"ä¿Ŀè¯ģäºĨ":12260,"èµ°åĪ°":12261,"ä¸Ģåħ±":12262,"çµ®":12263,"æĦıåĽ¾":12264,"å³ª":12265,"è·ĭ":12266,"è¡«":12267,"èģļä¹Ļçĥ¯":12268,"æľºåĴĮ":12269,"åĩıç¼ĵ":12270,"åĲĦæĸ¹éĿ¢":12271,"ä¸¤éĺŁ":12272,"ä¸ĵè®¿":12273,"ä¹ĭå¿ĥ":12274,"è¯¥çīĩ":12275,"æĦıåĲĳ":12276,"èģĶæīĭ":12277,"æĪĳä»¬éľĢè¦ģ":12278,"éĽ¯":12279,"çĿ£ä¿ĥ":12280,"åĽłä¸ºå®ĥ":12281,"æ³¢æĸ¯":12282,"åªĴä»ĭ":12283,"å¥¸":12284,"Intel":12285,"å¹´åĬłåħ¥":12286,"è®©åŃ©åŃĲ":12287,"ä½Ĩä¹Ł":12288,"åıĳè¡ĮçļĦ":12289,"å¥³ç¥ŀ":12290,"æµ¦ä¸ľ":12291,"éĤ®æĶ¿ç¼ĸçłģ":12292,"æ£®æŀĹåħ¬åĽŃ":12293,"ä¸¥ç¦ģ":12294,"å¼ĢæºĲ":12295,"æĥ³èµ·":12296,"è¯ķè¡Į":12297,"å¿ħå¤ĩ":12298,"åī¯çĲĨäºĭéķ¿":12299,"æıĲåĢ¡":12300,"çļĦæ¨¡å¼ı":12301,"ç¡ķå£«çĶŁå¯¼å¸Ī":12302,"çº³æĸ¯":12303,"æ²¹çĶ°":12304,"ä¼ļè®®ä¸Ĭ":12305,"æĪ¿ä»·":12306,"è¶ħè¿ĩäºĨ":12307,"åŃ¦ä¸ļ":12308,"Bl":12309,"é¾ļ":12310,"ä½ľåĵģçļĦ":12311,"å·¥ç¨ĭçļĦ":12312,"æ³¢çī¹":12313,"Å«":12314,"å¹´è½»çļĦ":12315,"è¿ĳè§Ĩ":12316,"äº§åĵģæľī":12317,"æ°´çĶµç«Ļ":12318,"åħ¬çĶ¨":12319,"è®¡åĪĴçĶŁèĤ²":12320,"åį«çĶŁéĥ¨":12321,"ower":12322,"é£İæīĩ":12323,"åī¯æĢ»":12324,"åĪĽåĬŀäºİ":12325,"å»ĵ":12326,"å¨¶":12327,"è°ħ":12328,"åħīçº¿":12329,"èĢĲé«ĺæ¸©":12330,"åĽ½èµĦ":12331,"æĲ¬è¿Ĳ":12332,"åĲĦçľģ":12333,"æĶ¿åºľéĩĩè´Ń":12334,"åī¯ä½ľçĶ¨":12335,"å¤±è¯¯":12336,"å®ĮæĪĲåĲİ":12337,"åı£å²¸":12338,"å°ıç»ĦèµĽ":12339,"ult":12340,"åĪĿå§ĭ":12341,"åĪ¶ä½ľäºº":12342,"ä»ħä¸º":12343,"å¸ĤåĢ¼":12344,"å¢ŀåĢ¼ç¨İ":12345,"æīĢæľīäºº":12346,"åŃ¦ä¸ĵä¸ļ":12347,"æ³ķå¾ĭè´£ä»»":12348,"å½¢çļĦ":12349,"èĩªçĶ±éĢīæĭ©":12350,"æĸ°ä¸ŃåĽ½":12351,"ä¸ĥæľĪ":12352,"å³¨":12353,"å®īè£ħåľ¨":12354,"åħĭéĩĮ":12355,"åºĶçĶ¨çļĦ":12356,"%;":12357,"åħ±éĿĴ":12358,"æİĢ":12359,"Ġ+":12360,"ä¸Ģèµ·æĿ¥":12361,"æľįåĬ¡åķĨ":12362,"è¿ĩå¾Ģ":12363,"åĲīå°Ķ":12364,"äººéĢī":12365,"æĺ¾çİ°":12366,"ä¸įä½İäºİ":12367,"æĪĺéĺŁ":12368,"ä¸ĢæµģçļĦ":12369,"å·¥ä¸ļåĽŃ":12370,"åĨįçĶŁèĥ½æºĲ":12371,"çºªå¿µé¦Ĩ":12372,"é²¤":12373,"å¾·æĸ¯":12374,"å·´æĸ¯":12375,"ä¸ĢçĽ´ä»¥æĿ¥":12376,"ä¸įé«ĺ":12377,"Ġzh":12378,"å±ĢéĻĲ":12379,"è´¨çļĦ":12380,"æķħä¹¡":12381,"äºĨè§£ä¸Ģä¸ĭ":12382,"ä¸įæĦ¿":12383,"ä¸İæĪĳä»¬":12384,"ç»Ħç»ĩå®ŀæĸ½":12385,"åħ¶ä¸Ńæľī":12386,"ä¹Ĵä¹ĵçĲĥ":12387,"æ·±åĪ»çļĦ":12388,"mg":12389,"æŃ¥åħµ":12390,"AV":12391,"é¦ĸåħĪè¦ģ":12392,"é«ĺçŃīéĻ¢æł¡":12393,"åĴĮæ°´":12394,"çŃīåĨħå®¹":12395,"å°Ħæīĭ":12396,"ãĢĭ:âĢľ":12397,"çļĦæĹ¥åŃĲ":12398,"ĠTh":12399,"âĢĻï¼Į":12400,"ç¨³åģ¥":12401,"SB":12402,"äººåĿĩçº¯æĶ¶åħ¥":12403,"åĳ¼åĲģ":12404,"ä»¥å¤ĸçļĦ":12405,"çĳļ":12406,"ç¿¡":12407,"åŃĺåľ¨çĿĢ":12408,"ä»ĺè´¹":12409,"å¥³ä¸»è§Ĵ":12410,"NO":12411,"ä½¿äºº":12412,"éĩįåŀĭ":12413,"è½¬ä¸º":12414,"åħļæĢ»æĶ¯":12415,"éĢ¾æľŁ":12416,"\",":12417,"èº«æĿĲ":12418,"åĪ¶æĪĲçļĦ":12419,"åįģä½³":12420,"é¢ĦåĪ¶":12421,"ä½ľä¸ºä¸Ģç§į":12422,"æĬķæłĩäºº":12423,"åĩłæ¬¡":12424,"åģļå¾Ĺ":12425,"æĺ¯ä¸ĸçķĮ":12426,"ç»´åŁĥ":12427,")(":12428,"æľºåĬ¨è½¦":12429,"çĥŃæ°´åĻ¨":12430,"è¿ĽäºĨ":12431,"éķĩæĶ¿åºľ":12432,"åĽ½æ°ĳç»ıæµİ":12433,"åĲĦå¼ı":12434,"åĵģç±»":12435,"åĪĽä¼¤":12436,"å¤©çļĩ":12437,"ä¹ĭäºĭ":12438,"å½ķçĶ¨":12439,"éĢļå¾Ģ":12440,"ĠSch":12441,"æĭ¨æīĵ":12442,"çŃīä¸Ģç³»åĪĹ":12443,"è´¨éĩıç®¡çĲĨ":12444,"é¢Ŀå®ļ":12445,"é»ĺé»ĺ":12446,"ä¼łæŁĵçĹħ":12447,"è§Ħç¨ĭ":12448,"ç°¿":12449,"çī¹çĤ¹æĺ¯":12450,"çĶµå½±èĬĤ":12451,"ĠãĢĲ":12452,"çĿĢéĩį":12453,"é©¾é©¶åĳĺ":12454,"çİ°å°Ĩ":12455,"ä¹ŁéĿŀå¸¸":12456,"æķĪçİĩé«ĺ":12457,"è¯ģåĪ¸äº¤æĺĵæīĢ":12458,"åĮĪçīĻ":12459,"æŀģèĩ´":12460,"éĤ®ç¼ĸ":12461,"æĳ©æīĺè½¦":12462,"éĿ¢ç§¯çº¦":12463,"å¹´è°ĥ":12464,"ä¸īäºļ":12465,"é£İè²Į":12466,"Ġå¯¹":12467,"åĪĻä¸º":12468,"åĨįåĪ°":12469,"éĽĨèģļ":12470,"åĲįå¸Ī":12471,"çīĩåĮº":12472,"åĢŁæ¬¾":12473,"æµĻæ±Łå¤§åŃ¦":12474,"ä¸įè¯¦":12475,"åı¶è½®":12476,"å¸ĤåľºèĲ¥éĶĢ":12477,"å¹´æĪĲç«ĭ":12478,"åĵ¨":12479,"åĲĮä¸Ģä¸ª":12480,"å¾·çļĦ":12481,"é¢ħ":12482,"é¢Į":12483,"åıĺéĩı":12484,"çŁ¥åĲįçļĦ":12485,"åħ¬å¸ĥäºĨ":12486,"è¯¥ä¹¦":12487,"ç»Ħç»ĩéĥ¨":12488,"è¿ĩå¤§":12489,"åıĪèĥ½":12490,"æĽ¾è¢«":12491,"AèĤ¡":12492,"è½»æĺĵ":12493,"åħ¨ç§°":12494,"ä¹ĿæľĪ":12495,"å®¹ç§¯":12496,"æĪĲè¯Ń":12497,"çľŁçĲĨ":12498,"æĬĹæĹ¥æĪĺäºī":12499,"çķ¸":12500,"æĬĢæľ¯æľīéĻĲåħ¬åı¸":12501,"åĮĸè§£":12502,"èĲ¥ä¸ļæī§çħ§":12503,"ä¿®è¡Į":12504,"èµ·è¯ī":12505,"æ°§æ°Ķ":12506,"æĤ£çĹħ":12507,"æµģåħ¥":12508,"ä¸ŃæĸĩåĲįç§°":12509,"äºĨä»ĸ":12510,"è¶³èģĶ":12511,"å»¶è¿Ł":12512,"å¾®åŀĭ":12513,"æĶ»è¯»":12514,"ode":12515,"éĥ½å°Ĩ":12516,"æĶ¯æŁ±":12517,"è¡Ĺå¤´":12518,"èģĮäºİ":12519,"æ·±æ·±":12520,"æīĢä½ľ":12521,"åı°é£İ":12522,"ĠSp":12523,"å¤¯":12524,"å¤ļæł·æĢ§":12525,"ä¹ŁéľĢè¦ģ":12526,"çĪ±ä½ł":12527,"çŃīæĥħåĨµ":12528,"èĬĿåĬł":12529,"çļĦç½ĳç»ľ":12530,"å£«é¡¿":12531,"åĿĲæłĩ":12532,"çĶµæŀģ":12533,"å¼ºåĬ¿":12534,"éļĨéĩį":12535,"ç½ĳåĿĢ":12536,"å¼ºåĽ½":12537,"èİ·èĥľ":12538,"æŃĮèĪŀ":12539,"èĬĿåĬłåĵ¥":12540,"éĿ¢ç²ī":12541,"å·Ŀåİ¿":12542,"å®½å¸¦":12543,"è®¨åİĮ":12544,"èĬľæ¹ĸ":12545,"çļĦåĲĪä½ľ":12546,"æŃ£æľĪ":12547,"å«Įçĸĳ":12548,"å¡«è¡¥":12549,"æµģåĬ¨æĢ§":12550,"ä¸¾åĬŀäºĨ":12551,"èĵĦçĶµæ±ł":12552,"ä¸įä½³":12553,"æĶ¹åĪ¶ä¸º":12554,"å°ıå§Ĳ":12555,"åľ°æĸ¹æĶ¿åºľ":12556,"è°ĪåĪ°":12557,"FR":12558,"åħ¬éĩĮçļĦ":12559,"åŁİå¸Ĥå»ºè®¾":12560,"èĢ³æľº":12561,"ä¸ĩéĩĮ":12562,"è¯Ģ":12563,"åİĤéķ¿":12564,"ame":12565,"åİĿ":12566,"åĽºéĨĩ":12567,"èĶĹ":12568,"åħ«å¤§":12569,"VID":12570,"èĭ±å°º":12571,"åŁİå¸Ĥç®¡çĲĨ":12572,"enn":12573,"æĪ·ç±į":12574,"åħ¨è¿ĩç¨ĭ":12575,"åĪĨæŀĲå¸Ī":12576,"äºĨä¸Ģåľº":12577,"åı£æľį":12578,"å¿ħé¡»åľ¨":12579,"éļıåį³":12580,"è¿ĺä¸į":12581,"éĻĪè¿°":12582,"ç¥¯":12583,"æ±ĩéĽĨ":12584,"èĤ½":12585,"çļĦä¸Ģå®¶":12586,"å¤ĸåĮħ":12587,"éģĵåħī":12588,"æĳ§":12589,"ç»ĺåĪ¶":12590,"æĦıçĶ²":12591,"çļ®æįŁ":12592,"éª¨éª":12593,"çľŁèıĮ":12594,"ä¸ŃåĽ½åĽ½éĻħ":12595,"æľįå½¹":12596,"éĻĪåĪĹ":12597,"æ²¹æ¼Ĩ":12598,"å¯Įè£ķ":12599,"çļĦåĦ¿åŃĲ":12600,"æ±ŁåĮº":12601,"èģļåĲĪçī©":12602,"å½ĵæĪĳä»¬":12603,"è½»è½»":12604,"æĺ¯ä¸Ģé¡¹":12605,"--------":12606,"æĹģè¾¹":12607,"ä¸ĩä¸ª":12608,"æģ³":12609,"att":12610,"èīºæľ¯åĵģ":12611,"éĴĪçģ¸":12612,"è¿Ŀçº¦":12613,"åıĳåĬĽ":12614,"çī©çĲĨåŃ¦":12615,"ä¹ĭä½ľ":12616,"æĺ¯åħ¨çĲĥ":12617,"èĴĻçī¹":12618,"æĽ´èĥ½":12619,"çļĦä¸Ģæ¬¾":12620,"åºķçº¿":12621,"çļĦåģ¥åº·":12622,"èµĦæł¼èĢĥè¯ķ":12623,"åı°éĺ¶":12624,"æ´¼":12625,"åħĪè¿ĽéĽĨä½ĵ":12626,"æ½ľèīĩ":12627,"çĹĺ":12628,"æ¯Ķä¸Ĭå¹´":12629,"éĤ¯":12630,"MHz":12631,"åĲİåıĪ":12632,"æĮīæĹ¶":12633,"æ»ĩ":12634,"å°Ħçº¿":12635,"æī£éĻ¤":12636,"åľ¨æľªæĿ¥":12637,"åħ¶ä¸Ńä¸Ģä¸ª":12638,"æĤ¬æĮĤ":12639,"ç¦§":12640,"çĲĥéĺŁçļĦ":12641,"æĸĩä¸Ń":12642,"ç§ĳçļĦ":12643,"æĦıä¹īçļĦ":12644,"ä¸Ńå¼ı":12645,"ç´łè´¨æķĻèĤ²":12646,"Ð»":12647,"ä¸¤å¤©":12648,"æ²³çķĶ":12649,"ans":12650,"åĴĮæĶ¯æĮģ":12651,"éľĨ":12652,"æīĵéĢłåĩº":12653,"èĤ¥æĸĻ":12654,"å¤´èĦĳ":12655,"å¾ģéĽĨ":12656,"æĭĵå®½":12657,"é¾ĻéĹ¨":12658,"åĩłçİĩ":12659,"ç»Ŀå¤§å¤ļæķ°":12660,"ä¸ŃåĽ½ä¹¦çĶ»":12661,"ä½ıäºĨ":12662,"èĭ¥æĺ¯":12663,"æĺŃåĴĮ":12664,"éŁ§æĢ§":12665,"åľ¨å¯¹":12666,"ç»ıéªĮåĴĮ":12667,"è¥¿æ±ī":12668,"é¢ĺçĽ®":12669,"ime":12670,"åģļä»Ģä¹Ī":12671,"æī¹éĩı":12672,"çļĦæ¶Īæģ¯":12673,"çĹħçĹĩ":12674,"ml":12675,"å¹¿æ³ĽçĶ¨äºİ":12676,"çºªå½ķçīĩ":12677,"ä¼Ĺäºº":12678,"åĲĮæ¯Ķä¸ĭéĻį":12679,"è¯ĪéªĹ":12680,"çī¹æ®Ĭæ´¥è´´":12681,"BD":12682,"æĺİçıł":12683,"ç§ĳçłĶå·¥ä½ľ":12684,"ç«¥è¯Ŀ":12685,"ç»ŀ":12686,"æľīèī²éĩĳå±ŀ":12687,"èľĤèľľ":12688,"éĢĤå®ľç§įæ¤į":12689,"å®ŀä¸ļæľīéĻĲåħ¬åı¸":12690,"åŁºæľ¬åıĤæķ°":12691,"ä¹Łéĥ½":12692,"çļĦæĪĲåĬŁ":12693,"åĬ¨èĥ½":12694,"åĬ¡å¿ħ":12695,"ç»ıèĲ¥èĢħ":12696,"Ã²":12697,"çļĦéĩįè¦ģç»ĦæĪĲéĥ¨åĪĨ":12698,"è®½":12699,"æ°ĶåĬ¿":12700,"ä¸ĵä¸ļçŁ¥è¯Ĩ":12701,"å®ļéĩı":12702,"ç»ıæµİå¢ŀéķ¿":12703,"oll":12704,"åħĭçļĦ":12705,"---":12706,"è½¦èº«":12707,"åĩŃè¯ģ":12708,"åı¸èģĮ":12709,"æ¬§éĺ³":12710,"åģļä¸º":12711,"åĪ¶çº¦":12712,"èĦļæŃ¥":12713,"éĩĩè®¿æĹ¶":12714,"åĲįåı«":12715,"æķħæĦı":12716,"å±ķçİ°äºĨ":12717,"å¦Ħ":12718,"å¥¥å°Ķ":12719,"çŁŃè§Ĩé¢ĳ":12720,"å¼¥è¡¥":12721,"åŀĦæĸŃ":12722,"fl":12723,"å°±æ²¡æľī":12724,"æĪĲä¸ºä¸Ģä¸ª":12725,"ç»ıéªĮçļĦ":12726,"æªĢ":12727,"å¤§è¾ŀåħ¸":12728,"çĶŁæŃ»":12729,"å¤ļå¤ļ":12730,"å¹´ä¼ļ":12731,"ä½Ļé¢Ŀ":12732,"å·¥ç¨ĭæľºæ¢°":12733,"ung":12734,"è®·":12735,"åıįæĶ»":12736,"çİ°ä»£åĮĸçļĦ":12737,"ç¤¾ç¾¤":12738,"åŀ£":12739,"è¯·èģĶç³»":12740,"è®¤è¯ĨåĪ°":12741,"è¿Ĳç®Ĺ":12742,"ç¤¾ä¼ļä¿Ŀéļľ":12743,"çļĦä¸ĢæīĢ":12744,"å°±æĺ¯åľ¨":12745,"èĦ±èĲ½":12746,"åŁİå¸Ĥè§ĦåĪĴ":12747,"åŃ£åĲİèµĽ":12748,"éĶ°":12749,"èĲ½æĪ·":12750,"ä»Ģä¹ĪæĹ¶åĢĻ":12751,"æ£į":12752,"è¿Ļæľ¬ä¹¦":12753,"æ¯Ķå¦Ĥè¯´":12754,"èĤĿèĦı":12755,"Fl":12756,"æĬĢå¸Ī":12757,"è½¬åŃĲ":12758,"ç»ıæµİå¸Ī":12759,"éĿ©åĳ½æł¹æį®åľ°çļĦ":12760,"çī¹æĸ¯æĭī":12761,"åįģæĿ¡":12762,"å°ĳå°Ĩ":12763,"ä¸Ńå¿ĥå°ıåŃ¦":12764,"çļĦåı¯èĥ½æĢ§":12765,"çĽĨåľ°":12766,"å¹¶æĹł":12767,"çģ«çĦ°":12768,"ä¸Ńåħ±ä¸Ńå¤®":12769,"å®ŀäºĭ":12770,"åĪĢåħ·":12771,"éĩıä¸º":12772,"ä¸ºåŃ¦çĶŁ":12773,"ä¸īä¸ªæľĪ":12774,"å¤ĸä¼¤":12775,"é£İæ¹¿":12776,"\"ï¼Į":12777,"è¾ĥå¼º":12778,"ä¸»è¦ģä¸ļç»©":12779,"éĥĿ":12780,"çŀ©":12781,"éĢĨè½¬":12782,"ci":12783,"æ¶ĪçģŃ":12784,"ä¸Ģè¯į":12785,"Pad":12786,"åıĺè¿ģ":12787,"æ²¹æ°Ķ":12788,"èĲ¥åķĨ":12789,"äºĨæĪĳ":12790,"ä¸ĸéĶ¦èµĽ":12791,"çĹ°":12792,"èµ·ä¼ı":12793,"éĽ¨æ°´":12794,"çº¦æľī":12795,"æŃ£è§ĦçļĦ":12796,"é¢ģå¸ĥ":12797,"ä½¿ä¹ĭ":12798,"æĹłäººæľº":12799,"åĲİè¢«":12800,"ç»Ļåĩº":12801,"åĨľæľº":12802,"è¿Ļæł·æīįèĥ½":12803,"å§ĭç»ĪåĿļæĮģ":12804,"ç»Ħå§Ķä¼ļ":12805,"å¤ªå¤§":12806,"åı¯æĢķ":12807,"éĺ»åĬĽ":12808,"çļĦåĨħ":12809,"è´Ńç½®":12810,"æ³¨æĦıåĪ°":12811,"èĦ±æ°´":12812,"çĹħçĲĨ":12813,"ç¯ĨåĪ»":12814,"ä¸ľåĮº":12815,"æīĢèĥ½":12816,"åįµå·¢":12817,"ç»¿åľ°":12818,"æİ¨çĲĨ":12819,"å¥¶å¥¶":12820,"å¤ľæĻļ":12821,"ç»Łè®¡å±Ģ":12822,"èĩ´å¯Į":12823,"åĪ¶å®ļäºĨ":12824,"æľīæľºçī©":12825,"ä¸ªåĽ½å®¶":12826,"æĢľ":12827,"ç«Ļéķ¿":12828,"åĬłæ·±":12829,"ä¸įæĸŃåıĳå±ķ":12830,"éĺ´éĺ³":12831,"ç¬ĥ":12832,"æ³¨æĦıåĬĽ":12833,"åıĳæ³¡":12834,"ä¸»æīĵ":12835,"ä¸įä¸Ģ":12836,"æĴŀåĩ»":12837,"çīĽçļ®çĻ£çļĦ":12838,"çĶļèĩ³æĺ¯":12839,"åģ¶å°Ķ":12840,"ä¸ĩå¤ļ":12841,"ç®Ģçº¦":12842,"é©±éĢĲ":12843,"éĺ¶æ®µçļĦ":12844,"èĿ´":12845,"æĺ¨æĹ¥":12846,"å¯¹ä»ĸ":12847,"å¤§æĸ¹":12848,"èĩªå·±åľ¨":12849,"åĩłä¸ªæľĪ":12850,"å½ĵå±Ģ":12851,"ä¸»è¦ģä¸º":12852,"æ¦¨":12853,"è®©å¤§å®¶":12854,"ç¦»å¼ĢäºĨ":12855,"åŁºå»º":12856,"Ġa":12857,"æĽ´åħ·":12858,"ç§ģç«ĭ":12859,"äº¬éĥ½":12860,"èĦ¸ä¸Ĭ":12861,"æŃ£å¥½":12862,"æĹ¢æĺ¯":12863,"çº³ç¨İäºº":12864,"æĥ³åĥı":12865,"çļĦé¢ľèī²":12866,"ä¸įå¦¨":12867,"çģ°å°ĺ":12868,"æįķæįī":12869,"ner":12870,"é¢Ħè®¢":12871,"è§ĨåĬĽ":12872,"åĨ¢":12873,"åĮ»æĬ¤":12874,"ĠEx":12875,"åıįæĺłäºĨ":12876,"Ġä»İ":12877,"çļĦåĬŁæķĪ":12878,"å¾·çĶ²":12879,"èĻĲ":12880,"è°ĭåĪĴ":12881,"æĹ¶æĬ¥":12882,"é£Ļ":12883,"èĢģå¸ĪçļĦ":12884,"éºĴ":12885,"é³Ħ":12886,"æĭīå¼Ģ":12887,"æ¼Ķåıĺ":12888,"ä¼°åĢ¼":12889,"çºĤ":12890,"ç«¥å¹´":12891,"æĦ§":12892,"èĲ¤":12893,"éģĹè¿¹":12894,"åĿļåĽº":12895,"ä¹ĭæĥħ":12896,"ç¬¬ä¸Ģå®¶":12897,"DVD":12898,"è¦ģæĬĬ":12899,"eth":12900,"éĿ¢æĸĻ":12901,"åĨ°éĽª":12902,"èµĦäº§ç®¡çĲĨ":12903,"åĴĮåĽ½éĻħ":12904,"è§£æķ£":12905,"Â±":12906,"åº¶":12907,"åĮĹè·¯":12908,"æĬķèµĦåŁºéĩĳ":12909,"ton":12910,"ä¼ģä¸ļæĸĩåĮĸ":12911,"åįıä¼ļä¼ļåĳĺ":12912,"ãĢĭï¼ī":12913,"çļĦè®¾å¤ĩ":12914,"ä¸ŃåĽ½åı¤ä»£":12915,"ä»ĸä¸º":12916,"é¢Ĩè¡Ķ":12917,"çģ«èĬ±":12918,"é¸½":12919,"æķĻåŃ¦å·¥ä½ľ":12920,"è®¡åĪĴçļĦ":12921,"åĩºæīĭ":12922,"ç§¯æŀģæĢ§":12923,"åľŁè±Ĩ":12924,"æł¸å®ŀ":12925,"éħ¸æĢ§":12926,"ä¸ĵä¸ļæĬĢæľ¯äººåĳĺ":12927,"èĿ´èĿ¶":12928,"å¹¶åıĳçĹĩ":12929,"ç¬¬äºĮå¤©":12930,"åħ±éĿĴåĽ¢":12931,"æ¯«ä¸į":12932,"çķĻåŃ¦çĶŁ":12933,"åĲĮçŃī":12934,"ä¸ªæķĻåŃ¦çıŃ":12935,"LE":12936,"æĿ¥çĶµ":12937,"åĿļä¿¡":12938,"äººæł¼":12939,"å¯»å¸¸":12940,"åĮĨ":12941,"ä¿ĿéĻ©åħ¬åı¸":12942,"æī§è¡Įå®ĺ":12943,"å°ıåĲĥ":12944,"æŁĲæŁĲ":12945,"æķĻåĬ¡":12946,"ä¸Ĭåĳ¨":12947,"è§Ħæ¨¡çļĦ":12948,"å¯¹çŃĸ":12949,"æĺ¯ä¸Ģä»¶":12950,"åĮºåŁŁåĨħ":12951,"åħļå§Ķå§Ķåĳĺ":12952,"ãģį":12953,"Ġé©¬":12954,"æ¶§":12955,"ä¼ĹæīĢ":12956,"éŃĦ":12957,"åħ³äºİåį°åıĳ":12958,"åķĨäºº":12959,"ä¸įæŃ¢":12960,"çĶŁæ´»æĸ¹å¼ı":12961,"èģļä¼ļ":12962,"ä»¥å¤ª":12963,"çļĦåĪĽæĸ°":12964,"æ¸¯åħĥ":12965,"è¡ĮæĶ¿ç®¡çĲĨ":12966,"æĸ¼":12967,"eng":12968,"è¶Ĭå¥½":12969,"ç¾Į":12970,"ä¸ľæ±ī":12971,"ç¢±æĢ§":12972,"çľģéĥ¨çº§":12973,"çļĦä¸ļåĬ¡":12974,"åı¯ä»¥ä»İ":12975,"åį¡éĢļ":12976,"ãģķ":12977,"åħ¨éķĩ":12978,"åĪ©æĸ¯":12979,"ä¼ĺç§Ģå¥ĸ":12980,"èĭ·":12981,"ä½Ľå±±å¸Ĥ":12982,"æŁĶæĢ§":12983,"åħ¥æīĭ":12984,"å¹´åĩºçīĪ":12985,"ä¸ĢèĪ¬åľ¨":12986,"å¸¸ä½ı":12987,"åĪĽç«ĭäºİ":12988,"æĺ¯ä¸ĢäºĽ":12989,"èĹķ":12990,"ä¸ºè¿Ľä¸ĢæŃ¥":12991,"è¯´æĺİä¹¦":12992,"é¦ı":12993,"æĺ¯è°ģ":12994,"è¥¿çĶ²":12995,"èĪľ":12996,"èľĺ":12997,"ç§ĳåĪĽ":12998,"ç²¾éĢļ":12999,"çŃĶå¤į":13000,"ä¸ĸçºªçļĦ":13001,"å®ŀçī©":13002,"éļ¾å¾Ĺ":13003,"å¼¹ç°§":13004,"ç»Ļèĩªå·±":13005,"åĪ°æľŁ":13006,"èİ·æĤī":13007,"åŃ¦åīį":13008,"åĩºå±Ģ":13009,"çĸ¡":13010,"å·¨äºº":13011,"ç»ıçĶ±":13012,"é¡¶éĥ¨":13013,"è¥¿å®īå¸Ĥ":13014,"åİķæīĢ":13015,"æĺ¯æ³ķåĽ½":13016,"æ°´ä½į":13017,"åŁºæľ¬çļĦ":13018,"èĩªæľī":13019,"æĺŁç³»":13020,"å¼ĤæĢ§":13021,"åħļåı²":13022,"ç¨įå¾®":13023,"æ²¹å¢¨":13024,"è¢«è§Ĩä¸º":13025,"æĻ®æ´±":13026,"åħ¨èµĦ":13027,"é¡¹çĽ®ç®¡çĲĨ":13028,"çĶŁèĤĸ":13029,"æĪĳä»¬ä¹Ł":13030,"æ²³åı£":13031,"ystem":13032,"æĪĬ":13033,"äºļåİĨå±±å¤§":13034,"ä¸»çļĦ":13035,"ä¹°å®¶":13036,"iel":13037,"å®īå¿ĥ":13038,"åįĹåĮº":13039,"çĭ¬åħ·":13040,"åħ¬çº¦":13041,"åĭĺæİ¢":13042,"æĺİæ¸ħ":13043,"MI":13044,"ä¸¢å¤±":13045,"æĺ¯é¦Ļæ¸¯":13046,"è¢į":13047,"éĩįéĩĳå±ŀ":13048,"å»ºæ¨¡":13049,"å±±ä¸Ĭ":13050,"çıįè´µ":13051,"å¹³æķ´":13052,"åŃĺåľ¨äºİ":13053,"åľ¨ä¸Ģå®ļ":13054,"ä¸¤é¡¹":13055,"é¥®æ°´":13056,"åĮĪçīĻåĪ©":13057,"éĩįçĹĩ":13058,"å¾ĹçĽĬ":13059,"æħ°éĹ®":13060,"æľĪçĲĥ":13061,"éªĨ":13062,"ä¼ģä¸ļåıĳå±ķ":13063,"çļĦæľĢå¤§":13064,"çĽ´åįĩ":13065,"æĹ¥å¼Ģå§ĭ":13066,"æ¦Ĥè®º":13067,"æĽ¿æį¢":13068,"ä¼ļåĲĮ":13069,"è´¯éĢļ":13070,"çļĦæ¸©åº¦":13071,"èµŀèªī":13072,"å¤§éĺª":13073,"ä¼ļéĢłæĪĲ":13074,"å¥½å¥ĩ":13075,"æķĻèĤ²åĴĮ":13076,"èĢĮè¿ĩ":13077,"ä¸įæĩĤ":13078,"æ¯Ķåĸ»":13079,"æ»¡æ»¡":13080,"æķ´æ´ģ":13081,"åįĹçĵľ":13082,"èıł":13083,"å®ģæ³¢å¸Ĥ":13084,"åı¯ä»¥è¯´æĺ¯":13085,"åıĤæ¼Ķ":13086,"æŁ¥éĺħ":13087,"ç»ıæµİç¤¾ä¼ļåıĳå±ķ":13088,"è¶Ĭå¤ļ":13089,"***":13090,"çľģåĨħ":13091,"æĸĩåŃ¦å®¶":13092,"ä¿Ń":13093,"æĥħçļĦ":13094,"èľĺèĽĽ":13095,"æĹ©é¤Ĳ":13096,"è¿ªå£«":13097,"éª¨å¹²æķĻå¸Ī":13098,"åİŁæĸĩ":13099,"å¼ĢåıĳèĢħ":13100,"æĶ¾çĶµ":13101,"æļĸæ°Ķ":13102,"æ³¾":13103,"æ£Ģçĸ«":13104,"å½±åĵįäºĨ":13105,"çĶŁäº§å·¥èīº":13106,"èĤ´":13107,"çªģåĩºçļĦ":13108,"æİĴæ°Ķ":13109,"èĶĵå»¶":13110,"æĭīä¼¸":13111,"åħ¥é©»":13112,"å°ıæĹ¶åĨħ":13113,"æĹłåı¯":13114,"éķ¿è¿ľ":13115,"é¢Ħæ¡Ī":13116,"ons":13117,"ä¹¡æĶ¿åºľ":13118,"çļĦæķ´ä½ĵ":13119,"èģĮä¸ļåŃ¦éĻ¢":13120,"å°ģéĿ¢":13121,"å·¥èīºç¾İæľ¯":13122,"æľ«ç«¯":13123,"æĳĦåĥıå¤´":13124,"å¾ģæľį":13125,"åµ©":13126,"èĩªæĿ¥æ°´":13127,"åľ¨è¿Ļä¸Ģ":13128,"å¹´æĺ¥":13129,"åŃ¦ä¹łåĴĮ":13130,"æİ¢éĻ©":13131,"çŃ¾åĲį":13132,"èĬĤåº¦":13133,"äº²åĪĩ":13134,"çıĬçĳļ":13135,"æıŃç¤º":13136,"åıĮéĩį":13137,"å±ĬæĹ¶":13138,"ä¸»æ¼ĶçļĦ":13139,"çĥŃéĹ¹":13140,"æĻļä¼ļ":13141,"å¤ļå°ĳéĴ±":13142,"çĻ¾åĪĨä¹ĭ":13143,"éĹ´éļĻ":13144,"å¥³åıĭ":13145,"ç¾ŀ":13146,"å¸®å¿Ļ":13147,"åĨľä¸ļåĨľæĿĳ":13148,"]ï»¿":13149,"éĹ¨å¸Ĥ":13150,"ä¹¦æ³ķå®¶":13151,"èĩ´ä½¿":13152,"å°ıæľĭåıĭ":13153,"ç»¿èĮ¶":13154,"æİ¥çº³":13155,"å±±é¡¶":13156,"åĿļå¼º":13157,"ç³»åĪĹçļĦ":13158,"ley":13159,"æ¶Ĥè£ħ":13160,"è¾Ĭ":13161,"ä¸ĢéĿ¢":13162,"æĹłçº¿çĶµ":13163,"ä¸Ĭæĸ¹":13164,"Ġéĺ¿":13165,"åĪĨå¸ĥå¼ı":13166,"uk":13167,"anc":13168,"çļĦç»ıèĲ¥çĲĨå¿µ":13169,"åŃĲåĴĮ":13170,"æµĵç¼©":13171,"åĮ»åĬ¡":13172,"çĻ¾åĲĪ":13173,"ãģ¿":13174,"åıĮæīĭ":13175,"lex":13176,"Ø§":13177,"åıĤä¸İèĢħ":13178,"rip":13179,"ä¸īçĻ¾":13180,"åı²å¯Ĩ":13181,"éĽĨæĪĲçĶµè·¯":13182,"ä¸ĩæ¬§åħĥ":13183,"åħ¬çĪµ":13184,"ãĢįãĢģãĢĮ":13185,"å¯¼çĶµ":13186,"çİ¯å¢ĥåĴĮ":13187,"ç¬¬åįģåĽĽ":13188,"æĸ°æĺ¥":13189,"ä¸įå°ĳäºİ":13190,"æªĲ":13191,"è¯¸å¦Ĥ":13192,"å¤ļä¹Ī":13193,"éĢļä¿Ĺ":13194,"åīĤçļĦ":13195,"ç¬ĶåĲį":13196,"å¸ĥéĩĮ":13197,"Åį":13198,"å°¤åħ¶æĺ¯åľ¨":13199,"è½¨è¿¹":13200,"æ´»å¡ŀ":13201,"ef":13202,"é«ĺæĸ°":13203,"æ·±åİļ":13204,"Â·Â·":13205,"åĮħå®¹":13206,"äºĴè¡¥":13207,"èħķè¡¨":13208,"å°±è¯Ĭ":13209,"åįĹåİ¿":13210,"ames":13211,"exe":13212,"çĦ¶åĲİåĨį":13213,"ç«ŀäºīå¯¹æīĭ":13214,"è¿ªå£«å°¼":13215,"ç®¡å§Ķä¼ļ":13216,"éª¨éª¼":13217,"å½Ĵå±ŀ":13218,"æĺ¯çĶ±äºİ":13219,"åıĺåĮĸçļĦ":13220,"åºĨåħ¸":13221,"åľºé¦Ĩ":13222,"èĨ³é£Ł":13223,"å¤§åŃ¦æĸĩåĮĸ":13224,"èĭıå·ŀå¸Ĥ":13225,"æĮ¤åİĭ":13226,"æĽ¿è¡¥":13227,"ç¬¬ä¸īæ¬¡":13228,"å±ķåİħ":13229,"åĢ¦":13230,"æŃ£å¤Ħäºİ":13231,"æ¯ĴæĢ§":13232,"æĹ¥åĩºçĶŁ":13233,"ui":13234,"çĻ½çĻľé£İçļĦæ²»çĸĹ":13235,"åĮ¿":13236,"åĤ»":13237,"å¾ģç¨ĭ":13238,"Pr":13239,"å¿ħå®ļ":13240,"æĵħèĩª":13241,"åįłçĶ¨":13242,"ä¼¦çĲĨ":13243,"ä¸Ĭä¸ĸçºª":13244,"æľºèĥ½":13245,"ç»ĵä¸ļ":13246,"åĬ©æİ¨":13247,"åĨ¤":13248,"åıĺæį¢":13249,"åħ³æ³¨çļĦ":13250,"çī¹æľīçļĦ":13251,"ä¸ĬèµĽåŃ£":13252,"åĹ½":13253,"ä¹Łåı¯èĥ½":13254,"Î²":13255,"éħ¿éħĴ":13256,"è°¥":13257,"åĽ½å®¶èĩªçĦ¶ç§ĳåŃ¦åŁºéĩĳ":13258,"wit":13259,"é«ĺçº§ä¸ŃåŃ¦":13260,"éĢ®":13261,"æİ¨ä»ĭ":13262,"ä»ĸè®¤ä¸º":13263,"èĢĮåĲİ":13264,"MC":13265,"æĬĢæľ¯çłĶåıĳ":13266,"åı¯ä»¥çĽ´æİ¥":13267,"å¤®è¡Į":13268,"çļĦéĿŀ":13269,"ä¸Ńæĸ°":13270,"éģĵæķĻ":13271,"ä¹Łåı«":13272,"ä¼´éļı":13273,"TP":13274,"é¦ħ":13275,"å·¥ä¿¡":13276,"æĸĩéĽĨ":13277,"è¡°èĢģ":13278,"æľŃ":13279,"å¤§å¹ħåº¦":13280,"ĠAl":13281,"æķħåĲį":13282,"ç¨¿ä»¶":13283,"åıĳçĹħçİĩ":13284,"ç¡®è¯ĬçĹħä¾ĭ":13285,"å·´æĭī":13286,"ç®Ģæĺĵ":13287,"ç»¼åĲĪå¾ģ":13288,"æİł":13289,"åİŁåħĪ":13290,"æĹłç©·":13291,"å¼ĢåıĳåķĨ":13292,"é¢ĦæĬ¥":13293,"è¿ĩé«ĺ":13294,"éĿŀå¸¸éĩįè¦ģ":13295,"Com":13296,"å·´åŁº":13297,"åĪ©çĶ¨çİĩ":13298,"ä¸ĢæĬĬ":13299,"æĭĲ":13300,"å¸¦ä¸Ĭ":13301,"èĪªç©ºèĪªå¤©":13302,"æĺ¯æ²¡æľī":13303,"ä¾Ī":13304,"è¿ĲåĬ¨çļĦ":13305,"åİŁä¸º":13306,"éĢŁåº¦å¿«":13307,"æ°´åİ¿":13308,"ç¾İå¥³":13309,"æ¢¦å¹»":13310,"ç¾ĬèĤī":13311,"çļĦåįķ":13312,"é«ĺç´łè´¨":13313,"ÇĶ":13314,"è´¢è¿Ĳ":13315,"éĩĳæĽ²":13316,"ä¸Ģå¤Ħ":13317,"ä¸įæ¸ħ":13318,"åįĹå±±":13319,"çļĦçĶ¨æĪ·":13320,"Java":13321,"æĹłæ¯Ķ":13322,"ä¸ĸéĹ´":13323,"%-":13324,"äº®åº¦":13325,"çŃīéĥ¨éĹ¨":13326,"æľªçŁ¥":13327,"è½¿è½¦":13328,"åĨ³å®ļäºĨ":13329,"ä¸Ńç§ĭ":13330,"çĽ¸éģĩ":13331,"æĦīå¿«":13332,"èģĨ":13333,"è¡¨éĿ¢çļĦ":13334,"åĨľä¸ļäººåı£":13335,"çĬ¹å¦Ĥ":13336,"HS":13337,"æµ¸æ³¡":13338,"æµİåįĹå¸Ĥ":13339,"äºĶä¸Ģ":13340,"æĮĩæĮ¥éĥ¨":13341,"ç®Ģè¦ģ":13342,"åħ±åĪĽ":13343,"æ³¨æĦıçļĦæĺ¯":13344,"æ²Īéĺ³å¸Ĥ":13345,"åħĪå¤©":13346,"åİŁä»¶":13347,"ä¸įä»ħä»ħæĺ¯":13348,"åĪĨä¹ĭä¸Ģ":13349,"åıĬåºĶçĶ¨":13350,"ä¸Ĭéĺµ":13351,"Ġst":13352,"æīĢè¯´çļĦ":13353,"çļ®éĿ©":13354,"åİ¿çº§ä»¥ä¸Ĭ":13355,"éĩĮéĿ¢çļĦ":13356,"åºķå±Ĥ":13357,"åħ¬å®īæľºåħ³":13358,"èĤĭ":13359,"å¼ĢéĹ¨":13360,"è¿Ļä¸ªæĹ¶åĢĻ":13361,"çº¶":13362,"è§ģäºİ":13363,"åħ¬åħ±æľįåĬ¡":13364,"èĩŃæ°§":13365,"æł¡ä¼ģ":13366,"æ¨Ł":13367,"åĲ¸çĥŁ":13368,"åªĽ":13369,"è¯Ńæ³ķ":13370,"ç½®äºİ":13371,"ä¸ºèĩªå·±":13372,"âĢ§":13373,"çĪ±äºº":13374,"çºµæ¨ª":13375,"æķ°é¢Ŀ":13376,"ç¼ĸè¯ĳ":13377,"âĢķâĢķ":13378,"æķĻèĤ²å·¥ä½ľ":13379,"å·¥ä¸ļåĮĸ":13380,"ãĦ¢":13381,"è´§æŀ¶":13382,"æ³¨åĨĮåķĨæłĩ":13383,"éĶģå®ļ":13384,"ç®¡çĲĨä¸Ńå¿ĥ":13385,"åľ¨æ²»çĸĹ":13386,"éĢļèĥĢ":13387,"è¾ħå¯¼åĳĺ":13388,"èµİ":13389,"éĩĳåįİ":13390,"é²¨":13391,"æĥ¹":13392,"æŁĳ":13393,"ual":13394,"åĽĽç§į":13395,"iversity":13396,"ç»ĵæł¸":13397,"è¶ħåĩº":13398,"åĲ¬è¯´":13399,"éļĶéŁ³":13400,"éĩĳéĵ¶":13401,"æ¸¸çİ©":13402,"ç²ĺåº¦":13403,"æĬķèº«":13404,"æīŃçŁ©":13405,"æ¦Ĥè¦ģ":13406,"åĬ¨å·¥":13407,"å¸Ĥåľºç»ıæµİ":13408,"ä¹Łæ¯Ķè¾ĥ":13409,"å°Ĩé¢Ĩ":13410,"å¤§åħ¸":13411,"åħ¨æĸĩ":13412,"åľ¨éĤ£éĩĮ":13413,"äº¦åı¯":13414,"æ·ĩ":13415,"åªĴä½ĵçļĦ":13416,"è¿Ļä¸ĢåĪĩ":13417,"ãĤ·":13418,"Ġé»Ħ":13419,"å¾ĢæĿ¥":13420,"çİĩè¾¾":13421,"ç§ģåĭŁ":13422,"çĻ½èıľ":13423,"åĴĢ":13424,"é©¬å¾·éĩĮ":13425,"å¤§éĿ¢ç§¯":13426,"Phone":13427,"ç£ģåľº":13428,"è·¯çļĦ":13429,"ç²¾ç¾İ":13430,"æŃ£å¼ıæĪĲç«ĭ":13431,"å¸ĤåľºçĽĳç®¡":13432,"çłĶç©¶çĶŁåŃ¦åİĨ":13433,"åķĨä¸ļæ¨¡å¼ı":13434,"çļĦå®¶åºŃ":13435,"çŃīåĬŁ":13436,"å¢Ļä½ĵ":13437,"çļĦæĸ°éĹ»":13438,"ç®Ģä¾¿":13439,"èŀºæĿĨ":13440,"âĸ²":13441,"åľ¨è¿ĩåİ»":13442,"ç¥Ńç¥Ģ":13443,"å¼ĢåıĳåĴĮ":13444,"Ste":13445,"åľ¨æ°´":13446,"ç¥ĸç±į":13447,"ï¼ħãĢĤ":13448,"åı°åĮĹå¸Ĥ":13449,"éĴĿ":13450,"é¢ģå¥ĸåħ¸ç¤¼":13451,"æ¡Ķ":13452,"éĤ£æĺ¯":13453,"æ¬²æľĽ":13454,"åĨĽå®ĺ":13455,"åºŀå¤§çļĦ":13456,"èįŁ":13457,"åıĺçļĦ":13458,"çİ¯å¢ĥä¼ĺç¾İ":13459,"åİŁåŀĭ":13460,"é¦ĸåº¦":13461,"ä½Ĩåħ¶":13462,"æĸĻçĲĨ":13463,"éĿ©æĸ°":13464,"å»ºçŃĳä¸ļ":13465,"åºĶå±Ĭ":13466,"æķ°åįĥ":13467,"åģ¶çĦ¶":13468,"æºľ":13469,"ä½ĵçİ°åľ¨":13470,"ä¸įä»ħåı¯ä»¥":13471,"å»ºæł¡":13472,"cc":13473,"è´¿":13474,"ä»£è¡¨åĽ¢":13475,"çĽĳçĿ£ç®¡çĲĨå±Ģ":13476,"åľ¨ä»ĸçļĦ":13477,"æİ¢ç©¶":13478,"æĺ¾åŃĺ":13479,"ãĤī":13480,"å·§å¦Ļ":13481,"èĥĮåĲİçļĦ":13482,"é¢Ĩå¯¼äºº":13483,"äººä½ĵçļĦ":13484,"çĶŁæĢģç³»ç»Ł":13485,"å¤ĸæĿ¥":13486,"ä¸Ģä¸ªæĸ°çļĦ":13487,"åį³ä¸º":13488,"çİ¯å¢ĥæ±¡æŁĵ":13489,"ä¸Ĭçľĭ":13490,"å·´å£«":13491,"ç®¡ç½ĳ":13492,"è¯Ħå§Ķ":13493,"è¯¥å¦Ĥä½ķ":13494,"å°¼è¥¿äºļ":13495,"ç±»ä¼¼çļĦ":13496,"çĲĲ":13497,"çłĶç©¶ä¸İ":13498,"åĪ°å¤Ħ":13499,"éŃĶæľ¯":13500,"å¹²çº¿":13501,"åħļçļĦäºĮåįģå¤§ç²¾ç¥ŀ":13502,"å±ħçĦ¶":13503,"å½ĵéĢīä¸º":13504,"æĬ¥éħ¬":13505,"å¤ĸå¢Ļ":13506,"ä¸īå¤©":13507,"ä¸ŃåĽ½ç»ıæµİ":13508,"æĪĸèĢħåħ¶ä»ĸ":13509,"åĵģå°Ŀ":13510,"éĵ£":13511,"åĮĹä¾§":13512,"ç®¡çĲĨä¸İ":13513,"åľ°è¡¨":13514,"æłĩæĿĨ":13515,"åĢ¡è®®":13516,"ä¾µå®³":13517,"ä¾¦æİ¢":13518,"è¿ĽåĨĽ":13519,"çļĦçĥŃæĥħ":13520,"å®¢åİħ":13521,"è¦ģä¹Ī":13522,"æĹ¶å¸¸":13523,"åĩºåħ¥åı£":13524,"çī¹çº¦":13525,"åıĪä¸Ģ":13526,"HO":13527,"æīĵåĮħ":13528,"å®£è®²":13529,"éĩĳèŀįæľįåĬ¡":13530,"å¿ħä¸įåı¯":13531,"âĳ¢":13532,"åıįæĢĿ":13533,"éĢĽ":13534,"è¡Įè½¦":13535,"é©¬è¾¾":13536,"çĥŁèįī":13537,"çĥŃå¤ĦçĲĨ":13538,"å¹¿æ³ĽåºĶçĶ¨":13539,"æĶ¾åĪ°":13540,"è¯Ħçº§":13541,"æ°Ķæµģ":13542,"å¯ħ":13543,"èĤĽ":13544,"åı£çļĦ":13545,"ä¸ºå®ĹæĹ¨":13546,"å°Ĩè¦ģ":13547,"ä¾¿æĲº":13548,"å»ºçŃĳçļĦ":13549,"éĩıèº«":13550,"ç¬¬äºĮåŃ£":13551,"çĿĢæīĭ":13552,"roid":13553,"å¤ĸæı´":13554,"ä¸¤å®¶":13555,"ç©ºéĹ´çļĦ":13556,"èģĺä¸º":13557,"çĪ·çĪ·":13558,"è¡ĮæĶ¿åĮºåĪĴ":13559,"ance":13560,"Ġäºº":13561,"å¤ļä¸ĩ":13562,"è§ģè§£":13563,"éĩįçĤ¹é¡¹çĽ®":13564,"çĿ¹":13565,"ç«ĻçļĦ":13566,"åı·çļĦ":13567,"åŁ¹è®Ńä¸Ńå¿ĥ":13568,"æıĴåħ¥":13569,"çŁ©éĺµ":13570,"è¿Ŀæ³ķè¡Įä¸º":13571,"çĶµå®¹":13572,"æ³īæ°´":13573,"å¹´åĿĩ":13574,"ç´łæĿĲ":13575,"å¨Ħ":13576,"å®īå¨ľ":13577,"æŀĦçŃĳ":13578,"äºĭåħĪ":13579,"é¥±æ»¡":13580,"é²ľèĬ±":13581,"é¼łæłĩ":13582,"æ¯Ĵç´ł":13583,"åİŁæľīçļĦ":13584,"å°½æĹ©":13585,"çļĦçĲĥåĳĺ":13586,"LA":13587,"å°Ĩå¯¹":13588,"éķ¿æľŁçļĦ":13589,"çļĦäºĭå®ŀ":13590,"æĸĩèģĶ":13591,"çŀĦ":13592,"çĹħåİŁ":13593,"é¢Ĩå¯¼èĢħ":13594,"åĬĽéĩıéĽĦåİļ":13595,"åĽłåºĶ":13596,"GT":13597,"åĳķ":13598,"éĴ¥åĮĻ":13599,"éķ¿æ²Ļå¸Ĥ":13600,")ï¼ļ":13601,"ä¿Ŀä¿®":13602,"å¯¼åħ¥":13603,"åıĹå®³":13604,"åĨ·æ°´":13605,"çļĦæĢĿæĥ³":13606,"äºİä¸Ģä½ĵ":13607,"å¤©æīį":13608,"è¿ĻäºĽéĹ®é¢ĺ":13609,"ç¼ĵåĨ²":13610,"ãĢĭï¼ļ":13611,"å¸Īä»İ":13612,"æİĴæ±¡":13613,"æ±Ľ":13614,"æ¸©é¦¨æıĲç¤º":13615,"åĽ½å®ī":13616,"æĿĳçļĦ":13617,"éħ°èĥº":13618,"æľĪå¼Ģå§ĭ":13619,"å¹´çĶŁäºİ":13620,"åĢŁçĶ±":13621,"é£ŁåĵģæľīéĻĲåħ¬åı¸":13622,"æīĢæľª":13623,"å»īæĶ¿":13624,"çĦī":13625,"çļĦä¸ĢæĿ¡":13626,"æĹłå¥Ī":13627,"ç¤ºèĮĥåĮº":13628,"åı¤éķĩ":13629,"æīĺç®¡":13630,"ç´łæľī":13631,"èİ·å¾ĹèĢħ":13632,"ä¹ŀ":13633,"åıĳè¡¨äºĨ":13634,"åĦ¿ç§ĳ":13635,"è¯ģä»¶":13636,"è¶³çĲĥéĺŁ":13637,"æ¡ĮéĿ¢":13638,"æīĵåį°æľº":13639,"Ġè¿Ļ":13640,"æĺİç¡®çļĦ":13641,"å§ĵæ°ı":13642,"ä¹łä¿Ĺ":13643,"å·²ç»ıæľī":13644,"éĻĲå®ļ":13645,"åħŃå¤§":13646,"ç¤¾éķ¿":13647,"äºĴåĬ©":13648,"æĹ¥æľ¬çļĦ":13649,"æ²¡èĥ½":13650,"amp":13651,"æīįæľī":13652,"å¡«æĬ¥":13653,"åīįèº«æĺ¯":13654,"åı¸ä»¤éĥ¨":13655,"å¹¿çĶµ":13656,"ä¿ĥè¿ĽäºĨ":13657,"åĽŀåİ»":13658,"æ¸¤æµ·":13659,"æľ¬å¸Ĥ":13660,"çļĦæķ°éĩı":13661,"åħļä¸Ńå¤®":13662,"å²Ľä¸Ĭ":13663,"æľ¬çīĩ":13664,"CBA":13665,"é¦ĸåĪĽ":13666,"RNA":13667,"ä¸Ģåįĥ":13668,"æĵįæİ§":13669,"å·ħå³°":13670,"èģļèĲ½":13671,"å¸¦çļĦ":13672,"ä¸Ģè´¯":13673,"éĥ¸":13674,"æĹ¥åĩºçĶŁäºİ":13675,"èĢĮçĶŁ":13676,"æįŁèĢĹ":13677,"å¹ķå¢Ļ":13678,"çģ¯åħ·":13679,"å¹³éĿĻ":13680,"å·¥ä¸ļä¼ģä¸ļ":13681,"æĹ¶åºĶ":13682,"æīĶ":13683,"åĨľæ°ĳæĶ¶åħ¥":13684,"åĳ¨åĪĬ":13685,"ä¼ĹæīĢåĳ¨":13686,"èģĤ":13687,"å¤įä¹ł":13688,"çŁ³æ²¹åĮĸå·¥":13689,"å£°ç§°":13690,"ä¸Ńå¤®çĶµè§Ĩåı°":13691,"çĥŁæ°Ķ":13692,"åĲ¸å¼ķåĬĽ":13693,"å¯¹åºĶçļĦ":13694,"æ¸²":13695,"åľ¨åĵªéĩĮ":13696,"éŁ³ä¹Ĳä¼ļ":13697,"åĲĽä¸»":13698,"è¿Ļä»¶äºĭ":13699,"åħ¬å¼ĢèµĽ":13700,"åĿŁ":13701,"åķ¥":13702,"åĽŀåįĩ":13703,"æ¯ıäºº":13704,"æ¥¼æ¢¯":13705,"åĢĴåħ¥":13706,"å¹´åĩºçĶŁäºİ":13707,"åħ½åĮ»":13708,"ank":13709,"æĺ¯ä¸ĸçķĮä¸Ĭ":13710,"éķ¿å¾ģ":13711,"èĲ¥åĪ©":13712,"æľ¬èº«çļĦ":13713,"äºĭåĲİ":13714,"å°ºåº¦":13715,"ç¼ĸæĽ²":13716,"å·¥ä½ľåĴĮ":13717,"è®ºè¿°":13718,"æį¢ä¹ĺ":13719,"éī´äºİ":13720,"åįĩæľ¬":13721,"å¤ĩä»½":13722,"èĸªéħ¬":13723,"éĢģç»Ļ":13724,"ä¼ļè®©":13725,"è¡ĮæĶ¿ä¸»ç®¡éĥ¨éĹ¨":13726,"åħ¼é¡¾":13727,"åĲĮæĹ¶è¿ĺ":13728,"çī¹çº§":13729,"CAD":13730,"åłĨç§¯":13731,"åľºåĿĩ":13732,"é¥º":13733,"å¸·":13734,"ç§°åĳ¼":13735,"åıĳå±ķåĪ°":13736,"èĢģçĻ¾å§ĵ":13737,"ĠãĦĮ":13738,"å¤ıä»¤":13739,"èĿł":13740,"æ²Ļé¾Ļ":13741,"çº¯ç²¹":13742,"çİ°è¡Į":13743,"ä¹ĭä½Ļ":13744,"çĶµåŃĲä¿¡æģ¯":13745,"å¤§æµ·":13746,"è´¨éĩıçļĦ":13747,"æ½ľæ°´":13748,"å¹¶èĥ½":13749,"æķ°åŃĹç»ıæµİ":13750,"ä¸¤ä¸ªäºº":13751,"å¯¹ä½ł":13752,"éĻįéĽ¨":13753,"æĬĹæĪĺ":13754,"æĹ·":13755,"äº«å¹´":13756,"ç¾¡":13757,"æĬĢæ³ķ":13758,"éķ¿å¯¿":13759,"æ´ªæ°´":13760,"å¸¦é¢Ĩä¸ĭ":13761,"é»ĳçĻ½":13762,"åĪĩéĻ¤":13763,"å¸Įå°Ķ":13764,"é¦ĸè¦ģ":13765,"çļĦå¤§åĬĽ":13766,"æ²¹çĥŁ":13767,"å¤§åĽ½":13768,"å¾®ä¿¡åħ¬ä¼Ĺåı·":13769,"èĩªåĬ¨é©¾é©¶":13770,"åŁ¹è®ŃæľºæŀĦ":13771,"çľ¼åħī":13772,"RE":13773,"ä¸Ģç±»":13774,"åĽ½æľīä¼ģä¸ļ":13775,"ä¸ŃåĲ«æľī":13776,"åĩłå¹´æĿ¥":13777,"é«ĺæīĭ":13778,"ä¸īå±Ĥ":13779,"å®īåħ¨ç®¡çĲĨ":13780,"è¿ĺæľīä¸Ģä¸ª":13781,"éªĳåħµ":13782,"æ°´åľŁ":13783,"å¼łä¸ĵè¾ĳ":13784,"äº¿åħĥäººæ°ĳå¸ģ":13785,"DI":13786,"è¿·ä½ł":13787,"å¤§çº²":13788,"æ³ķåĪĻ":13789,"æĪİ":13790,"æķ°åŃĹåĮĸè½¬åŀĭ":13791,"æ¸į":13792,"è§ĴçĲĥ":13793,"èīºæľ¯çļĦ":13794,"éĺ¿æ£®":13795,"ĠãĦĴ":13796,"çĶµåŃĲäº§åĵģ":13797,"å¾Īå°ı":13798,"é©¼":13799,"äººèº«":13800,"åı¤è¿¹":13801,"åıĺç§į":13802,")ãĢĭ":13803,"èļĮ":13804,"æĽ²çĽ®":13805,"åĲĳå¾Ģ":13806,"éĢģè¾¾":13807,"ä¸ĸçļĦ":13808,"åĨħå®¹åĮħæĭ¬":13809,"æĭ¨æ¬¾":13810,"åıĳéŁ³":13811,"åħ¥ä¼į":13812,"åĵĪä½Ľ":13813,"æĢ¥æķĳ":13814,"å¢ĻéĿ¢":13815,"âĢĿ)":13816,"æĹ©æľŁçļĦ":13817,"è¿Ļæł·ä¸Ģä¸ª":13818,"åıĺéĢŁç®±":13819,"æĸ°åªĴä½ĵ":13820,"æķħå®«":13821,"æĺ¾ç¤ºåĻ¨":13822,"åĪ¹è½¦":13823,"ç²Ĺç³Ļ":13824,"PO":13825,"æĽ¾æĺ¯":13826,"è®¢è´Ń":13827,"äºļç§į":13828,"åħ±åĲĮåĬªåĬĽ":13829,"ç½ĳæ°ĳ":13830,"äºĨä¸Ģæī¹":13831,"ä¸Ģçľĭ":13832,"éĥ¨åĴĮ":13833,"æ£ĴçĲĥ":13834,"ç¤¾äº¤åªĴä½ĵ":13835,"RA":13836,"åĲ¦è®¤":13837,"ver":13838,"å¤įæ´»":13839,"è¯įåħ¸":13840,"è¿Ļæĺ¯åĽłä¸º":13841,"ade":13842,"ç¾İäºº":13843,"éĿĵ":13844,"æŁļ":13845,"è¿ĲéĢģ":13846,"åĭº":13847,"è®¯æģ¯":13848,"æĿĸ":13849,"æľ¬ä½ľ":13850,"Ġå¤©":13851,"æĪĳå¾Ī":13852,"ä¸ŃæĸĩçīĪ":13853,"å¹´èĩ³ä»Ĭ":13854,"å®¢å®¶":13855,"çī¹åĮº":13856,"å·´å¡ŀ":13857,"æĿĳéķĩ":13858,"ä¸ĢèĪ¬ä¸º":13859,"CF":13860,"ç§ĳå¤«":13861,"æ²Ļçī¹":13862,"èĺĳ":13863,"å®ļæĹ¶":13864,"æĬ¤èĤ¤":13865,"åĲįåĮ»":13866,"æĻ¯è±¡":13867,"èĭıç»´åŁĥ":13868,"çĶµéķĢ":13869,"çļĦåİĭåĬĽ":13870,"åľ¨è¿Ľè¡Į":13871,"ãģ¯":13872,"åºķèķ´":13873,"èģĮåĳĺ":13874,"èİĨ":13875,"è¯ĬæīĢ":13876,"å¤Ħå¤Ħ":13877,"æĹħæ¸¸ä¸ļ":13878,"æĪĳä»¬å¯¹":13879,"å£ģçĶ»":13880,"èµ·æºĲäºİ":13881,"å¤§åĬĽåıĳå±ķ":13882,"çļĦè´£ä»»":13883,"åħħå®ŀ":13884,"æĽ¹æĵį":13885,"å°¼äºļå·ŀ":13886,"ä»£çĲĨåķĨ":13887,"æ»¡æĦıåº¦":13888,"æĹ§åĿĢ":13889,"ä¿Ŀç®¡":13890,"pen":13891,"åĬŀåħ¬æ¥¼":13892,"åľºéĿ¢":13893,"è¯¥äº§åĵģ":13894,"å¹´ä¸º":13895,"çĥĽ":13896,"ä¸ŃèĢĥ":13897,"éŁŃ":13898,"åķĨæłĩæ³¨åĨĮ":13899,"æĪªèĩ³çĽ®åīį":13900,"å·¥ä¸ļåĴĮä¿¡æģ¯åĮĸ":13901,"ä¸ĩå®¶":13902,"èĥ¡åĲĮ":13903,"è®¤å®ļä¸º":13904,"ä¸įæĹ¶":13905,"éħĭ":13906,"é¦ĸæĴŃ":13907,"èŀºæłĵ":13908,"ä¸Ńä¿¡":13909,"çĲĥåŃ£":13910,"ä½ĵåŀĭ":13911,"åĲĮä»ģ":13912,"éĥ¨å°ļä¹¦":13913,"å¤ªéĥİ":13914,"èĩ´è¾ŀ":13915,"åĩĨç¡®çļĦ":13916,"æ°´å¹³åĴĮ":13917,"æ´ĹåĩĢ":13918,"çĲĨå·¥åŃ¦éĻ¢":13919,"æľīå¿ħè¦ģ":13920,"ä¸įå¯¹":13921,"æİ¥ä¸ĭæĿ¥çļĦ":13922,"ä¸»æĿ¿":13923,"æıĲæ¡Ī":13924,"åĩ¸æĺ¾":13925,"è¿Ĳç»´":13926,"ç²¾å½©çļĦ":13927,"æł¼éĽ·":13928,"åŃ¦çĶŁåľ¨":13929,"æħķå°¼":13930,"åħ¬åı¸ä»¥":13931,"ç¥Ĳ":13932,"åĲĳç¤¾ä¼ļ":13933,"è¾ŀèģĮ":13934,"èĢĮä¸Ĭ":13935,"éļ¾çĤ¹":13936,"åº§ä½į":13937,"Ġå¥³":13938,"çĶ·ä¸»è§Ĵ":13939,"çŁ¥è¯ĨçļĦ":13940,"éľĦ":13941,"æĬĹéľĩ":13942,"åĸľæĤ¦":13943,"å¨ģæµ·":13944,"èĤ¥èĥĸ":13945,"æĪĸç¼º":13946,"æ°§åĮĸçī©":13947,"éĵ²":13948,"èħĮ":13949,"æĪĺçķ¥åĲĪä½ľ":13950,"æİīäºĨ":13951,"åľ¨ä»Ĭå¹´":13952,"æľºèº«":13953,"åħ°çī¹":13954,"ç¬¬åĽĽå±Ĭ":13955,"åİĨæĹ¶":13956,"ç®¡çº¿":13957,"é£İéĩĩ":13958,"æĪĳåĽ½çļĦ":13959,"land":13960,"è¡ĮæĶ¿éĥ¨éĹ¨":13961,"å¥ĭè¿Ľ":13962,"æĬ¥éĢģ":13963,"å¤įæĹ¦å¤§åŃ¦":13964,"ä½Ļé¡¹":13965,"åĮħåĲ«äºĨ":13966,"äº§åŃ¦":13967,"å°±æĺ¯è¦ģ":13968,"åĮĹåĮº":13969,"æķ´é½Ĳ":13970,"èį¯åīĤ":13971,"åį«éĺŁ":13972,"æļ®":13973,"åī©ä¸ĭ":13974,"å¤ļä¹ħ":13975,"å»īæ´ģ":13976,"åĬłå°Ķ":13977,"èĩ³æŃ¤":13978,"é¦ĸå¸Ńæī§è¡Įå®ĺ":13979,"åĲ¬åĬĽ":13980,"æĭŃ":13981,"æī¹å¤į":13982,"åĽ½çĶ»":13983,"çľŁçļĦæĺ¯":13984,"åıĬæĹ¶çļĦ":13985,"éĿŀåĩ¡":13986,"åģ¥åº·åıĳå±ķ":13987,"åĺĽ":13988,"ãĢĤï¼ī":13989,"è¡Ģæ¸ħ":13990,"èľ¥":13991,"éľĩæĴ¼":13992,"ç»Ħç»Ħéķ¿":13993,"éĹµ":13994,"çĬĢ":13995,"æģĴæ¸©":13996,"çļĦçĲĨæĥ³":13997,"ä¸ļåĨħäººå£«":13998,"æīĢä»¥è¯´":13999,"å»ºç«ĭçļĦ":14000,"å°Ĩæľī":14001,"çĽĳæĬ¤":14002,"ãģı":14003,"çļĦæĢ§èĥ½":14004,"å·´åŁºæĸ¯åĿ¦":14005,"è½¦ä¸»":14006,"åľĨæŁ±":14007,"å¤§ç±³":14008,"è¿¹è±¡":14009,"ä¸Ĭæĺ¯":14010,"èµ·èįī":14011,"ä½įäºİä¸ŃåĽ½":14012,"æłĳæŀĹ":14013,"ä¸ºç¤¾ä¼ļ":14014,"æľºçĲĨ":14015,"è´ŃæĪ¿":14016,"å§¨":14017,"çĹķè¿¹":14018,"è¶¾":14019,"éĵİ":14020,"æ²Ļæ»©":14021,"åĴ³åĹ½":14022,"èµĽåľº":14023,"èĹī":14024,"èĦ±é¢ĸ":14025,"åº§æ¤ħ":14026,"çŃīå¤ļé¡¹":14027,"æħķå°¼é»ĳ":14028,"éª¨æĬĺ":14029,"æģ¶æĦı":14030,"åĲİä»»":14031,"æķ°ä½į":14032,"ç®¡æĿĲ":14033,"ï¼ļï¼Ī":14034,"iPhone":14035,"ä½Ĩå¦Ĥæŀľ":14036,"æ¸²æŁĵ":14037,"æĸ°éĹ»ç½ĳ":14038,"è¯´äºĨ":14039,"æĿĢäºº":14040,"å¯¹äººä½ĵ":14041,"æ¬¡ä¼ļè®®":14042,"ä»»æĦıçĲĥ":14043,"ä¸ĭåįĬåľº":14044,"èµ·çĿĢ":14045,"çĴĭ":14046,"æ´¾çļĦ":14047,"LP":14048,"å¤ļä¸ĩåħĥ":14049,"åĨ·èĹı":14050,"ç»´çĶŁç´łC":14051,"çĽ¸æľĽ":14052,"çĽ®æłĩæĺ¯":14053,"çļĦç»ıéªĮ":14054,"ç§ĳå°Ķ":14055,"ç»´å¤ļ":14056,"æī§çĿĢ":14057,"èĩ³åħ³éĩįè¦ģ":14058,"æ°Ķæ³¡":14059,"åģļä¸Ģä¸ª":14060,"åıįå¼¹":14061,"è¥¿æĸ¯":14062,"åıĤè°ĭéķ¿":14063,"ç¿¡ç¿ł":14064,"éĩįåĬĽ":14065,"å¤ĩçĶ¨":14066,"æĹ©å°±":14067,"åĩ¿":14068,"ä¸ªæ¡Ī":14069,"åĽŀäºĭ":14070,"è¿ŀè½½":14071,"åľ°åĿª":14072,"èĩªè±ª":14073,"æĢ§ä¸İ":14074,"éĩıå¤§":14075,"ä¹Įæĭī":14076,"å¤§æ¹¾åĮº":14077,"æľŁä¸º":14078,"æĺŁæĺŁ":14079,"æ±ĩçİĩ":14080,"ï¼Ľï¼Ī":14081,"è§ĴèĲ½":14082,"å¥³æĢ§çļĦ":14083,"åĸ·éĽ¾":14084,"ä¸Ģç»Ħ":14085,"åģļæĪĲ":14086,"å½¤":14087,"éĺ³åı°":14088,"éĩĩæļĸ":14089,"ĠPl":14090,"ä¸ĸå®¶":14091,"ä¸Ģæĸĩ":14092,"åĽ½ä¼ģ":14093,"çľĭå®Į":14094,"ç¤¾ä¼ļç§ĳåŃ¦éĻ¢":14095,"æĹ¥èµ·æĸ½è¡Į":14096,"ä¸ĬæĿ¥":14097,"è½¦ç¨ĭ":14098,"çĽĳçĿ£æ£ĢæŁ¥":14099,"ett":14100,"çĶ¨æīĭ":14101,"æ·¹":14102,"èıľåįķ":14103,"èµĦæľ¬å¸Ĥåľº":14104,"åı¯åĨįçĶŁèĥ½æºĲ":14105,"æķ°çĽ®":14106,"å·¥ä¼¤":14107,"ä¸ľä¸´":14108,"ä¼Ĺå¤ļçļĦ":14109,"åĽ¾çº¸":14110,"æļĹç¤º":14111,"äºĨåĲĹ":14112,"åı¦è¡Į":14113,"å¤§å±ķ":14114,"å¤©èĬ±":14115,"åľ¨ä¸ĸçķĮ":14116,"åĽŀæĹı":14117,"çĶŁäº§åĬĽ":14118,"åĨħèĴĻåı¤èĩªæ²»åĮº":14119,"èĤ²ç§į":14120,"æĶ¿åħļ":14121,"ä¸°çĶ°":14122,"æĬĢå·¥":14123,"åĢŁæŃ¤":14124,"æ¬¾å¼ı":14125,"æıĲéĹ®":14126,"çļĦèĩªçĦ¶":14127,"ãĤ¿":14128,"ä»ĭç»įä¸Ģä¸ĭ":14129,"æľĽè¿ľ":14130,"æİĴéª¨":14131,"åŃ¦æľ¯äº¤æµģ":14132,"è®©å¥¹":14133,"å¸¸åĬ¡å§Ķåĳĺä¼ļ":14134,"åĮĹéŃı":14135,"ins":14136,"éĢļå¸¸æĺ¯":14137,"äººæĺ¯":14138,"æľįåĬ¡æľºæŀĦ":14139,"åī¯å¤Ħéķ¿":14140,"æ§Ĳ":14141,"çļĦæĿĥåĪ©":14142,"éĿĻæĢģ":14143,"çļĦçº¢":14144,"åĴĮæĸĩåĮĸ":14145,"éĻ¢æīĢ":14146,"ä¸»è®²":14147,"æĹłåĬĽ":14148,"ä¾ĭå¤ĸ":14149,"é«ĺåľ°":14150,"æĵįçºµ":14151,"é¦ĸåºľ":14152,"çĽ¸è¿ĳ":14153,"åĴĮåºĶçĶ¨":14154,"çĤ¹è¯Ħ":14155,"å¤§æ£ļ":14156,"åĨľä¸ļéĥ¨":14157,"éŁ³ç®±":14158,"å¯¹åĨ³":14159,"çĶŁæ´»ä¸ŃçļĦ":14160,"ä¸ĢèĪ¬æĺ¯":14161,"åĪĨç»Ħ":14162,"åĩºéĹ¨":14163,"æĶ¹è£ħ":14164,"äººçĶŁçļĦ":14165,"éĿŀå¸¸éĩįè¦ģçļĦ":14166,"è¯ķéªĮæľº":14167,"åįģäºĮæľĪ":14168,"ä¸ĢæĹł":14169,"ä¸įåĥı":14170,"èº«å½±":14171,"æī³å¹³":14172,"æĪĲç«ĭåĲİ":14173,"åĲĦè¡Į":14174,"äººæīįçļĦ":14175,"åĹľ":14176,"èĩªçĦ¶çļĦ":14177,"çłĤæµĨ":14178,"çŁ¿çī©è´¨":14179,"æĸĩæĺİå»ºè®¾":14180,"åĲĮæµİ":14181,"æīįèĥ½å¤Ł":14182,"ç¼ĸç»ĩ":14183,"ä¸įä¾¿":14184,"çŃīä¿¡æģ¯":14185,"çĲĥæĺŁ":14186,"ä½Ļå®¶":14187,"ji":14188,"çī©ä»·":14189,"åİŁåĳĬ":14190,"ãģ¦":14191,"æ°´åŁŁ":14192,"ä»£è¨Ģ":14193,"ww":14194,"ç»½":14195,"çĻ¾å®¶":14196,"åľ¨æķ´ä¸ª":14197,"è¯ļå®ŀ":14198,"çīĽçļ®çĻ£æĤ£èĢħ":14199,"ç¯ĩç«ł":14200,"æ¦ľé¦ĸ":14201,"æ¯Ķæķ°":14202,"èģĶéĢļ":14203,"çļĦå®¶":14204,"å®īåħ¨éļĲæĤ£":14205,"ç»Īæŀģ":14206,"æľ¨è´¨":14207,"éĵģè·¯å±Ģ":14208,"LG":14209,"ä¸ºä¹ĭ":14210,"åĽŃèīº":14211,"å¼ķèµĦ":14212,"ç¤¾ä¼ļä¿ĿéĻ©":14213,"å°±æĺ¯ä¸Ģä¸ª":14214,"çļĦå¹³åı°":14215,"æ¶īåıĬåĪ°":14216,"ild":14217,"æĸ°ä¸ĸçºª":14218,"æ¼Ķç»ĥ":14219,"ç»Ħç»ĩå¼Ģå±ķ":14220,"çļĦçŁ¥è¯Ĩ":14221,"ä»£è¡¨æĢ§":14222,"æĪĸåľ¨":14223,"çļĦèº«ä»½":14224,"å±±åºĦ":14225,"ä»ĸè¡¨ç¤º":14226,"æĬĹåİŁ":14227,"è¯¸èĳĽ":14228,"çļĦå¿ĥæĢģ":14229,"æĭ¥æĬ±":14230,"ãĥ¬":14231,"ç»Īç»ĵ":14232,"åĨ²åİĭ":14233,"åĴĮåįİ":14234,"ç¾Ł":14235,"åįĹä¾§":14236,"çļĦä¸Ģå¤§":14237,"åħ¥äºĨ":14238,"çĥŃæ³µ":14239,"èģĶè°Ĭ":14240,"æĬķåħ¥ä½¿çĶ¨":14241,"æľĢå°ĳ":14242,"åħ¸éĽħ":14243,"ä¼ļç¤¾":14244,"æķĽ":14245,"èµ°å»Ĭ":14246,"çī¹åĪ«çļĦ":14247,"ç§ĳåįı":14248,"åĬ¿å¤´":14249,"è¯ºè´Ŀå°Ķ":14250,"ä¸ĬæĬ¥":14251,"åĬ©æīĭ":14252,"æĪĸä¸į":14253,"æºĥçĸ¡":14254,"èµĽåĮº":14255,"ä»ħä¾ĽåıĤèĢĥ":14256,"åīĤéĩı":14257,"è½¯ä»¶å¼Ģåıĳ":14258,"å¥½è½¬":14259,"ç£º":14260,"å¥¢ä¾Ī":14261,"åĩºä¼Ĺ":14262,"ç±»ä¸ĵä¸ļ":14263,"éĵºè®¾":14264,"çŃīä¸ĵä¸ļ":14265,"ç«Ńè¯ļ":14266,"æĸĩçļĦ":14267,"æ¾İ":14268,"å¼ĹæľĹ":14269,"åĪĿçº§ä¸ŃåŃ¦":14270,"é«ĺæ½®":14271,"èī²è°ĥ":14272,"èĩªçĦ¶ä¿ĿæĬ¤åĮº":14273,"æµ©çī¹":14274,"é¥®çĶ¨æ°´":14275,"ç¼ºå¤±":14276,"æĸ°åįİç¤¾":14277,"ç»ıæµİæĬĢæľ¯å¼ĢåıĳåĮº":14278,"èĵĿå¤©":14279,"æŃ¤å¤Ħ":14280,"YO":14281,"æ³ķæ¡Ī":14282,"èįīæ¡Ī":14283,"çļĵ":14284,"éĶĢåĶ®æĶ¶åħ¥":14285,"æ³Ĺ":14286,"é¢ĨåľŁ":14287,"èµ·åĪ°äºĨ":14288,"èĦĨå¼±":14289,"ä¸Ńå°Ĩ":14290,"å¸Ĥåľºä»½é¢Ŀ":14291,"èĤ¡ä»½åĪ¶":14292,"ç¥ĸåħĪ":14293,"åĮĹçº¬":14294,"ä¹Įé²ģ":14295,"cl":14296,"è¿Ľåĩº":14297,"æ°ĳä¸»åħļ":14298,"åªļ":14299,"éħ¿éĢł":14300,"åħ¨éĽĨ":14301,"ç¨ĢéĩĬ":14302,"é¦ĸè½®":14303,"åĲįçīĩ":14304,"ç¿ĺ":14305,"ä¸įä¼ļæľī":14306,"çļĦçĻ½":14307,"å®ľæĺĮ":14308,"éĹ®çŃĶ":14309,"æ¸ħçľŁ":14310,"è¯¥åĽ½":14311,"æİ¥åıĹäºĨ":14312,"å¿ĥçĲĨåĴ¨è¯¢":14313,"ç®¡çĲĨæľīéĻĲåħ¬åı¸":14314,"åĺİ":14315,"ç²¤è¯Ń":14316,"åĮ»çĸĹä¿ĿéĻ©":14317,"åĮĹæŀģ":14318,"åķ¸":14319,"ä¸įå·²":14320,"ä½ĵç³»å»ºè®¾":14321,"å¼Ģè½¦":14322,"çĤ¬":14323,"åħ¬åı¸åĴĮ":14324,"ç½Ĺå¾·":14325,"å¤ļå±Ĥ":14326,"åīĶ":14327,"ä¸İåĽ½éĻħ":14328,"æ¥ŀ":14329,"æ³¢å£«é¡¿":14330,"åĵĪåĵĪ":14331,"Le":14332,"åıªå¥½":14333,"åħ¸èĮĥ":14334,"çŃ¾ä¸ĭ":14335,"åįıå®ļ":14336,"æ¸©å·ŀå¸Ĥ":14337,"æ¨±èĬ±":14338,"ä½¿çĶ¨æĹ¶":14339,"ç§īæĮģ":14340,"åıĳè¡¨åľ¨":14341,"ä¼ºæľį":14342,"ä¸Ģå¹´çļĦ":14343,"åĿ¯":14344,"æĺŁçĲĥ":14345,"éĺµåľ°":14346,"æľĪä¸ŃæĹ¬":14347,"æľºæĪ¿":14348,"å½ĵåľ°æĹ¶éĹ´":14349,"å¯ĦçĶŁ":14350,"ç®¡çĲĨåŃ¦":14351,"å¤´çĲĥ":14352,"åĨħéĺģ":14353,"åºĦåĽŃ":14354,"åĮºåŁŁçļĦ":14355,"å¤§åħ´":14356,"å¾Īä¹ħ":14357,"ç¿Į":14358,"çī¹åħ°":14359,"è¾©è®º":14360,"é¹ĥ":14361,"åĳ¼åĲ¸éģĵ":14362,"åıĺå¼Ĥ":14363,"æ·±èĢķ":14364,"çģĮè£ħ":14365,"æµĭè¯Ħ":14366,"åĬłåĽº":14367,"çºłæŃ£":14368,"å¥½çľĭ":14369,"æ´Ľå¤«":14370,"æĬĺåıł":14371,"æĢ»åħ±":14372,"æĶ¶åĽŀ":14373,"çī¹éĩĮ":14374,"å¤ªå®Ī":14375,"çĽĳè§Ĩ":14376,"å¹´ä¸İ":14377,"çķĻä¸ĭäºĨ":14378,"æīĵç£¨":14379,"åįĹéĺ³":14380,"éĢĲå¹´":14381,"è§Ħæ¨¡åĮĸ":14382,"éĹ½ä¸ľ":14383,"ç¬¬äºĶå±Ĭ":14384,"éķ¿ä¸īè§Ĵ":14385,
[...]
